
#ifndef MODEL_H
#define MODEL_H

// MSE(Pos, Temp): [0.01111117 0.04559739]


const unsigned char g_model[] = {0x1c,0x00,0x00,0x00,0x54,0x46,0x4c,0x33,0x14,0x00,0x20,0x00,0x1c,0x00,0x18,0x00,0x14,0x00,0x10,0x00,0x0c,0x00,0x00,0x00,0x08,0x00,0x04,0x00,0x14,0x00,0x00,0x00,0x1c,0x00,0x00,0x00,0x8c,0x00,0x00,0x00,0xe4,0x00,0x00,0x00,0x04,0x26,0x00,0x00,0x14,0x26,0x00,0x00,0x98,0x2e,0x00,0x00,0x03,0x00,0x00,0x00,0x01,0x00,0x00,0x00,0x04,0x00,0x00,0x00,0xd6,0xd8,0xff,0xff,0x0c,0x00,0x00,0x00,0x1c,0x00,0x00,0x00,0x3c,0x00,0x00,0x00,0x0f,0x00,0x00,0x00,0x73,0x65,0x72,0x76,0x69,0x6e,0x67,0x5f,0x64,0x65,0x66,0x61,0x75,0x6c,0x74,0x00,0x01,0x00,0x00,0x00,0x04,0x00,0x00,0x00,0x90,0xff,0xff,0xff,0x11,0x00,0x00,0x00,0x04,0x00,0x00,0x00,0x08,0x00,0x00,0x00,0x6f,0x75,0x74,0x70,0x75,0x74,0x5f,0x30,0x00,0x00,0x00,0x00,0x01,0x00,0x00,0x00,0x04,0x00,0x00,0x00,0x8a,0xda,0xff,0xff,0x04,0x00,0x00,0x00,0x0c,0x00,0x00,0x00,0x6b,0x65,0x72,0x61,0x73,0x5f,0x74,0x65,0x6e,0x73,0x6f,0x72,0x00,0x00,0x00,0x00,0x02,0x00,0x00,0x00,0x34,0x00,0x00,0x00,0x04,0x00,0x00,0x00,0xdc,0xff,0xff,0xff,0x14,0x00,0x00,0x00,0x04,0x00,0x00,0x00,0x13,0x00,0x00,0x00,0x43,0x4f,0x4e,0x56,0x45,0x52,0x53,0x49,0x4f,0x4e,0x5f,0x4d,0x45,0x54,0x41,0x44,0x41,0x54,0x41,0x00,0x08,0x00,0x0c,0x00,0x08,0x00,0x04,0x00,0x08,0x00,0x00,0x00,0x13,0x00,0x00,0x00,0x04,0x00,0x00,0x00,0x13,0x00,0x00,0x00,0x6d,0x69,0x6e,0x5f,0x72,0x75,0x6e,0x74,0x69,0x6d,0x65,0x5f,0x76,0x65,0x72,0x73,0x69,0x6f,0x6e,0x00,0x15,0x00,0x00,0x00,0x1c,0x25,0x00,0x00,0x14,0x25,0x00,0x00,0xf8,0x24,0x00,0x00,0xe0,0x23,0x00,0x00,0x50,0x23,0x00,0x00,0x40,0x22,0x00,0x00,0x30,0x02,0x00,0x00,0xa0,0x01,0x00,0x00,0x10,0x01,0x00,0x00,0xf8,0x00,0x00,0x00,0xe0,0x00,0x00,0x00,0xcc,0x00,0x00,0x00,0xc4,0x00,0x00,0x00,0xbc,0x00,0x00,0x00,0xb4,0x00,0x00,0x00,0xac,0x00,0x00,0x00,0xa4,0x00,0x00,0x00,0x9c,0x00,0x00,0x00,0x94,0x00,0x00,0x00,0x74,0x00,0x00,0x00,0x04,0x00,0x00,0x00,0x5a,0xdb,0xff,0xff,0x04,0x00,0x00,0x00,0x60,0x00,0x00,0x00,0x10,0x00,0x00,0x00,0x00,0x00,0x00,0x00,0x08,0x00,0x0e,0x00,0x08,0x00,0x04,0x00,0x08,0x00,0x00,0x00,0x10,0x00,0x00,0x00,0x24,0x00,0x00,0x00,0x00,0x00,0x06,0x00,0x08,0x00,0x04,0x00,0x06,0x00,0x00,0x00,0x04,0x00,0x00,0x00,0x00,0x00,0x00,0x00,0x0c,0x00,0x18,0x00,0x14,0x00,0x10,0x00,0x0c,0x00,0x04,0x00,0x0c,0x00,0x00,0x00,0x81,0xdb,0xf2,0xa3,0xbb,0xed,0x47,0x42,0x02,0x00,0x00,0x00,0x02,0x00,0x00,0x00,0x04,0x00,0x00,0x00,0x06,0x00,0x00,0x00,0x32,0x2e,0x31,0x37,0x2e,0x30,0x00,0x00,0xc6,0xdb,0xff,0xff,0x04,0x00,0x00,0x00,0x10,0x00,0x00,0x00,0x31,0x2e,0x31,0x30,0x2e,0x30,0x00,0x00,0x00,0x00,0x00,0x00,0x00,0x00,0x00,0x00,0xfc,0xd2,0xff,0xff,0x00,0xd3,0xff,0xff,0x04,0xd3,0xff,0xff,0x08,0xd3,0xff,0xff,0x0c,0xd3,0xff,0xff,0x10,0xd3,0xff,0xff,0x14,0xd3,0xff,0xff,0xfe,0xdb,0xff,0xff,0x04,0x00,0x00,0x00,0x04,0x00,0x00,0x00,0xfd,0xff,0xff,0xff,0x0e,0xdc,0xff,0xff,0x04,0x00,0x00,0x00,0x08,0x00,0x00,0x00,0xff,0xff,0xff,0xff,0x40,0x00,0x00,0x00,0x22,0xdc,0xff,0xff,0x04,0x00,0x00,0x00,0x08,0x00,0x00,0x00,0x1e,0x6a,0xc8,0x3d,0xe6,0x74,0x90,0xbe,0x36,0xdc,0xff,0xff,0x04,0x00,0x00,0x00,0x80,0x00,0x00,0x00,0xb0,0x4e,0xd7,0xbe,0x65,0x24,0x85,0xbe,0x18,0x44,0xb7,0x3e,0xbe,0x52,0x57,0xbe,0xd3,0x57,0xc1,0x3e,0xdf,0x7b,0xc3,0xbc,0x44,0x87,0xcb,0x3e,0x2f,0x83,0x2c,0xbe,0x02,0xb4,0x29,0xbd,0x1d,0x73,0x7f,0xbe,0x9c,0x7f,0x53,0x3e,0x7c,0x5a,0x4c,0xbe,0xb2,0x9c,0x97,0x3e,0x27,0x20,0x5d,0xbd,0x00,0x00,0x00,0x00,0x26,0xaa,0x63,0xbe,0xe5,0x9d,0xa3,0x3e,0x20,0xd5,0xc4,0x3e,0xd6,0xd5,0xa1,0x3e,0x2a,0x6e,0xde,0xbb,0xdb,0xbd,0x02,0x3e,0x2c,0x66,0x8c,0xbe,0x1a,0x46,0xda,0xbe,0x40,0x3d,0xa7,0x3e,0x2f,0x3c,0xaa,0xbe,0x3e,0xd2,0xb9,0x3e,0x83,0x9e,0xcc,0xbe,0x88,0x7f,0x6c,0xbd,0x00,0x9a,0xd4,0x3e,0x04,0x50,0x0e,0xbd,0xc2,0xab,0x15,0xbc,0x9d,0x3d,0xd6,0x3e,0xc2,0xdc,0xff,0xff,0x04,0x00,0x00,0x00,0x80,0x00,0x00,0x00,0x6d,0x95,0x81,0xbe,0xe4,0x45,0xa8,0xbe,0xc0,0x85,0x81,0x3d,0x7b,0x11,0x69,0x3c,0x86,0x0b,0xbd,0x3e,0x6e,0xf4,0x8d,0xbe,0xe8,0xbd,0xb3,0x3e,0x27,0x0b,0x78,0xbe,0x52,0x9e,0xcd,0x3e,0xe6,0xf7,0x7a,0x3e,0x00,0xd8,0xc9,0x3e,0xfc,0xf2,0xdf,0xbc,0xe4,0x62,0xeb,0x3d,0x33,0xdf,0xbd,0x3d,0x05,0xd2,0xd7,0x3c,0x41,0x67,0x93,0xbd,0x61,0x8e,0xd7,0xbe,0xea,0x60,0xee,0xbb,0xc7,0x75,0x3c,0xbe,0xd7,0x25,0x56,0xbe,0x2e,0xf9,0x1d,0x3e,0xa6,0x7e,0xb9,0x3e,0xe5,0xa5,0xb5,0x3e,0xef,0x93,0x23,0xbe,0xf6,0x0d,0xd4,0xbd,0x69,0x2e,0x9f,0xbb,0xb8,0x0a,0x48,0xbb,0x27,0x23,0xab,0x3e,0xe7,0x86,0xc3,0x3d,0xe3,0xa5,0x49,0x3e,0xe5,0x9f,0xb1,0x3d,0x3e,0x43,0xa6,0x3e,0x4e,0xdd,0xff,0xff,0x04,0x00,0x00,0x00,0x00,0x20,0x00,0x00,0x98,0x62,0x99,0x3e,0xf8,0x8a,0x38,0x3f,0xac,0xfb,0x8c,0x3e,0x74,0x91,0x9a,0x3c,0x9e,0xf6,0x2a,0xbf,0x32,0x54,0x60,0x3d,0x02,0x82,0xaa,0xbe,0xc8,0xc8,0xbb,0x3e,0x97,0xf6,0xab,0xbe,0xb5,0x2d,0xba,0xbe,0x5b,0x13,0x04,0xbd,0xec,0xe1,0x37,0x3d,0xa4,0xec,0xa5,0xbe,0x04,0x63,0x8d,0x3e,0x3b,0x24,0x17,0xbe,0x1b,0xd0,0x97,0x3e,0x34,0x9f,0x42,0x3e,0xc9,0x44,0xac,0xbf,0x03,0xf7,0x13,0x3e,0x4b,0xe8,0x10,0x3f,0x8d,0x54,0x00,0x3f,0xc7,0x5d,0x26,0xbe,0x04,0xbd,0x28,0xbf,0x6a,0x57,0x10,0x3e,0x98,0x4c,0xbf,0x3e,0x9e,0x96,0xa1,0x3e,0x4e,0x4f,0xa8,0x3e,0x1c,0x60,0x16,0xbe,0xc0,0x9d,0x24,0x3e,0x8b,0xea,0xc1,0x3e,0x1a,0x28,0xde,0xbd,0xdb,0x12,0x0c,0xc0,0xad,0xe0,0x36,0x3e,0x86,0x42,0x54,0x3f,0x2d,0xd5,0x1c,0xc0,0x63,0xd4,0x44,0x3c,0xbf,0xf5,0xba,0x3e,0x3d,0x76,0x8f,0xbc,0xb3,0xd6,0x16,0x3c,0x01,0xea,0xe7,0x3e,0xca,0xa2,0x07,0xbd,0x9b,0x40,0x1d,0xbe,0xf3,0xf8,0x97,0xbf,0xb1,0xe6,0x35,0xc0,0x03,0xdf,0x83,0x3d,0x24,0xa7,0x60,0xbe,0xed,0xdf,0x0c,0x40,0x14,0xe7,0x55,0x3e,0x21,0x4b,0xb8,0x3f,0xf1,0xf7,0xb0,0x3d,0x6f,0x47,0x7a,0x3e,0xdc,0xcd,0x9f,0x3e,0xe6,0x1d,0xa1,0xbe,0xd0,0x13,0xfa,0xbe,0xeb,0x90,0x44,0x3e,0xdd,0xcd,0xbf,0x3e,0x21,0x63,0x29,0x3e,0x1a,0xef,0x2a,0xbe,0x4e,0x3c,0xde,0xbe,0xf9,0x27,0x86,0xbf,0x45,0x0b,0xab,0xbc,0x40,0xff,0x3b,0xbe,0x7f,0x3e,0x74,0x40,0x11,0x69,0x0a,0xbf,0x1a,0xb7,0xfc,0x3c,0xca,0x53,0x0c,0x3e,0x11,0x80,0x61,0x3c,0xda,0xb9,0x92,0xbd,0x25,0x0a,0x8e,0xbe,0x09,0xcd,0x3d,0x3d,0x1b,0x37,0x0b,0xbf,0xf5,0xc1,0x99,0x3c,0x73,0x86,0x8d,0xbe,0x68,0x82,0x21,0x3f,0x80,0x9f,0x26,0x3e,0x23,0xba,0x94,0x3e,0x37,0x1c,0x0d,0x3f,0x4f,0x70,0xb2,0x3e,0xf8,0x29,0xb2,0x3d,0x94,0x28,0xf7,0x3e,0x56,0x43,0x07,0x3f,0xbf,0xb2,0xeb,0x3e,0x3a,0x9c,0xe5,0x3e,0xc1,0x33,0x92,0x3e,0x27,0x3e,0x0d,0x3e,0x7b,0x0e,0x42,0x3e,0x90,0x58,0xe6,0xbe,0xaf,0x68,0x40,0x3e,0x2a,0xdf,0xce,0x3d,0x5a,0xe5,0xb2,0x3d,0x31,0x62,0x98,0x3e,0x6d,0x20,0x88,0x3e,0x88,0xc5,0x13,0x3e,0x96,0x78,0x92,0x3e,0xde,0x65,0x52,0x3d,0x49,0x2f,0x96,0x3e,0xf7,0xdc,0x38,0x3d,0x8a,0x70,0x87,0x3e,0x0e,0xfa,0x30,0x3e,0x77,0xa7,0x2f,0xbe,0xac,0x55,0x32,0x3e,0xe0,0xe8,0x52,0x3e,0x46,0xc6,0x47,0xbb,0x96,0x28,0x64,0xbd,0x34,0x5b,0x00,0x3e,0x14,0x54,0xb4,0x3e,0x7e,0x2e,0x04,0xbf,0x76,0x29,0x26,0x3c,0x5b,0xe4,0x07,0x3f,0x31,0x66,0x9f,0x3e,0x34,0x99,0xfc,0xbd,0x1c,0xba,0x5c,0x3e,0xf1,0xe4,0xbc,0x3f,0x1e,0x54,0xfa,0x3d,0x82,0x15,0x71,0xbd,0xe8,0xa8,0xbd,0x3e,0xc4,0xaa,0x74,0x3b,0x29,0x96,0x02,0xbe,0x76,0x75,0xb1,0xbd,0x4d,0x9c,0xc2,0x3e,0xfa,0xfb,0xa9,0x3e,0x8b,0xbe,0x74,0xbe,0x4a,0x1e,0xf1,0xbd,0xe8,0x97,0xb8,0xbe,0x0c,0x31,0x2d,0xbe,0x04,0x73,0xb7,0xbb,0x95,0xca,0x52,0x3f,0xde,0xb6,0x09,0xbe,0x1f,0xf5,0xb8,0x3d,0xa0,0x3c,0x1e,0xbe,0x6b,0xfc,0xc2,0x3e,0xc0,0x20,0x95,0xbd,0x57,0x83,0x12,0x3f,0xb8,0xbe,0xeb,0xbc,0xd2,0xad,0x6c,0x3e,0x0e,0xa0,0x7b,0x3d,0x85,0x37,0x08,0x3d,0xa7,0x80,0x0f,0xbf,0x7c,0x55,0x00,0x3e,0x70,0x3d,0x20,0xbe,0xb9,0xb6,0x31,0x3e,0xda,0x41,0x0e,0x3e,0x2a,0x84,0xbc,0xbc,0xf1,0x46,0x57,0x3e,0x79,0xd0,0xac,0xbe,0x47,0xac,0x81,0xbb,0xa3,0xe2,0x20,0x3e,0x8e,0xb8,0x35,0xbe,0x13,0x6b,0xfd,0x3d,0x92,0x0c,0x57,0xbe,0xd3,0x9a,0xa8,0x3e,0x66,0x70,0x0d,0xbe,0x3c,0x1d,0x88,0x3c,0x3a,0x25,0x54,0xbd,0x4b,0xf5,0x04,0x3d,0x91,0x07,0xdc,0x3d,0x10,0x2d,0xe7,0x3d,0xdd,0x22,0xc3,0x3c,0x35,0xe5,0xa0,0xbd,0xfa,0x1e,0x28,0xbd,0xe3,0x99,0x1b,0x3e,0xb9,0xae,0xec,0xbe,0x0b,0xbd,0xd1,0xbe,0x7f,0x0d,0xb3,0x3e,0xa2,0x46,0x95,0xbe,0xe9,0x54,0x21,0xbe,0x31,0x9b,0x1d,0xbd,0xc2,0x7d,0x15,0x3e,0xce,0x82,0x7d,0xbe,0x19,0xa7,0xc8,0x3d,0xfe,0x31,0x0f,0x3f,0x90,0x88,0x26,0xbd,0xe0,0x90,0x16,0x3e,0x51,0xd0,0xb4,0xbc,0x4c,0xb1,0x0e,0xbf,0xb7,0x68,0xff,0xbe,0x3e,0x1f,0xab,0xbf,0xfa,0x84,0x56,0x3e,0x92,0x1f,0x40,0x3e,0xa7,0xda,0x9d,0xbc,0x6c,0x60,0x1c,0x3e,0x65,0x37,0x02,0x3f,0xe2,0x29,0xc0,0xbe,0xee,0x2e,0xb0,0xbb,0xc0,0x74,0x16,0x3e,0x7d,0x95,0x89,0xbb,0xb5,0x7c,0x6f,0x3e,0x7b,0x03,0x02,0x3f,0x93,0x53,0x7f,0x3e,0xa0,0x69,0x43,0x3e,0xa3,0x40,0x2d,0x3e,0x8e,0xcd,0xdb,0xbe,0x8b,0x5a,0xee,0x3e,0x92,0x49,0x1d,0x3f,0xdc,0xda,0x0f,0x3e,0x5a,0xb0,0x39,0x3e,0x49,0x37,0x1d,0xbe,0xdb,0x97,0xb0,0x3e,0xa8,0x19,0xda,0xbb,0x42,0xcf,0xea,0x3e,0xf3,0x27,0x32,0xbe,0x0f,0xeb,0x11,0x3e,0xe2,0xfa,0xa9,0x3e,0xe7,0x10,0x87,0x3e,0x9a,0x9e,0x8b,0x3c,0xa7,0xb9,0xc5,0x3d,0x96,0x8a,0x6b,0x3b,0x57,0x80,0x8a,0x3e,0xb5,0xbe,0x65,0x3e,0x98,0xa5,0x81,0xbd,0x24,0x3d,0xcf,0x3d,0xb1,0x72,0x4d,0x3e,0xd2,0x42,0x0d,0xbd,0x69,0xd9,0xfa,0x3e,0x34,0xb1,0xc1,0xbd,0x16,0xf3,0xc3,0xbb,0x8b,0x09,0xe7,0x3d,0x2d,0x4e,0xc8,0x3e,0x86,0xed,0xd3,0xbc,0x70,0x90,0x69,0x3e,0xfd,0x5c,0x87,0x3e,0x2c,0x14,0x8a,0x3e,0x9b,0x97,0x3f,0x3e,0x2b,0xa1,0x91,0x3e,0x83,0x2c,0x69,0x3e,0x1a,0x51,0x85,0x3f,0xef,0x34,0x07,0xbe,0x89,0x59,0x4e,0xbc,0x8f,0x63,0x97,0xbe,0x1f,0x0c,0x31,0xbc,0xf1,0x76,0xb0,0xbe,0xc8,0x55,0xa3,0x3e,0xfd,0xf0,0x6c,0xbe,0x90,0x69,0x12,0x3f,0xdc,0xcb,0xf8,0x3c,0xed,0xc2,0x20,0xbe,0x64,0xa8,0xcf,0x3e,0x3c,0xcf,0x10,0xbe,0x1b,0x43,0xa1,0xbe,0x58,0x7d,0x5c,0x3e,0x14,0x8e,0x65,0x3f,0x1e,0xd1,0x86,0xbe,0x3f,0xec,0x18,0xbe,0x35,0x15,0xd7,0x3c,0x3a,0x6b,0x1b,0x3e,0x27,0xef,0x0e,0x3f,0xb4,0xab,0xc8,0xbe,0x05,0x8d,0x87,0x3e,0x1f,0x29,0x13,0xbe,0xec,0x6d,0x95,0xbe,0xa3,0xf2,0x32,0x3e,0x2f,0x38,0x15,0x3d,0x27,0xb0,0x99,0x3e,0xe7,0xf8,0x31,0x3e,0x69,0xb7,0x33,0x3f,0x8c,0xe4,0x1d,0xbe,0xef,0x1d,0x3e,0xbe,0x32,0x0c,0x80,0xbe,0xf5,0x37,0x9d,0x3d,0x5c,0xc7,0xc6,0xbc,0x51,0x64,0x4d,0x3e,0x6d,0x5b,0xb9,0xbe,0xf4,0xda,0x02,0x3f,0xbc,0x42,0x30,0x3e,0x8b,0x3a,0xa6,0x3e,0x66,0xed,0x0f,0x3e,0xdd,0x15,0xe8,0xbe,0x58,0x7f,0x08,0xbe,0xd5,0xba,0x9d,0x3d,0xed,0xea,0x10,0xbe,0x0f,0xd2,0xf3,0x3d,0xbd,0xea,0x0c,0xbf,0x94,0x0e,0xf8,0x3d,0xd5,0x25,0xfb,0xbd,0x7d,0xbf,0x7f,0xbe,0xb9,0x7d,0x37,0x3e,0x54,0xbd,0x33,0xbe,0xc3,0x61,0xd3,0xbd,0x7e,0xa3,0x03,0x3f,0x31,0xac,0x7d,0x3e,0x0c,0xb1,0xc8,0x3e,0x09,0xdb,0x27,0xbe,0xa9,0x52,0x52,0xbe,0x72,0x67,0xeb,0x3d,0xc5,0x55,0x2f,0x3e,0xfc,0x4b,0xc0,0xbe,0xb1,0x4d,0x30,0xbe,0x7e,0xea,0x4c,0xbe,0x7c,0x5f,0x50,0xbe,0x17,0x0f,0x44,0xbf,0xfc,0x4c,0x4d,0x3e,0xff,0x52,0x2b,0x3e,0x8a,0xd2,0xb3,0x3e,0x8e,0xbc,0xa8,0xbd,0xc6,0x11,0x18,0x3f,0xd5,0x9b,0xa2,0xbe,0xde,0xfc,0x0c,0x3f,0xd1,0xda,0x04,0xbf,0x6d,0x27,0x8a,0xbd,0xa3,0x33,0x46,0xbb,0xb0,0x98,0xf9,0xbe,0x6e,0xa7,0xd9,0xbd,0x30,0x74,0x2c,0x3e,0x0c,0x73,0xb8,0xbe,0x2e,0x12,0x90,0xbf,0x58,0x07,0x50,0xbd,0x24,0x68,0x78,0x3b,0x9e,0xed,0x3b,0x3d,0x01,0x3a,0x07,0x3e,0xab,0xed,0xd6,0xbe,0xdb,0x57,0xd7,0x3e,0x30,0x93,0x46,0xbe,0x64,0xcc,0x80,0x3e,0xd1,0xa2,0x5c,0x3e,0x0b,0xcf,0xae,0x3d,0x01,0x70,0x7b,0xbd,0x41,0x8d,0x62,0x3e,0x6e,0x8e,0xb7,0x3e,0x0c,0x2f,0x57,0xbf,0x12,0xc0,0xef,0xbc,0x0a,0x2c,0x56,0xbe,0xaf,0x4c,0x1d,0xbd,0x32,0x51,0x05,0xbe,0xdd,0x4f,0x37,0xbd,0x32,0xb0,0x39,0xbd,0x84,0x29,0x47,0xbe,0x11,0xbc,0x18,0x3e,0x8a,0x78,0x50,0xbe,0x99,0xc5,0x81,0xbd,0xac,0xae,0x58,0x3d,0xc5,0x62,0x6b,0xbe,0x48,0x93,0x6b,0xbe,0x70,0x4f,0x37,0xbe,0xb7,0xf2,0xa2,0x3c,0xd8,0xb1,0x2f,0xbe,0xd5,0x69,0x0e,0xbd,0x76,0x84,0xf2,0x3d,0xb8,0xbd,0x52,0xbe,0x01,0xfa,0x02,0xbe,0xd1,0x14,0x62,0x3e,0x3f,0x60,0x4f,0x3e,0x68,0x31,0x1a,0xbe,0x48,0x65,0x83,0xbe,0x33,0xf5,0x5d,0xbe,0x72,0x54,0x4f,0xbd,0xb5,0x49,0x64,0x3e,0xb4,0x56,0x0e,0xbe,0x27,0xf9,0x77,0x3d,0x37,0x01,0x0d,0x3e,0x83,0x3a,0x08,0x3e,0x69,0xa3,0x74,0xbe,0x38,0x87,0x63,0x3d,0x8c,0xea,0x2c,0xbe,0xfb,0xe9,0x59,0x3e,0x78,0xae,0x65,0xbe,0x7c,0x36,0x6b,0x3e,0x78,0x67,0x2e,0x3e,0x60,0x19,0x3c,0x3e,0x12,0x11,0xf7,0x3d,0xd3,0xee,0x84,0xbe,0xcf,0xc8,0x38,0xbd,0xc7,0x9c,0x23,0xbe,0x34,0x1b,0x11,0x3e,0xc8,0x74,0x3f,0xbe,0xc0,0x21,0x5b,0x3e,0x18,0x68,0xe7,0x3d,0xc3,0x10,0x83,0xbe,0x2a,0x01,0x24,0xbd,0x1a,0x0f,0x84,0xbd,0x00,0xd0,0x30,0x3d,0x54,0x7c,0x32,0x3e,0xeb,0x08,0x4f,0x3e,0xa9,0xf8,0x91,0x3d,0xf9,0x1e,0x49,0xbe,0x06,0xaf,0x44,0xbe,0xd0,0x16,0x42,0x3c,0xbe,0xa7,0x8b,0xbe,0x60,0x6c,0xb7,0x3d,0x0b,0xee,0x30,0xbc,0xea,0xcb,0x3e,0xbe,0xe2,0xa0,0xf5,0x3d,0x4f,0x0a,0x68,0xbe,0x87,0xd0,0xc6,0x3c,0x00,0xab,0x5c,0xbd,0x51,0x97,0xda,0xbd,0xc8,0x4c,0xa5,0xbe,0x42,0x71,0xa8,0xbe,0x28,0x3b,0x9d,0xbd,0x7b,0xda,0xf3,0x3e,0x8e,0x64,0x84,0xbe,0x2a,0x29,0x17,0x3f,0xb0,0x90,0x31,0xbd,0x76,0x09,0x37,0x3e,0x47,0x2c,0xeb,0xbe,0x36,0x76,0xc3,0xbd,0x2a,0x68,0x0c,0xbe,0x1c,0xeb,0x70,0x3e,0x7f,0xe3,0x7d,0x3d,0x1d,0xc6,0x46,0xbe,0x4d,0x27,0x92,0xbd,0x2f,0x80,0xef,0x3d,0x8b,0x2c,0x8b,0xbe,0xa8,0xfb,0xaf,0xbe,0xf8,0xd6,0x97,0x3e,0x48,0x76,0x81,0xbe,0x70,0xd9,0xb6,0xbe,0xfd,0x09,0xe0,0x3e,0x89,0xdd,0x27,0xbd,0xbd,0x34,0xca,0x3c,0xb8,0xc9,0x0b,0xbe,0x43,0x86,0x36,0x3e,0x7c,0xe0,0xec,0x3d,0x6d,0xf6,0xea,0xbd,0x41,0x80,0xa6,0xbe,0x18,0x5a,0xbe,0xbe,0xdb,0x01,0xd6,0xbd,0x7a,0x40,0x1f,0xbe,0x88,0xa8,0x53,0xbf,0xba,0x73,0x81,0x3e,0x05,0x4a,0x2d,0x3e,0x05,0x38,0xde,0x3e,0xcf,0x61,0x09,0xbc,0x53,0x7c,0xc5,0x3e,0x03,0x6d,0x96,0xbe,0x64,0x8f,0x06,0x3f,0x16,0x52,0x01,0xbf,0xaa,0xd1,0x0a,0x3c,0x1f,0xa4,0x2e,0x3d,0xec,0x88,0xda,0xbe,0xd1,0xe3,0x1c,0xbe,0x15,0xe1,0x00,0x3e,0x9e,0x1e,0xa7,0xbe,0x4e,0x0e,0x8c,0xbf,0x27,0x1a,0x27,0xbd,0xfa,0x3c,0x9a,0x3e,0xb3,0x5e,0x10,0x3e,0xf2,0x84,0x60,0xbc,0x54,0xc2,0x29,0xbe,0xa0,0x3e,0x86,0x3e,0x18,0x6e,0xcd,0x3d,0x16,0x23,0x8c,0x3d,0xc3,0x2e,0x59,0x3e,0x01,0x2e,0xc7,0xbd,0xbf,0xc9,0xb7,0xbd,0xe5,0x99,0x8c,0x3c,0x16,0xe7,0x4e,0x3e,0xbb,0x76,0x0c,0xbf,0xfe,0xd8,0xbb,0x3d,0x74,0xe8,0xd7,0xbe,0x02,0xfe,0x77,0xbe,0x72,0x48,0x6e,0xbe,0x59,0xbf,0x1b,0x3e,0x22,0xcb,0x41,0xbd,0xe8,0x22,0xab,0x3e,0x50,0xd3,0x40,0xbe,0x29,0xa7,0x07,0xbf,0x7f,0x09,0x98,0xbe,0x87,0xe5,0xec,0x3e,0xfe,0x06,0x95,0x3e,0xb8,0xe9,0x47,0x3e,0x34,0xd2,0x8f,0x3e,0x78,0x18,0x80,0x3d,0x2b,0x11,0x32,0x3e,0x00,0x7e,0x15,0xbe,0x38,0xb9,0x1f,0x3d,0xe4,0x03,0x1a,0x3e,0x8c,0xc5,0x8e,0x3e,0x86,0xf6,0x67,0xbe,0xe8,0x03,0x6c,0x3e,0xfc,0xe1,0xf8,0x3e,0xb3,0xd7,0x48,0xbe,0x48,0x93,0x8c,0xbe,0xd8,0xfd,0xff,0xbe,0xdb,0x0b,0x8e,0x3e,0xe2,0xe9,0xdd,0xbe,0x4a,0x98,0xfd,0x3d,0x9f,0xa4,0x65,0xbe,0xb9,0xa5,0x88,0x3e,0x62,0x88,0x2a,0x3f,0x85,0x1a,0x98,0x3e,0x29,0xc2,0x61,0xbd,0x2c,0xdc,0xc8,0xbd,0x13,0xa0,0x13,0x3e,0x58,0x94,0xd4,0xbc,0x2a,0xfb,0x19,0xbf,0x02,0xd4,0x0d,0xbe,0xe5,0xfe,0xcb,0xbd,0x2e,0xab,0x37,0x3c,0x2f,0x32,0x06,0xbf,0x85,0xd0,0x14,0x3f,0x7b,0x07,0x07,0x3f,0xcb,0x86,0x9a,0xbe,0xe6,0x0e,0x02,0x3f,0x5e,0xe5,0xc4,0x3e,0x61,0xed,0xc4,0x3d,0x56,0xb6,0xf6,0x3e,0x66,0x5e,0x8d,0xbf,0x49,0x55,0xe5,0x3d,0x4b,0x41,0x79,0xbe,0xe5,0x86,0xa6,0x3d,0xd8,0x5a,0x3c,0x3f,0x6c,0x7c,0xa4,0x3e,0xe2,0xe3,0xb5,0xbe,0x6d,0x98,0xbf,0xbc,0xcc,0xc4,0x70,0x3d,0xfe,0x13,0x6b,0xbe,0x16,0xd8,0xc7,0x3e,0x49,0x39,0xfb,0x3e,0x0b,0x2b,0x1b,0x3f,0x36,0xba,0x26,0x3f,0x12,0xf8,0xc2,0x3e,0x6e,0x31,0xdd,0x3d,0xac,0xe0,0x69,0xbe,0x00,0x1c,0x60,0xbe,0xd0,0x6d,0xed,0xbd,0xfd,0x81,0x64,0xbe,0xde,0x2f,0xc1,0x3d,0x40,0xd1,0x25,0xbe,0xec,0x7b,0x48,0x3d,0x00,0x4a,0xfb,0xbd,0x09,0x8f,0x38,0xbe,0x8d,0x2f,0x56,0x3e,0x74,0x3a,0xc0,0xbd,0x48,0x44,0x27,0xbe,0x78,0x5f,0x4b,0xbe,0x2c,0x7e,0x7b,0xbe,0x0c,0xbd,0x88,0x3d,0xd0,0x7b,0x79,0xbe,0x80,0x6a,0xe2,0x3b,0xea,0xc7,0x24,0x3e,0x1d,0xd0,0x13,0xbe,0xe8,0xdb,0x72,0xbe,0x58,0x1f,0x85,0xbd,0xad,0x96,0xcf,0xbc,0x91,0x11,0x07,0x3e,0xe8,0x71,0x01,0xbe,0x00,0xdc,0x15,0xba,0xc0,0x7d,0x38,0xbe,0x24,0x51,0x36,0x3e,0xfb,0x5f,0x02,0xbd,0x70,0x82,0xa7,0x3d,0xd8,0x83,0xf7,0xbd,0x50,0x9e,0x27,0xbe,0xf8,0xc7,0x20,0xbe,0xbc,0xb4,0x7a,0x3e,0x40,0xef,0x2f,0xbd,0xb5,0xe6,0x0d,0xbe,0x80,0xf2,0x35,0xbe,0xea,0x10,0x05,0xbe,0xc9,0xb1,0x2d,0x3e,0x09,0xb2,0x32,0x3e,0xe0,0x21,0x56,0xbe,0xd8,0x89,0x13,0x3e,0x49,0x83,0x8a,0xbe,0x0c,0xa2,0x56,0xbd,0x49,0x17,0x07,0x3c,0x04,0xc2,0x20,0xbe,0x38,0x9f,0xed,0xbd,0x99,0xdf,0x32,0x3e,0x20,0x21,0xf9,0x3c,0x20,0x84,0x8b,0x3c,0x0e,0x98,0x1b,0xbd,0xad,0x0c,0x22,0xbe,0x38,0x1c,0xbe,0x3d,0x50,0x8a,0x63,0xbe,0x7b,0x3c,0x31,0xbe,0xf9,0xa0,0x07,0xbd,0x00,0xc5,0xaa,0xbc,0x80,0x71,0x9b,0x3d,0x2c,0x4f,0x4c,0x3d,0x68,0x94,0x51,0x3e,0x7f,0xdc,0xc4,0x3d,0x0c,0x2a,0x66,0x3e,0xa0,0x47,0xab,0xbc,0x71,0x6e,0x32,0xbe,0x3f,0x64,0xb5,0x3d,0xc0,0xff,0x3f,0x3e,0x10,0x3f,0x49,0x3e,0x7c,0x9c,0xff,0x3d,0x6d,0x09,0xa7,0x3d,0x67,0x0f,0x09,0xbf,0x2d,0x40,0xd3,0x3d,0xcf,0xfd,0xef,0xbb,0x8d,0xc5,0xd1,0x3d,0xcb,0x04,0xd7,0xbe,0xeb,0xb3,0xd0,0x3e,0x69,0x76,0x70,0x3e,0x4b,0x94,0x55,0x3e,0x0b,0xb1,0x11,0x3e,0x4d,0x86,0xa3,0xbd,0x01,0xb4,0xf3,0xbd,0xd8,0x3a,0xd1,0x3e,0xb8,0x70,0x40,0x3e,0x94,0xd7,0x86,0xbc,0x75,0x9c,0x76,0x3e,0xe4,0xc4,0x50,0xbd,0x12,0x49,0xcc,0x3e,0x51,0x49,0xde,0x3e,0xa6,0xf7,0x7a,0xbe,0x14,0xba,0xcf,0xbd,0x19,0x17,0x21,0x3e,0x93,0x90,0xac,0x3e,0xee,0x8c,0x18,0xbc,0x36,0x56,0xc1,0x3b,0x5d,0xdc,0x88,0x3d,0x99,0xa8,0x6d,0x3e,0x1f,0x4a,0xe9,0x3e,0x29,0xad,0x8d,0x3e,0x46,0xba,0xd2,0x3e,0xec,0xd4,0x08,0x3f,0x5e,0x2d,0xac,0xbe,0x98,0xe0,0x34,0xbe,0x7b,0xfd,0xeb,0xbe,0x22,0xdb,0x9d,0xbe,0xce,0x78,0x80,0xbe,0xbd,0xe5,0xdf,0x3d,0x4f,0xe2,0x7b,0xbe,0xb3,0xfb,0x15,0x3f,0x6d,0x33,0x85,0x3e,0x3e,0xb2,0x16,0x3e,0x0b,0x6f,0x9c,0x3e,0x8f,0x16,0xc6,0x3e,0x5c,0x76,0x14,0xbe,0xe9,0xa7,0x04,0x3f,0x4d,0x8e,0xd3,0x3e,0xc6,0x31,0xd0,0x3c,0x23,0x2c,0x34,0x3e,0x28,0x79,0x5f,0x3e,0xfd,0xcc,0xaf,0x3e,0x38,0xf7,0x0a,0x3f,0x54,0x06,0x1a,0xbf,0xb2,0x6c,0x0d,0x3e,0x80,0xcb,0xa4,0x3e,0xfd,0xb7,0x97,0xbd,0x55,0x86,0xc5,0x3e,0x48,0xc0,0xc6,0x3d,0xe8,0x8a,0xd8,0x3e,0xc8,0x44,0xde,0x3e,0xbd,0xfa,0x20,0x3f,0x76,0xf3,0x73,0xbd,0x89,0x2c,0xcc,0xc0,0x4b,0x82,0x86,0xbe,0x03,0x8a,0x9e,0xbe,0x78,0xdb,0x44,0xbe,0xdb,0xe3,0x7c,0xbd,0x28,0x02,0x62,0xbe,0x7c,0x41,0xc1,0x3b,0xb4,0x6a,0xd0,0xc0,0xc4,0x33,0xda,0x3d,0x2f,0xb5,0x2b,0xbc,0x27,0xc6,0x70,0x3e,0xcf,0x05,0x17,0x3e,0xa5,0x87,0x37,0x3e,0xf1,0x03,0x12,0xbf,0xc8,0x1b,0xaf,0xbd,0xe2,0xc5,0x32,0xbf,0x07,0x6f,0x3b,0xbe,0xff,0x84,0x4d,0x3e,0x84,0xfe,0x1a,0x3e,0x0b,0xc5,0xa2,0x3e,0x13,0xd1,0x43,0xbe,0x66,0xb8,0x69,0x3e,0x9a,0x27,0xb9,0xbd,0xbe,0x4c,0x54,0xc0,0xe7,0xac,0xd2,0x3e,0xcb,0xad,0x62,0xbd,0xd3,0x75,0xe9,0xbe,0x7f,0x8d,0xb2,0xbd,0x7c,0xcd,0x38,0xbe,0xc1,0x5b,0x00,0x3e,0xd7,0x7d,0x4f,0x3e,0xce,0x7d,0x74,0xbe,0xc6,0x84,0xdb,0xbd,0xca,0x97,0xc4,0xc0,0x32,0x67,0xa7,0x3e,0x86,0x94,0xd9,0xbc,0x51,0xe3,0x37,0x3f,0x66,0x9a,0x85,0x3e,0xa8,0xbe,0x45,0x3e,0x22,0xa4,0xde,0x3e,0xc6,0xc3,0xc1,0x3e,0x83,0xee,0xda,0xbd,0xc1,0xa0,0xbb,0xbe,0x76,0xf3,0x99,0x3e,0x65,0x87,0x15,0x3f,0xcb,0xa3,0x4a,0xbf,0x10,0x62,0x9a,0x3d,0xd9,0xf2,0x8c,0xbe,0x94,0x0e,0x90,0xc0,0x13,0x1b,0x30,0xbe,0xa1,0x37,0xfb,0x3d,0x75,0x46,0xc4,0xbe,0x21,0xcc,0x12,0xc0,0x34,0x90,0x8c,0x3d,0x56,0x89,0x04,0x3f,0x6b,0x86,0x63,0xbd,0x88,0x54,0xe5,0xbe,0xb0,0x36,0xd8,0xbc,0x3f,0xb3,0x32,0xc1,0x63,0xbd,0x4e,0xbf,0x8c,0xd0,0xda,0xc0,0x3d,0x63,0x88,0x3f,0x6d,0x1c,0x96,0xbc,0x80,0x24,0x23,0x3e,0x44,0x92,0xce,0x3c,0x78,0xca,0xef,0x3e,0x0f,0xb8,0xbd,0x3e,0x60,0x6c,0xab,0x3e,0xe2,0x31,0x75,0xbe,0xb5,0x60,0xd9,0x3d,0x7f,0x1f,0x96,0xbe,0x15,0x31,0x6d,0x3e,0x3c,0x04,0x21,0xbe,0xcd,0x95,0x77,0x3d,0x95,0x31,0x08,0x3f,0xf6,0xf4,0x63,0x3e,0x60,0xe4,0x4b,0x3e,0xd6,0x5d,0x2c,0x3e,0x47,0x81,0xba,0x3e,0x54,0x62,0x01,0x3f,0xcf,0x9c,0x51,0x3e,0xa6,0x44,0xbb,0x3e,0xfd,0xbc,0xf9,0x3b,0x71,0x4d,0x77,0x3e,0x9c,0x1e,0x87,0x3e,0xdc,0x3f,0x80,0x3e,0xfe,0xaa,0xec,0xbc,0xf7,0x9b,0xd5,0x3b,0x49,0xc7,0xe2,0x3d,0xdb,0xa4,0x4a,0x3e,0xa4,0x8b,0x99,0x3e,0xd0,0xb0,0xe7,0xbd,0x68,0x9a,0x59,0x3e,0x74,0x32,0x98,0x3e,0x55,0xe5,0xe9,0x3e,0x13,0x30,0x40,0x3c,0x87,0x91,0x90,0x3e,0xbd,0xe0,0x83,0x3f,0xbe,0x10,0x04,0x3d,0x13,0x86,0x00,0x3e,0xa5,0x14,0x33,0xbd,0x59,0x64,0xb0,0xbd,0x5d,0xc7,0xa7,0x3c,0x0c,0xa5,0xbc,0x3e,0xaf,0x17,0x4b,0x3d,0x4b,0x02,0x26,0x3f,0x9f,0x57,0x1d,0x3b,0x31,0x02,0xf4,0x3d,0xa8,0xa3,0x1a,0x3f,0x8d,0x7b,0x85,0xbe,0x0a,0x93,0x62,0xbe,0x3c,0xe1,0xd8,0x3e,0xe5,0xe4,0x5f,0x3f,0xfb,0xe3,0x60,0xbe,0x82,0xb3,0x15,0xbe,0x8b,0x3a,0xf9,0x3d,0xe8,0x6b,0x4d,0x3c,0xdf,0x12,0x4f,0x3e,0x63,0x6c,0xb1,0xbe,0x01,0x21,0x22,0x3e,0x57,0x00,0x02,0xbe,0x0e,0x42,0x78,0xbe,0x6d,0x0b,0xae,0x3c,0xd2,0x8c,0x3d,0x3e,0x5a,0x1b,0x44,0xbe,0xa6,0xca,0xaf,0xbd,0xa7,0x18,0x2d,0x3f,0x26,0x1b,0x75,0xbe,0x63,0x5e,0xc3,0xbe,0xce,0x07,0x75,0xbe,0x5c,0x85,0x5b,0xbe,0xa8,0x13,0x7b,0xbc,0x32,0x8e,0x83,0xbd,0xd0,0x49,0xf3,0xbd,0x5f,0x08,0x65,0x3c,0x1b,0x38,0xc2,0xbe,0x5e,0xd9,0xc4,0x3e,0x97,0xf0,0x61,0xbe,0x11,0x04,0x0e,0xbe,0xfa,0x6e,0x23,0x3e,0x12,0x89,0x03,0xbd,0xa7,0x8c,0x13,0xbf,0xcc,0x5f,0x9e,0xbe,0x5f,0x8c,0x9a,0xbf,0x25,0x3b,0xa0,0xbe,0x83,0x98,0xff,0x3d,0x02,0x00,0x27,0xbe,0x21,0xdf,0x92,0xbd,0x97,0x83,0x64,0x3e,0x38,0x7c,0x1a,0x3e,0x54,0x19,0xd9,0x3e,0x23,0x31,0x03,0x3e,0x60,0x4d,0xa4,0xbd,0x53,0xe4,0x88,0xbe,0xbe,0xfe,0x91,0xbe,0x22,0xdd,0x4e,0x3e,0x13,0x77,0x1c,0xbf,0x7e,0x22,0x62,0xbe,0x23,0x64,0xba,0x3d,0x0a,0x7f,0xfe,0xbd,0xce,0x58,0xc4,0xbe,0xbf,0x15,0x37,0xc1,0xae,0x4c,0x06,0x3e,0xcf,0xf3,0x3b,0x3d,0x92,0x62,0x09,0x3f,0x39,0x0e,0x86,0x3e,0x60,0x76,0x81,0x3d,0x31,0x2c,0xd9,0xbe,0x0d,0x85,0xd3,0x3e,0x3f,0x78,0xa8,0xbd,0xa7,0x95,0x3a,0xbe,0xa1,0x1f,0x7e,0xbe,0x8f,0x41,0x90,0x3e,0x3c,0x31,0x41,0xbe,0x51,0x0c,0x4a,0xbe,0xfe,0xf6,0x8c,0xc0,0x6b,0xe9,0x0f,0xc1,0x4c,0x14,0x8d,0x3e,0xae,0x0c,0x87,0x3d,0xc5,0x75,0x4c,0xbb,0xdf,0x61,0x6f,0xbd,0x84,0x7f,0xc6,0x3d,0x8b,0x08,0x4f,0x3f,0x73,0x1b,0x2c,0xbe,0xa3,0x26,0xcd,0x3d,0xeb,0x71,0x4d,0x3e,0x0c,0xe9,0x5d,0xbf,0xc8,0x59,0xb6,0xbd,0x34,0xca,0xa9,0xbd,0xef,0x43,0x11,0x3f,0xdd,0x9b,0xf8,0xbd,0xb4,0x93,0x4a,0xbe,0x00,0xb1,0x8c,0x3b,0xe4,0xe5,0x4d,0x3e,0xea,0x3e,0x87,0xbe,0x37,0x39,0x4a,0x3e,0xce,0xa3,0x14,0xbd,0xc2,0x1f,0x0f,0xbe,0x41,0xea,0xb8,0x3d,0xe0,0x22,0x55,0x3e,0x7f,0x82,0x18,0xbd,0x48,0x9f,0x2d,0x3e,0x9d,0x9d,0x82,0xbe,0x5e,0x11,0x97,0xbe,0xc7,0x6d,0x2e,0x3d,0x88,0xc7,0x72,0xbe,0x28,0xe1,0xed,0xbc,0x19,0xf3,0x1f,0xbd,0x60,0x77,0xcd,0xbd,0x9b,0x9e,0xa0,0xbd,0x11,0x5e,0xa8,0xbd,0xa8,0xbc,0x85,0xbd,0xdb,0x5b,0xff,0xba,0x8b,0x05,0x5a,0xbe,0x5f,0x89,0x58,0xbe,0x80,0x92,0x4b,0xbd,0x4c,0x0c,0x6d,0xbe,0x69,0xff,0x84,0xbe,0x2f,0x83,0xd5,0xbc,0xaa,0xcc,0xb1,0x3d,0x39,0x16,0x48,0xbe,0x32,0x7f,0xee,0xbd,0x6b,0x7c,0xd6,0x3b,0x7c,0x02,0x31,0x3e,0x73,0xad,0x73,0xbe,0x62,0xff,0x10,0xbe,0xcd,0x41,0x18,0xbe,0x3e,0xd8,0x5c,0x3d,0xa5,0x74,0x16,0x3d,0xfd,0x9f,0xeb,0xbd,0xc7,0x80,0x50,0x3e,0x3d,0x47,0x05,0xbd,0xe4,0xc3,0x6b,0xbe,0x27,0x3b,0x36,0xbe,0x49,0xcc,0x38,0xbe,0x1d,0xbe,0x96,0xbd,0x8d,0x77,0x0e,0xbc,0x00,0xc3,0x66,0x3c,0x82,0xf6,0xee,0x3d,0x54,0xaf,0x04,0x3e,0x13,0x0a,0x40,0xbe,0xe8,0x59,0x1a,0x3e,0x5d,0x23,0x01,0xbe,0xc7,0xf3,0x8d,0x3c,0x74,0x71,0x0b,0x3e,0x9c,0x3b,0xbf,0x3d,0x80,0x6f,0x17,0xbd,0x89,0xcf,0x02,0x3d,0xef,0x08,0x70,0xbd,0x9a,0x9a,0xdb,0xbc,0xd0,0xc2,0x4a,0x3d,0xa3,0xee,0x6c,0xbe,0xec,0x24,0x0e,0x3e,0xb0,0x6a,0x7d,0xbe,0x06,0x49,0x6b,0xbe,0x52,0xab,0x96,0x3d,0x30,0x7f,0x02,0xbe,0x84,0xcf,0x02,0xbe,0x10,0x93,0x4f,0x3d,0x08,0xf5,0x82,0xbd,0x10,0x58,0x35,0x3d,0x48,0x7c,0xfc,0xbd,0x34,0xe4,0x2d,0xbe,0x30,0xab,0xd8,0xbd,0x30,0xd9,0xaa,0xbd,0x40,0x88,0xa6,0x3d,0xf8,0x3f,0xd4,0xbd,0x80,0x6e,0xdb,0x3b,0xbc,0x24,0x2f,0xbe,0x70,0x01,0x11,0xbd,0x44,0x74,0x51,0xbe,0xb8,0xb6,0xf7,0x3d,0x84,0x82,0x45,0xbe,0x28,0x20,0xe5,0xbd,0x9c,0xd7,0x6d,0xbe,0xe0,0xa1,0x22,0xbd,0xe4,0x74,0x65,0xbe,0x40,0xba,0xde,0xbd,0x58,0x79,0x80,0xbd,0x80,0x47,0xaa,0xbd,0x64,0xb0,0x42,0xbe,0x4c,0x7a,0x35,0x3e,0xd4,0x2d,0x33,0x3e,0xb0,0x5b,0x61,0xbe,0xf0,0x73,0x5b,0x3d,0xf0,0x6b,0x3b,0x3d,0x54,0x72,0x46,0xbe,0x28,0x07,0x5e,0x3e,0x80,0x65,0x83,0xbc,0xe0,0x00,0xfb,0x3c,0xd8,0xd8,0x05,0x3e,0x80,0x51,0x37,0x3e,0xd0,0xee,0xff,0xbd,0x0c,0x99,0x48,0xbe,0xf8,0xb6,0xae,0xbd,0x48,0xf0,0x1d,0x3e,0x00,0x90,0x4d,0x3d,0x40,0x52,0xcc,0xbc,0xc0,0xf8,0x92,0x3c,0x44,0xd7,0x5f,0xbe,0xf4,0x1d,0x63,0xbe,0xa8,0x0e,0x10,0xbe,0xa0,0x81,0x73,0x3d,0xd4,0x67,0x59,0x3e,0x00,0x96,0xfc,0xbc,0x94,0x52,0x67,0xbe,0x30,0x9c,0xdb,0xbd,0xc8,0xb2,0x53,0xbe,0x44,0x4f,0x48,0x3e,0xd8,0x7c,0x38,0x3e,0xc0,0xd3,0xd6,0xbd,0xcc,0xfa,0x64,0x3e,0x00,0xaf,0x32,0xbb,0x44,0xe4,0x3d,0x3e,0xe4,0x79,0x6d,0xbe,0x40,0xaf,0x85,0x3c,0xa8,0xfa,0xed,0xbd,0xc0,0x59,0xcf,0xbd,0x50,0x9d,0x11,0x3e,0xe0,0x2a,0x85,0x3c,0x7b,0x21,0xe8,0x3e,0x1e,0x27,0x13,0x3f,0xfc,0x5a,0x83,0xbe,0xb0,0x9e,0xcf,0xbf,0x35,0x31,0xd8,0xbd,0xc4,0xb1,0x4d,0xbd,0xfc,0x77,0x9d,0xbe,0x2f,0x71,0x02,0x3f,0x82,0xa4,0x4f,0xbd,0xc4,0x74,0x40,0xbf,0x59,0x89,0x0e,0xbe,0x2e,0xe8,0x42,0xc0,0x8e,0x47,0xa3,0xbe,0xbb,0xf8,0x0c,0x3e,0xe2,0x21,0xa3,0xbc,0x4b,0x78,0x9f,0x3e,0x03,0x86,0xc6,0x3e,0x44,0x1d,0x9c,0xbf,0x66,0x97,0x8d,0xbf,0xbc,0x3d,0x22,0x3e,0x5a,0x02,0x02,0x3f,0x8c,0x72,0xba,0xbe,0x5b,0x0a,0x2d,0x3e,0xc8,0xcb,0xe2,0x3e,0xf5,0x26,0x3c,0x3e,0x0d,0xa0,0x53,0xbe,0x24,0x61,0x17,0x3f,0xc6,0x1c,0x39,0xbe,0xc0,0x5b,0xad,0x3e,0x6b,0x06,0x14,0x3e,0x63,0x53,0x62,0xbf,0x03,0x22,0xa8,0xbf,0x82,0x91,0x93,0x3e,0x36,0xf7,0x85,0x3f,0xff,0x19,0xb6,0xbf,0x8d,0xbc,0x8d,0xbe,0x60,0xff,0x82,0x3e,0x06,0xa7,0xd2,0xbd,0xa6,0x03,0x32,0x3e,0x1a,0xe6,0x1e,0x3f,0x7d,0x8a,0xfb,0x3e,0x2c,0x6e,0x2b,0xbf,0xb4,0xe4,0x6c,0xbf,0xd9,0x2b,0xe7,0x3f,0xa2,0x58,0x82,0xbe,0x22,0x89,0xa9,0xbe,0xb9,0x30,0x99,0x40,0x59,0x7a,0x43,0x3c,0x2c,0x81,0xf4,0x3f,0x71,0x48,0xc3,0xbe,0x85,0x46,0x95,0xbd,0xee,0x54,0xfd,0x3d,0x1a,0x6e,0x4d,0xbf,0x05,0xe9,0xd2,0xbf,0x3e,0x55,0x06,0x3f,0xa4,0xa0,0xfc,0x3e,0xa9,0xc3,0xc2,0x3e,0xbd,0xf9,0x02,0xbf,0x07,0x3b,0x0d,0xbf,0xae,0x29,0x04,0xbf,0xb2,0xb6,0x0a,0xbf,0x98,0xd8,0x43,0xbf,0xbe,0x5e,0x5c,0x40,0x57,0xe5,0x9a,0xbf,0xeb,0xad,0xad,0x3e,0xb4,0xaa,0x48,0xbc,0x5e,0xf3,0x1c,0x3b,0x32,0xb6,0xaa,0xbd,0xd5,0x72,0x0d,0x3f,0xba,0x06,0x04,0xbd,0xba,0x75,0xac,0x3e,0x5e,0xdb,0x30,0x3d,0xbd,0x60,0xf6,0x3e,0xd8,0xeb,0x30,0xbf,0x71,0x2f,0x3b,0xbf,0x99,0xb8,0x2e,0xbe,0x46,0x5c,0x86,0x3c,0xac,0x36,0xde,0xbd,0x44,0xcf,0x2e,0x3e,0xb2,0x8c,0x3d,0xbd,0xab,0xd1,0x23,0xbe,0x2b,0x06,0x12,0x3e,0x81,0x80,0x1e,0xbe,0x32,0x0d,0x63,0x3c,0x0b,0xfa,0xa0,0x3c,0x52,0xf7,0x7a,0xbf,0x90,0x57,0xe7,0x3e,0xe7,0x22,0xc3,0x3e,0x16,0x4c,0x44,0x3e,0x13,0x4a,0x16,0x3d,0x8e,0x6f,0xe6,0x3d,0xfd,0x97,0x01,0xbf,0x93,0x64,0x1a,0xbe,0x2b,0x07,0xc9,0xbe,0x2a,0xbd,0x80,0xbe,0xcd,0x17,0x79,0x3e,0x21,0x6f,0x50,0xbd,0x7f,0xa9,0x33,0xbe,0x7a,0xa2,0x9f,0x3e,0x2c,0x75,0x96,0x3d,0xc9,0xa8,0x34,0xbe,0x0e,0x34,0x89,0x3d,0xe7,0x1a,0x98,0x3d,0x51,0x9b,0x4d,0xbd,0x19,0x14,0xbf,0xbd,0xfc,0xf1,0x8b,0xbc,0xbc,0x39,0x82,0x3e,0x65,0x6a,0x03,0x3e,0x36,0xc4,0x0e,0xbf,0x29,0x02,0x40,0xbc,0x25,0xb4,0x25,0xbb,0xea,0x91,0xf2,0xbd,0x4e,0xcb,0x20,0xbf,0x1b,0xc8,0x9c,0x3e,0x16,0x0f,0xc5,0x3e,0x57,0x4d,0xca,0x3c,0x95,0xec,0x1f,0xbe,0xc6,0x4b,0x28,0xbc,0xaa,0xb7,0x87,0xbe,0xa4,0x8c,0x1f,0x3d,0x7f,0x9f,0xa0,0x3d,0xf2,0x59,0x77,0x3e,0xc5,0x01,0x65,0x3d,0x19,0x5c,0xd4,0x3d,0x31,0xc9,0x5a,0x3d,0x75,0x33,0x9f,0x3e,0x0d,0xc3,0x27,0xbf,0xf9,0xbe,0xbd,0x3e,0x9f,0xac,0x53,0xbe,0x70,0x9f,0x29,0xbc,0x64,0xee,0x20,0x3d,0xcf,0xb7,0xcc,0xbe,0x5a,0x52,0xf2,0x3e,0x8e,0x91,0x7b,0xbe,0x5c,0x01,0xfc,0x3e,0x6c,0xfb,0xd7,0xbc,0xcc,0xf2,0x13,0x3f,0xf6,0xfa,0x28,0xbe,0x13,0x10,0x6e,0xbd,0x9e,0x68,0x1a,0xbd,0xe9,0x04,0x17,0x3d,0x53,0xa4,0x02,0x3e,0xbf,0xe1,0x78,0x3e,0xa2,0x94,0x03,0xbf,0x21,0x33,0xb0,0xbe,0x4c,0x12,0xdd,0xbe,0x1b,0x00,0x52,0xbe,0x6e,0x15,0xd4,0x3d,0x6c,0x09,0x24,0xbe,0x5b,0xae,0x27,0xbe,0x43,0x68,0xe2,0x3e,0xb6,0xe1,0x1f,0x3c,0xa3,0x41,0x32,0x3e,0xbf,0x24,0x95,0xbe,0x8d,0x69,0xdc,0x3d,0x0f,0xae,0x72,0xbc,0x28,0x70,0x00,0x3c,0x21,0x9b,0xf8,0xbe,0x01,0x1b,0x9c,0xbe,0xff,0x6e,0xb4,0xbd,0x08,0x10,0xc2,0xba,0x4a,0x06,0x13,0xbf,0x7e,0xea,0x6b,0x3d,0xc3,0xb0,0xb4,0x3e,0x8c,0x40,0xb3,0x3e,0x51,0x7e,0x72,0xbe,0xae,0x48,0x83,0x3d,0x48,0xce,0xa7,0xbe,0x57,0x27,0xaa,0x3e,0x4f,0x46,0x03,0xbf,0xf6,0xe8,0xb1,0x3e,0x27,0x5b,0xcc,0x3c,0x74,0x7d,0x76,0xbd,0xda,0x95,0x07,0xbd,0xb5,0x38,0x08,0x3e,0xd4,0xd6,0x9f,0xbe,0x63,0x56,0xc3,0xbf,0x35,0xaa,0x67,0x3e,0x63,0xff,0x09,0xbe,0x04,0x53,0x7e,0x3c,0x67,0x84,0x11,0xbd,0x3b,0x16,0x30,0xbe,0xf8,0x13,0xc2,0x3e,0x7f,0x80,0x5d,0xbe,0x7f,0x63,0x27,0x3e,0x2b,0xf9,0x69,0xbd,0x5f,0x43,0x15,0x3e,0x26,0xc2,0xd8,0x3e,0x8a,0xd9,0x8a,0x3e,0x1e,0xba,0x70,0x3e,0xff,0x06,0x27,0xbf,0xf1,0xc1,0xb5,0x3b,0x97,0xdd,0xc5,0xbd,0xdb,0xf3,0xae,0xbe,0x61,0x76,0x03,0x3d,0x25,0xf0,0x57,0x3e,0x61,0x53,0x3f,0xbd,0xff,0xda,0xb2,0xbe,0x99,0x95,0x72,0x3e,0xd8,0x48,0xbb,0xbe,0x89,0xad,0x6c,0x3e,0x72,0xef,0x0e,0xbd,0x70,0x20,0x81,0x3d,0xaa,0x52,0x28,0x3d,0x6f,0x6e,0xd3,0x3e,0x90,0x32,0xb2,0x3e,0xe7,0x8f,0xd2,0x3d,0xa1,0x24,0x35,0xbd,0xdb,0xfd,0x6d,0xbe,0x94,0xdf,0xc7,0xbd,0xe1,0x70,0x56,0xbe,0x7e,0xee,0x97,0xbe,0xca,0x2e,0x05,0x3e,0xfa,0xee,0x37,0x3e,0x00,0xb3,0xbb,0xbd,0xd8,0x32,0x85,0xbe,0x04,0x87,0x06,0xbe,0xac,0x59,0xb4,0xbb,0x42,0xad,0x59,0xbd,0x94,0x38,0x83,0x3d,0x96,0xf8,0x1a,0x3c,0xf4,0x87,0xa5,0x3e,0xd5,0x98,0xa3,0xbe,0xc9,0xd1,0x26,0xbe,0xf6,0xe8,0xbc,0xbe,0x2f,0x37,0xae,0xbf,0x78,0x93,0xec,0x3d,0xa2,0x77,0x3f,0xbe,0xf2,0xa6,0x0f,0x3f,0x63,0x62,0x5d,0x3e,0x06,0xd4,0x1d,0x3e,0x5c,0xb3,0xa2,0xbe,0x1b,0x75,0x2a,0x3f,0x32,0xa5,0x09,0xbf,0xc3,0x09,0x62,0xbe,0xca,0xd4,0x24,0x3e,0x0b,0xfd,0xa1,0xbf,0xa9,0x7d,0x45,0x3e,0xa6,0x06,0xe5,0x3a,0x05,0xd4,0x12,0xbf,0x18,0xc8,0xd5,0xbf,0x7b,0x4b,0x66,0xbb,0x47,0x1c,0x03,0xbe,0xdd,0xbd,0x5b,0x3e,0x26,0x26,0x04,0x3f,0x07,0x23,0xf1,0xbe,0xb4,0x73,0x10,0x3f,0x6f,0xb1,0x2d,0xbe,0x86,0xf7,0x2d,0x3d,0xa2,0x91,0xa2,0x3e,0x1e,0x8d,0x4b,0x3c,0xbe,0xc5,0x4d,0xbc,0xd3,0xbc,0x97,0xbc,0x9a,0x81,0x49,0x3c,0x30,0x21,0x41,0xbe,0x28,0xc7,0x3a,0x3e,0x14,0xa0,0x2c,0x3e,0x00,0x30,0x39,0xbc,0x68,0xd6,0x31,0x3e,0xe0,0xcc,0x9f,0xbc,0xf0,0xd3,0x8f,0xbd,0x14,0x27,0x73,0xbe,0xe4,0xc6,0x6f,0xbe,0x13,0xf0,0x4d,0xbe,0x8c,0x43,0x5e,0xbe,0xd1,0xa9,0x53,0xbe,0xc0,0x36,0x23,0xbd,0x00,0x6e,0xad,0xbd,0x10,0x5d,0x2c,0xbe,0x0c,0x97,0x6f,0x3e,0x58,0x93,0x68,0x3e,0x0b,0x54,0x67,0xbd,0xc3,0xba,0x65,0xbb,0xa8,0x31,0xb5,0xbd,0x38,0xfe,0xe1,0xbd,0xf0,0x94,0x64,0xbe,0x1e,0x83,0x81,0xbd,0x90,0xda,0xf6,0x3d,0xc0,0x06,0xea,0x3d,0x7e,0x8f,0x81,0xbe,0x2b,0xe4,0x24,0x3e,0x00,0x18,0xc9,0xbd,0x3c,0xcd,0xb0,0xbd,0x8b,0x43,0x44,0x3e,0x8b,0xcf,0xcf,0x3d,0xe4,0x72,0x0e,0xbe,0x62,0xad,0x70,0x3d,0x1c,0x59,0x3d,0x3e,0x0f,0xed,0x65,0x3e,0x8a,0x70,0x6d,0xbe,0x4c,0x07,0x67,0xbe,0xa8,0x8e,0x08,0x3e,0xfd,0xcb,0xca,0xbc,0x54,0x10,0x49,0x3e,0x60,0xe9,0xd3,0xbc,0xa8,0x77,0x14,0x3e,0xe4,0x3f,0x2a,0xbe,0xc8,0x1b,0x95,0x3d,0xd0,0x0e,0x21,0x3d,0xfc,0x35,0x5b,0x3e,0xa0,0xe2,0x9b,0xbd,0xdd,0xd6,0xda,0xbd,0x70,0xa5,0x46,0x3d,0xab,0x2b,0x69,0xbd,0xe9,0xaa,0x63,0xbe,0x10,0x67,0x50,0x3d,0x00,0x31,0x15,0x3e,0x5f,0x83,0x4d,0x3e,0x00,0x0a,0x3e,0x3d,0xac,0x42,0x12,0xbe,0xc8,0x5d,0x0a,0x3e,0xad,0xe1,0xcf,0xbd,0xc9,0x8f,0x9c,0x3d,0x54,0x8f,0x72,0xbe,0x14,0x02,0x1e,0x3e,0x10,0xdf,0x7a,0xbe,0x40,0xc1,0x83,0x3c,0x64,0x73,0x6d,0xbe,0xdc,0x0d,0x64,0x3e,0xc4,0xc1,0x79,0xbe,0x60,0x30,0x8f,0xbe,0xfc,0xae,0x71,0xbf,0xfc,0x3f,0xca,0xbc,0x71,0xbb,0x3e,0xbe,0x1d,0xa8,0xf3,0xbe,0x77,0xff,0xcf,0xbe,0xae,0x43,0xf3,0x3c,0x34,0xc7,0xaf,0x3f,0x51,0x4d,0xe3,0x3d,0x74,0xa4,0x8b,0x3e,0xca,0x2b,0x5a,0x3e,0x10,0x64,0xba,0x3d,0xc7,0x66,0xe6,0x3e,0x54,0xa9,0x2b,0xbe,0x66,0xe5,0x73,0xbe,0x46,0x07,0x00,0xbf,0x45,0x9d,0x29,0xbf,0x86,0x9a,0xe9,0x3c,0x0a,0x9e,0xee,0xbe,0x88,0x96,0xac,0xbf,0x03,0x79,0xd6,0xbd,0x46,0xa0,0x1e,0x3e,0x1a,0x8e,0x83,0xbe,0x8f,0x8f,0x34,0xbf,0x3c,0x49,0x45,0xbf,0xc8,0xe8,0xcf,0x3a,0x6f,0x9f,0xd9,0xbd,0x8d,0x08,0xfd,0xbc,0x9b,0x55,0x8e,0xbe,0x08,0x5c,0x8b,0xbe,0x85,0xb8,0xe4,0xbd,0x97,0x75,0xa3,0xbe,0xb2,0x55,0x17,0xbd,0x9b,0x22,0xc2,0x3f,0xd4,0xb1,0x25,0x3e,0x56,0xa3,0x92,0x3e,0xf7,0xa4,0x19,0x3e,0xc7,0x28,0xb0,0x3e,0xbe,0x84,0xb4,0x3e,0xa0,0x28,0x89,0x3e,0x15,0xa1,0xc4,0x3e,0xe1,0x25,0xc4,0xbe,0x16,0x2e,0xdc,0x3c,0xce,0x03,0x66,0xbc,0x12,0x19,0x09,0x3f,0xfb,0x14,0x15,0xbf,0xfb,0xee,0x84,0xbd,0x6b,0x93,0xef,0x3e,0x61,0x92,0x00,0x40,0x24,0x48,0xb2,0x3e,0xcb,0x91,0xbb,0x3e,0x7c,0x3a,0x43,0xbe,0xda,0xcb,0x24,0xbe,0xd0,0xd5,0x01,0xbf,0xbd,0xc1,0xc1,0x3e,0x67,0xa9,0x40,0xbe,0xa6,0xda,0x4f,0xbe,0x8f,0xab,0xed,0x3e,0x58,0x73,0x30,0x3f,0x4a,0xc5,0xbc,0x3c,0x7a,0xb5,0xf1,0xbe,0x03,0x8b,0x0c,0x3f,0xda,0xe3,0xbb,0x3d,0xf4,0x1a,0x12,0x3e,0x70,0x02,0x1a,0x3f,0xc9,0xac,0x27,0x3f,0xf1,0xaf,0x6d,0x3e,0xfb,0xab,0xf4,0x3e,0x93,0xf6,0x19,0x3e,0xa2,0xc0,0x42,0x3f,0xbc,0xbf,0x70,0xbe,0x45,0x9f,0x37,0x3e,0xba,0x09,0xa4,0xbe,0x81,0xd8,0x99,0x3d,0x00,0xa8,0x6b,0x3e,0xf9,0xd7,0x5f,0x3e,0x3b,0x9d,0x80,0xbe,0x4e,0x2d,0x51,0xbc,0x16,0xef,0x74,0xbf,0xc6,0x75,0xd3,0x3e,0xa3,0x2f,0x37,0x3f,0x03,0xe4,0x1b,0x3f,0xc6,0x0f,0x35,0x3f,0x79,0x3e,0xde,0x3e,0xb6,0x4e,0x36,0x3e,0x06,0x17,0x8c,0x3e,0xe7,0x79,0x16,0xbe,0xf7,0xe9,0xd8,0x3e,0xdc,0x06,0x89,0x3e,0x4c,0x53,0x03,0x3f,0x2e,0xe8,0xa0,0x3d,0x41,0x50,0x04,0xbe,0x09,0xf9,0x9b,0x3e,0x40,0x37,0x59,0xbd,0xd8,0xfe,0x28,0x3f,0xd8,0xeb,0x55,0x3f,0xfc,0x6d,0x92,0x3c,0x7d,0x61,0x58,0x3f,0x9f,0xeb,0x6a,0x3d,0xc8,0xe8,0x29,0xbf,0x95,0x59,0x09,0xbc,0x6f,0xfc,0xfe,0xbe,0xfb,0x3d,0xa3,0x3d,0x6c,0x75,0x3c,0x3d,0x2b,0xd7,0xb0,0xbc,0x87,0x79,0x0a,0xbe,0x25,0x9f,0x80,0xbf,0x35,0x62,0x5e,0xbe,0x31,0xd2,0x98,0x3e,0xdd,0x77,0x01,0xbf,0x6e,0x1f,0x00,0xbd,0x81,0x7d,0x5c,0x3d,0xc6,0x50,0x8e,0x3f,0xef,0xea,0x00,0xbe,0x85,0xed,0xdf,0xbd,0x94,0xd5,0x47,0x3d,0x2e,0x02,0x0c,0xbf,0x7f,0xc8,0x58,0xbf,0x8f,0x4c,0x89,0x3e,0xc4,0xd0,0xa9,0x3e,0x27,0xbc,0x00,0xbe,0xbb,0xdf,0x03,0xbb,0x4a,0x16,0x9b,0xbe,0xe8,0x91,0x14,0xbf,0x46,0xfd,0xb0,0xbe,0x59,0xbf,0x81,0xbe,0xcf,0x65,0x8b,0x3f,0x5a,0x96,0x79,0xbe,0x11,0xe5,0x0a,0x3e,0x23,0xc7,0x07,0x3f,0x54,0xa3,0x50,0xbf,0xf7,0xf6,0x4d,0xbf,0xfe,0x1c,0x48,0xbc,0xdf,0xb7,0x46,0xbf,0xd7,0x67,0x16,0xbf,0x53,0x5a,0xb2,0x3d,0xc0,0xfe,0xe8,0xbc,0xf2,0xee,0xc3,0x3f,0xf1,0xd7,0xbc,0x3c,0x20,0x7a,0x6c,0xbf,0x98,0x0f,0xe0,0xbb,0x3b,0x97,0xc0,0x3e,0x24,0x27,0x09,0xbf,0xcd,0xdc,0xf5,0x3e,0xe7,0x2d,0xc4,0x3e,0xbb,0xe3,0x01,0xbf,0xfc,0x0b,0x11,0xbf,0x00,0x94,0x00,0x3e,0xa3,0x86,0x6e,0x3e,0x71,0x17,0x5d,0xbf,0x52,0x7f,0x6c,0xbe,0xd4,0x7c,0xd5,0x3d,0x9d,0x76,0x30,0xbd,0x9f,0xa2,0xf8,0xbe,0xb8,0xbf,0x1d,0x3e,0xb3,0x45,0x08,0xbf,0x6a,0x41,0x8c,0x3d,0x80,0xa4,0x99,0x3e,0xc2,0xdb,0x14,0xc0,0x0b,0x7d,0x66,0xbf,0xe4,0xcf,0xe4,0x3e,0x12,0x7b,0x5c,0x3f,0xc0,0xc9,0x6c,0xbf,0xed,0x56,0x0a,0xbf,0xd8,0x9c,0x86,0x3e,0xf2,0x49,0x0c,0xbf,0xf6,0x06,0x5c,0x39,0x5f,0xb7,0x12,0x3e,0x95,0x15,0x01,0xbe,0x0c,0x00,0xb5,0xbe,0x2b,0x6b,0x79,0xbf,0xcf,0x1b,0x0e,0x40,0x98,0x9f,0x15,0x3e,0xb9,0xb3,0x81,0xbe,0xca,0x95,0xa2,0x40,0x26,0xb4,0x85,0x3e,0x11,0x68,0x02,0x40,0x57,0xe5,0x40,0xbf,0x42,0x67,0x5a,0xbf,0x92,0x4c,0x4b,0x3e,0x93,0xb9,0x85,0xbe,0x8b,0xf3,0xf4,0xbf,0xc2,0x2d,0x9a,0xbc,0x1c,0x0b,0x9a,0x3e,0x95,0x3f,0xe1,0x3d,0x58,0x9c,0x1e,0xbf,0xcc,0xdf,0x08,0x3d,0x92,0xf3,0x25,0xbf,0x8d,0xc1,0x81,0xbd,0x6c,0x79,0x1a,0xbf,0xb6,0x3c,0xd9,0x3f,0xa3,0x35,0xd6,0x3e,0xc9,0x63,0x4b,0xbc,0x58,0x82,0x1a,0xbe,0xff,0x99,0xc5,0xbe,0xd1,0x87,0x54,0x3e,0x2e,0x66,0x56,0x3e,0x1c,0xb4,0x98,0xbd,0xbc,0x14,0xd7,0xbb,0xc1,0x67,0xbb,0xbb,0x2c,0xd8,0xbd,0x3e,0x8d,0x16,0x83,0x3d,0xc3,0xde,0xb5,0xbe,0x4e,0x0d,0x1d,0xbe,0xa3,0x63,0xc9,0x3d,0x57,0x3b,0x1d,0x3e,0x20,0x34,0xfd,0xbd,0x60,0x7d,0x4a,0xbe,0xdc,0xf7,0x2d,0x3e,0x4a,0xcc,0x1d,0x3c,0xa5,0xdc,0x79,0x3e,0xc6,0x77,0xb0,0xbc,0xce,0xbe,0x29,0xbd,0x3c,0x17,0x60,0xbd,0x81,0x2e,0xae,0x3e,0x1e,0x4f,0x81,0x3e,0x92,0x73,0xed,0x3d,0x24,0xc6,0x90,0xbe,0xd4,0x58,0x87,0xbe,0xa5,0x07,0x7a,0x3d,0xae,0x13,0xb6,0x3c,0xa2,0xdc,0x5c,0xbe,0x38,0x54,0x4c,0xbe,0xae,0xbb,0x77,0xbe,0x31,0x8a,0x02,0xbe,0xe2,0x7b,0x81,0xbf,0x75,0xa8,0xa9,0x3e,0xe0,0xf6,0x4d,0xbe,0xcc,0x63,0x22,0x3f,0xe8,0xff,0x73,0x3e,0x38,0x15,0x87,0x3e,0x1d,0x4f,0x3c,0xbe,0x7e,0x95,0x13,0x3f,0xf6,0x4f,0x13,0xbf,0xac,0x2e,0xd0,0xbd,0x36,0xce,0xfe,0xbd,0x4d,0xac,0xd9,0xbe,0xf0,0x54,0xc3,0x3e,0x78,0x56,0x25,0xbe,0x18,0x01,0x93,0xbe,0x07,0x22,0x64,0xbf,0xab,0xe8,0x2d,0xbe,0xed,0x7b,0x1f,0x3e,0xbf,0xe5,0x77,0x3e,0xdc,0x51,0xfd,0x3e,0xab,0x0d,0x4e,0xbe,0x3a,0xab,0xfb,0x3e,0xff,0x9f,0x68,0xbe,0x32,0x69,0xa7,0x3e,0x2e,0xd5,0x81,0x3e,0x5f,0x3f,0x7c,0xbd,0x5a,0x41,0x13,0xbe,0xc6,0x85,0x4a,0xbe,0xe9,0xaf,0x3c,0x3e,0x18,0x92,0x05,0xbf,0x10,0x4d,0x2e,0x3e,0x21,0xcd,0xdb,0x3e,0x07,0xa5,0xbc,0x3e,0xf3,0x6f,0x7d,0x3d,0xc5,0x0d,0xe3,0xbc,0x78,0xe2,0xad,0x3d,0x66,0xf4,0x85,0x3f,0x12,0xf2,0xfd,0xbe,0x21,0xa8,0x26,0x3f,0xab,0x58,0xc4,0xbd,0x32,0x56,0x1d,0x3e,0xcd,0x2e,0x9c,0xbe,0x67,0x87,0x0f,0x3e,0x47,0x2d,0x6c,0xbf,0x0c,0xad,0xb6,0x3e,0xef,0xe2,0x19,0xbf,0x6a,0x69,0xcb,0x3e,0x2d,0x12,0x55,0x3f,0x03,0x5e,0xb9,0x3e,0x94,0x52,0x39,0x3f,0xa7,0xa4,0xc5,0x3e,0xdd,0x24,0x3d,0x3e,0x2a,0xcb,0x05,0xbe,0xc7,0x05,0xaf,0xbc,0x86,0xe3,0x7c,0x3e,0x8e,0x03,0x74,0x3e,0xf3,0x1d,0x8d,0x3e,0xf4,0xe2,0x4e,0x3e,0xb4,0xdb,0x8b,0xbe,0xf3,0x19,0x07,0xbc,0xfa,0x28,0x99,0x3d,0xb2,0xe3,0xf5,0x3e,0x5e,0xb8,0x68,0x3e,0x7b,0x6c,0x19,0x3f,0xd0,0x05,0x91,0x3f,0xb8,0xb6,0x58,0x3e,0x97,0x31,0xd9,0xbe,0x24,0x94,0xf5,0x3e,0x6d,0x7b,0xbd,0xbe,0xbd,0x81,0xba,0xbc,0x9d,0x72,0x0a,0x3f,0xac,0x12,0xa4,0x3e,0x4f,0x88,0x16,0xbf,0xf1,0x57,0xbc,0xbf,0x73,0x54,0xa9,0x3d,0x37,0x9b,0xbf,0xbd,0x1d,0x4c,0x96,0xbe,0xa3,0x0e,0x7d,0x3f,0x97,0x31,0x49,0xbe,0xa3,0x5e,0xcb,0x3f,0xa0,0xbf,0xa4,0x3e,0x32,0x91,0xd5,0x3e,0xb6,0x3c,0x8a,0x3d,0xff,0x60,0x2b,0xbf,0xd1,0x2a,0xba,0xbf,0xa4,0x9b,0x3f,0x3e,0xab,0x4b,0xb8,0x3e,0x50,0x4c,0xc8,0x3e,0x57,0x78,0x8a,0x3e,0x9f,0x9c,0xe5,0xbe,0xdb,0x36,0x3b,0xbf,0x68,0x8f,0xab,0xbe,0x4d,0xad,0x1f,0xbf,0x81,0x62,0xf4,0xbe,0xd4,0x06,0x1f,0xbd,0x1f,0xeb,0x4b,0x3e,0xef,0x10,0x20,0xbe,0x6d,0x05,0x9a,0x3e,0xa8,0x10,0x39,0x3e,0xe8,0x38,0x34,0x3f,0xad,0x7b,0x9c,0xbe,0x4a,0xca,0x94,0x3e,0xd8,0xaa,0x06,0x3e,0xe2,0xf0,0xe5,0x3e,0xb7,0x5e,0x25,0xbf,0x69,0x1a,0x92,0xbe,0xb5,0x26,0xff,0x3d,0x87,0x44,0x7c,0xbe,0xca,0x89,0x8a,0xbd,0x8d,0xc9,0x0b,0x3e,0x86,0x73,0x9b,0xbe,0x09,0xe6,0x0f,0xbe,0x38,0x3c,0x68,0x3e,0xfb,0x44,0x97,0x3d,0xd9,0xf1,0x42,0xbb,0xb0,0xe2,0x1e,0xbf,0xaf,0x2c,0x04,0xbf,0x71,0x00,0x8c,0x3e,0xca,0x5f,0x9a,0x3e,0x42,0x4f,0x3f,0x3e,0x60,0xa1,0x52,0x3e,0x2c,0x61,0x1f,0xbe,0x37,0xc1,0xd4,0xbe,0x7d,0x73,0xfb,0xbe,0x76,0x14,0xe9,0xbe,0xb9,0x55,0xfd,0xbd,0x1a,0x45,0xad,0x3e,0xc3,0x95,0xc7,0xbd,0xe8,0xef,0x86,0xbe,0xc2,0x0c,0x70,0x3e,0x6f,0x9b,0x86,0x3e,0x17,0xd3,0xed,0xbd,0xf6,0x27,0x01,0x3e,0xa0,0x15,0x4f,0xbd,0xa9,0xd9,0xb7,0x3d,0x4e,0xf7,0xd1,0xbc,0xba,0xdc,0xed,0xbe,0xaf,0x22,0xbc,0x3e,0x7e,0x54,0x9c,0x3e,0xca,0x43,0x87,0xbe,0xd1,0xc9,0xe4,0x3d,0x06,0xda,0x81,0xbe,0xce,0x39,0x3c,0xbe,0xe4,0x84,0xbd,0xbf,0x82,0xfe,0x6d,0x3e,0x66,0x95,0x49,0x3d,0x29,0xac,0x08,0x3d,0x51,0xde,0xe5,0x3d,0x21,0x9d,0xc5,0x3d,0xa4,0x1f,0x5d,0xbd,0xc3,0x2c,0x69,0xbe,0x15,0x3b,0x16,0xbe,0x9a,0x56,0xc6,0x3e,0xd4,0xcd,0x9e,0x3d,0xec,0x14,0xfb,0x3e,0xcb,0x04,0x8f,0x3d,0x7e,0x99,0xdb,0x3d,0x2a,0x30,0x4d,0xbf,0xb5,0xf8,0x8e,0x3e,0xce,0xb8,0xf3,0x3e,0xf2,0xbf,0xee,0x3e,0xe6,0xeb,0xc1,0x3e,0xe3,0xfe,0xf0,0x3d,0xbd,0xf4,0xda,0xbe,0x99,0x06,0x16,0x3f,0x56,0x47,0x04,0xbf,0x92,0x18,0x1b,0x3f,0x4a,0x4e,0xb9,0xbd,0x24,0x6b,0xc8,0xbe,0x42,0x4e,0x73,0x3d,0x23,0x5e,0xe2,0xbd,0xe5,0x2f,0x40,0xbf,0x4a,0x97,0xbd,0x3e,0xc3,0xd4,0x52,0x3e,0x30,0x15,0x2d,0x3f,0xeb,0xa2,0xb8,0x3e,0x29,0xe3,0xe3,0x3d,0x1e,0x6e,0x00,0x3f,0x7c,0x89,0x0d,0x3e,0xd5,0xa6,0x9c,0x3e,0xb9,0x30,0xcc,0x3c,0xc3,0x4f,0x84,0xbe,0x4a,0x17,0xa6,0x3e,0xaf,0x72,0xed,0x3e,0x98,0xd2,0x02,0x3e,0xf2,0x16,0xd3,0x3e,0x23,0x16,0x12,0x3d,0x78,0xb2,0xdc,0x3d,0x41,0xba,0xb8,0xbe,0x67,0x0a,0x71,0xbd,0x0a,0xe6,0xaf,0x3e,0x6f,0xcc,0x3f,0x3f,0x8a,0x35,0x9a,0x3f,0xea,0x57,0xb3,0x3e,0x35,0x69,0x5b,0x3d,0xde,0x23,0x40,0x3e,0x49,0x78,0x6c,0x3e,0xb4,0xf6,0x22,0x3d,0xfd,0x9a,0xe4,0x3e,0x1b,0xab,0x7a,0xbd,0xd5,0xcd,0x0d,0xbe,0x76,0xbd,0x7e,0xbf,0xa7,0xfe,0x82,0xbd,0x1e,0x6d,0x65,0xbe,0xc8,0x1a,0x4a,0xbc,0x7b,0x3b,0x52,0x3d,0x93,0x29,0xef,0x3d,0x3c,0xe2,0xd2,0x3f,0x80,0x2e,0xc2,0x3d,0xcb,0x8c,0x41,0xbd,0xeb,0x65,0x3d,0x3e,0x6d,0x8e,0x2f,0xbf,0x5f,0xaa,0x8a,0xbe,0x67,0xc6,0xc7,0x3e,0xd2,0x14,0x61,0x3e,0x27,0x84,0x64,0x3e,0xfb,0xb2,0x08,0x3e,0x10,0x92,0x5d,0xbe,0xe1,0x0f,0x86,0xbf,0x5e,0xc6,0xae,0xbe,0x12,0x84,0xce,0xbe,0x95,0xb0,0xc4,0xbd,0xb5,0x18,0xa2,0x3e,0x31,0xec,0x24,0xbf,0xe8,0x4b,0xb3,0xbf,0x94,0xff,0xe6,0x3d,0x43,0x7c,0x41,0xbd,0x7f,0x42,0x32,0x3e,0x81,0x59,0xbc,0x3e,0x47,0x6e,0xf9,0x3d,0xfb,0xeb,0x0e,0xbf,0x81,0x9e,0xf8,0xbd,0xbc,0x34,0x3b,0xbf,0x94,0xe5,0xe7,0xbd,0xbb,0xf1,0x3c,0xbd,0xff,0x69,0x6a,0xbe,0x74,0xa2,0xab,0xbd,0x31,0x29,0x87,0x3e,0x98,0x9a,0xc2,0x3f,0xb0,0x41,0x82,0xbe,0x58,0x93,0x2c,0xbd,0xb9,0xaf,0x25,0xbd,0xcc,0xdb,0x2b,0xbf,0x8d,0xc8,0xc8,0x3c,0xdd,0x3d,0xd0,0xbe,0x84,0x06,0xa0,0xbd,0xe2,0xe2,0x13,0xbf,0xe4,0xd7,0x50,0x3e,0x03,0x2f,0x2d,0x3e,0x19,0x07,0x21,0x3f,0x17,0x10,0xc3,0x3e,0x3f,0x64,0xb8,0x3e,0xcb,0xab,0x0e,0x3e,0xfa,0x40,0x29,0x3d,0x07,0x60,0x02,0xbe,0x56,0x29,0x95,0x3e,0xa3,0xf5,0xee,0x3e,0xbd,0x51,0xc1,0xbe,0xb3,0xe3,0x86,0xbc,0x9e,0xa0,0xa5,0xbf,0x9f,0x64,0xdf,0xbd,0xdd,0x74,0xbb,0xbe,0x92,0x5f,0x5b,0x3e,0x46,0xe4,0x29,0xbf,0xc3,0x55,0x8f,0x3e,0xa0,0x63,0x36,0x3f,0xbd,0x7c,0x68,0x3d,0x66,0xb5,0x5d,0x3f,0xdc,0x96,0xad,0xbe,0x6c,0x3b,0xc7,0xbe,0x7e,0x15,0x3d,0x3e,0x28,0x6e,0x39,0xbe,0x2e,0x8c,0x25,0x3e,0x09,0xd9,0xb5,0x3e,0xab,0xe9,0x0d,0x3d,0x26,0x4c,0x5e,0xbd,0x4b,0x25,0x01,0x3f,0x80,0xf2,0x4d,0xbf,0x38,0x64,0x92,0x3e,0x62,0x7f,0x17,0xbe,0x62,0x6b,0x6e,0xbe,0x29,0x91,0xcd,0xbe,0x3d,0xa3,0x3a,0x3f,0xc4,0x28,0xa0,0xbe,0xa1,0xcb,0xb9,0x3d,0xaf,0x5e,0x34,0x3f,0x17,0xd8,0x2b,0xbd,0x58,0x0b,0x66,0x3e,0x03,0x34,0x0a,0xbe,0x4b,0x5e,0x8a,0x3f,0xa3,0x70,0x5d,0xbe,0xf9,0x84,0xa7,0x3e,0x6d,0x7e,0xa1,0xbf,0x0b,0x53,0x32,0x3f,0x1c,0xf7,0x60,0xbe,0x9c,0xc5,0x6b,0x3e,0x56,0x6a,0x58,0xbe,0x5a,0x90,0x2f,0xbd,0x00,0x42,0xbc,0xbf,0x7d,0x55,0x88,0xbe,0xe4,0x0c,0x1c,0x3e,0x6b,0x1a,0x09,0x40,0x82,0xe4,0x24,0xbd,0xd2,0x08,0xd9,0xbd,0x9a,0xfb,0x79,0xc0,0xd0,0x4a,0x06,0xc0,0xd9,0xf3,0x5a,0x3e,0xee,0x78,0x1a,0x3a,0x19,0x5c,0x00,0xbf,0x8a,0xff,0x29,0x3f,0x4a,0x42,0x46,0x3e,0xb0,0x9d,0x81,0xbd,0xcd,0x46,0x7d,0xc0,0xff,0x76,0xbe,0x3d,0xa3,0xf2,0x34,0xbc,0xc6,0xa5,0x9c,0x3d,0x4f,0xcc,0x3c,0xbe,0x84,0x8e,0x4d,0xbf,0x79,0xa5,0xaf,0xbf,0xb3,0x8d,0x52,0x3c,0x80,0x99,0x41,0xbf,0x6f,0x6d,0xcf,0x3f,0xab,0x86,0xa6,0x40,0x20,0xe8,0x10,0x3e,0x60,0xc9,0x73,0xbc,0xae,0xc2,0x69,0x3e,0x46,0x12,0xbd,0x3d,0x56,0xbd,0xc9,0xbd,0x38,0x25,0x6e,0xbf,0xcd,0xe0,0x48,0x3f,0x55,0xc0,0x82,0x3f,0x5d,0xba,0x66,0xbe,0x46,0x09,0x88,0x3e,0xac,0xad,0x82,0xc0,0xe7,0x5c,0x51,0xbe,0x9e,0x13,0x76,0xbf,0x84,0xf4,0x91,0xbf,0x5c,0xdf,0xa0,0xbe,0x68,0x2e,0x5d,0x3e,0x83,0x83,0x11,0x3f,0x44,0xd8,0xea,0x3e,0x70,0xf9,0x56,0x3e,0x01,0xfb,0x90,0xbe,0x5f,0xea,0xac,0x3d,0x99,0xc3,0xae,0xbf,0x4b,0x69,0xc2,0x3e,0x05,0xfb,0xb6,0x3e,0xb5,0xd9,0xa9,0x3e,0xe9,0x41,0xf6,0x3e,0xa6,0x25,0x8e,0xc0,0xf4,0x0f,0x72,0xbd,0xdc,0x11,0x42,0xbe,0x3b,0xd6,0x63,0x3e,0x2c,0x76,0x15,0xbe,0x96,0x7f,0x87,0xbe,0xd8,0xf9,0x30,0xbd,0x5b,0xc5,0x58,0x3e,0x19,0xf0,0x75,0xbe,0xd0,0xa0,0x37,0x3c,0xe4,0x25,0x5c,0xbd,0x9a,0x6d,0xf8,0x3d,0xd8,0x19,0x8e,0x3d,0xea,0x67,0x14,0xbe,0x05,0x29,0x46,0xbc,0xb4,0xd7,0x31,0xbd,0x80,0xbe,0x1b,0xbd,0x7f,0xf4,0xa2,0x3d,0x7d,0x2c,0x26,0xbd,0x4e,0x1d,0x67,0x3e,0x1a,0xec,0x87,0xbe,0x97,0xb3,0x80,0x3d,0x01,0x09,0x21,0x3e,0xd0,0x6c,0x46,0xbb,0x02,0x2e,0x37,0xbd,0xda,0x72,0x56,0xbe,0xbf,0x61,0xe4,0xba,0x20,0xd2,0x7b,0xbe,0xe6,0x8c,0x19,0x3e,0x0c,0x6a,0xeb,0x3d,0x1f,0xca,0xc6,0x3d,0xea,0x4a,0x85,0xbe,0xc7,0xf0,0x83,0xbe,0x29,0xe1,0x0e,0xbe,0xb7,0xd3,0xd4,0x3d,0x34,0xc7,0x79,0x3d,0x49,0xf0,0x4d,0xbd,0x47,0x4a,0x07,0x3e,0xd7,0xce,0x90,0xbe,0xa8,0x66,0x01,0xbe,0xfe,0x21,0x10,0xbe,0x6d,0x38,0xa0,0x3c,0x84,0xa7,0x28,0xbd,0x7f,0x38,0x9b,0x3d,0x7b,0xc9,0xf4,0xbc,0x0e,0x85,0x72,0xbe,0x9a,0xba,0xe8,0xbd,0xf3,0xbf,0xa4,0x3d,0x9b,0x02,0x0e,0xbe,0x95,0xa1,0x93,0xbc,0x72,0xdf,0x31,0xbe,0x34,0xa4,0x34,0x3c,0x60,0x64,0xec,0x3d,0x63,0x64,0x82,0xbe,0x6a,0xf2,0x18,0xbe,0x4e,0x47,0xd4,0xbd,0xee,0x66,0xf8,0x3d,0xac,0xda,0x5f,0xbe,0x0d,0x48,0x4c,0x3e,0xc8,0x8c,0x7d,0xbe,0x9f,0x5b,0xdc,0xbd,0xf6,0x47,0x9e,0xbc,0x3d,0x82,0x11,0x3d,0x95,0x76,0xf5,0xbd,0x9c,0x57,0xc7,0xbb,0x42,0xa9,0x57,0xbe,0x02,0xfa,0xe1,0x3b,0x29,0x21,0x2b,0xbe,0xae,0x25,0x87,0xbd,0x42,0x8d,0xb8,0xbe,0xf1,0xf5,0xc4,0x3e,0x7d,0xff,0xa8,0x3e,0x5b,0x46,0xf9,0x3d,0x2d,0xce,0x3b,0x3e,0x6c,0xde,0x4a,0xba,0xf0,0x37,0x46,0xbf,0xc0,0xd0,0x9c,0xbe,0xf6,0x70,0x06,0x3e,0x9a,0x82,0x2a,0xbe,0xae,0x00,0x60,0x3e,0x72,0x55,0x88,0x3e,0x25,0x59,0x4f,0x3f,0x2f,0x14,0x0c,0xbe,0x0a,0xd6,0xa1,0x3e,0xcb,0x73,0xde,0xbd,0x9c,0xf0,0xb4,0x3e,0x6d,0x53,0x13,0x3f,0xe7,0xed,0x40,0xbf,0xa7,0x23,0x80,0x3e,0x75,0xa2,0x45,0x3d,0x89,0xff,0x94,0xbc,0x22,0x3b,0x94,0x3d,0x5e,0x73,0xe5,0x3e,0x6e,0x44,0xa7,0xbe,0xa7,0x31,0xa6,0x3e,0x50,0xd9,0x09,0xba,0x4d,0x8b,0x99,0xbd,0x86,0xa2,0x35,0x3e,0x9b,0xaf,0xa6,0xbc,0x34,0x39,0xfd,0xbb,0x62,0x84,0xb1,0xbd,0x8f,0x6d,0x33,0x3e,0x0c,0x24,0xb1,0xbf,0xb7,0x9b,0x8e,0xbe,0x9b,0xec,0xed,0xbe,0xf5,0xb7,0x4b,0x3d,0xe9,0x31,0xc4,0xbe,0xc2,0xbc,0x29,0x3f,0xc3,0xf3,0xe6,0x3e,0x20,0xdb,0x6a,0xbe,0x12,0xc5,0x90,0x3f,0x8f,0xd3,0xbf,0xbe,0x93,0x90,0x28,0xbf,0x05,0xa4,0xbd,0xbe,0xb1,0xe1,0xc7,0x3e,0x9f,0xea,0x64,0xbe,0x28,0xbd,0x84,0x3d,0xa1,0x42,0xc4,0xbe,0x43,0x11,0xed,0xbe,0x24,0x6c,0x0c,0x3f,0xd6,0x4f,0x94,0xbf,0xd7,0x6a,0xbe,0x3d,0xe0,0xa4,0xc5,0x3c,0x69,0xb5,0x1d,0xbd,0x93,0xf1,0x42,0xbe,0xbb,0xd7,0x30,0x3f,0x1a,0x32,0x11,0xbf,0xbf,0x5a,0x07,0xbf,0x82,0x30,0xf2,0x3e,0xd2,0xf4,0x1b,0xbe,0xaa,0xd0,0x1d,0x3e,0x32,0xe0,0x15,0x3d,0xe9,0x9f,0xb9,0xbf,0x06,0x66,0x32,0x3d,0x00,0xc5,0x9b,0x3e,0x4c,0xec,0x92,0xc0,0xa9,0xf1,0xea,0x3e,0x8c,0xa4,0xdc,0x3d,0xa5,0x6a,0xc7,0x3e,0xad,0x76,0xa2,0x3c,0x90,0x98,0xff,0xbd,0x0c,0x30,0xab,0xbe,0xd2,0xa8,0xd5,0xbd,0x41,0xcf,0x2d,0x3e,0x09,0xab,0x98,0xbd,0x4e,0xfa,0x9b,0xbe,0x30,0x4f,0x4d,0xbe,0xc0,0x0e,0x88,0x3d,0x8d,0xf4,0x06,0x3e,0x25,0x42,0xac,0x3e,0xca,0x2f,0x1f,0xbe,0x22,0x54,0xae,0xbe,0x3b,0x46,0x2f,0x3f,0x9b,0x82,0x79,0x3e,0x61,0x0c,0xc0,0x3e,0x50,0x4f,0x32,0xbf,0x36,0xf8,0x09,0x3e,0x08,0x0c,0xa9,0xbd,0xe1,0xea,0x46,0x3e,0xfb,0x8c,0xc6,0x3c,0x2e,0xd4,0x06,0xbf,0xb6,0xf3,0xb0,0xbe,0xd1,0xdf,0x3d,0xbe,0xce,0x7c,0x64,0xbf,0x60,0x2c,0xeb,0x3f,0x59,0x9f,0x07,0x3d,0x1e,0x8b,0x03,0x3f,0x44,0xae,0xbb,0x3f,0x5c,0xd8,0xbf,0x3e,0xf9,0xa4,0x01,0x3d,0x44,0xf8,0xda,0x3e,0x99,0xb3,0x90,0xbf,0x51,0x49,0x75,0x3e,0x8c,0xd8,0x07,0xbb,0xe6,0x4f,0xa6,0xbe,0xbe,0x14,0x95,0x3e,0x47,0xa3,0x11,0xc0,0x13,0xd4,0xd4,0xbe,0x3f,0xc1,0x81,0xbf,0xf7,0xf0,0x32,0x3f,0x43,0xc3,0x45,0x40,0x37,0x56,0x6d,0xbc,0xb8,0x67,0xc9,0x3d,0x2a,0xb0,0x12,0xbe,0x3b,0x72,0xf8,0x3e,0xf6,0xbc,0x1f,0x3e,0x65,0x57,0x18,0x3e,0xae,0x01,0x4e,0x40,0x65,0x20,0x76,0x3e,0xb2,0x22,0xcd,0xbd,0x26,0x44,0x93,0xbd,0x2c,0xde,0xf7,0xbd,0x30,0xc7,0x69,0xbf,0x14,0xfb,0xb3,0xbc,0x5a,0xfd,0xff,0xff,0x04,0x00,0x00,0x00,0x00,0x01,0x00,0x00,0x6a,0xd9,0x6a,0xbe,0xeb,0x8a,0x1a,0xbf,0x4d,0xe6,0xd4,0x3e,0x2f,0xfc,0xca,0x3e,0x7e,0x4c,0x76,0xbe,0xad,0xec,0x9f,0xbe,0x39,0x40,0x29,0x3e,0xa9,0x5b,0x94,0xbe,0xb7,0xac,0xb1,0xbe,0xca,0x53,0x11,0xbc,0xf5,0x9b,0x6b,0xbe,0x18,0xdd,0x58,0x3e,0xaf,0x09,0x34,0xbe,0x7f,0xee,0x17,0x3e,0xa6,0xc9,0x55,0x3e,0x7c,0xb3,0xee,0x3b,0x87,0x21,0xac,0x3d,0xb5,0xf7,0xef,0x3e,0x30,0xb8,0xf6,0x3d,0xf0,0xee,0xd8,0x3d,0x67,0x2a,0xd8,0x3e,0xcd,0xd9,0xab,0xbd,0x16,0x83,0xaf,0x3e,0xaa,0xfb,0x34,0xbf,0x4c,0x95,0xa8,0x3e,0xcb,0xa6,0x98,0x3d,0x8d,0x95,0x15,0xbf,0x7d,0xdb,0x60,0x3f,0x79,0x58,0x97,0x3e,0xdc,0xa3,0x92,0x3e,0x7b,0xde,0x15,0x40,0x03,0xf5,0xdf,0xbe,0xf1,0x60,0xcc,0x3f,0x0b,0x76,0x66,0x3e,0xe8,0x3f,0x84,0xbe,0x4c,0x42,0x02,0x3f,0x41,0x5d,0x44,0xbf,0x09,0xc9,0x94,0x3e,0x72,0x0e,0x1e,0xbf,0x28,0x09,0x3b,0x3f,0xf7,0x6a,0xfd,0x3d,0xf9,0x32,0x60,0x3f,0xbc,0x1a,0x7c,0xbf,0xa6,0xb3,0x29,0x3f,0x25,0xb8,0xab,0xbf,0x82,0xed,0x96,0xbe,0x0f,0xea,0xb7,0xbe,0x9e,0x2d,0xbb,0x3f,0xc6,0x1d,0x3e,0xbf,0x14,0x98,0x04,0xbf,0x46,0xaa,0x1a,0xbf,0xe6,0xcc,0x74,0xbe,0xf9,0xf3,0x5f,0xbf,0x4c,0xfa,0xa3,0x3f,0x33,0x29,0x05,0x40,0x73,0x89,0x04,0xbf,0xd5,0x59,0xa7,0x3f,0x47,0xe8,0x14,0xbf,0x32,0xd9,0xb4,0x3f,0xbb,0xdd,0xac,0x3f,0xe3,0xae,0x38,0xbf,0x7b,0x92,0x4c,0x3e,0x34,0xe3,0xd1,0xbe,0x77,0x5b,0x58,0xbf,0x66,0xfe,0xff,0xff,0x04,0x00,0x00,0x00,0x80,0x00,0x00,0x00,0x00,0x00,0x00,0x00,0x00,0x00,0x00,0x00,0x00,0x00,0x00,0x00,0x00,0x00,0x00,0x00,0x00,0x00,0x00,0x00,0x00,0x00,0x00,0x00,0x00,0x00,0x00,0x00,0x00,0x00,0x00,0x00,0x00,0x00,0x00,0x00,0x00,0x00,0x00,0x00,0x00,0x00,0x00,0x00,0x00,0x00,0x00,0x00,0x00,0x00,0x00,0x00,0x00,0x00,0x00,0x00,0x00,0x00,0x00,0x00,0x00,0x00,0x00,0x00,0x00,0x00,0x00,0x00,0x00,0x00,0x00,0x00,0x00,0x00,0x00,0x00,0x00,0x00,0x00,0x00,0x00,0x00,0x00,0x00,0x00,0x00,0x00,0x00,0x00,0x00,0x00,0x00,0x00,0x00,0x00,0x00,0x00,0x00,0x00,0x00,0x00,0x00,0x00,0x00,0x00,0x00,0x00,0x00,0x00,0x00,0x00,0x00,0x00,0x00,0x00,0x00,0x00,0x00,0x00,0x00,0x00,0x00,0x00,0x00,0x00,0x00,0x00,0x00,0xf2,0xfe,0xff,0xff,0x04,0x00,0x00,0x00,0x00,0x01,0x00,0x00,0xbb,0xba,0x06,0xbf,0x40,0x1a,0xc0,0xbe,0x85,0x42,0xeb,0xbe,0xd9,0xd0,0x00,0xbe,0xee,0x0a,0x67,0x3b,0x0d,0x44,0xd6,0x3e,0xcd,0xdc,0x60,0x3e,0x4d,0x50,0xa8,0xbd,0xb8,0xdc,0x03,0xbf,0xaf,0xcd,0x0a,0x3f,0xfc,0x0f,0xf2,0x3e,0x1e,0x69,0xa5,0x3e,0xdb,0x64,0xed,0xbd,0x27,0x49,0x73,0x3e,0xc4,0x08,0xb5,0xbe,0x1f,0xec,0xb6,0xbe,0x21,0x7f,0xa0,0xbe,0xc8,0x13,0xa0,0x3e,0xa8,0x74,0x21,0x3f,0xf9,0xe8,0xc1,0xbe,0x19,0xcc,0x28,0x3f,0xe5,0x42,0xe1,0xbe,0x92,0x22,0xdb,0xba,0xdf,0x0b,0x8c,0xbb,0x63,0xe5,0x0a,0x3f,0x49,0xf4,0x14,0xbf,0xf5,0x2a,0x71,0x3e,0xe1,0x68,0xf5,0xbe,0x07,0xe1,0x25,0xbe,0x87,0xa6,0x59,0x3f,0x6f,0xc2,0x64,0x3e,0xa9,0xe7,0x1b,0xbf,0x29,0x02,0x23,0xbf,0xd0,0x2d,0xac,0x38,0x08,0x8c,0xc4,0x3d,0x74,0x7a,0x16,0x3d,0x76,0x8d,0xf5,0x3e,0x7a,0x3e,0x57,0x3c,0xaf,0xec,0xad,0xbe,0x13,0x0d,0xa5,0xbe,0xc5,0xfb,0xc4,0x3e,0xe1,0x22,0x4a,0xbf,0x70,0x5c,0x13,0x3f,0x2f,0x6d,0x8c,0xbe,0xf7,0x4a,0xe8,0xbe,0x90,0x65,0x05,0x3f,0x85,0xef,0x00,0xbf,0xde,0x18,0x72,0xbe,0x5d,0x34,0xdb,0xbe,0x2a,0x38,0xe0,0xbe,0x1b,0x49,0xbd,0x3d,0x3b,0x21,0x8d,0x3e,0xa9,0xa0,0x68,0x3e,0xd3,0xc1,0x0d,0xbf,0xb3,0xf0,0x02,0x3f,0x8f,0x4b,0x03,0xbf,0xe9,0x52,0x81,0x3e,0x69,0x78,0x1c,0xbf,0x91,0x01,0xd8,0x3e,0xee,0xbf,0x2e,0xbf,0xc9,0x9e,0x17,0x3f,0x97,0x3c,0xb9,0xbe,0xd4,0x4e,0x57,0x3e,0xe9,0xea,0x28,0x3f,0x00,0x00,0x06,0x00,0x08,0x00,0x04,0x00,0x06,0x00,0x00,0x00,0x04,0x00,0x00,0x00,0x0c,0x00,0x00,0x00,0xff,0xff,0xff,0xff,0x02,0x00,0x00,0x00,0x20,0x00,0x00,0x00,0x38,0xf7,0xff,0xff,0x3c,0xf7,0xff,0xff,0x0f,0x00,0x00,0x00,0x4d,0x4c,0x49,0x52,0x20,0x43,0x6f,0x6e,0x76,0x65,0x72,0x74,0x65,0x64,0x2e,0x00,0x01,0x00,0x00,0x00,0x14,0x00,0x00,0x00,0x00,0x00,0x0e,0x00,0x18,0x00,0x14,0x00,0x10,0x00,0x0c,0x00,0x08,0x00,0x04,0x00,0x0e,0x00,0x00,0x00,0x14,0x00,0x00,0x00,0x1c,0x00,0x00,0x00,0xcc,0x01,0x00,0x00,0xd0,0x01,0x00,0x00,0xd4,0x01,0x00,0x00,0x04,0x00,0x00,0x00,0x6d,0x61,0x69,0x6e,0x00,0x00,0x00,0x00,0x07,0x00,0x00,0x00,0x84,0x01,0x00,0x00,0x24,0x01,0x00,0x00,0xec,0x00,0x00,0x00,0xa0,0x00,0x00,0x00,0x78,0x00,0x00,0x00,0x3c,0x00,0x00,0x00,0x04,0x00,0x00,0x00,0x02,0xff,0xff,0xff,0x14,0x00,0x00,0x00,0x00,0x00,0x00,0x08,0x10,0x00,0x00,0x00,0x14,0x00,0x00,0x00,0x04,0x00,0x00,0x00,0xc8,0xf7,0xff,0xff,0x01,0x00,0x00,0x00,0x11,0x00,0x00,0x00,0x03,0x00,0x00,0x00,0x10,0x00,0x00,0x00,0x04,0x00,0x00,0x00,0x08,0x00,0x00,0x00,0x36,0xff,0xff,0xff,0x14,0x00,0x00,0x00,0x00,0x00,0x00,0x08,0x14,0x00,0x00,0x00,0x18,0x00,0x00,0x00,0x04,0x00,0x00,0x00,0xa2,0xff,0xff,0xff,0x00,0x00,0x00,0x01,0x01,0x00,0x00,0x00,0x10,0x00,0x00,0x00,0x03,0x00,0x00,0x00,0x0f,0x00,0x00,0x00,0x05,0x00,0x00,0x00,0x07,0x00,0x00,0x00,0x9e,0xff,0xff,0xff,0x0c,0x00,0x00,0x00,0x10,0x00,0x00,0x00,0x02,0x00,0x00,0x00,0x01,0x00,0x00,0x00,0x0f,0x00,0x00,0x00,0x02,0x00,0x00,0x00,0x0e,0x00,0x00,0x00,0x09,0x00,0x00,0x00,0x92,0xff,0xff,0xff,0x1c,0x00,0x00,0x00,0x00,0x00,0x00,0x0b,0x1c,0x00,0x00,0x00,0x20,0x00,0x00,0x00,0x03,0x00,0x00,0x00,0x00,0x00,0x06,0x00,0x08,0x00,0x07,0x00,0x06,0x00,0x00,0x00,0x00,0x00,0x00,0x01,0x01,0x00,0x00,0x00,0x0e,0x00,0x00,0x00,0x02,0x00,0x00,0x00,0x0d,0x00,0x00,0x00,0x06,0x00,0x00,0x00,0x00,0x00,0x0a,0x00,0x10,0x00,0x0c,0x00,0x08,0x00,0x04,0x00,0x0a,0x00,0x00,0x00,0x0c,0x00,0x00,0x00,0x10,0x00,0x00,0x00,0x02,0x00,0x00,0x00,0x01,0x00,0x00,0x00,0x0d,0x00,0x00,0x00,0x02,0x00,0x00,0x00,0x0c,0x00,0x00,0x00,0x01,0x00,0x00,0x00,0x00,0x00,0x0e,0x00,0x1a,0x00,0x14,0x00,0x10,0x00,0x0c,0x00,0x0b,0x00,0x04,0x00,0x0e,0x00,0x00,0x00,0x20,0x00,0x00,0x00,0x00,0x00,0x00,0x01,0x28,0x00,0x00,0x00,0x2c,0x00,0x00,0x00,0x01,0x00,0x00,0x00,0x00,0x00,0x0a,0x00,0x10,0x00,0x0f,0x00,0x08,0x00,0x04,0x00,0x0a,0x00,0x00,0x00,0x01,0x00,0x00,0x00,0x01,0x00,0x00,0x00,0x00,0x00,0x00,0x01,0x01,0x00,0x00,0x00,0x0c,0x00,0x00,0x00,0x03,0x00,0x00,0x00,0x0b,0x00,0x00,0x00,0x02,0x00,0x00,0x00,0x03,0x00,0x00,0x00,0x00,0x00,0x0e,0x00,0x14,0x00,0x00,0x00,0x10,0x00,0x0c,0x00,0x0b,0x00,0x04,0x00,0x0e,0x00,0x00,0x00,0x10,0x00,0x00,0x00,0x00,0x00,0x00,0x34,0x0c,0x00,0x00,0x00,0x10,0x00,0x00,0x00,0x2c,0xf9,0xff,0xff,0x01,0x00,0x00,0x00,0x0b,0x00,0x00,0x00,0x02,0x00,0x00,0x00,0x00,0x00,0x00,0x00,0x0a,0x00,0x00,0x00,0x01,0x00,0x00,0x00,0x11,0x00,0x00,0x00,0x01,0x00,0x00,0x00,0x00,0x00,0x00,0x00,0x12,0x00,0x00,0x00,0x20,0x06,0x00,0x00,0xc8,0x05,0x00,0x00,0x68,0x05,0x00,0x00,0x14,0x05,0x00,0x00,0xd4,0x04,0x00,0x00,0x94,0x04,0x00,0x00,0x50,0x04,0x00,0x00,0x14,0x04,0x00,0x00,0xd8,0x03,0x00,0x00,0x98,0x03,0x00,0x00,0x38,0x03,0x00,0x00,0xb8,0x02,0x00,0x00,0x44,0x02,0x00,0x00,0xd0,0x01,0x00,0x00,0x50,0x01,0x00,0x00,0xf0,0x00,0x00,0x00,0x60,0x00,0x00,0x00,0x04,0x00,0x00,0x00,0x3e,0xfa,0xff,0xff,0x00,0x00,0x00,0x01,0x14,0x00,0x00,0x00,0x1c,0x00,0x00,0x00,0x1c,0x00,0x00,0x00,0x12,0x00,0x00,0x00,0x34,0x00,0x00,0x00,0x02,0x00,0x00,0x00,0xff,0xff,0xff,0xff,0x02,0x00,0x00,0x00,0xc8,0xf9,0xff,0xff,0x1b,0x00,0x00,0x00,0x53,0x74,0x61,0x74,0x65,0x66,0x75,0x6c,0x50,0x61,0x72,0x74,0x69,0x74,0x69,0x6f,0x6e,0x65,0x64,0x43,0x61,0x6c,0x6c,0x5f,0x31,0x3a,0x30,0x00,0x02,0x00,0x00,0x00,0x01,0x00,0x00,0x00,0x02,0x00,0x00,0x00,0x96,0xfa,0xff,0xff,0x00,0x00,0x00,0x01,0x14,0x00,0x00,0x00,0x1c,0x00,0x00,0x00,0x1c,0x00,0x00,0x00,0x11,0x00,0x00,0x00,0x68,0x00,0x00,0x00,0x02,0x00,0x00,0x00,0xff,0xff,0xff,0xff,0x20,0x00,0x00,0x00,0x20,0xfa,0xff,0xff,0x4e,0x00,0x00,0x00,0x73,0x65,0x71,0x75,0x65,0x6e,0x74,0x69,0x61,0x6c,0x5f,0x31,0x2f,0x64,0x65,0x6e,0x73,0x65,0x5f,0x31,0x2f,0x4d,0x61,0x74,0x4d,0x75,0x6c,0x3b,0x73,0x65,0x71,0x75,0x65,0x6e,0x74,0x69,0x61,0x6c,0x5f,0x31,0x2f,0x64,0x65,0x6e,0x73,0x65,0x5f,0x31,0x2f,0x52,0x65,0x6c,0x75,0x3b,0x73,0x65,0x71,0x75,0x65,0x6e,0x74,0x69,0x61,0x6c,0x5f,0x31,0x2f,0x64,0x65,0x6e,0x73,0x65,0x5f,0x31,0x2f,0x41,0x64,0x64,0x00,0x00,0x02,0x00,0x00,0x00,0x01,0x00,0x00,0x00,0x20,0x00,0x00,0x00,0x22,0xfb,0xff,0xff,0x00,0x00,0x00,0x01,0x14,0x00,0x00,0x00,0x1c,0x00,0x00,0x00,0x1c,0x00,0x00,0x00,0x10,0x00,0x00,0x00,0x38,0x00,0x00,0x00,0x02,0x00,0x00,0x00,0xff,0xff,0xff,0xff,0x40,0x00,0x00,0x00,0xac,0xfa,0xff,0xff,0x1e,0x00,0x00,0x00,0x73,0x65,0x71,0x75,0x65,0x6e,0x74,0x69,0x61,0x6c,0x5f,0x31,0x2f,0x66,0x6c,0x61,0x74,0x74,0x65,0x6e,0x5f,0x31,0x2f,0x52,0x65,0x73,0x68,0x61,0x70,0x65,0x00,0x00,0x02,0x00,0x00,0x00,0x01,0x00,0x00,0x00,0x40,0x00,0x00,0x00,0x7e,0xfb,0xff,0xff,0x00,0x00,0x00,0x01,0x14,0x00,0x00,0x00,0x20,0x00,0x00,0x00,0x20,0x00,0x00,0x00,0x0f,0x00,0x00,0x00,0x54,0x00,0x00,0x00,0x03,0x00,0x00,0x00,0xff,0xff,0xff,0xff,0x02,0x00,0x00,0x00,0x20,0x00,0x00,0x00,0x0c,0xfb,0xff,0xff,0x34,0x00,0x00,0x00,0x73,0x65,0x71,0x75,0x65,0x6e,0x74,0x69,0x61,0x6c,0x5f,0x31,0x2f,0x63,0x6f,0x6e,0x76,0x31,0x64,0x5f,0x31,0x2f,0x52,0x65,0x6c,0x75,0x3b,0x73,0x65,0x71,0x75,0x65,0x6e,0x74,0x69,0x61,0x6c,0x5f,0x31,0x2f,0x63,0x6f,0x6e,0x76,0x31,0x64,0x5f,0x31,0x2f,0x61,0x64,0x64,0x00,0x00,0x00,0x00,0x03,0x00,0x00,0x00,0x01,0x00,0x00,0x00,0x02,0x00,0x00,0x00,0x20,0x00,0x00,0x00,0xfa,0xfb,0xff,0xff,0x00,0x00,0x00,0x01,0x14,0x00,0x00,0x00,0x20,0x00,0x00,0x00,0x20,0x00,0x00,0x00,0x0e,0x00,0x00,0x00,0x48,0x00,0x00,0x00,0x03,0x00,0x00,0x00,0xff,0xff,0xff,0xff,0x02,0x00,0x00,0x00,0x20,0x00,0x00,0x00,0x88,0xfb,0xff,0xff,0x29,0x00,0x00,0x00,0x73,0x65,0x71,0x75,0x65,0x6e,0x74,0x69,0x61,0x6c,0x5f,0x31,0x2f,0x63,0x6f,0x6e,0x76,0x31,0x64,0x5f,0x31,0x2f,0x63,0x6f,0x6e,0x76,0x6f,0x6c,0x75,0x74,0x69,0x6f,0x6e,0x2f,0x53,0x71,0x75,0x65,0x65,0x7a,0x65,0x00,0x00,0x00,0x03,0x00,0x00,0x00,0x01,0x00,0x00,0x00,0x02,0x00,0x00,0x00,0x20,0x00,0x00,0x00,0x6a,0xfc,0xff,0xff,0x00,0x00,0x00,0x01,0x14,0x00,0x00,0x00,0x24,0x00,0x00,0x00,0x24,0x00,0x00,0x00,0x0d,0x00,0x00,0x00,0x44,0x00,0x00,0x00,0x04,0x00,0x00,0x00,0xff,0xff,0xff,0xff,0x01,0x00,0x00,0x00,0x02,0x00,0x00,0x00,0x20,0x00,0x00,0x00,0xfc,0xfb,0xff,0xff,0x21,0x00,0x00,0x00,0x73,0x65,0x71,0x75,0x65,0x6e,0x74,0x69,0x61,0x6c,0x5f,0x31,0x2f,0x63,0x6f,0x6e,0x76,0x31,0x64,0x5f,0x31,0x2f,0x63,0x6f,0x6e,0x76,0x6f,0x6c,0x75,0x74,0x69,0x6f,0x6e,0x00,0x00,0x00,0x04,0x00,0x00,0x00,0x01,0x00,0x00,0x00,0x01,0x00,0x00,0x00,0x02,0x00,0x00,0x00,0x20,0x00,0x00,0x00,0xda,0xfc,0xff,0xff,0x00,0x00,0x00,0x01,0x14,0x00,0x00,0x00,0x24,0x00,0x00,0x00,0x24,0x00,0x00,0x00,0x0c,0x00,0x00,0x00,0x50,0x00,0x00,0x00,0x04,0x00,0x00,0x00,0xff,0xff,0xff,0xff,0x01,0x00,0x00,0x00,0x03,0x00,0x00,0x00,0x01,0x00,0x00,0x00,0x6c,0xfc,0xff,0xff,0x2c,0x00,0x00,0x00,0x73,0x65,0x71,0x75,0x65,0x6e,0x74,0x69,0x61,0x6c,0x5f,0x31,0x2f,0x63,0x6f,0x6e,0x76,0x31,0x64,0x5f,0x31,0x2f,0x63,0x6f,0x6e,0x76,0x6f,0x6c,0x75,0x74,0x69,0x6f,0x6e,0x2f,0x45,0x78,0x70,0x61,0x6e,0x64,0x44,0x69,0x6d,0x73,0x00,0x00,0x00,0x00,0x04,0x00,0x00,0x00,0x01,0x00,0x00,0x00,0x01,0x00,0x00,0x00,0x03,0x00,0x00,0x00,0x01,0x00,0x00,0x00,0xaa,0xfd,0xff,0xff,0x00,0x00,0x00,0x01,0x14,0x00,0x00,0x00,0x14,0x00,0x00,0x00,0x0b,0x00,0x00,0x00,0x00,0x00,0x00,0x02,0x40,0x00,0x00,0x00,0xd4,0xfc,0xff,0xff,0x30,0x00,0x00,0x00,0x73,0x65,0x71,0x75,0x65,0x6e,0x74,0x69,0x61,0x6c,0x5f,0x31,0x2f,0x63,0x6f,0x6e,0x76,0x31,0x64,0x5f,0x31,0x2f,0x63,0x6f,0x6e,0x76,0x6f,0x6c,0x75,0x74,0x69,0x6f,0x6e,0x2f,0x45,0x78,0x70,0x61,0x6e,0x64,0x44,0x69,0x6d,0x73,0x2f,0x64,0x69,0x6d,0x00,0x00,0x00,0x00,0x00,0x00,0x00,0x00,0x06,0xfe,0xff,0xff,0x00,0x00,0x00,0x01,0x14,0x00,0x00,0x00,0x14,0x00,0x00,0x00,0x0a,0x00,0x00,0x00,0x00,0x00,0x00,0x02,0x1c,0x00,0x00,0x00,0x30,0xfd,0xff,0xff,0x0f,0x00,0x00,0x00,0x61,0x72,0x69,0x74,0x68,0x2e,0x63,0x6f,0x6e,0x73,0x74,0x61,0x6e,0x74,0x38,0x00,0x01,0x00,0x00,0x00,0x02,0x00,0x00,0x00,0x9e,0xfe,0xff,0xff,0x00,0x00,0x00,0x01,0x10,0x00,0x00,0x00,0x10,0x00,0x00,0x00,0x09,0x00,0x00,0x00,0x1c,0x00,0x00,0x00,0x68,0xfd,0xff,0xff,0x0f,0x00,0x00,0x00,0x61,0x72,0x69,0x74,0x68,0x2e,0x63,0x6f,0x6e,0x73,0x74,0x61,0x6e,0x74,0x37,0x00,0x01,0x00,0x00,0x00,0x02,0x00,0x00,0x00,0xd6,0xfe,0xff,0xff,0x00,0x00,0x00,0x01,0x10,0x00,0x00,0x00,0x10,0x00,0x00,0x00,0x08,0x00,0x00,0x00,0x1c,0x00,0x00,0x00,0xa0,0xfd,0xff,0xff,0x0f,0x00,0x00,0x00,0x61,0x72,0x69,0x74,0x68,0x2e,0x63,0x6f,0x6e,0x73,0x74,0x61,0x6e,0x74,0x36,0x00,0x01,0x00,0x00,0x00,0x20,0x00,0x00,0x00,0x0e,0xff,0xff,0xff,0x00,0x00,0x00,0x01,0x10,0x00,0x00,0x00,0x10,0x00,0x00,0x00,0x07,0x00,0x00,0x00,0x1c,0x00,0x00,0x00,0xd8,0xfd,0xff,0xff,0x0f,0x00,0x00,0x00,0x61,0x72,0x69,0x74,0x68,0x2e,0x63,0x6f,0x6e,0x73,0x74,0x61,0x6e,0x74,0x35,0x00,0x03,0x00,0x00,0x00,0x01,0x00,0x00,0x00,0x01,0x00,0x00,0x00,0x20,0x00,0x00,0x00,0x4e,0xff,0xff,0xff,0x00,0x00,0x00,0x01,0x10,0x00,0x00,0x00,0x10,0x00,0x00,0x00,0x06,0x00,0x00,0x00,0x1c,0x00,0x00,0x00,0x18,0xfe,0xff,0xff,0x0f,0x00,0x00,0x00,0x61,0x72,0x69,0x74,0x68,0x2e,0x63,0x6f,0x6e,0x73,0x74,0x61,0x6e,0x74,0x34,0x00,0x02,0x00,0x00,0x00,0x20,0x00,0x00,0x00,0x40,0x00,0x00,0x00,0x8a,0xff,0xff,0xff,0x00,0x00,0x00,0x01,0x10,0x00,0x00,0x00,0x10,0x00,0x00,0x00,0x05,0x00,0x00,0x00,0x1c,0x00,0x00,0x00,0x54,0xfe,0xff,0xff,0x0f,0x00,0x00,0x00,0x61,0x72,0x69,0x74,0x68,0x2e,0x63,0x6f,0x6e,0x73,0x74,0x61,0x6e,0x74,0x33,0x00,0x02,0x00,0x00,0x00,0x02,0x00,0x00,0x00,0x20,0x00,0x00,0x00,0xc6,0xff,0xff,0xff,0x00,0x00,0x00,0x01,0x10,0x00,0x00,0x00,0x10,0x00,0x00,0x00,0x04,0x00,0x00,0x00,0x1c,0x00,0x00,0x00,0x90,0xfe,0xff,0xff,0x0f,0x00,0x00,0x00,0x61,0x72,0x69,0x74,0x68,0x2e,0x63,0x6f,0x6e,0x73,0x74,0x61,0x6e,0x74,0x32,0x00,0x01,0x00,0x00,0x00,0x20,0x00,0x00,0x00,0x00,0x00,0x16,0x00,0x18,0x00,0x14,0x00,0x00,0x00,0x10,0x00,0x0c,0x00,0x08,0x00,0x00,0x00,0x00,0x00,0x00,0x00,0x07,0x00,0x16,0x00,0x00,0x00,0x00,0x00,0x00,0x01,0x10,0x00,0x00,0x00,0x10,0x00,0x00,0x00,0x03,0x00,0x00,0x00,0x1c,0x00,0x00,0x00,0xe0,0xfe,0xff,0xff,0x0f,0x00,0x00,0x00,0x61,0x72,0x69,0x74,0x68,0x2e,0x63,0x6f,0x6e,0x73,0x74,0x61,0x6e,0x74,0x31,0x00,0x04,0x00,0x00,0x00,0x20,0x00,0x00,0x00,0x01,0x00,0x00,0x00,0x02,0x00,0x00,0x00,0x01,0x00,0x00,0x00,0x00,0x00,0x16,0x00,0x1c,0x00,0x18,0x00,0x17,0x00,0x10,0x00,0x0c,0x00,0x08,0x00,0x00,0x00,0x00,0x00,0x00,0x00,0x07,0x00,0x16,0x00,0x00,0x00,0x00,0x00,0x00,0x01,0x14,0x00,0x00,0x00,0x14,0x00,0x00,0x00,0x02,0x00,0x00,0x00,0x00,0x00,0x00,0x02,0x1c,0x00,0x00,0x00,0x40,0xff,0xff,0xff,0x0e,0x00,0x00,0x00,0x61,0x72,0x69,0x74,0x68,0x2e,0x63,0x6f,0x6e,0x73,0x74,0x61,0x6e,0x74,0x00,0x00,0x01,0x00,0x00,0x00,0x03,0x00,0x00,0x00,0x00,0x00,0x16,0x00,0x1c,0x00,0x18,0x00,0x00,0x00,0x14,0x00,0x10,0x00,0x0c,0x00,0x00,0x00,0x00,0x00,0x08,0x00,0x07,0x00,0x16,0x00,0x00,0x00,0x00,0x00,0x00,0x01,0x14,0x00,0x00,0x00,0x20,0x00,0x00,0x00,0x20,0x00,0x00,0x00,0x01,0x00,0x00,0x00,0x3c,0x00,0x00,0x00,0x03,0x00,0x00,0x00,0xff,0xff,0xff,0xff,0x03,0x00,0x00,0x00,0x01,0x00,0x00,0x00,0xa4,0xff,0xff,0xff,0x1e,0x00,0x00,0x00,0x73,0x65,0x72,0x76,0x69,0x6e,0x67,0x5f,0x64,0x65,0x66,0x61,0x75,0x6c,0x74,0x5f,0x6b,0x65,0x72,0x61,0x73,0x5f,0x74,0x65,0x6e,0x73,0x6f,0x72,0x3a,0x30,0x00,0x00,0x03,0x00,0x00,0x00,0x01,0x00,0x00,0x00,0x03,0x00,0x00,0x00,0x01,0x00,0x00,0x00,0x05,0x00,0x00,0x00,0x4c,0x00,0x00,0x00,0x30,0x00,0x00,0x00,0x20,0x00,0x00,0x00,0x18,0x00,0x00,0x00,0x04,0x00,0x00,0x00,0xd4,0xff,0xff,0xff,0x09,0x00,0x00,0x00,0x00,0x00,0x00,0x09,0x04,0x00,0x04,0x00,0x04,0x00,0x00,0x00,0xe8,0xff,0xff,0xff,0x16,0x00,0x00,0x00,0x00,0x00,0x00,0x16,0xf4,0xff,0xff,0xff,0x03,0x00,0x00,0x00,0x00,0x00,0x00,0x03,0x0c,0x00,0x0c,0x00,0x0b,0x00,0x00,0x00,0x00,0x00,0x04,0x00,0x0c,0x00,0x00,0x00,0x46,0x00,0x00,0x00,0x00,0x00,0x00,0x46};
const int g_model_len = 12072;

const scaler_x_mean={ 5.0, 863.5037037037036, 1217.5203703703703 };
const scaler_x_scale={ 2.581988897471611, 389.86207697127537, 330.75108346712585 };
const scaler_y_mean={ 2.4166666666666665, 35.0 };
const scaler_y_scale={ 1.5920810978785667, 7.0710678118654755 };
#endif  // MODEL_H
