
#ifndef MODEL_H
#define MODEL_H

// MSE(Pos, Temp): [0.13041103 0.11571615]


const unsigned char g_model[] = {0x1c,0x00,0x00,0x00,0x54,0x46,0x4c,0x33,0x14,0x00,0x20,0x00,0x1c,0x00,0x18,0x00,0x14,0x00,0x10,0x00,0x0c,0x00,0x00,0x00,0x08,0x00,0x04,0x00,0x14,0x00,0x00,0x00,0x1c,0x00,0x00,0x00,0x8c,0x00,0x00,0x00,0xe4,0x00,0x00,0x00,0x04,0x26,0x00,0x00,0x14,0x26,0x00,0x00,0x98,0x2e,0x00,0x00,0x03,0x00,0x00,0x00,0x01,0x00,0x00,0x00,0x04,0x00,0x00,0x00,0xd6,0xd8,0xff,0xff,0x0c,0x00,0x00,0x00,0x1c,0x00,0x00,0x00,0x3c,0x00,0x00,0x00,0x0f,0x00,0x00,0x00,0x73,0x65,0x72,0x76,0x69,0x6e,0x67,0x5f,0x64,0x65,0x66,0x61,0x75,0x6c,0x74,0x00,0x01,0x00,0x00,0x00,0x04,0x00,0x00,0x00,0x90,0xff,0xff,0xff,0x11,0x00,0x00,0x00,0x04,0x00,0x00,0x00,0x08,0x00,0x00,0x00,0x6f,0x75,0x74,0x70,0x75,0x74,0x5f,0x30,0x00,0x00,0x00,0x00,0x01,0x00,0x00,0x00,0x04,0x00,0x00,0x00,0x8a,0xda,0xff,0xff,0x04,0x00,0x00,0x00,0x0c,0x00,0x00,0x00,0x6b,0x65,0x72,0x61,0x73,0x5f,0x74,0x65,0x6e,0x73,0x6f,0x72,0x00,0x00,0x00,0x00,0x02,0x00,0x00,0x00,0x34,0x00,0x00,0x00,0x04,0x00,0x00,0x00,0xdc,0xff,0xff,0xff,0x14,0x00,0x00,0x00,0x04,0x00,0x00,0x00,0x13,0x00,0x00,0x00,0x43,0x4f,0x4e,0x56,0x45,0x52,0x53,0x49,0x4f,0x4e,0x5f,0x4d,0x45,0x54,0x41,0x44,0x41,0x54,0x41,0x00,0x08,0x00,0x0c,0x00,0x08,0x00,0x04,0x00,0x08,0x00,0x00,0x00,0x13,0x00,0x00,0x00,0x04,0x00,0x00,0x00,0x13,0x00,0x00,0x00,0x6d,0x69,0x6e,0x5f,0x72,0x75,0x6e,0x74,0x69,0x6d,0x65,0x5f,0x76,0x65,0x72,0x73,0x69,0x6f,0x6e,0x00,0x15,0x00,0x00,0x00,0x1c,0x25,0x00,0x00,0x14,0x25,0x00,0x00,0xf8,0x24,0x00,0x00,0xe0,0x23,0x00,0x00,0x50,0x23,0x00,0x00,0x40,0x22,0x00,0x00,0x30,0x02,0x00,0x00,0xa0,0x01,0x00,0x00,0x10,0x01,0x00,0x00,0xf8,0x00,0x00,0x00,0xe0,0x00,0x00,0x00,0xcc,0x00,0x00,0x00,0xc4,0x00,0x00,0x00,0xbc,0x00,0x00,0x00,0xb4,0x00,0x00,0x00,0xac,0x00,0x00,0x00,0xa4,0x00,0x00,0x00,0x9c,0x00,0x00,0x00,0x94,0x00,0x00,0x00,0x74,0x00,0x00,0x00,0x04,0x00,0x00,0x00,0x5a,0xdb,0xff,0xff,0x04,0x00,0x00,0x00,0x60,0x00,0x00,0x00,0x10,0x00,0x00,0x00,0x00,0x00,0x00,0x00,0x08,0x00,0x0e,0x00,0x08,0x00,0x04,0x00,0x08,0x00,0x00,0x00,0x10,0x00,0x00,0x00,0x24,0x00,0x00,0x00,0x00,0x00,0x06,0x00,0x08,0x00,0x04,0x00,0x06,0x00,0x00,0x00,0x04,0x00,0x00,0x00,0x00,0x00,0x00,0x00,0x0c,0x00,0x18,0x00,0x14,0x00,0x10,0x00,0x0c,0x00,0x04,0x00,0x0c,0x00,0x00,0x00,0x81,0xdb,0xf2,0xa3,0xbb,0xed,0x47,0x42,0x02,0x00,0x00,0x00,0x02,0x00,0x00,0x00,0x04,0x00,0x00,0x00,0x06,0x00,0x00,0x00,0x32,0x2e,0x31,0x37,0x2e,0x30,0x00,0x00,0xc6,0xdb,0xff,0xff,0x04,0x00,0x00,0x00,0x10,0x00,0x00,0x00,0x31,0x2e,0x31,0x30,0x2e,0x30,0x00,0x00,0x00,0x00,0x00,0x00,0x00,0x00,0x00,0x00,0xfc,0xd2,0xff,0xff,0x00,0xd3,0xff,0xff,0x04,0xd3,0xff,0xff,0x08,0xd3,0xff,0xff,0x0c,0xd3,0xff,0xff,0x10,0xd3,0xff,0xff,0x14,0xd3,0xff,0xff,0xfe,0xdb,0xff,0xff,0x04,0x00,0x00,0x00,0x04,0x00,0x00,0x00,0xfd,0xff,0xff,0xff,0x0e,0xdc,0xff,0xff,0x04,0x00,0x00,0x00,0x08,0x00,0x00,0x00,0xff,0xff,0xff,0xff,0x40,0x00,0x00,0x00,0x22,0xdc,0xff,0xff,0x04,0x00,0x00,0x00,0x08,0x00,0x00,0x00,0x91,0x1e,0x81,0x3d,0x30,0xb6,0x87,0xbe,0x36,0xdc,0xff,0xff,0x04,0x00,0x00,0x00,0x80,0x00,0x00,0x00,0x93,0xb3,0x87,0xbc,0x8c,0xc1,0x85,0xbe,0xa0,0xe1,0x4a,0xbd,0xf9,0x16,0xe6,0xbd,0xe9,0xf8,0xc1,0x3d,0xe6,0xd7,0x9d,0xbc,0x93,0xd3,0xbb,0x3c,0x8f,0x80,0x17,0xbd,0x8d,0x2a,0x9b,0x3e,0x5e,0xa9,0x95,0xbd,0x17,0x8e,0x66,0x3e,0x7f,0x0b,0x01,0xbe,0x4b,0xd2,0x72,0x3e,0x16,0x7c,0xe5,0x3c,0x7c,0x90,0x0f,0xbe,0x96,0xc7,0x96,0x3e,0x64,0x4b,0xae,0xbe,0x08,0x68,0xb1,0x3d,0xd3,0x6d,0xc1,0xbe,0x84,0x95,0x4b,0x3e,0xf0,0xd8,0x00,0xbc,0x31,0xb6,0x66,0xbd,0x3e,0xeb,0xb7,0xbc,0x60,0xd3,0xc8,0xbd,0xad,0x2b,0x50,0x3e,0x0d,0xfa,0xa4,0x3d,0x06,0x1a,0x80,0x3d,0xef,0x44,0x96,0xbd,0x00,0x00,0x00,0x00,0x40,0xba,0x48,0xb9,0xb3,0x8c,0x27,0x3e,0x9b,0x87,0xcc,0x3d,0xc2,0xdc,0xff,0xff,0x04,0x00,0x00,0x00,0x80,0x00,0x00,0x00,0x61,0x71,0xa7,0x3d,0x91,0x84,0xa6,0xbd,0xd5,0xa0,0xcb,0xbd,0x99,0x3e,0x13,0x3e,0xd1,0x68,0xa3,0xbe,0x9d,0xa7,0x08,0xbf,0x0f,0x4d,0xae,0x3d,0x19,0x61,0x14,0x3e,0xfa,0x00,0xeb,0xbe,0x43,0x50,0xec,0xbd,0x55,0x29,0x4a,0xbd,0x8d,0x23,0xd3,0xbd,0x41,0x96,0xd3,0x3d,0x83,0x3c,0xb5,0xbe,0xb7,0x88,0xcb,0xbc,0x9a,0xa8,0xee,0xbe,0x34,0x18,0x14,0x3e,0x0b,0x12,0x4b,0x3e,0x84,0x3f,0xa4,0x3e,0x0d,0xfb,0x2c,0x3e,0x0b,0xad,0xc5,0x3d,0x45,0xb9,0x82,0x3c,0x50,0xc2,0xbc,0x3d,0x32,0xfd,0x08,0x3e,0x71,0xf2,0x6f,0xbc,0xbf,0x83,0x18,0xbd,0x8c,0x49,0xa5,0x3d,0xd4,0x84,0xc2,0xbc,0x3d,0x6d,0xdc,0x3e,0x72,0x0c,0xdf,0xbe,0xb0,0x88,0x0c,0x3e,0xee,0x74,0x42,0x3d,0x4e,0xdd,0xff,0xff,0x04,0x00,0x00,0x00,0x00,0x20,0x00,0x00,0x63,0x35,0x96,0x3d,0xac,0x72,0x72,0x3d,0x90,0xdc,0xd8,0xbd,0x49,0x7c,0x43,0xbe,0x90,0xba,0xaa,0x3d,0x00,0x7d,0x1d,0x3b,0x16,0x94,0x0d,0xbe,0xd0,0x7c,0xd6,0x3d,0x30,0x63,0xb0,0xbd,0x28,0xfd,0x59,0xbe,0xc3,0x58,0x64,0xbe,0xe9,0xb0,0xa5,0xbd,0xb4,0xe8,0x5c,0xbe,0x40,0x0d,0x80,0x3d,0x5d,0x2d,0x8a,0xbe,0x89,0x98,0xe9,0x3b,0x4a,0x6a,0x51,0x3e,0x09,0x5d,0x1e,0xbe,0x68,0xf1,0xbb,0xbd,0x69,0xe7,0x65,0xbd,0x00,0x7c,0xd0,0x3b,0xc0,0x9d,0x3c,0xbc,0x6b,0x24,0x89,0xbd,0x17,0x61,0x25,0xbe,0xe0,0x40,0x1c,0xbd,0x4b,0x46,0xe5,0xbd,0x3b,0x84,0x07,0x3e,0x90,0x93,0x96,0x3d,0x2e,0xba,0xc3,0x3d,0xd0,0x6b,0x0e,0x3e,0xfc,0xa6,0x26,0x3e,0x4c,0x5c,0x47,0xbe,0xd3,0x01,0x9c,0xbc,0x53,0x97,0x99,0x3c,0xd0,0x10,0x28,0xbe,0x04,0x08,0x5b,0x3e,0x70,0x68,0x14,0xbe,0x10,0x46,0xa1,0xbd,0xc6,0xa9,0x4d,0x3d,0xcc,0x6a,0x16,0x3e,0x00,0xd1,0x21,0xbb,0x80,0xf9,0x76,0xbe,0x11,0x58,0x27,0x3e,0xc0,0x27,0x6b,0xbe,0xa4,0x4f,0x68,0xbd,0x70,0xd1,0x6f,0x3e,0x50,0x55,0x04,0x3e,0x6b,0xfe,0x12,0xbe,0x6c,0x86,0xfa,0x3c,0xfa,0xef,0x46,0xbe,0x7d,0x12,0xf8,0xbb,0x05,0x37,0xd4,0xbc,0xb9,0x04,0x6e,0xbe,0xb8,0x90,0xdb,0xbd,0xfa,0x21,0x70,0xbe,0xb1,0xc8,0x0b,0xbe,0xe4,0xf6,0x1c,0xbe,0x38,0x65,0x5c,0xbe,0xd4,0xfa,0x2d,0xbe,0xb3,0xcb,0x50,0xbe,0x98,0xa3,0x86,0x3d,0x68,0xfb,0x4e,0xbe,0x70,0x6f,0xa6,0xbd,0x8a,0x3e,0x1a,0xbd,0xda,0x9f,0x88,0x3e,0x36,0xc0,0x84,0xbd,0x5a,0x3d,0x3b,0x3c,0x32,0xa4,0x81,0xbf,0xc6,0x15,0x9d,0x3e,0x17,0x24,0x75,0x3f,0xfd,0xe5,0xfe,0x3e,0xfb,0xe7,0x83,0x3c,0x3e,0x7f,0xe6,0x3e,0xce,0x1e,0x17,0x3e,0x64,0x19,0xb1,0x3e,0x72,0x8d,0x99,0x3d,0xcf,0xae,0x3d,0x3c,0xf2,0x54,0x29,0x3f,0x69,0xa1,0x0c,0x3e,0x16,0x43,0xd4,0x3d,0x8a,0xd8,0x75,0xc0,0xa0,0xbd,0xa3,0x3e,0x56,0x61,0x08,0x3e,0x3d,0xce,0xc9,0xbf,0x7b,0xb5,0xf1,0xbd,0xcf,0x9a,0x7f,0xbe,0x2c,0xde,0x6f,0xc0,0x24,0x84,0x67,0x3e,0xb1,0xfc,0x82,0xbd,0x6d,0x84,0xb3,0xbf,0xf4,0x42,0xeb,0x3e,0x8c,0xf8,0xc7,0x3d,0x8e,0x36,0x33,0x3d,0x98,0x5c,0xac,0x3f,0xe5,0xcd,0xf1,0xbf,0xb7,0x2c,0xc2,0x3d,0x41,0xf9,0x8b,0x3e,0x24,0xe7,0xd3,0x3d,0x21,0x6c,0x6d,0x3e,0xdb,0xac,0x0c,0x3d,0xe9,0x26,0xe3,0x3e,0xca,0x51,0xf4,0xbe,0xe7,0x91,0x92,0x3d,0xf3,0x1f,0x39,0xbe,0xa7,0x59,0xa1,0x3e,0x3a,0x43,0x21,0xbe,0x02,0x84,0x39,0x3e,0xcd,0x31,0xea,0x3d,0x08,0xef,0xaa,0xbe,0x81,0x60,0xb7,0x3e,0xbb,0xde,0x7e,0x3e,0x3f,0x61,0x59,0xbe,0xae,0xe5,0xe7,0x3d,0x74,0x75,0x3b,0x3e,0xe3,0xd4,0xe1,0xbe,0x03,0x27,0x16,0x3e,0x37,0x41,0xc6,0xbe,0x37,0x0f,0x95,0x3d,0xe3,0x76,0xe4,0xbc,0x1f,0xaf,0xae,0xbe,0x81,0x90,0xdb,0xbd,0xfc,0x3b,0xa7,0x3d,0xb5,0x78,0x69,0xbb,0xda,0x82,0x85,0xbd,0x6d,0x17,0x94,0x3d,0x5e,0xde,0xae,0xbf,0x90,0x75,0x52,0xbe,0xd4,0x27,0xac,0xbe,0xcb,0xdd,0xd4,0x3e,0xa5,0x7b,0x23,0x3e,0x9f,0xa8,0x9b,0xbe,0x78,0x39,0xbd,0x3d,0x4c,0x7c,0x56,0x3d,0x15,0x80,0xc8,0xbd,0x1e,0x48,0x07,0x3e,0x72,0x77,0xa7,0xbe,0xb1,0x36,0x63,0xbc,0x7e,0x39,0x79,0x3c,0x77,0x3e,0xff,0xbc,0xd9,0x45,0x3d,0x3c,0x77,0xab,0x78,0x3c,0xe9,0xcf,0x8d,0xbe,0x36,0xef,0x48,0x3e,0xb7,0xe0,0x9c,0x3c,0x5a,0xe0,0x1e,0x3f,0x4e,0x21,0xf5,0xbe,0x08,0xd4,0x0e,0xbf,0x2c,0xd1,0xad,0x3e,0xfe,0xc3,0x77,0x3e,0xcb,0x61,0x69,0xbe,0xc3,0x39,0xf3,0x3e,0x4d,0x48,0x6d,0x3c,0xaf,0xdd,0x92,0x3d,0x5d,0x56,0x18,0x3e,0x06,0xd4,0x3a,0xbe,0x56,0xd4,0x8f,0xbd,0xd4,0x02,0x5a,0x3e,0x51,0xa8,0x50,0xbf,0x78,0xda,0x32,0x3e,0x51,0x9e,0x7a,0x3c,0xcd,0x6d,0x57,0x3e,0x41,0x15,0x35,0x3c,0x57,0xbb,0x96,0x3e,0xaa,0x28,0x4e,0x3e,0xf5,0xf3,0xd4,0x3e,0x30,0x1b,0x23,0x40,0x12,0x27,0xcd,0x3e,0xed,0x55,0xb5,0x3e,0x58,0xd2,0xbd,0x3e,0xf9,0xc8,0x24,0x3f,0xff,0x83,0x0e,0xbe,0xb0,0xf9,0x69,0x3d,0x76,0xf8,0xa4,0x3e,0xd2,0x35,0xda,0x3e,0xf9,0x0a,0x9e,0x3e,0x23,0x03,0xc9,0x3d,0x56,0x1c,0x53,0x3f,0xae,0x7f,0x4e,0xbf,0x36,0xdc,0x3b,0xbf,0x29,0xb0,0x02,0x3f,0x5c,0xbd,0x98,0x3e,0xe7,0xc0,0x20,0x3e,0x01,0x56,0x96,0x3e,0x8f,0x50,0x02,0x3d,0xe0,0x9f,0x8b,0x3e,0x37,0xe1,0x5a,0x3f,0x4f,0x9f,0x86,0xbf,0x20,0xc3,0xab,0xbc,0x61,0x53,0xa4,0x3e,0xa3,0x59,0x93,0x3f,0x7a,0x3d,0x9d,0x3e,0x24,0x5b,0x7e,0xbe,0xb2,0xe5,0x92,0x3e,0x6a,0xce,0xa3,0x3e,0xab,0xf6,0x96,0xbe,0x91,0x8c,0x14,0x3e,0x9a,0x84,0x07,0x3e,0x45,0xc5,0xa3,0xbe,0xb2,0xd5,0xb6,0xbc,0x74,0x9c,0x7f,0xbe,0x66,0x1c,0x89,0x3e,0x2e,0xe1,0x46,0xbe,0x12,0xf2,0xe8,0x3e,0x14,0xe0,0xea,0x3d,0x6a,0x50,0x47,0xbe,0xd8,0xe0,0xe6,0x3c,0x80,0x1f,0xce,0x3e,0x4e,0x05,0x3c,0xbe,0xfa,0xe8,0x0e,0x3f,0xf3,0x12,0x06,0xbf,0xd7,0xac,0xd8,0xbe,0x2a,0xf0,0x68,0x3e,0x4b,0x93,0xe2,0xbd,0xd7,0x73,0x1a,0xbe,0xe6,0x67,0x3e,0x3f,0x7e,0xf8,0xe3,0xbd,0x9a,0x42,0x3a,0xbe,0xca,0x24,0xe9,0x3e,0xc8,0x2a,0xde,0xbe,0xcc,0xef,0x81,0xbe,0x7c,0x0d,0xe5,0x3e,0x32,0x20,0x80,0xbf,0x08,0x3a,0x00,0x3f,0x1c,0xf9,0x9d,0xbe,0x58,0xd5,0x13,0x3e,0x37,0x6f,0xe2,0x3d,0x39,0x44,0xfc,0x3e,0x42,0x16,0x50,0x3d,0xef,0x97,0x04,0x3f,0x4c,0x7b,0x17,0x40,0xfc,0xde,0xb1,0x3e,0xe5,0x5a,0xcb,0x3d,0x12,0x2d,0x2a,0x3e,0xfd,0x78,0xce,0x3e,0xd9,0x9d,0x30,0xbe,0x2f,0x80,0x8e,0x3e,0x47,0x60,0x07,0x3d,0xf6,0x64,0x33,0x3f,0xda,0x19,0x39,0xbe,0xf1,0x12,0x4e,0x3e,0x1b,0x62,0x2f,0x3f,0xa9,0xf0,0x7f,0xbf,0xe8,0x87,0x48,0xbf,0x68,0xdc,0xbd,0x3e,0xb3,0x8e,0x45,0x3d,0xd6,0x55,0xd3,0x3e,0xb9,0xd5,0x0d,0x3f,0xec,0x9b,0xa4,0xbe,0xec,0x24,0xaa,0x3e,0x9b,0xf8,0x4a,0x3f,0xcb,0xb0,0x85,0xbf,0x5b,0xa6,0x96,0x3e,0x46,0x74,0xac,0x3e,0x15,0x27,0x6e,0x3f,0xc9,0xe7,0xc6,0x3e,0x28,0xa3,0x68,0x3e,0x84,0x6c,0x37,0xbe,0xa8,0xeb,0x96,0xbd,0x48,0x4f,0x99,0x3e,0x68,0x6d,0xdb,0xbe,0x23,0xcd,0x22,0x3e,0xc4,0x48,0xc0,0xbe,0xfe,0xae,0xe5,0xbe,0x75,0x92,0xda,0xbb,0xc0,0xfa,0x1f,0x3e,0x9f,0xa9,0x9d,0x3e,0x65,0x0b,0x6b,0x3d,0x44,0x24,0x7d,0xbe,0xa5,0x74,0xdc,0xbc,0x74,0x23,0x29,0xbe,0x7d,0xb0,0x9b,0xbd,0xc4,0x3e,0x41,0xbe,0x40,0xc4,0x92,0xbe,0xf1,0x86,0x10,0x3f,0xd0,0x88,0xd1,0x3e,0xb9,0xef,0xe5,0xbe,0xd0,0x33,0xf0,0x3d,0x32,0x62,0x8a,0x3e,0x76,0x59,0xc4,0xbe,0x73,0x63,0x53,0x3d,0x45,0x4c,0x60,0x3e,0x60,0x48,0xcc,0x3e,0xdd,0x2c,0x34,0x3e,0x62,0x18,0x53,0x3e,0x22,0x15,0x38,0xbe,0xcd,0x80,0x90,0x3e,0xdd,0xa0,0x37,0xbd,0xd3,0x23,0x2a,0x3e,0xce,0x38,0x83,0xbd,0xe8,0x64,0xb4,0x3e,0x78,0x4e,0x30,0x3e,0xaf,0x24,0xa8,0x3d,0xfe,0x57,0xfb,0xbc,0xa9,0x2d,0xa4,0xbf,0x0c,0xbe,0x00,0xbf,0xfd,0x11,0x3e,0xbe,0xc9,0x09,0xef,0xbd,0x71,0x40,0x4d,0xbc,0x19,0x6c,0x9b,0x3d,0x3c,0xf0,0xbf,0x3e,0x17,0x01,0x9a,0x3d,0xa8,0x79,0xab,0x3c,0x5a,0x28,0x7e,0x3c,0x70,0x1f,0xa9,0xbc,0x70,0xfd,0x1f,0x3e,0x3d,0x24,0xbf,0x3e,0x6e,0xff,0x84,0xbc,0xeb,0x0f,0x36,0x3e,0x79,0x87,0xcb,0x3d,0x4a,0x4e,0x51,0xbe,0x1b,0xe8,0x0d,0x3f,0xe6,0x44,0x43,0x3d,0x51,0xf3,0x31,0x3e,0xc1,0xba,0xd8,0x3e,0x06,0xfb,0x6c,0x3e,0x05,0xfb,0xdb,0xbd,0x52,0xa2,0x15,0x3e,0x88,0x3c,0x78,0xbf,0x97,0x82,0x0e,0x3e,0xca,0x8a,0x66,0xbd,0xa8,0xb7,0x24,0xbe,0x90,0xb4,0xcd,0xbd,0xed,0x5e,0x1c,0xbe,0xcc,0xdf,0x2d,0xbe,0x74,0x65,0x5f,0xbd,0x3e,0xef,0x17,0x3e,0xa0,0xdd,0xd6,0xbd,0x3d,0xbb,0xf6,0xbb,0xe2,0x95,0x01,0xbe,0x73,0x97,0x0d,0x3e,0xf0,0x09,0x60,0x3d,0x14,0x6a,0x4c,0x3e,0x84,0x49,0x64,0x3b,0xdd,0xe4,0xfb,0xbc,0xb8,0x8f,0xf5,0xbd,0x10,0x1f,0x2b,0xbe,0x85,0x68,0x1f,0xbe,0xef,0x66,0x57,0xbe,0x1d,0xe0,0x6f,0x3d,0x28,0xfb,0x57,0xbe,0xf3,0x1e,0x3b,0xbd,0x28,0x60,0x43,0x3d,0x40,0x5f,0xeb,0xbd,0x94,0x09,0x11,0x3b,0xae,0x43,0xa0,0xbc,0xe0,0x48,0x3c,0xbe,0x92,0x5d,0x02,0xbe,0x65,0x37,0xab,0x3c,0x98,0x0b,0x81,0x3d,0xf9,0x64,0x8f,0xbd,0xdd,0x24,0xdc,0x3d,0xeb,0x15,0x9e,0x3d,0x10,0x84,0xa2,0xbd,0x64,0x1a,0x69,0xbe,0xfa,0xd8,0xde,0xbd,0xe5,0xa6,0x5b,0xbe,0xc1,0x8d,0x43,0xbe,0xf1,0x3e,0xa2,0x3c,0x90,0x5f,0x6a,0xbd,0x1b,0x6b,0xa1,0xbc,0xee,0x2d,0xfe,0x3b,0xd3,0x37,0x6c,0xbe,0xe0,0x21,0x69,0x3d,0xf8,0xd8,0x8d,0x3d,0x27,0x7f,0x45,0xbd,0x32,0xfc,0x66,0xbe,0xc0,0x81,0x9c,0xbd,0x8c,0x09,0x68,0xbe,0xcc,0xb1,0x4e,0x3e,0xd0,0x97,0xeb,0xbd,0xf8,0x8d,0x0e,0x3e,0x33,0x80,0xbc,0xbc,0x9e,0xbb,0xfd,0xbd,0x19,0xf0,0x08,0x3e,0xc0,0xd6,0xc9,0x3d,0xf4,0xb1,0x5c,0xbb,0xb2,0x72,0xc1,0x3d,0x35,0x5a,0x1a,0x3e,0xbc,0x0e,0x12,0xbe,0xc5,0x9a,0x14,0x3e,0x24,0x69,0x35,0xbe,0xd8,0xf5,0x64,0xbe,0x55,0xa1,0x24,0xbe,0x82,0x4b,0x4f,0xbe,0xfd,0x07,0x16,0x3d,0x48,0xa9,0x4c,0x3d,0x56,0xf9,0x53,0xbd,0x2e,0x44,0x87,0xbe,0xa2,0x4b,0x49,0x3e,0xc5,0x7f,0x93,0xbd,0x6d,0x88,0x18,0x3e,0xdc,0x1d,0x28,0x3e,0x0a,0x9b,0x4b,0xbd,0x3f,0xf0,0xa8,0x39,0x7d,0x8f,0xaf,0x3e,0x5b,0xc3,0xfb,0xbd,0x63,0x5a,0xc7,0xbe,0x29,0x48,0xe1,0xbc,0xff,0x53,0x8d,0x3e,0xd0,0x7f,0x13,0xbf,0xdd,0xcd,0x67,0x3f,0x82,0x14,0xca,0x3e,0x7d,0xbf,0x26,0x3e,0x4b,0x27,0x5c,0xbf,0x8b,0x9c,0xde,0xbe,0x71,0x00,0x5c,0xbe,0x3d,0xb8,0x4e,0x3e,0xb8,0xc8,0x21,0x3e,0x7f,0xe0,0xe9,0xbd,0x93,0xf9,0xe0,0x3e,0xa5,0x9b,0x4c,0x3e,0x6a,0x60,0xf5,0xbd,0xdd,0xc8,0x37,0x3c,0xc4,0x1a,0x4e,0xbf,0xf0,0xb4,0xe4,0x3d,0x39,0x48,0x16,0x3e,0x6a,0x58,0x7c,0xbe,0x0b,0xff,0x62,0x3e,0xf7,0xea,0x8e,0xbe,0x83,0xb8,0x8d,0x3a,0xdc,0x8f,0x1d,0x3f,0xd3,0xf2,0x94,0x3f,0x9c,0x11,0x9a,0xbd,0xeb,0xcb,0x8f,0xbe,0xa9,0xbe,0xf7,0x3e,0xd6,0x00,0x84,0xbe,0x5c,0x5e,0xa4,0x3c,0x22,0x2c,0xfc,0xbd,0x85,0x89,0x60,0xbb,0xa9,0xda,0x38,0x3f,0x9e,0xe2,0x46,0xbe,0x13,0xeb,0x01,0xbf,0x48,0xb1,0xf1,0x3d,0xfd,0x70,0xfb,0x3b,0xda,0x52,0xbd,0xbd,0x71,0x04,0xf1,0x3e,0x2e,0xc4,0x2f,0xbf,0x14,0xe6,0x0f,0x3e,0x22,0x61,0x73,0x3e,0x66,0x3f,0x80,0xbd,0x60,0xbb,0xc9,0xbd,0x7a,0x06,0x04,0xbe,0x58,0xe5,0x7f,0xbe,0x7f,0x68,0x8e,0xbd,0x50,0x7c,0x1e,0x3e,0xa7,0xa9,0x6f,0x3f,0x0b,0xad,0x48,0x3e,0xa8,0xc9,0x90,0x3e,0xb6,0x84,0x04,0xbe,0x51,0x3f,0x49,0x3d,0xe8,0xf5,0x14,0x3e,0xcc,0xf9,0x8f,0xbe,0x00,0xcb,0x99,0xbb,0x68,0xad,0xd7,0x3d,0x25,0x0f,0x00,0xbd,0x34,0x2d,0x9c,0x3d,0x94,0x93,0x77,0xbe,0x6b,0xdb,0x4f,0xbe,0xae,0x9d,0x65,0x3c,0x05,0x4b,0x10,0x3e,0xc2,0xa6,0xdb,0xbd,0xa0,0xd0,0x90,0xbc,0xad,0x3f,0x7a,0xbe,0x0a,0xe4,0x32,0x3e,0xf4,0xb2,0x80,0xbd,0x43,0x61,0x46,0xbd,0x6f,0x56,0xac,0x3d,0x85,0x92,0x5e,0xbe,0xf6,0xa0,0xaf,0x3d,0x3e,0x9a,0x35,0x3e,0x4c,0x8d,0x67,0xbc,0x5f,0x79,0xe5,0x3c,0x2c,0x02,0x6e,0xbe,0xac,0x7b,0x06,0xbe,0x08,0xd0,0x09,0xbe,0x34,0x70,0x16,0xbe,0xca,0x7a,0xdd,0x3d,0xa0,0x6b,0x43,0x3d,0x54,0xf6,0x34,0xbc,0x8a,0xb9,0x3c,0xbe,0xd4,0x0f,0x33,0x3e,0x54,0x67,0xb6,0xbd,0x76,0x84,0x99,0xbd,0xff,0x6a,0x98,0xbe,0xe8,0x0c,0x51,0xbe,0x33,0xdd,0xab,0x3d,0xf0,0x58,0x06,0x3d,0xa5,0xae,0x9f,0xbd,0x60,0x3d,0x41,0xbe,0x7f,0x6d,0x29,0xbd,0xd4,0xbf,0x1b,0x3c,0x3f,0x20,0x94,0xbe,0x4b,0xe2,0x10,0x3e,0x91,0xc4,0x74,0xbc,0x0f,0xd6,0x06,0xbe,0x6c,0x73,0x8b,0xbe,0x91,0x1d,0x9e,0x3d,0x7f,0xe9,0xa5,0xbd,0x7c,0x8a,0x7b,0x3d,0x02,0x7e,0xdd,0xbd,0x95,0xa7,0x51,0xbe,0x3f,0x4c,0x1e,0xbe,0x3e,0x8d,0xd8,0xbd,0x4e,0x50,0x6f,0x3d,0x04,0x92,0x94,0xbd,0xb9,0x88,0x43,0xbe,0xbd,0xcc,0x5d,0xbe,0xc4,0x19,0x26,0x3e,0x8e,0x9f,0x90,0xbd,0x49,0x6e,0x14,0x3e,0x10,0x99,0xae,0x3d,0xa2,0x26,0x83,0xbe,0x93,0x6c,0xb8,0xbd,0x64,0xe3,0x16,0x3e,0x96,0xd7,0x1a,0x3e,0x15,0x87,0xab,0x3e,0xe7,0x69,0x94,0x3d,0x00,0xcc,0xc8,0xbd,0x31,0x49,0x90,0x3e,0xff,0xf3,0x83,0x3e,0xde,0x17,0x71,0x3d,0xcd,0x6d,0x8f,0x3d,0x3d,0x7c,0x8f,0xbe,0x61,0x2f,0xcd,0x3d,0x51,0x90,0x93,0x3e,0x46,0x85,0x49,0x3e,0xc0,0x46,0x0f,0xbe,0xdf,0xc7,0x3e,0x3f,0x2e,0xdb,0xb2,0x3d,0x8f,0xa7,0xf2,0x3d,0x28,0x9d,0x54,0x3e,0x11,0xe7,0x10,0x3f,0xe6,0x4d,0x4d,0x3e,0xda,0x7f,0xde,0x3d,0x84,0xee,0x3d,0x3e,0x55,0x88,0xc0,0xbd,0x63,0x87,0x93,0xbc,0x94,0x2e,0xcf,0xbd,0xc2,0xd2,0x15,0xbe,0xf8,0xbb,0xba,0x3e,0x98,0x2b,0x8d,0xbc,0xdb,0x0c,0x11,0x3e,0x68,0x31,0x81,0x3e,0xc8,0x83,0x1f,0x3c,0xe6,0x04,0x43,0x3e,0xa9,0xce,0x1d,0xbe,0xfe,0x1b,0x48,0x3c,0x9d,0x03,0xe3,0x3d,0xa9,0x7e,0xba,0x3d,0x80,0x83,0xcc,0xbf,0xe2,0xc8,0xc6,0xbe,0xc9,0x86,0x93,0xbd,0x70,0x8e,0xf6,0x3d,0x26,0x25,0x6b,0xbd,0xda,0x74,0x7a,0x3d,0x48,0xd4,0x0f,0xbe,0x85,0xbf,0x8a,0x3d,0x37,0x2f,0x0c,0xbf,0xc6,0xe3,0x41,0xbe,0xcb,0x61,0xa7,0xbe,0x18,0xd2,0x77,0x3d,0x04,0x23,0x4d,0x3f,0x1f,0xe4,0x3e,0x3f,0xde,0x18,0x27,0xbe,0xac,0xa6,0x61,0x3e,0xef,0x1d,0xa3,0x3d,0xcb,0x2d,0x81,0x3e,0xb0,0x50,0x34,0x3e,0xfc,0x00,0xb7,0xbc,0x0e,0x8d,0x90,0x3e,0x1e,0x11,0x37,0x3f,0x36,0x60,0x87,0xbe,0x9d,0x91,0xa6,0xbd,0x7e,0x39,0xb9,0xbf,0xb9,0x74,0x10,0x3d,0x86,0x24,0x0c,0x3e,0xbb,0xe9,0x04,0x3e,0xcb,0x65,0xca,0x3e,0x1a,0x40,0x49,0xbc,0x56,0x4f,0xca,0x3d,0xf1,0xa6,0x9d,0x3d,0xa7,0xa4,0xe1,0x3e,0x75,0x3b,0x40,0x3e,0x89,0xda,0x20,0x3e,0x74,0x91,0x7e,0x3d,0xea,0xe2,0x84,0xbe,0xa2,0x04,0xbc,0x3e,0x59,0xb7,0xb3,0x3e,0x9d,0x3a,0x11,0xbd,0x94,0x2d,0x67,0x3e,0x11,0x69,0xb0,0x3e,0x23,0x13,0xa2,0x3d,0xd9,0x01,0xae,0x3d,0xf5,0xd4,0xe3,0x3d,0x4a,0x7f,0xf0,0xbd,0x0f,0x11,0x7a,0x3d,0x79,0xb1,0xa1,0xbd,0x41,0xdb,0x18,0xbe,0x00,0x7d,0xc5,0xbe,0xda,0x6b,0x82,0x3e,0xae,0x78,0x1f,0x3e,0x1b,0x98,0xaf,0xbe,0x9d,0x7c,0x6d,0x3e,0xaf,0xb6,0x2f,0x3e,0x41,0xaf,0x81,0x3e,0x6b,0x9d,0xcb,0xbc,0xb9,0x19,0x4f,0xbd,0x7d,0x4a,0x50,0x3d,0x9a,0xaa,0xd6,0x3e,0x51,0xd5,0x08,0x3e,0xb5,0x71,0x36,0x3d,0x3b,0x22,0xf9,0xbd,0x3f,0x29,0xa2,0x3e,0x20,0x9f,0x9f,0x3f,0x06,0x96,0xc6,0x3e,0x2d,0x73,0xf6,0x3d,0x2c,0xe8,0xcc,0x3e,0xcf,0x2d,0x67,0x3e,0x28,0xe3,0x1f,0xbd,0x01,0xf8,0x15,0xbe,0x71,0x2b,0x7c,0xbe,0x75,0x26,0x27,0x3c,0x9d,0x8b,0x0f,0x3e,0x7e,0xc1,0x0c,0x3f,0xac,0x02,0x1c,0x3e,0x89,0xcf,0xcd,0xbe,0x0a,0x32,0x2d,0xbe,0x9b,0x74,0xde,0xbd,0xce,0xd2,0x63,0x3e,0x80,0x05,0x2b,0x3e,0xca,0x98,0xc5,0xbe,0xdd,0x06,0xc5,0xbd,0xf5,0xa6,0x6e,0xbc,0x85,0x57,0xa2,0xbd,0xa2,0x75,0xb2,0xbe,0xea,0xf6,0x87,0x3b,0xb8,0xf0,0x9c,0x3d,0x5f,0xbd,0xd7,0x3f,0x1f,0xdb,0xfb,0x3b,0xeb,0x1f,0x5d,0xbe,0xb4,0xd2,0x28,0x3d,0x45,0xf8,0x4b,0x3d,0x50,0x60,0x71,0xbe,0xd7,0x46,0x1b,0xbf,0xe9,0xfc,0x89,0x3d,0xb1,0x8a,0x16,0xbe,0x3f,0x79,0x82,0xbe,0xb9,0x67,0xe5,0x3e,0xa0,0xb4,0x1a,0xbe,0x1e,0xc6,0x10,0x3e,0x5b,0xdc,0x1a,0xbf,0xb4,0x51,0xa9,0xbe,0x27,0xee,0xfd,0x3d,0xc0,0x21,0x5c,0x3c,0x2c,0x75,0x21,0x3e,0xe8,0x57,0x28,0x3e,0x80,0xff,0x45,0xbe,0x80,0xf4,0xd5,0x3e,0xa9,0x32,0xf3,0x3d,0x07,0x24,0x2a,0xc0,0x27,0x4f,0xcb,0x3e,0x61,0xa7,0x75,0x3d,0x41,0x48,0xad,0xbf,0xe4,0x50,0xc3,0x3e,0xf4,0x46,0x83,0x3e,0x5e,0xf2,0xfd,0x3e,0xef,0xe4,0xc3,0x3e,0xde,0x2b,0x21,0x3e,0x78,0x69,0xbe,0xbd,0xd9,0x56,0xc1,0xbe,0xc8,0xdc,0x0d,0xbf,0x36,0x71,0x9e,0x3e,0xdd,0xc4,0xe5,0xbc,0xc7,0xf7,0x9d,0x3c,0x4e,0xf6,0x99,0x3c,0x79,0xc3,0xc3,0x3e,0x7d,0xc7,0xad,0x3e,0xb7,0x28,0xc1,0xbf,0xb6,0x5f,0x92,0xbe,0x0a,0x9d,0x2a,0xbd,0xc6,0xdf,0x2c,0x3e,0xc4,0x78,0x74,0xbd,0x35,0x75,0xc7,0x3d,0xb5,0x79,0xe6,0x3d,0x5a,0x49,0x57,0x3e,0x75,0xe3,0x05,0x3f,0xbb,0x20,0xdc,0x3d,0x98,0x4b,0x91,0x3d,0x0f,0xfa,0x2d,0x3f,0x7c,0x7c,0x29,0x3e,0x2f,0x35,0x06,0xbe,0xca,0xe6,0x8a,0x3e,0x9d,0xac,0x3a,0x3e,0x81,0x3a,0x7a,0x3e,0xab,0x66,0x88,0x3f,0xb4,0x3c,0x82,0x3d,0x53,0x6e,0x6d,0xbe,0xeb,0x66,0x56,0xbe,0x2d,0xa3,0xa6,0x3d,0x3c,0x9d,0xbf,0xbb,0x2c,0xf7,0x1b,0x3d,0x6c,0x73,0x0d,0xc0,0xe0,0x55,0xb4,0x3e,0xc9,0xee,0xc9,0x3e,0xf3,0x03,0x45,0x3e,0xe7,0x31,0xfc,0x3d,0x40,0x83,0xd7,0xbe,0xeb,0x33,0x64,0x3e,0x5f,0xc0,0x67,0xbd,0xc7,0x58,0xb8,0x3e,0x39,0x13,0x9a,0x3d,0x4a,0x0b,0x1a,0xbd,0x26,0x2f,0x21,0xbe,0x4e,0xd0,0x62,0xbe,0x6e,0xaf,0xaa,0x3e,0xa9,0xcf,0x66,0xbd,0x55,0x7a,0xa4,0xbe,0xc8,0x8d,0xba,0xbe,0x8e,0x91,0xb1,0xbd,0x9a,0xeb,0xbb,0x3f,0x88,0x05,0xa5,0x3e,0xd8,0x25,0x9f,0xbe,0x4c,0x14,0xd2,0xbe,0x27,0xe3,0x0e,0x3f,0x29,0x92,0xa8,0xbb,0x59,0x3b,0x9d,0xbd,0xe1,0xeb,0x09,0x3f,0xc2,0x8d,0x55,0xbe,0xc6,0xf1,0x50,0xbe,0x11,0x06,0xc9,0x3e,0xae,0x94,0x10,0xbf,0x17,0xd7,0x60,0xbe,0x17,0xd5,0xcf,0x3e,0xe2,0x67,0x1e,0xbf,0x72,0x04,0x3f,0x3e,0xc2,0xa8,0x6b,0xbe,0xd0,0xa0,0x1f,0x3e,0x39,0x18,0x0e,0xbe,0x7c,0x94,0x7c,0x3d,0x3b,0xdf,0x46,0x3c,0x64,0x08,0xcd,0x3e,0xea,0x62,0x17,0x40,0x6f,0x9e,0x2b,0x3a,0x4d,0x95,0xe6,0x3d,0x5b,0xf3,0xa8,0x3e,0xb5,0xf2,0x82,0x3d,0xd8,0x6f,0x99,0xbd,0x8d,0xad,0xe8,0xbd,0xbd,0x2b,0xaf,0x3e,0xc4,0x95,0x1c,0x3f,0xc8,0xa7,0x4c,0xbd,0xf0,0x48,0x8f,0x3f,0x4c,0xa3,0x11,0x3f,0xa9,0x2a,0x75,0xbf,0x43,0x19,0x65,0xbe,0x99,0x22,0xfb,0x3e,0xaf,0x2b,0xf4,0x3e,0xf9,0xcd,0x8f,0x3e,0xe8,0x73,0xca,0x3c,0x2f,0xe8,0x03,0x3d,0x56,0x29,0xca,0x3d,0x6d,0x93,0x3e,0x3e,0x18,0x67,0x23,0xbf,0x1d,0x5e,0x30,0x3e,0xd9,0x60,0x6a,0x3d,0x72,0x99,0x71,0x3f,0x02,0xa0,0xce,0xbd,0xbe,0x87,0x3e,0x3d,0x23,0xec,0x93,0xbe,0xe5,0x49,0xd7,0xbc,0x5a,0xd3,0x5b,0x3c,0x2c,0xdf,0x23,0x3f,0x97,0xd9,0x3b,0x3e,0x6b,0xe9,0xc7,0xbe,0x4f,0xcc,0x77,0x3d,0x06,0x8d,0xbd,0x3e,0x10,0x9f,0x49,0xbe,0xd2,0x36,0x1b,0x3e,0xb3,0x38,0xa2,0xbd,0x17,0xb7,0x77,0xbd,0x57,0xbd,0xba,0x3e,0x41,0xd5,0x6a,0xbe,0xc7,0x9a,0x5c,0xbe,0xb9,0xc8,0x46,0x3f,0xf5,0x38,0xd7,0x3c,0x54,0x19,0xad,0xbd,0xde,0xbc,0x50,0x3e,0x48,0xdf,0x3f,0x3f,0x43,0x8c,0xa9,0x3e,0xbe,0x83,0x9e,0x3e,0x3b,0xe4,0x41,0x3d,0x6b,0x64,0xc8,0xbd,0xe0,0xc5,0x88,0x3e,0x21,0x73,0x3a,0xbd,0x71,0xd4,0x9f,0xbe,0xee,0x89,0x07,0x3e,0x25,0x9f,0xf5,0x3d,0xc0,0x0d,0xb3,0x3e,0xb1,0x77,0x1c,0x3f,0xbd,0x75,0x9c,0x3e,0x76,0xd9,0x1c,0xbe,0xad,0xa9,0x7f,0xbe,0xbb,0x39,0x81,0xbe,0x36,0x65,0xaf,0x3d,0xa9,0x44,0x56,0xbb,0xf4,0x42,0xb5,0xbf,0x93,0x5f,0x77,0xbe,0xbf,0x52,0xb8,0x3d,0x70,0x25,0x5d,0xbe,0x7e,0xde,0x46,0xbe,0x28,0x7a,0x9b,0x3e,0x44,0x82,0xe3,0x3d,0xd5,0xe0,0x91,0xbc,0x37,0xaa,0x10,0xbf,0x09,0xa5,0x28,0xbe,0x23,0xee,0x93,0x3e,0x4c,0xc0,0x8b,0xbd,0x2b,0x1c,0x80,0x3f,0x3d,0x8a,0x1c,0x3f,0x05,0x39,0xcc,0xbe,0x46,0x0f,0x8a,0x3e,0x5b,0x86,0x89,0xbe,0x73,0xf9,0x0a,0xbe,0xfb,0x49,0xc8,0x3e,0xc1,0x35,0xf8,0xbd,0x86,0x38,0x15,0xbd,0xf7,0xbc,0x7d,0x3f,0x69,0x7b,0x29,0xbe,0x77,0x30,0xfb,0x3d,0xef,0x00,0x76,0xbf,0x80,0x1e,0xdc,0x3b,0x59,0x81,0x0e,0xbe,0xe0,0x2e,0x2a,0x3d,0x9a,0x0c,0xac,0xbd,0x7d,0xde,0xca,0x3d,0x7c,0x89,0xcf,0xbd,0x8a,0x8a,0x72,0x3d,0xa7,0x0e,0x04,0x3e,0x6f,0x6d,0xe5,0xbd,0x66,0xeb,0x81,0xbe,0xbb,0x62,0x64,0x3e,0xd5,0xaa,0xa2,0xbc,0xfa,0xd4,0xee,0x3d,0x51,0x78,0xe6,0x3d,0x0b,0x1f,0xd1,0xbd,0x61,0x62,0x4d,0xbd,0xe4,0xf8,0xb4,0xbd,0xaf,0xe2,0x7c,0xbb,0x18,0x3b,0x41,0x3f,0x33,0x96,0xee,0xbc,0x85,0x12,0xf6,0x3d,0xa9,0x41,0x99,0xbf,0xab,0x0c,0x4f,0xbe,0x6c,0xe8,0xaa,0x3d,0x67,0x9f,0xc4,0xbe,0x56,0x3a,0x72,0x3b,0xf8,0x88,0x2c,0xbc,0xd2,0xf1,0x7a,0x3e,0xa4,0x07,0xef,0x3d,0x0b,0xea,0xaa,0x3b,0x81,0x1c,0x9a,0x3e,0xc8,0x3c,0xb0,0xbe,0xac,0xa9,0xd4,0xbe,0x48,0xfd,0xec,0xbd,0x41,0xe1,0x5c,0x3e,0x60,0x91,0xc6,0x3d,0xe2,0x6d,0x83,0x3e,0x01,0x0b,0x9b,0x3e,0xa3,0x6c,0x7c,0x3e,0x5b,0x06,0xd2,0x3f,0xde,0x71,0xcd,0x3e,0x42,0xff,0x28,0x3d,0xdf,0x88,0x82,0x3d,0x85,0xaf,0xab,0x3e,0x8f,0xb0,0x85,0xbe,0xae,0x4c,0x3b,0x3e,0x14,0x5b,0xb6,0x3d,0x41,0xc3,0x0d,0x3f,0x17,0x44,0xe4,0xbc,0x5d,0xa6,0xa7,0xbe,0x0a,0xc3,0x95,0x3e,0xc5,0x3a,0xb7,0xbe,0x06,0x9a,0xcb,0xbe,0x86,0xd2,0xa1,0x3e,0xbe,0x0d,0x37,0x3e,0xc1,0x83,0x12,0xbe,0x2f,0x92,0xe0,0x3e,0xcc,0x2b,0x1c,0x3e,0xdb,0x1b,0xe6,0x3d,0x2f,0xd7,0x48,0xbe,0x6b,0x85,0x12,0xbf,0xfc,0x33,0xcc,0x3d,0x29,0x66,0xc4,0xbc,0x9a,0xfc,0xc5,0x3f,0xb0,0x63,0x8a,0x3e,0x8b,0x60,0x4a,0x3e,0x66,0xee,0xc8,0x3e,0xc8,0xa6,0xad,0x3d,0x30,0xc9,0x11,0xbd,0xc0,0x45,0x46,0x3e,0x8b,0x56,0xfe,0x3d,0x62,0x5e,0x82,0x3f,0xfb,0x41,0xae,0x3e,0x16,0x99,0x0d,0xbe,0x26,0x30,0xf7,0x3e,0x3f,0x9e,0xea,0x3d,0x77,0xdc,0xb4,0x3e,0xdb,0x7b,0x03,0xbe,0xc0,0x69,0xf8,0xbd,0x46,0xef,0x19,0x3f,0xb4,0xd3,0x9c,0x3d,0xba,0x56,0xf6,0xbe,0x66,0xcf,0xb2,0xbd,0xaa,0xf4,0x84,0xbe,0x6a,0xb3,0x1c,0xbf,0xc7,0x90,0x51,0xbe,0x84,0x5e,0xfc,0xbd,0xeb,0x54,0x0d,0x3e,0x1b,0x28,0xef,0xbe,0xd6,0x1f,0x6c,0x3e,0x37,0x94,0xba,0x3d,0x80,0x0c,0x10,0xbd,0x27,0x70,0xa1,0xbe,0x8a,0x94,0x29,0x3c,0x71,0x66,0x02,0x3f,0xe3,0xdd,0x42,0x3d,0x44,0x2c,0x03,0xbe,0x66,0x26,0x06,0x3e,0x03,0xa8,0x93,0x3d,0x19,0xe7,0x3c,0x3d,0xa9,0xa1,0xe9,0xbd,0x72,0x81,0xd9,0xbe,0x42,0x44,0xb5,0x3e,0x7f,0x6e,0xe7,0x3f,0x83,0x61,0x6a,0xbe,0xa5,0x5d,0xe7,0x3e,0x7a,0x54,0x71,0x3e,0xc6,0x62,0x9f,0x3d,0x62,0xdf,0x15,0x3e,0x60,0xd1,0x95,0x3e,0x28,0xed,0xc6,0x3e,0x7d,0x21,0x38,0x3f,0x23,0x32,0x50,0x3d,0x75,0xba,0xd0,0x3e,0x98,0xdb,0xa5,0xbf,0xce,0x23,0x8e,0x3e,0xfc,0xdf,0x30,0x3e,0x7f,0xfc,0x72,0xbf,0x36,0x5e,0xa4,0x3d,0xae,0x51,0x82,0x3e,0x4d,0x13,0x88,0xbf,0x68,0x31,0x2b,0x3e,0x9d,0x6e,0x16,0xbe,0xc4,0x3f,0x23,0xbf,0xab,0xef,0xe6,0x3e,0x61,0xd5,0xc4,0xbd,0xf5,0x1c,0x00,0x3e,0x9f,0x75,0x7e,0x3f,0xdd,0xa0,0x72,0xbf,0x3c,0x2f,0xd2,0x3e,0x5e,0xc7,0x1a,0xbe,0x0b,0x85,0x07,0xbe,0xa0,0xdf,0x5e,0x3e,0x23,0x62,0xa3,0x3e,0x6a,0xd2,0x83,0xbc,0xc1,0xdc,0x8f,0xbd,0xa0,0x34,0x9d,0x3e,0x9b,0x22,0xb0,0x3e,0xc9,0x6f,0x80,0xbc,0x1d,0x77,0x90,0x3e,0xfa,0xd0,0xe5,0xbe,0x1e,0xa2,0xd9,0xbe,0x84,0xfb,0xb1,0x3e,0xd5,0x4c,0xfc,0x3d,0xa7,0x88,0x0c,0xbe,0x91,0x01,0xa3,0x3e,0x29,0x2e,0x4e,0xbe,0x6e,0x2a,0xd9,0x3e,0x40,0xd7,0x9a,0x3e,0xa0,0xbf,0xda,0x3e,0x38,0x52,0x70,0xbd,0x20,0xdc,0xab,0x3e,0x16,0xab,0xb3,0x3e,0x99,0xb7,0xc5,0x3d,0x5f,0x8a,0xd3,0x3d,0x9d,0x80,0xc1,0x3c,0x77,0x12,0x04,0x3e,0xab,0xec,0xa8,0x3e,0xd1,0x00,0x3b,0xbe,0x31,0x29,0x54,0x3e,0xff,0x86,0x46,0x3e,0x8e,0x66,0x91,0xbd,0xb7,0xfd,0x9e,0x3d,0xef,0x6d,0x05,0x3e,0xba,0x8e,0x7b,0xbe,0x0f,0xd8,0x8f,0x3e,0x52,0x8d,0x75,0xbe,0x88,0x30,0xa6,0xbf,0x36,0xed,0x0b,0xbf,0x5b,0x96,0x23,0xbd,0xb5,0xf1,0x80,0x3d,0x5e,0xff,0x2f,0x3e,0xa2,0x28,0xc1,0x3d,0x9c,0xb8,0x58,0xbe,0xb0,0x21,0x2c,0xbe,0xf9,0xa4,0xd2,0xbe,0x5a,0x6f,0x82,0x3e,0xbb,0x7a,0x22,0x3e,0x86,0x5a,0xe3,0xb9,0x7a,0x81,0x68,0x3f,0x98,0x97,0x35,0x3f,0x33,0x82,0x05,0xbe,0x5a,0x76,0x54,0x3e,0x95,0xa5,0xc1,0xbd,0x6c,0x5c,0xb1,0x3d,0x5a,0x3a,0x90,0x3d,0xb7,0x9f,0xa3,0x3c,0xa9,0xe0,0x47,0xbd,0x3b,0xbd,0xfe,0x3e,0xdb,0x0a,0x25,0x3e,0x8e,0xab,0x39,0x3e,0x1b,0xb5,0x98,0xbf,0x5e,0xaf,0xc9,0x3e,0x98,0xe5,0xb6,0xbd,0x42,0xae,0xd7,0xbd,0x3e,0x4f,0x0b,0xbe,0xc7,0xe1,0xa7,0x3e,0xd4,0x4a,0x09,0xbf,0x17,0x18,0x75,0x3e,0x39,0x58,0x22,0x3f,0x78,0xc2,0x16,0x3e,0xc6,0x63,0x66,0xbe,0x25,0x26,0x9f,0x3e,0xd9,0x76,0x6c,0x3e,0xb8,0x22,0xc2,0x3d,0x6c,0xa5,0x30,0xbc,0x03,0xca,0x02,0x3e,0xbf,0x34,0xf2,0x3e,0xea,0x53,0xa2,0xbd,0x98,0x12,0xca,0x3d,0xe1,0x92,0x23,0x3e,0x9a,0x75,0xcd,0xbe,0x02,0xfa,0x61,0xbf,0xee,0x08,0x4b,0x3e,0xff,0xf0,0x9c,0xbd,0x4f,0x67,0x99,0x3e,0xcd,0x80,0x8e,0x3c,0xbc,0x71,0x91,0xbd,0xf7,0x12,0x79,0x3e,0xe2,0xe5,0x1e,0x3f,0x5c,0xc3,0x1b,0xbe,0xdc,0x12,0x17,0xbe,0xf7,0xd4,0x65,0x3d,0xcb,0x85,0xff,0x3d,0x5d,0xd9,0xe0,0xbe,0x53,0x5c,0xb8,0xbd,0xeb,0xdc,0x84,0x3e,0xcf,0xb0,0x02,0xbd,0x16,0x3a,0x08,0xbe,0x03,0x56,0x86,0xbf,0xba,0x05,0xd4,0x3e,0x50,0x4f,0x8e,0x3f,0x27,0x24,0x27,0x3e,0x8e,0x2c,0x0b,0x3e,0x59,0x30,0x3c,0x3e,0xb5,0x0e,0x5d,0x3e,0x84,0x32,0x96,0x3d,0x8b,0x8e,0x38,0x3d,0xb2,0x97,0xeb,0x3d,0xba,0xb1,0x55,0x3f,0xeb,0xb2,0x0c,0xbe,0x45,0xb9,0x0a,0xbc,0x83,0x31,0xb1,0xbf,0x8b,0x93,0xa9,0x3e,0x00,0x37,0xb2,0x3d,0x30,0x5d,0x84,0xbf,0x89,0xdb,0x8d,0x3c,0x0c,0xda,0x09,0xbe,0x13,0xe6,0xa4,0xbf,0xc0,0x11,0xac,0x3e,0x26,0xad,0x78,0xbe,0x78,0xfe,0x2b,0xbf,0xcd,0x15,0x16,0x3f,0x29,0xc8,0xb4,0x3e,0xb2,0x23,0x82,0xc1,0x72,0xca,0xa3,0x3f,0x00,0x75,0x9d,0xbf,0xe4,0x6f,0x98,0x3e,0x66,0xae,0x1b,0x3e,0xd7,0xe1,0x06,0x3d,0x3c,0x89,0xb6,0xbe,0xc9,0x6f,0x71,0x3e,0xfa,0x76,0xcd,0xbe,0x4a,0xdd,0xbf,0xbf,0xe3,0xc9,0x8b,0x3d,0x74,0x7a,0x3a,0x3d,0x9e,0x28,0x8c,0xbe,0x0d,0xee,0x94,0xbe,0x96,0xc0,0xd4,0x3e,0x27,0x79,0x55,0x3e,0xbb,0x64,0x72,0xbe,0xbb,0x29,0xcb,0xbe,0xca,0xec,0x94,0xbc,0xf7,0xd5,0xa7,0x3e,0xbc,0xae,0x42,0x3f,0x6a,0x90,0x0b,0xbe,0x14,0x23,0xd1,0xbe,0x3b,0x94,0x18,0x3f,0x19,0xfe,0x71,0xbe,0x7f,0x14,0xe0,0xbd,0xfb,0xec,0x6a,0x3f,0x0d,0x59,0x87,0xbe,0x2a,0xbd,0xe6,0xbd,0x6b,0x54,0xec,0x3e,0xda,0xa2,0x92,0xbe,0x4d,0x7a,0x92,0x3d,0x3d,0xae,0x99,0x3e,0x23,0x93,0xb1,0xbf,0xf3,0x05,0x10,0x3f,0xd8,0x48,0x59,0xbe,0xf7,0xeb,0x1d,0xbd,0xd0,0xed,0x5f,0x3e,0x62,0x2e,0x1d,0x3f,0xce,0x1a,0x1b,0x3f,0x4c,0x91,0x95,0x3e,0x57,0x49,0xe5,0x3e,0x76,0x30,0xa6,0x3e,0x05,0xd4,0x26,0xbd,0xab,0x87,0x2a,0x3f,0x1f,0xb2,0x2a,0x3e,0xe5,0x27,0xcd,0xbc,0xd4,0x23,0xb1,0xbd,0x1a,0x26,0x7b,0x3e,0x93,0x0d,0xc5,0x3e,0x33,0xbe,0x4e,0xbe,0x20,0x7b,0xcf,0x3e,0xe5,0x07,0x6a,0x3f,0x0f,0x53,0xc6,0xbf,0x95,0xf0,0x13,0xbf,0x2c,0xcf,0x85,0x3f,0x27,0x41,0xb2,0x3e,0x3c,0x7f,0x10,0x3f,0xe9,0x0d,0x75,0x3f,0xeb,0x99,0xca,0xbe,0x30,0xec,0x5b,0x3e,0x5d,0x98,0x16,0x3f,0xd6,0xd8,0xc3,0xbf,0x9d,0x39,0x7e,0x3e,0xd7,0x53,0x66,0xbe,0x69,0x43,0x28,0x3f,0x16,0x84,0x51,0x3f,0x3b,0xa5,0xac,0x3c,0xfb,0x5d,0x8b,0xbe,0x2d,0x79,0xe2,0x3d,0xf9,0xd0,0xac,0xbb,0x4f,0x4a,0x84,0x3c,0x2f,0x12,0xa6,0x3e,0xd7,0x0f,0xcc,0x3f,0xb3,0xcb,0x29,0x40,0x99,0x14,0x96,0xbe,0x89,0x03,0x7b,0x3e,0xee,0xd2,0x59,0x39,0x23,0x8b,0xb7,0xc0,0x48,0xb9,0x82,0x3c,0x59,0x39,0x5d,0xbe,0x61,0x3b,0x26,0x3e,0x2c,0xe2,0xa3,0xbb,0xd5,0xa8,0x20,0x3e,0xba,0x5b,0xdc,0x3d,0xaa,0x46,0x44,0xbf,0xea,0xab,0x85,0xbf,0x4d,0x29,0xd2,0x3d,0xf9,0x03,0x2c,0x3d,0x44,0x4b,0x77,0x3e,0x71,0x97,0x9e,0x3d,0xae,0xdc,0x6e,0xbe,0x6c,0x0a,0x0f,0x3d,0xa9,0xaa,0xb5,0x3e,0x0f,0x1c,0xda,0xbe,0xbd,0x78,0x4b,0x3e,0x62,0xd7,0x5b,0x3e,0x47,0x0d,0x9e,0x3f,0x9c,0xac,0x0c,0xbe,0x1e,0x84,0xad,0xbe,0xf2,0xc7,0xb0,0xbd,0x37,0x8d,0x45,0xbe,0xdf,0xf1,0x1e,0x3e,0x94,0xe2,0x7a,0xbf,0x73,0x74,0x1a,0x3e,0x0b,0x6d,0x37,0x40,0x49,0x57,0x80,0x3d,0x6f,0x2c,0x8e,0x3c,0xec,0xeb,0xcb,0x3e,0x21,0x86,0x19,0xbd,0xf8,0x58,0x8f,0x3d,0xa7,0x01,0x65,0xbd,0x94,0x9c,0x63,0x3e,0xaf,0xd2,0x63,0x3f,0x5a,0x9e,0x38,0xbd,0x6e,0xb3,0x84,0xbe,0xdc,0xf0,0x91,0xbf,0xdd,0x9c,0xfc,0x3e,0xa1,0x00,0xed,0xbd,0xb9,0x19,0x92,0xbf,0x68,0xdf,0x21,0xbe,0x02,0x5a,0x05,0x3d,0x4f,0x22,0xb9,0xbf,0xae,0xcc,0xb0,0xbd,0xb7,0xdb,0x44,0x3c,0x02,0xb8,0x21,0xbf,0xe8,0x72,0x02,0x3f,0xa8,0x3a,0xc5,0x3d,0x0b,0xa8,0x01,0xc0,0xcc,0xc1,0x97,0x3f,0x2d,0x38,0x9a,0xbf,0x38,0x7c,0xef,0x3c,0x85,0x3d,0xc7,0x3d,0x6a,0x9a,0x83,0xbd,0xe6,0x39,0x10,0xbe,0xb1,0xef,0xed,0x3e,0x09,0x86,0x43,0x3e,0x70,0x54,0xf1,0x3c,0xa3,0xb8,0x9e,0x3e,0xbe,0x95,0x9c,0x3c,0x95,0xf2,0x17,0xbd,0x6a,0x3c,0xfb,0x3d,0x4c,0xdb,0xe0,0xbe,0xb6,0xdf,0xfb,0xbd,0xf5,0xce,0xc2,0x3e,0x1b,0x9a,0x5d,0xbe,0x0b,0x6c,0xc6,0x3d,0x97,0x77,0x61,0x3f,0x1d,0xc5,0xcb,0x3e,0x4f,0x28,0x10,0xbf,0x78,0x96,0x57,0x3e,0xa4,0x8a,0x60,0x3f,0x95,0x1d,0x6b,0x3d,0xdb,0xe5,0xbc,0x3e,0xc7,0x91,0x32,0x3f,0x3d,0x6e,0x23,0xbe,0x07,0x53,0xa6,0x3d,0x24,0xa3,0x17,0x3f,0xb9,0x6a,0x4b,0xbe,0xeb,0x40,0x93,0x3e,0x4b,0xad,0x7f,0xbd,0x2d,0x10,0x7a,0xbd,0x9f,0x44,0x8b,0x3e,0xc0,0x5c,0x9d,0x3d,0x20,0xef,0xfd,0x3d,0x19,0xdc,0x6f,0xbe,0xf0,0xea,0x13,0xbe,0x6b,0xae,0xf5,0x3c,0x0d,0x58,0x94,0xbd,0x3a,0xed,0x2e,0xbf,0x42,0xd9,0x1c,0xbf,0xaf,0x83,0x3f,0x3d,0x17,0xaa,0xad,0xbe,0x4d,0x5d,0x31,0xba,0xcb,0xc1,0x55,0xbe,0x3b,0xfd,0x54,0xbd,0x04,0x0b,0x76,0x3e,0x0d,0x04,0x08,0xbf,0x08,0x32,0x7e,0x3e,0xad,0x6c,0x4f,0x3d,0x07,0xd3,0xb7,0xbe,0x38,0xf5,0x4c,0x3f,0x96,0x4a,0x36,0x3f,0xba,0xba,0xdb,0xbe,0x9d,0x4d,0xa6,0x3c,0xd0,0x57,0x26,0xbe,0x4c,0x8f,0xe8,0xbc,0x52,0xa8,0xb7,0x3e,0x34,0x21,0x9e,0xbd,0xfc,0xd1,0xd8,0xbd,0xe7,0x90,0x33,0x3f,0xe2,0x5e,0x1a,0xbe,0x74,0x37,0x76,0x3e,0x58,0xb9,0x33,0xbf,0xaf,0x10,0xa8,0xbe,0x2e,0x2c,0xb4,0x3e,0x00,0xeb,0x38,0xbe,0x54,0xca,0x20,0xbe,0xfe,0x62,0x38,0xbe,0x50,0x84,0x4c,0xbe,0xd4,0xf1,0x3f,0xbe,0x80,0x5d,0xef,0xbc,0x00,0x98,0x48,0x3e,0x23,0x63,0x88,0xbc,0x77,0x3b,0x56,0xbd,0x9b,0x3e,0x31,0xbe,0x00,0x6d,0x6a,0xbe,0x98,0xa2,0x5f,0x3e,0xb7,0xcb,0xcd,0x3d,0xa1,0x85,0x88,0x3d,0xb4,0x16,0x43,0xbe,0x30,0x25,0xcf,0xbd,0xd8,0x9c,0xa4,0xbd,0x17,0xab,0x2e,0xbe,0x10,0xc7,0x35,0x3d,0x9f,0x2f,0x06,0x3e,0x79,0x90,0x2a,0xbe,0x4c,0x98,0x6e,0x3e,0x98,0x34,0x4a,0xbe,0x81,0xf8,0xb6,0x3d,0x36,0xbc,0xd1,0x3d,0x54,0x93,0x3a,0xbe,0x88,0x52,0xce,0xbd,0x6e,0xb5,0x41,0x3e,0x44,0x6b,0x5b,0xbe,0x6e,0x8f,0x37,0x3d,0x30,0x38,0x5d,0x3e,0xb7,0x0b,0x05,0xbe,0x70,0x60,0x53,0xbd,0x34,0xe4,0x65,0xbe,0xbe,0xb9,0x5b,0x3d,0xe0,0xfb,0x98,0x3d,0xc2,0xc0,0x3f,0xbe,0xd4,0xbe,0xda,0x3d,0xf0,0x69,0x57,0xbe,0x6e,0x4e,0xcb,0x3d,0xb2,0x20,0xcb,0xbd,0xa1,0xb1,0x9f,0x3d,0x00,0xf4,0x90,0x3a,0x00,0xdb,0x42,0xbd,0x5c,0x0c,0x12,0xbe,0x5a,0xce,0xf7,0x3d,0x30,0x13,0x38,0xbe,0x98,0x59,0xcd,0xbd,0xe8,0x99,0xfa,0xbd,0xca,0xc0,0xa2,0x3d,0xf8,0xd9,0xbf,0xbd,0x44,0x52,0xce,0xbd,0x84,0x33,0xaa,0xbd,0x34,0xe5,0x71,0xbe,0x80,0x29,0x20,0xbc,0x31,0x66,0x8d,0xbd,0x77,0x97,0x85,0xbb,0xf3,0x6e,0xb9,0xbd,0xe5,0xe4,0x33,0x3e,0xfb,0x6d,0x3c,0x3e,0x00,0x57,0x4c,0xbd,0x82,0x7c,0xa2,0x3d,0x80,0xec,0xd0,0xbd,0x86,0x76,0x55,0x3d,0x0b,0x1c,0x3c,0x3e,0x62,0xa2,0x7d,0xbe,0x88,0x9d,0x94,0x3d,0xf2,0x4a,0x91,0xbf,0x86,0x7f,0x45,0xbe,0x35,0xfd,0x32,0xbf,0x2c,0x6e,0x13,0xbd,0xc0,0x04,0x3f,0x3c,0x83,0xd5,0x70,0xbe,0xeb,0xf5,0x1e,0x3e,0xf5,0x01,0x6e,0xbe,0x48,0xa9,0xb2,0xbe,0xe2,0xdc,0x00,0xbf,0xdc,0xf3,0xff,0xbe,0x86,0x49,0xd5,0xbd,0xdb,0x24,0xe5,0xbe,0x6c,0x3a,0x87,0x3f,0x5e,0xf6,0x08,0x3f,0x55,0xfa,0xf4,0x3e,0xd0,0x8a,0x6e,0xc0,0x36,0x67,0x1d,0xbf,0xbe,0x21,0x14,0xbd,0x28,0xb0,0x29,0xbf,0xc1,0x81,0xae,0x3d,0x02,0x09,0x3e,0xbd,0xbc,0xff,0xe4,0x3f,0xd5,0x96,0x11,0x3f,0x27,0x05,0x0c,0x3e,0x22,0x18,0x0e,0x3e,0x08,0x1c,0x16,0xbf,0xd1,0x17,0xac,0xbf,0x02,0x7d,0x17,0x3d,0x64,0x1a,0x9b,0x3e,0x2a,0x44,0x1f,0xbe,0x4d,0x9f,0x18,0x3e,0xba,0xce,0x83,0x3e,0x1c,0xa3,0x6b,0xbe,0x6a,0xff,0x5c,0x3f,0x3a,0xc0,0x8b,0x3e,0x3e,0x7f,0x6e,0xbf,0xd7,0xf0,0xa3,0x3e,0x5d,0xba,0x16,0x3f,0x2f,0x7f,0xa5,0xbc,0xb6,0x36,0xa5,0x3d,0xc6,0x50,0xcb,0xbe,0x37,0xec,0x16,0xbe,0xd6,0x17,0x80,0x3e,0xcf,0x49,0x81,0x3d,0xbb,0xc1,0x60,0x3f,0xb8,0x86,0x3b,0xbf,0x58,0xce,0x5d,0xbe,0xf9,0xd3,0x23,0x3f,0x1a,0x48,0x62,0xbe,0xdc,0x1f,0xc9,0x3e,0xef,0x63,0x6e,0x3f,0xa2,0xb9,0xdd,0xbe,0xb7,0x1f,0x1e,0xbe,0x47,0xca,0xa4,0x3e,0x02,0x74,0xfb,0xbf,0xf1,0x44,0xea,0xbd,0xf4,0xb1,0x3d,0x3e,0xf9,0x17,0x70,0xbe,0x2f,0xfa,0x5c,0x3e,0x93,0xab,0x9b,0xbe,0x69,0xe2,0x2d,0x3e,0x49,0x20,0x1b,0x3e,0xe0,0xb8,0xf2,0xbd,0x5b,0xd2,0xf5,0x3c,0x50,0x34,0x04,0xbd,0x0c,0x69,0x49,0x3e,0x5c,0xf9,0xe8,0xbd,0x6c,0xad,0x55,0xbe,0x20,0xd1,0x1c,0xbe,0xa7,0x19,0x87,0x3c,0x14,0xfb,0x19,0xbd,0x50,0x02,0x27,0xbe,0x00,0x22,0xfe,0xbd,0xdc,0xf9,0x73,0xbe,0xf9,0x69,0x15,0x3e,0x77,0xc5,0xd4,0x3d,0x27,0xfb,0xb5,0xbc,0x55,0x31,0xf9,0x3d,0xdb,0x48,0xa5,0xbc,0x45,0x08,0x3c,0xbe,0x40,0xe2,0xb5,0xbd,0x64,0x85,0x1a,0x3e,0xe8,0x72,0x35,0xbe,0xc0,0x94,0x1d,0xbd,0xb0,0xa0,0x6e,0xbe,0x9c,0x0a,0x75,0xbe,0x4c,0xa7,0x69,0xbc,0x70,0x0d,0x3e,0x3d,0x45,0x61,0x61,0xbe,0xa4,0xe8,0xe7,0xbd,0x10,0x48,0x08,0x3e,0x44,0xa3,0x62,0xbe,0x52,0xd7,0x4c,0x3d,0xe3,0xf4,0x71,0x3e,0x5e,0xfd,0x2e,0x3e,0xa8,0x2e,0x40,0xbe,0xd4,0xf9,0xe6,0xbd,0xb1,0xf5,0x61,0xbe,0x67,0x31,0x7b,0xbd,0x5e,0xaa,0x82,0xbe,0x39,0x5d,0x35,0x3d,0x20,0xdc,0xa2,0xbd,0x5e,0x02,0x96,0xbd,0x9c,0x30,0x5a,0xbe,0x74,0xfd,0x02,0xbe,0x00,0x23,0xf7,0xbd,0x2c,0xd6,0x22,0x3d,0xbf,0x10,0x05,0xbe,0x1e,0x35,0x44,0x3e,0x53,0xcd,0x52,0x3d,0xd5,0x6d,0xaa,0xbd,0xf8,0xbc,0x0c,0x3c,0x7e,0xd5,0xb7,0xbd,0x10,0xe1,0x8e,0xbd,0xf5,0xac,0x6a,0xbe,0xbe,0x67,0x67,0xbe,0xd4,0xbb,0xed,0xbd,0x98,0x16,0x0c,0x3e,0xac,0x9e,0xea,0x3d,0x7f,0xed,0x3c,0x3e,0x7d,0x78,0x02,0xbe,0x78,0x67,0xb2,0x3d,0x89,0xc3,0x3f,0xbe,0x8a,0x1d,0x7d,0x3d,0x22,0x92,0xd9,0x3d,0x80,0x8f,0x0b,0xba,0x51,0x23,0x0b,0x3e,0xe0,0x02,0xd2,0x3e,0xdf,0xf7,0x47,0x3d,0xc5,0x44,0xe8,0x3e,0x6d,0xf9,0x54,0xbe,0x9b,0x1d,0x72,0x3d,0x41,0xbe,0x37,0xbe,0xe0,0x05,0xe2,0xbd,0xf4,0xc4,0x1e,0x3f,0xb0,0x8f,0xa3,0x3b,0xa4,0x40,0x12,0x3d,0xea,0xda,0x7c,0xbe,0xd7,0x46,0x29,0xbe,0x68,0x73,0x8b,0x3e,0x8a,0x90,0xc8,0xbc,0xd9,0xe6,0x13,0xbe,0xe3,0xe2,0x21,0xbf,0xb9,0x53,0xe6,0x3d,0x06,0x8e,0xe0,0x3c,0x8d,0xd8,0xaa,0x3e,0x73,0xb6,0x49,0xbe,0xbf,0xd6,0x5c,0x3c,0x98,0x8f,0x35,0xbe,0x90,0x91,0x9a,0xbd,0xed,0x4f,0x47,0xbe,0xd1,0x67,0xd2,0xbd,0xb2,0xa8,0xd5,0x3d,0x30,0xb0,0x70,0xbe,0xf4,0x07,0x5c,0x3d,0xd6,0xba,0x2d,0x3d,0x9a,0x86,0x81,0x3e,0x62,0x08,0x01,0x3f,0x7c,0x77,0xb2,0x3d,0x9b,0x41,0xd1,0xbe,0x6a,0x0e,0xd1,0xbc,0x2b,0x1d,0xa0,0x3f,0x22,0xdc,0x0e,0x3e,0xdc,0x18,0xfc,0x3e,0x01,0x80,0x20,0x3e,0xd0,0x36,0x3d,0x3d,0xde,0x95,0x1f,0xbf,0x00,0x17,0xfa,0x3e,0x12,0x9d,0x36,0x3e,0x30,0xbb,0xe5,0x3e,0x00,0x1f,0x9e,0x3e,0x1c,0x90,0x0a,0x3f,0xa0,0x57,0xdd,0xbe,0xd4,0x67,0x0e,0x3e,0xcb,0x6c,0xe2,0x3d,0xe9,0x74,0xc5,0xbe,0x2b,0x55,0x51,0x3d,0xbb,0x43,0xd3,0x3e,0xe2,0x54,0x09,0xbf,0x32,0xaa,0xfc,0x3d,0xea,0x64,0xbc,0xbd,0xa5,0xed,0x05,0xbe,0xa4,0xdc,0x27,0x3e,0x0f,0xe0,0x83,0x3e,0x18,0x5b,0xe6,0xbd,0xd7,0x5e,0x96,0x3f,0x46,0xfb,0x30,0xbf,0x20,0xfa,0xf2,0x3e,0x37,0xee,0x1b,0xbd,0x70,0xdf,0xa8,0xbe,0x17,0xa1,0xeb,0xbd,0xc9,0x0c,0x47,0x3e,0x05,0xe6,0x61,0x3d,0xb7,0x52,0xf5,0xbd,0x9c,0x15,0xb7,0xbd,0xaa,0x35,0x80,0x3d,0xd2,0xb1,0x06,0x3e,0xf8,0xc4,0x85,0xbc,0xba,0x1f,0x02,0xbf,0x59,0xf0,0x6e,0xbe,0x11,0xd2,0x44,0x3e,0xb7,0x43,0x44,0x3c,0x26,0x4a,0x67,0x3d,0x8f,0x2a,0x01,0x3f,0x3c,0xf9,0xf1,0xbd,0x58,0xe5,0x8d,0xbe,0xa9,0x31,0xbb,0x3e,0x99,0x11,0x0b,0x3f,0x49,0xb0,0x86,0x3e,0xdd,0x09,0xa4,0x3e,0x29,0x53,0x7d,0x3e,0x7a,0x6c,0x53,0xbd,0x5b,0x34,0xb2,0x3e,0x04,0x2d,0x74,0x3c,0x82,0x47,0x29,0x3e,0xe3,0x29,0x6e,0x3d,0x4b,0xb7,0x78,0xbe,0x81,0xcb,0xbf,0x3e,0x55,0xc6,0x4e,0x3e,0xe4,0x0c,0x8a,0x3e,0xb0,0xcc,0x86,0x3d,0x75,0x3e,0x07,0x3e,0x24,0xdb,0x2a,0x3e,0x75,0x42,0x9b,0x3c,0xed,0x85,0x41,0x3c,0xba,0xc4,0xb1,0xbf,0x07,0x54,0x9f,0xbe,0x5b,0xe7,0x08,0x3e,0x34,0xbd,0x14,0xbc,0x41,0x8c,0x16,0xbe,0x8e,0xad,0x92,0x3d,0xdd,0x95,0x17,0x3e,0x5b,0x87,0x7c,0x3e,0x9b,0xdf,0xeb,0xbe,0xa2,0xb5,0x2f,0x3c,0xd7,0x15,0x15,0x3e,0x29,0xad,0x61,0x3d,0x99,0x8a,0x5e,0x3f,0xec,0xb0,0x19,0x3f,0x4a,0x80,0x27,0x3e,0x58,0x1c,0xe8,0xbd,0x28,0xad,0xbc,0xbd,0x62,0xb0,0xa4,0x3e,0x7b,0x29,0xa0,0xbd,0xa8,0x64,0xcf,0xbd,0x3f,0xb8,0x94,0x3e,0x43,0x6a,0x0e,0x3f,0xb6,0xe9,0x0d,0xbd,0x3a,0xaa,0x1c,0x3c,0xfe,0xfb,0x9c,0xbf,0xb0,0x8e,0x12,0x3e,0xcb,0xba,0x20,0xbe,0xa2,0x74,0xac,0xbe,0x42,0xd5,0x52,0xbf,0x10,0x8c,0xd9,0x3e,0x94,0x70,0x21,0xba,0x51,0xd0,0x5c,0xbd,0x3c,0xda,0x80,0xbe,0x54,0x6c,0x20,0xbf,0x34,0xf1,0x89,0x3d,0xe3,0x54,0xe7,0xbb,0x46,0x2c,0x8c,0x3d,0x31,0x78,0x33,0xc0,0x68,0x05,0x2f,0xbf,0x7c,0x1c,0x06,0xbb,0x8a,0x5e,0xc0,0x3c,0xf0,0x6a,0x79,0xbe,0xab,0x72,0x56,0xc0,0x5d,0x06,0x25,0xbf,0xa1,0x3d,0x30,0x3f,0x14,0x62,0x07,0x3e,0x0b,0x9c,0x99,0xbf,0x45,0x04,0x39,0x3e,0x8c,0x76,0x04,0x3e,0x6c,0x89,0x17,0xbf,0x0e,0x37,0xaf,0x3e,0xdd,0x95,0xef,0xbc,0x0f,0x4a,0x41,0xbd,0xda,0xb5,0x1e,0x3f,0x21,0xd2,0x17,0x3e,0xf8,0x21,0x75,0xbd,0xa1,0x6e,0xcd,0x3e,0x4e,0x90,0x25,0xbe,0xb5,0x16,0x70,0x3d,0x89,0x35,0xdd,0xbd,0x76,0x93,0xe3,0x3d,0x71,0xed,0x17,0xbe,0x30,0xc5,0x54,0x3d,0x26,0x06,0xcc,0xbe,0xfa,0x2f,0x8d,0xbf,0xaf,0xc9,0x05,0xbd,0x50,0xb3,0xd6,0x3e,0x07,0xb3,0x78,0x3d,0x5f,0x17,0x28,0x3e,0x14,0xa3,0xc9,0x3e,0xc5,0x68,0xa9,0x3e,0x57,0x44,0xb0,0x3d,0xf4,0x0a,0xdc,0xbe,0xf6,0x05,0x5e,0x3d,0x43,0x5f,0x12,0x3f,0x50,0x95,0x36,0x3d,0x32,0x06,0xa1,0x3e,0xfc,0x54,0x53,0x3e,0x3e,0xdb,0x00,0x3e,0x76,0x00,0x02,0x3d,0x33,0x3a,0xf0,0xbb,0xc6,0xc1,0x1f,0x3e,0xc8,0xc5,0x8b,0x3d,0x8a,0x59,0x10,0xbd,0x2a,0x34,0xc6,0x3c,0x8a,0x5f,0x92,0x3e,0x4f,0x2f,0x85,0xbc,0xf8,0x3d,0x87,0xbd,0x8b,0xf2,0x76,0xbf,0x5f,0xd2,0xb1,0x3e,0x09,0x66,0x3d,0xbc,0xa4,0x96,0xf6,0x3d,0x2d,0xd9,0x79,0xbe,0xf7,0x67,0x1e,0xbf,0x96,0xe5,0xb6,0xbe,0xfe,0xb9,0x53,0xbe,0x88,0x54,0x57,0xbd,0xe8,0xeb,0x1e,0xbd,0x92,0x87,0xbb,0x3f,0x06,0x6d,0x15,0x3e,0x41,0xd4,0xc8,0xbc,0x1d,0x68,0xc2,0xbe,0xf2,0x01,0xca,0xbe,0x01,0x77,0xbc,0xbf,0x61,0x08,0x41,0xbe,0x1d,0x8d,0xc7,0x3d,0x8c,0xda,0x08,0xbf,0xc7,0x63,0x79,0xc0,0xec,0xee,0x08,0x3e,0xe5,0xe8,0x35,0x3d,0xf8,0x63,0xe4,0x3e,0x72,0x85,0x0b,0xbe,0xf6,0x5f,0x22,0xbe,0x0a,0xd7,0xb9,0xc0,0x67,0xa3,0x94,0x3e,0x5c,0x59,0x4e,0xbe,0x32,0x28,0xc2,0xbc,0x3e,0x58,0xa5,0x3e,0xba,0x29,0x80,0x3f,0xc0,0x85,0xe2,0xbc,0x9c,0x33,0x5b,0x3e,0xd4,0x24,0x8e,0xbe,0x14,0x87,0xe8,0x3e,0xe6,0x67,0x27,0x3e,0xfa,0x7a,0x94,0xbd,0xde,0xaf,0x5f,0xbe,0xf1,0x1c,0x0e,0x3f,0x46,0x3b,0x6a,0xbe,0xfc,0x5d,0x2c,0x3d,0x02,0xd7,0x7e,0x3d,0xea,0xc8,0x41,0xbf,0x93,0x2a,0xc7,0xbc,0xf3,0xb2,0x53,0x3e,0x0b,0x1a,0xbe,0xbe,0xee,0x75,0x57,0xbc,0x50,0xfc,0x90,0xbe,0x95,0x13,0xaf,0x3d,0xaa,0x51,0x40,0x3e,0x0a,0xa5,0xee,0xbd,0xe4,0x36,0x71,0x3f,0x6a,0xe5,0x23,0x3d,0x52,0x95,0x84,0xb9,0x7b,0xa4,0x50,0x3e,0x65,0x4f,0x15,0xc0,0x87,0x67,0x39,0xbf,0xde,0x95,0x88,0x3f,0x97,0x69,0xdc,0xbe,0x45,0x41,0x88,0xbf,0x4d,0x17,0xdd,0xbc,0x34,0x08,0x34,0xbf,0xa5,0x53,0x29,0xc0,0xa1,0xcb,0x80,0x3e,0x46,0x4e,0x64,0xbf,0xf8,0x06,0x34,0x3e,0x51,0xa9,0x41,0xc0,0xcc,0xe4,0x28,0x3d,0xff,0x8f,0xcb,0xbd,0x40,0x5f,0x1e,0x3a,0xf8,0x39,0x94,0x3e,0xb7,0x59,0x66,0xbe,0xbe,0xf0,0x3e,0x3f,0xfd,0x05,0x1e,0xbb,0x29,0x9a,0x69,0xbe,0x60,0xab,0x92,0xbc,0xde,0xea,0x30,0xbe,0xf1,0x6e,0x23,0x3f,0x9c,0xfc,0x83,0xbd,0xfb,0x9e,0x8b,0xbd,0x00,0xa5,0x9e,0xbe,0xd2,0xc5,0x90,0x3d,0xc0,0x1f,0xa1,0x3f,0x61,0x83,0x3b,0x3f,0xb2,0x5d,0xed,0xbe,0x57,0x36,0xf2,0xbe,0x6a,0x28,0x79,0xbd,0x88,0x20,0x48,0x3e,0x99,0x89,0x6b,0x3d,0x9f,0x24,0x4d,0x3e,0x4b,0x1b,0xac,0xbe,0xed,0x9d,0x31,0x3e,0xab,0xdd,0x58,0x3e,0x41,0x8e,0x22,0xbf,0x56,0x16,0x8e,0xbe,0x54,0x5d,0x01,0x3f,0x1f,0x6f,0x1a,0xbe,0x52,0xe2,0xd3,0x3e,0xd4,0xf1,0x88,0xbe,0x38,0xb6,0x38,0x3d,0x17,0xab,0x93,0xbd,0xdc,0x59,0xc9,0x3d,0x90,0xba,0x8e,0x3e,0x77,0x66,0xff,0x3e,0xb5,0xd9,0x10,0x40,0xb9,0x3a,0x5d,0x3f,0x25,0x5b,0xc2,0x3d,0xbf,0x92,0x62,0x3e,0xdc,0xdf,0xd4,0x3d,0x43,0x96,0x93,0x3e,0x85,0x4e,0x7c,0x3c,0x7f,0xc8,0xaf,0x3e,0x71,0x5a,0xdd,0x3e,0xa2,0xed,0x56,0xbe,0xa0,0x8d,0x63,0x3c,0x6d,0x2c,0x51,0x3f,0x45,0x13,0x40,0xbf,0xff,0xd4,0xcb,0xbe,0xff,0xc1,0x10,0x3f,0x98,0x2c,0x73,0xbd,0xd2,0xe2,0x4f,0xbd,0x8b,0xe6,0x97,0x3d,0x68,0xff,0x58,0xbd,0x08,0x60,0xb5,0xbd,0x58,0xab,0x4e,0xbd,0x8f,0x26,0x3a,0xbf,0x42,0x92,0xa0,0x3e,0x54,0x19,0x55,0xbe,0xeb,0x7a,0xe9,0x3f,0x78,0x2c,0x30,0x3e,0x07,0x83,0x68,0x3d,0x48,0xea,0x8a,0x3d,0x4c,0xeb,0x4a,0xbe,0x20,0x3e,0x8c,0x3c,0x10,0x5a,0x35,0xbd,0xa0,0xbf,0x29,0xbd,0xbc,0xee,0x49,0xbe,0x00,0x20,0x11,0x3c,0x50,0x4c,0x5a,0xbd,0x08,0x75,0xa9,0xbd,0x68,0x7c,0x40,0x3e,0x80,0x89,0xd5,0x3c,0x20,0x45,0x32,0x3d,0x58,0xfb,0xb2,0x3d,0x90,0xc0,0x3e,0x3e,0x44,0x00,0x03,0xbe,0x1c,0x73,0x5e,0xbe,0x20,0x59,0x27,0xbe,0x38,0xf1,0xab,0xbd,0x50,0x6f,0x16,0x3e,0x5c,0xd5,0x49,0xbe,0x48,0x5c,0xc7,0xbd,0xe8,0x98,0x59,0xbe,0x60,0x85,0x01,0xbd,0xe4,0x63,0x0c,0xbe,0x48,0x31,0x83,0xbd,0x14,0xe1,0x1d,0xbe,0x60,0xf0,0xfd,0xbc,0xdc,0x52,0x19,0x3e,0xf4,0x0b,0x3a,0xbe,0x28,0x92,0x61,0x3e,0x00,0x5a,0x88,0x3b,0xa4,0x47,0x6c,0x3e,0xe0,0xa6,0x64,0xbe,0x08,0xa0,0x70,0x3e,0x3c,0x76,0x50,0x3e,0x38,0x63,0x8e,0x3d,0xf0,0x0c,0xff,0xbd,0x3c,0x8a,0x6f,0xbe,0xf8,0xae,0xc8,0x3d,0x4c,0x76,0x5d,0xbe,0x28,0x6c,0x4f,0x3e,0x80,0x5c,0x9b,0x3c,0x80,0x33,0xdd,0x3b,0x40,0x37,0x2b,0xbe,0x1c,0xc9,0x7d,0x3e,0x28,0xb4,0xce,0xbd,0x04,0x07,0x09,0x3e,0xc8,0xdd,0xa7,0xbd,0x20,0x50,0x8d,0xbd,0x0c,0xee,0x3b,0x3e,0xb8,0x9f,0x09,0xbe,0xd8,0x0f,0xd6,0xbd,0x30,0xbc,0x72,0xbe,0x8c,0xc6,0x4b,0xbe,0x68,0xd6,0xd8,0x3d,0x10,0x6c,0x70,0xbd,0x08,0x29,0x7a,0xbe,0x3c,0x7c,0x03,0x3e,0x20,0x94,0x48,0xbd,0x58,0xb3,0x0b,0xbe,0xb0,0xbe,0xd8,0xbd,0x04,0x46,0x6e,0x3e,0x88,0xf1,0x5b,0x3e,0x80,0x18,0x28,0xbc,0xe6,0x0c,0xf4,0xbd,0xf3,0x3c,0xae,0xbe,0xbf,0xb4,0x66,0x3d,0xde,0xe2,0x8c,0xbe,0xa6,0x1a,0x84,0xbb,0xe6,0xc2,0x63,0x3e,0xd3,0x98,0x22,0xbe,0x2c,0x05,0x42,0x3e,0xb6,0x28,0xd1,0x3d,0xd2,0x74,0x11,0x3e,0x34,0xb4,0x8c,0xbe,0x72,0x12,0xd3,0xbc,0x81,0x37,0x42,0x3e,0x99,0x5f,0x92,0x3d,0x13,0xcb,0x2a,0xbe,0x66,0xf7,0xc7,0x3e,0xa7,0xc1,0x1e,0xc0,0x2f,0x47,0x28,0x3f,0xef,0xf5,0xc3,0x3e,0xca,0x1e,0xac,0xbf,0xb1,0x9d,0xf4,0x3d,0xa9,0x09,0xc7,0x3d,0x5a,0x5f,0x0e,0xc0,0x66,0x0f,0x17,0x3f,0x74,0x99,0x9b,0x3e,0x44,0x5e,0x7a,0xbf,0x3e,0x61,0x66,0x3f,0xf3,0x17,0xbf,0x3e,0x18,0xc0,0x91,0xbe,0xd9,0x8f,0x04,0x3f,0xb3,0x68,0xb8,0xbf,0x04,0x44,0x5b,0x3d,0xa2,0x1f,0x05,0xbe,0x61,0x08,0xe8,0x3d,0xb6,0xc8,0x0f,0xbe,0xcd,0x2c,0x0f,0x3e,0x90,0x66,0x80,0xbc,0xc0,0x6b,0x82,0xbf,0x1c,0x75,0x3e,0xbf,0xe0,0x16,0x94,0xbe,0x53,0xcf,0x61,0xbe,0xd7,0x24,0x58,0x3d,0xd4,0x03,0x47,0x3d,0x08,0xf1,0xda,0x3e,0x00,0x4f,0xaf,0xbe,0xe8,0xa6,0xdd,0xbe,0x7d,0xb0,0x60,0x3e,0xad,0x83,0x4a,0x3f,0x63,0x32,0x8d,0x3e,0xf0,0xf5,0x96,0x3d,0x51,0x1a,0x98,0xbe,0xf3,0xa7,0xb3,0x3e,0x0f,0x8c,0x03,0xbe,0xff,0x88,0x4d,0x3e,0x80,0x86,0x36,0xbd,0xaa,0xe3,0x99,0xbe,0x76,0xcb,0xbc,0xbd,0xd1,0x1a,0x5b,0x3e,0x5c,0x37,0x4a,0xbd,0xb5,0xcf,0x9f,0xbe,0xde,0xa9,0x20,0xbe,0x2c,0x22,0x1a,0xc0,0x37,0x4e,0x7d,0x3e,0x15,0x43,0xa6,0xbe,0xbd,0x56,0x0c,0x3e,0x7e,0x5a,0x10,0xbe,0x5e,0x75,0x0f,0xbf,0xf5,0xaa,0xe6,0xbe,0x04,0x9b,0x25,0x3e,0xc1,0x99,0x83,0xc0,0xae,0xba,0x1a,0xbd,0x9b,0x9b,0x10,0x3d,0xe5,0x62,0xfb,0xbe,0x23,0x9b,0x8f,0xbe,0xf7,0xe0,0x11,0xbe,0xa3,0xb1,0xe9,0x3d,0x07,0x6f,0xe9,0xbc,0x3a,0x2a,0x0c,0x3e,0xf1,0x0c,0xe7,0xbd,0x59,0xd0,0xd4,0x3d,0x20,0xe1,0x8d,0x3f,0x8c,0xcb,0xff,0x3e,0xd7,0x73,0xdc,0x3e,0xe7,0xbe,0xd9,0xbf,0x00,0xca,0x36,0x3d,0x83,0x8c,0x81,0xbe,0x2b,0x09,0x88,0x3d,0x06,0xe8,0xd7,0x3e,0x29,0x79,0x97,0xbe,0x18,0xe0,0xd2,0x3e,0x3f,0x41,0xac,0x3e,0x1e,0x73,0xb8,0xbe,0xae,0x3a,0xca,0xbc,0xeb,0x38,0x47,0x3f,0x49,0xba,0x41,0xbf,0x5b,0x68,0xde,0x3d,0xe4,0x3f,0x36,0x3e,0x4a,0xe2,0x05,0xbe,0x4f,0x69,0x6d,0xbe,0x40,0x84,0x9c,0x3e,0x18,0xc0,0x1c,0xbf,0x25,0x8d,0x03,0xc1,0xd9,0x60,0x7d,0xbd,0x38,0xe4,0xa6,0xbe,0xcf,0xc1,0xb1,0xbe,0x3c,0x4d,0x0b,0x3e,0x96,0xf0,0xc8,0xbe,0xa4,0x9b,0x7c,0xbd,0x62,0x01,0x6f,0xbe,0x9d,0x48,0x78,0xbc,0xa6,0x20,0x29,0x3e,0xc7,0x61,0xf1,0xbe,0x5c,0x09,0x5a,0x3f,0x88,0x5f,0x34,0xbf,0x2b,0x67,0x7e,0xbe,0xd2,0x45,0x08,0x3f,0x1f,0xa5,0x69,0x3e,0xc3,0xeb,0xcc,0x3e,0xf9,0xa2,0x56,0x3f,0x32,0x84,0x5a,0x3d,0x30,0xcf,0x04,0x3d,0x7c,0xf7,0x03,0x3f,0xc2,0xc0,0x58,0xbf,0xc7,0x2a,0x31,0x3e,0xd4,0x33,0xea,0x3d,0x17,0x85,0x23,0xc0,0x3d,0x78,0x31,0x3f,0x65,0x64,0xf0,0xbe,0x39,0x7d,0xad,0x3e,0x7a,0x2b,0x0c,0xbd,0xad,0x5c,0x3d,0x3d,0x8b,0x0c,0x51,0xbd,0x98,0x4b,0x0d,0x3e,0x14,0x45,0x5f,0x3e,0x8d,0x35,0xfc,0x3d,0x6f,0x60,0x4e,0x3e,0xa6,0xa6,0x9a,0x3e,0xde,0xc4,0x6e,0xbe,0xa3,0xef,0x79,0x3e,0x23,0xf5,0x0a,0x3e,0x3f,0xb3,0x7c,0xbe,0xd3,0x4f,0x55,0x3e,0xb9,0x66,0x18,0x3e,0x2f,0x7d,0x69,0xbe,0x8e,0xcc,0x0c,0x3e,0xbd,0xa9,0xb9,0x3e,0x59,0x20,0xc4,0x3e,0x83,0xce,0x0f,0xbf,0x88,0xdf,0x26,0xbe,0x49,0xeb,0x3b,0xbe,0xd8,0x34,0x8d,0xbe,0x41,0x89,0x89,0xbe,0xb2,0x45,0x03,0x3d,0x52,0xfe,0x03,0xbf,0xf4,0x9e,0x37,0xbe,0x06,0x05,0x49,0xbe,0xbb,0xd0,0x0b,0x3f,0x74,0x64,0x6e,0xbe,0x36,0xae,0xa0,0xbe,0xa0,0xdc,0x96,0xbe,0xc6,0x7d,0x7e,0x3e,0x91,0xd7,0x3f,0x3e,0x3a,0x94,0x80,0x3e,0x5e,0xd3,0x15,0xbe,0xdb,0x22,0xeb,0x3e,0x39,0xb4,0xac,0x3f,0xd8,0x4d,0xda,0x3e,0x72,0x0f,0x5d,0xbe,0xb4,0xc4,0xaf,0x3e,0x54,0x23,0x3e,0x3e,0xfc,0x26,0x23,0xbc,0xfd,0x42,0x9e,0x3e,0xd6,0xa1,0x1e,0xbe,0x8c,0x58,0x4a,0x3f,0x69,0x41,0xaf,0xbd,0xae,0x28,0x0c,0xbb,0xee,0xf9,0x80,0x3e,0x2c,0xa2,0x48,0xbe,0x57,0x16,0x9e,0xbe,0xcb,0x7e,0x68,0xbd,0x8f,0x5e,0x14,0x3e,0xd8,0xf4,0x3b,0x3e,0xaf,0x26,0x17,0xbe,0x9a,0x29,0xab,0x3c,0x39,0x62,0x4d,0xbd,0xba,0x3b,0x27,0xbc,0x54,0x95,0x11,0xbf,0x87,0xfb,0x23,0x3e,0x25,0xba,0xcd,0xbc,0x9c,0xf4,0xf2,0x3f,0x8b,0x16,0x65,0x3e,0x73,0x55,0xa5,0xbd,0x5a,0xfd,0xff,0xff,0x04,0x00,0x00,0x00,0x00,0x01,0x00,0x00,0xef,0xa6,0xb0,0xbe,0xab,0x76,0xba,0x3e,0x89,0x94,0x64,0xbf,0x54,0x61,0x50,0xbf,0x42,0x77,0x99,0x3e,0xc8,0x25,0x02,0xbd,0x02,0x98,0xd3,0x3e,0x36,0xbd,0xb6,0x3e,0xeb,0xd5,0x18,0x3d,0x31,0x9f,0xc4,0xbe,0x39,0x53,0x8b,0x3f,0xad,0x51,0xf5,0xbf,0x53,0xc2,0x3b,0xbe,0xd9,0xb0,0x83,0x3e,0xfa,0x93,0xbe,0xbb,0x9f,0xb4,0xf4,0x3c,0xe2,0x76,0x26,0x3e,0xd2,0xb5,0x78,0x3f,0x5d,0x57,0x0e,0xbe,0x12,0x44,0x0f,0xbe,0xb4,0x85,0xb4,0x3e,0x94,0x21,0x0c,0x3f,0xc5,0x67,0x6a,0x3e,0xff,0x9d,0xe5,0xbe,0x5a,0x38,0x3c,0xbe,0x3f,0xd4,0xfb,0xbf,0xbd,0xa7,0xb4,0x3e,0x01,0xc7,0x1c,0x40,0x86,0x1b,0x30,0x3e,0xae,0x48,0xea,0xbd,0xd6,0x25,0x69,0x3e,0xf1,0x6d,0x8c,0x3e,0xb0,0x73,0x17,0xbd,0x6b,0xc8,0x73,0xc0,0x4a,0x67,0xaf,0x3f,0xf8,0x44,0xec,0x3f,0xf5,0x32,0xac,0xbe,0xaa,0xbf,0x43,0x3e,0x7c,0xfd,0xf2,0x3d,0x64,0xb0,0x27,0xbe,0x35,0x9a,0x42,0xbf,0xef,0xea,0xe1,0x3e,0x5e,0x62,0x01,0xbe,0xc1,0x1c,0x53,0x3f,0x9f,0x5d,0x24,0xbf,0x3f,0xf3,0x26,0x3e,0x01,0x51,0xb5,0x3f,0x2c,0xb0,0x5f,0xbf,0xa7,0xec,0xc2,0x3f,0x64,0xd8,0x20,0x40,0xcb,0x71,0x0a,0x40,0xc1,0xfd,0x0e,0xbf,0xf5,0x14,0x92,0x3e,0xd1,0xe0,0xec,0x3f,0x64,0x50,0xba,0xbe,0x41,0x3e,0x14,0x3f,0xdb,0x84,0xfd,0xbe,0x30,0xbd,0x80,0xbf,0x9a,0xc7,0x2d,0xbf,0xde,0x8b,0xce,0x3f,0xa7,0x05,0xb7,0xbe,0x73,0x06,0x27,0xc0,0x86,0xe3,0x8e,0x3f,0xd7,0x16,0xa5,0x3e,0x66,0xfe,0xff,0xff,0x04,0x00,0x00,0x00,0x80,0x00,0x00,0x00,0x00,0x00,0x00,0x00,0x00,0x00,0x00,0x00,0x00,0x00,0x00,0x00,0x00,0x00,0x00,0x00,0x00,0x00,0x00,0x00,0x00,0x00,0x00,0x00,0x00,0x00,0x00,0x00,0x00,0x00,0x00,0x00,0x00,0x00,0x00,0x00,0x00,0x00,0x00,0x00,0x00,0x00,0x00,0x00,0x00,0x00,0x00,0x00,0x00,0x00,0x00,0x00,0x00,0x00,0x00,0x00,0x00,0x00,0x00,0x00,0x00,0x00,0x00,0x00,0x00,0x00,0x00,0x00,0x00,0x00,0x00,0x00,0x00,0x00,0x00,0x00,0x00,0x00,0x00,0x00,0x00,0x00,0x00,0x00,0x00,0x00,0x00,0x00,0x00,0x00,0x00,0x00,0x00,0x00,0x00,0x00,0x00,0x00,0x00,0x00,0x00,0x00,0x00,0x00,0x00,0x00,0x00,0x00,0x00,0x00,0x00,0x00,0x00,0x00,0x00,0x00,0x00,0x00,0x00,0x00,0x00,0x00,0x00,0x00,0x00,0x00,0x00,0x00,0xf2,0xfe,0xff,0xff,0x04,0x00,0x00,0x00,0x00,0x01,0x00,0x00,0xde,0x84,0x2a,0x3e,0x8a,0x85,0x9c,0x3d,0x9b,0xbb,0xb6,0x3e,0x21,0x6d,0xda,0xbd,0x29,0xb6,0xa5,0xbe,0xf1,0xa8,0x1b,0xbd,0x41,0x26,0xb8,0x3e,0xe3,0xd2,0xb5,0xbe,0x18,0x37,0x7c,0xbe,0xc5,0x34,0x39,0xbe,0x30,0xf4,0xac,0xbe,0xe6,0xb9,0x35,0xbe,0x3f,0x69,0xf2,0x3e,0xbb,0x30,0x98,0xbe,0x87,0x43,0xd7,0xbe,0xd0,0x10,0x57,0x3e,0x53,0xaf,0xee,0xbe,0x6c,0x26,0xb8,0xbe,0xf0,0xe5,0x68,0xbd,0x20,0xe0,0x7e,0xbe,0xdc,0x1c,0x11,0x3f,0x86,0x31,0xc8,0xbe,0xd7,0x13,0xc2,0x3e,0x46,0x04,0x0a,0xbe,0xed,0xc0,0xd9,0xbe,0xa8,0x7d,0xfa,0x3d,0x32,0xd5,0xbd,0xbe,0xb2,0xad,0xfb,0xbd,0x8f,0x8d,0x34,0xbc,0x66,0xf8,0x9b,0x3c,0x34,0xf2,0x22,0x3f,0xf1,0x33,0x47,0xbe,0x1e,0xd6,0x0a,0x3f,0x1a,0x4b,0x16,0xbf,0x3a,0xde,0x16,0xbf,0x90,0x9a,0x1f,0x3f,0x74,0x29,0xad,0xbe,0xc0,0xf7,0xfc,0x3e,0xac,0xb7,0x0d,0x3f,0x0d,0xf9,0x13,0xbf,0x22,0x4d,0x34,0x3d,0xe5,0xbc,0x6b,0xbe,0xac,0x80,0x2e,0xbe,0x88,0xf9,0x12,0xbf,0x5b,0x19,0xc1,0x3e,0xf2,0x59,0xd5,0xbe,0x32,0x80,0x8e,0xbe,0x51,0xea,0x87,0x3e,0xc0,0xde,0xd5,0x3a,0xd4,0xb4,0x20,0xbc,0xb8,0x75,0x92,0x3e,0xbe,0x17,0xde,0xbe,0x65,0x46,0xe9,0xbe,0x00,0xab,0xd9,0x3e,0xaf,0x42,0x49,0xbe,0xc0,0x43,0x65,0x3d,0x83,0x1a,0x5d,0xbe,0x4f,0x33,0x44,0x3f,0x9c,0x2c,0xd7,0xbe,0xa2,0xa9,0xae,0x3b,0x65,0x4f,0xbe,0x3e,0x15,0x3d,0xc1,0xbe,0x13,0x9d,0xd6,0xbe,0xe4,0x03,0x6d,0x3e,0x00,0x00,0x06,0x00,0x08,0x00,0x04,0x00,0x06,0x00,0x00,0x00,0x04,0x00,0x00,0x00,0x0c,0x00,0x00,0x00,0xff,0xff,0xff,0xff,0x02,0x00,0x00,0x00,0x20,0x00,0x00,0x00,0x38,0xf7,0xff,0xff,0x3c,0xf7,0xff,0xff,0x0f,0x00,0x00,0x00,0x4d,0x4c,0x49,0x52,0x20,0x43,0x6f,0x6e,0x76,0x65,0x72,0x74,0x65,0x64,0x2e,0x00,0x01,0x00,0x00,0x00,0x14,0x00,0x00,0x00,0x00,0x00,0x0e,0x00,0x18,0x00,0x14,0x00,0x10,0x00,0x0c,0x00,0x08,0x00,0x04,0x00,0x0e,0x00,0x00,0x00,0x14,0x00,0x00,0x00,0x1c,0x00,0x00,0x00,0xcc,0x01,0x00,0x00,0xd0,0x01,0x00,0x00,0xd4,0x01,0x00,0x00,0x04,0x00,0x00,0x00,0x6d,0x61,0x69,0x6e,0x00,0x00,0x00,0x00,0x07,0x00,0x00,0x00,0x84,0x01,0x00,0x00,0x24,0x01,0x00,0x00,0xec,0x00,0x00,0x00,0xa0,0x00,0x00,0x00,0x78,0x00,0x00,0x00,0x3c,0x00,0x00,0x00,0x04,0x00,0x00,0x00,0x02,0xff,0xff,0xff,0x14,0x00,0x00,0x00,0x00,0x00,0x00,0x08,0x10,0x00,0x00,0x00,0x14,0x00,0x00,0x00,0x04,0x00,0x00,0x00,0xc8,0xf7,0xff,0xff,0x01,0x00,0x00,0x00,0x11,0x00,0x00,0x00,0x03,0x00,0x00,0x00,0x10,0x00,0x00,0x00,0x04,0x00,0x00,0x00,0x08,0x00,0x00,0x00,0x36,0xff,0xff,0xff,0x14,0x00,0x00,0x00,0x00,0x00,0x00,0x08,0x14,0x00,0x00,0x00,0x18,0x00,0x00,0x00,0x04,0x00,0x00,0x00,0xa2,0xff,0xff,0xff,0x00,0x00,0x00,0x01,0x01,0x00,0x00,0x00,0x10,0x00,0x00,0x00,0x03,0x00,0x00,0x00,0x0f,0x00,0x00,0x00,0x05,0x00,0x00,0x00,0x07,0x00,0x00,0x00,0x9e,0xff,0xff,0xff,0x0c,0x00,0x00,0x00,0x10,0x00,0x00,0x00,0x02,0x00,0x00,0x00,0x01,0x00,0x00,0x00,0x0f,0x00,0x00,0x00,0x02,0x00,0x00,0x00,0x0e,0x00,0x00,0x00,0x09,0x00,0x00,0x00,0x92,0xff,0xff,0xff,0x1c,0x00,0x00,0x00,0x00,0x00,0x00,0x0b,0x1c,0x00,0x00,0x00,0x20,0x00,0x00,0x00,0x03,0x00,0x00,0x00,0x00,0x00,0x06,0x00,0x08,0x00,0x07,0x00,0x06,0x00,0x00,0x00,0x00,0x00,0x00,0x01,0x01,0x00,0x00,0x00,0x0e,0x00,0x00,0x00,0x02,0x00,0x00,0x00,0x0d,0x00,0x00,0x00,0x06,0x00,0x00,0x00,0x00,0x00,0x0a,0x00,0x10,0x00,0x0c,0x00,0x08,0x00,0x04,0x00,0x0a,0x00,0x00,0x00,0x0c,0x00,0x00,0x00,0x10,0x00,0x00,0x00,0x02,0x00,0x00,0x00,0x01,0x00,0x00,0x00,0x0d,0x00,0x00,0x00,0x02,0x00,0x00,0x00,0x0c,0x00,0x00,0x00,0x01,0x00,0x00,0x00,0x00,0x00,0x0e,0x00,0x1a,0x00,0x14,0x00,0x10,0x00,0x0c,0x00,0x0b,0x00,0x04,0x00,0x0e,0x00,0x00,0x00,0x20,0x00,0x00,0x00,0x00,0x00,0x00,0x01,0x28,0x00,0x00,0x00,0x2c,0x00,0x00,0x00,0x01,0x00,0x00,0x00,0x00,0x00,0x0a,0x00,0x10,0x00,0x0f,0x00,0x08,0x00,0x04,0x00,0x0a,0x00,0x00,0x00,0x01,0x00,0x00,0x00,0x01,0x00,0x00,0x00,0x00,0x00,0x00,0x01,0x01,0x00,0x00,0x00,0x0c,0x00,0x00,0x00,0x03,0x00,0x00,0x00,0x0b,0x00,0x00,0x00,0x02,0x00,0x00,0x00,0x03,0x00,0x00,0x00,0x00,0x00,0x0e,0x00,0x14,0x00,0x00,0x00,0x10,0x00,0x0c,0x00,0x0b,0x00,0x04,0x00,0x0e,0x00,0x00,0x00,0x10,0x00,0x00,0x00,0x00,0x00,0x00,0x34,0x0c,0x00,0x00,0x00,0x10,0x00,0x00,0x00,0x2c,0xf9,0xff,0xff,0x01,0x00,0x00,0x00,0x0b,0x00,0x00,0x00,0x02,0x00,0x00,0x00,0x00,0x00,0x00,0x00,0x0a,0x00,0x00,0x00,0x01,0x00,0x00,0x00,0x11,0x00,0x00,0x00,0x01,0x00,0x00,0x00,0x00,0x00,0x00,0x00,0x12,0x00,0x00,0x00,0x20,0x06,0x00,0x00,0xc8,0x05,0x00,0x00,0x68,0x05,0x00,0x00,0x14,0x05,0x00,0x00,0xd4,0x04,0x00,0x00,0x94,0x04,0x00,0x00,0x50,0x04,0x00,0x00,0x14,0x04,0x00,0x00,0xd8,0x03,0x00,0x00,0x98,0x03,0x00,0x00,0x38,0x03,0x00,0x00,0xb8,0x02,0x00,0x00,0x44,0x02,0x00,0x00,0xd0,0x01,0x00,0x00,0x50,0x01,0x00,0x00,0xf0,0x00,0x00,0x00,0x60,0x00,0x00,0x00,0x04,0x00,0x00,0x00,0x3e,0xfa,0xff,0xff,0x00,0x00,0x00,0x01,0x14,0x00,0x00,0x00,0x1c,0x00,0x00,0x00,0x1c,0x00,0x00,0x00,0x12,0x00,0x00,0x00,0x34,0x00,0x00,0x00,0x02,0x00,0x00,0x00,0xff,0xff,0xff,0xff,0x02,0x00,0x00,0x00,0xc8,0xf9,0xff,0xff,0x1b,0x00,0x00,0x00,0x53,0x74,0x61,0x74,0x65,0x66,0x75,0x6c,0x50,0x61,0x72,0x74,0x69,0x74,0x69,0x6f,0x6e,0x65,0x64,0x43,0x61,0x6c,0x6c,0x5f,0x31,0x3a,0x30,0x00,0x02,0x00,0x00,0x00,0x01,0x00,0x00,0x00,0x02,0x00,0x00,0x00,0x96,0xfa,0xff,0xff,0x00,0x00,0x00,0x01,0x14,0x00,0x00,0x00,0x1c,0x00,0x00,0x00,0x1c,0x00,0x00,0x00,0x11,0x00,0x00,0x00,0x68,0x00,0x00,0x00,0x02,0x00,0x00,0x00,0xff,0xff,0xff,0xff,0x20,0x00,0x00,0x00,0x20,0xfa,0xff,0xff,0x4e,0x00,0x00,0x00,0x73,0x65,0x71,0x75,0x65,0x6e,0x74,0x69,0x61,0x6c,0x5f,0x31,0x2f,0x64,0x65,0x6e,0x73,0x65,0x5f,0x31,0x2f,0x4d,0x61,0x74,0x4d,0x75,0x6c,0x3b,0x73,0x65,0x71,0x75,0x65,0x6e,0x74,0x69,0x61,0x6c,0x5f,0x31,0x2f,0x64,0x65,0x6e,0x73,0x65,0x5f,0x31,0x2f,0x52,0x65,0x6c,0x75,0x3b,0x73,0x65,0x71,0x75,0x65,0x6e,0x74,0x69,0x61,0x6c,0x5f,0x31,0x2f,0x64,0x65,0x6e,0x73,0x65,0x5f,0x31,0x2f,0x41,0x64,0x64,0x00,0x00,0x02,0x00,0x00,0x00,0x01,0x00,0x00,0x00,0x20,0x00,0x00,0x00,0x22,0xfb,0xff,0xff,0x00,0x00,0x00,0x01,0x14,0x00,0x00,0x00,0x1c,0x00,0x00,0x00,0x1c,0x00,0x00,0x00,0x10,0x00,0x00,0x00,0x38,0x00,0x00,0x00,0x02,0x00,0x00,0x00,0xff,0xff,0xff,0xff,0x40,0x00,0x00,0x00,0xac,0xfa,0xff,0xff,0x1e,0x00,0x00,0x00,0x73,0x65,0x71,0x75,0x65,0x6e,0x74,0x69,0x61,0x6c,0x5f,0x31,0x2f,0x66,0x6c,0x61,0x74,0x74,0x65,0x6e,0x5f,0x31,0x2f,0x52,0x65,0x73,0x68,0x61,0x70,0x65,0x00,0x00,0x02,0x00,0x00,0x00,0x01,0x00,0x00,0x00,0x40,0x00,0x00,0x00,0x7e,0xfb,0xff,0xff,0x00,0x00,0x00,0x01,0x14,0x00,0x00,0x00,0x20,0x00,0x00,0x00,0x20,0x00,0x00,0x00,0x0f,0x00,0x00,0x00,0x54,0x00,0x00,0x00,0x03,0x00,0x00,0x00,0xff,0xff,0xff,0xff,0x02,0x00,0x00,0x00,0x20,0x00,0x00,0x00,0x0c,0xfb,0xff,0xff,0x34,0x00,0x00,0x00,0x73,0x65,0x71,0x75,0x65,0x6e,0x74,0x69,0x61,0x6c,0x5f,0x31,0x2f,0x63,0x6f,0x6e,0x76,0x31,0x64,0x5f,0x31,0x2f,0x52,0x65,0x6c,0x75,0x3b,0x73,0x65,0x71,0x75,0x65,0x6e,0x74,0x69,0x61,0x6c,0x5f,0x31,0x2f,0x63,0x6f,0x6e,0x76,0x31,0x64,0x5f,0x31,0x2f,0x61,0x64,0x64,0x00,0x00,0x00,0x00,0x03,0x00,0x00,0x00,0x01,0x00,0x00,0x00,0x02,0x00,0x00,0x00,0x20,0x00,0x00,0x00,0xfa,0xfb,0xff,0xff,0x00,0x00,0x00,0x01,0x14,0x00,0x00,0x00,0x20,0x00,0x00,0x00,0x20,0x00,0x00,0x00,0x0e,0x00,0x00,0x00,0x48,0x00,0x00,0x00,0x03,0x00,0x00,0x00,0xff,0xff,0xff,0xff,0x02,0x00,0x00,0x00,0x20,0x00,0x00,0x00,0x88,0xfb,0xff,0xff,0x29,0x00,0x00,0x00,0x73,0x65,0x71,0x75,0x65,0x6e,0x74,0x69,0x61,0x6c,0x5f,0x31,0x2f,0x63,0x6f,0x6e,0x76,0x31,0x64,0x5f,0x31,0x2f,0x63,0x6f,0x6e,0x76,0x6f,0x6c,0x75,0x74,0x69,0x6f,0x6e,0x2f,0x53,0x71,0x75,0x65,0x65,0x7a,0x65,0x00,0x00,0x00,0x03,0x00,0x00,0x00,0x01,0x00,0x00,0x00,0x02,0x00,0x00,0x00,0x20,0x00,0x00,0x00,0x6a,0xfc,0xff,0xff,0x00,0x00,0x00,0x01,0x14,0x00,0x00,0x00,0x24,0x00,0x00,0x00,0x24,0x00,0x00,0x00,0x0d,0x00,0x00,0x00,0x44,0x00,0x00,0x00,0x04,0x00,0x00,0x00,0xff,0xff,0xff,0xff,0x01,0x00,0x00,0x00,0x02,0x00,0x00,0x00,0x20,0x00,0x00,0x00,0xfc,0xfb,0xff,0xff,0x21,0x00,0x00,0x00,0x73,0x65,0x71,0x75,0x65,0x6e,0x74,0x69,0x61,0x6c,0x5f,0x31,0x2f,0x63,0x6f,0x6e,0x76,0x31,0x64,0x5f,0x31,0x2f,0x63,0x6f,0x6e,0x76,0x6f,0x6c,0x75,0x74,0x69,0x6f,0x6e,0x00,0x00,0x00,0x04,0x00,0x00,0x00,0x01,0x00,0x00,0x00,0x01,0x00,0x00,0x00,0x02,0x00,0x00,0x00,0x20,0x00,0x00,0x00,0xda,0xfc,0xff,0xff,0x00,0x00,0x00,0x01,0x14,0x00,0x00,0x00,0x24,0x00,0x00,0x00,0x24,0x00,0x00,0x00,0x0c,0x00,0x00,0x00,0x50,0x00,0x00,0x00,0x04,0x00,0x00,0x00,0xff,0xff,0xff,0xff,0x01,0x00,0x00,0x00,0x03,0x00,0x00,0x00,0x01,0x00,0x00,0x00,0x6c,0xfc,0xff,0xff,0x2c,0x00,0x00,0x00,0x73,0x65,0x71,0x75,0x65,0x6e,0x74,0x69,0x61,0x6c,0x5f,0x31,0x2f,0x63,0x6f,0x6e,0x76,0x31,0x64,0x5f,0x31,0x2f,0x63,0x6f,0x6e,0x76,0x6f,0x6c,0x75,0x74,0x69,0x6f,0x6e,0x2f,0x45,0x78,0x70,0x61,0x6e,0x64,0x44,0x69,0x6d,0x73,0x00,0x00,0x00,0x00,0x04,0x00,0x00,0x00,0x01,0x00,0x00,0x00,0x01,0x00,0x00,0x00,0x03,0x00,0x00,0x00,0x01,0x00,0x00,0x00,0xaa,0xfd,0xff,0xff,0x00,0x00,0x00,0x01,0x14,0x00,0x00,0x00,0x14,0x00,0x00,0x00,0x0b,0x00,0x00,0x00,0x00,0x00,0x00,0x02,0x40,0x00,0x00,0x00,0xd4,0xfc,0xff,0xff,0x30,0x00,0x00,0x00,0x73,0x65,0x71,0x75,0x65,0x6e,0x74,0x69,0x61,0x6c,0x5f,0x31,0x2f,0x63,0x6f,0x6e,0x76,0x31,0x64,0x5f,0x31,0x2f,0x63,0x6f,0x6e,0x76,0x6f,0x6c,0x75,0x74,0x69,0x6f,0x6e,0x2f,0x45,0x78,0x70,0x61,0x6e,0x64,0x44,0x69,0x6d,0x73,0x2f,0x64,0x69,0x6d,0x00,0x00,0x00,0x00,0x00,0x00,0x00,0x00,0x06,0xfe,0xff,0xff,0x00,0x00,0x00,0x01,0x14,0x00,0x00,0x00,0x14,0x00,0x00,0x00,0x0a,0x00,0x00,0x00,0x00,0x00,0x00,0x02,0x1c,0x00,0x00,0x00,0x30,0xfd,0xff,0xff,0x0f,0x00,0x00,0x00,0x61,0x72,0x69,0x74,0x68,0x2e,0x63,0x6f,0x6e,0x73,0x74,0x61,0x6e,0x74,0x38,0x00,0x01,0x00,0x00,0x00,0x02,0x00,0x00,0x00,0x9e,0xfe,0xff,0xff,0x00,0x00,0x00,0x01,0x10,0x00,0x00,0x00,0x10,0x00,0x00,0x00,0x09,0x00,0x00,0x00,0x1c,0x00,0x00,0x00,0x68,0xfd,0xff,0xff,0x0f,0x00,0x00,0x00,0x61,0x72,0x69,0x74,0x68,0x2e,0x63,0x6f,0x6e,0x73,0x74,0x61,0x6e,0x74,0x37,0x00,0x01,0x00,0x00,0x00,0x02,0x00,0x00,0x00,0xd6,0xfe,0xff,0xff,0x00,0x00,0x00,0x01,0x10,0x00,0x00,0x00,0x10,0x00,0x00,0x00,0x08,0x00,0x00,0x00,0x1c,0x00,0x00,0x00,0xa0,0xfd,0xff,0xff,0x0f,0x00,0x00,0x00,0x61,0x72,0x69,0x74,0x68,0x2e,0x63,0x6f,0x6e,0x73,0x74,0x61,0x6e,0x74,0x36,0x00,0x01,0x00,0x00,0x00,0x20,0x00,0x00,0x00,0x0e,0xff,0xff,0xff,0x00,0x00,0x00,0x01,0x10,0x00,0x00,0x00,0x10,0x00,0x00,0x00,0x07,0x00,0x00,0x00,0x1c,0x00,0x00,0x00,0xd8,0xfd,0xff,0xff,0x0f,0x00,0x00,0x00,0x61,0x72,0x69,0x74,0x68,0x2e,0x63,0x6f,0x6e,0x73,0x74,0x61,0x6e,0x74,0x35,0x00,0x03,0x00,0x00,0x00,0x01,0x00,0x00,0x00,0x01,0x00,0x00,0x00,0x20,0x00,0x00,0x00,0x4e,0xff,0xff,0xff,0x00,0x00,0x00,0x01,0x10,0x00,0x00,0x00,0x10,0x00,0x00,0x00,0x06,0x00,0x00,0x00,0x1c,0x00,0x00,0x00,0x18,0xfe,0xff,0xff,0x0f,0x00,0x00,0x00,0x61,0x72,0x69,0x74,0x68,0x2e,0x63,0x6f,0x6e,0x73,0x74,0x61,0x6e,0x74,0x34,0x00,0x02,0x00,0x00,0x00,0x20,0x00,0x00,0x00,0x40,0x00,0x00,0x00,0x8a,0xff,0xff,0xff,0x00,0x00,0x00,0x01,0x10,0x00,0x00,0x00,0x10,0x00,0x00,0x00,0x05,0x00,0x00,0x00,0x1c,0x00,0x00,0x00,0x54,0xfe,0xff,0xff,0x0f,0x00,0x00,0x00,0x61,0x72,0x69,0x74,0x68,0x2e,0x63,0x6f,0x6e,0x73,0x74,0x61,0x6e,0x74,0x33,0x00,0x02,0x00,0x00,0x00,0x02,0x00,0x00,0x00,0x20,0x00,0x00,0x00,0xc6,0xff,0xff,0xff,0x00,0x00,0x00,0x01,0x10,0x00,0x00,0x00,0x10,0x00,0x00,0x00,0x04,0x00,0x00,0x00,0x1c,0x00,0x00,0x00,0x90,0xfe,0xff,0xff,0x0f,0x00,0x00,0x00,0x61,0x72,0x69,0x74,0x68,0x2e,0x63,0x6f,0x6e,0x73,0x74,0x61,0x6e,0x74,0x32,0x00,0x01,0x00,0x00,0x00,0x20,0x00,0x00,0x00,0x00,0x00,0x16,0x00,0x18,0x00,0x14,0x00,0x00,0x00,0x10,0x00,0x0c,0x00,0x08,0x00,0x00,0x00,0x00,0x00,0x00,0x00,0x07,0x00,0x16,0x00,0x00,0x00,0x00,0x00,0x00,0x01,0x10,0x00,0x00,0x00,0x10,0x00,0x00,0x00,0x03,0x00,0x00,0x00,0x1c,0x00,0x00,0x00,0xe0,0xfe,0xff,0xff,0x0f,0x00,0x00,0x00,0x61,0x72,0x69,0x74,0x68,0x2e,0x63,0x6f,0x6e,0x73,0x74,0x61,0x6e,0x74,0x31,0x00,0x04,0x00,0x00,0x00,0x20,0x00,0x00,0x00,0x01,0x00,0x00,0x00,0x02,0x00,0x00,0x00,0x01,0x00,0x00,0x00,0x00,0x00,0x16,0x00,0x1c,0x00,0x18,0x00,0x17,0x00,0x10,0x00,0x0c,0x00,0x08,0x00,0x00,0x00,0x00,0x00,0x00,0x00,0x07,0x00,0x16,0x00,0x00,0x00,0x00,0x00,0x00,0x01,0x14,0x00,0x00,0x00,0x14,0x00,0x00,0x00,0x02,0x00,0x00,0x00,0x00,0x00,0x00,0x02,0x1c,0x00,0x00,0x00,0x40,0xff,0xff,0xff,0x0e,0x00,0x00,0x00,0x61,0x72,0x69,0x74,0x68,0x2e,0x63,0x6f,0x6e,0x73,0x74,0x61,0x6e,0x74,0x00,0x00,0x01,0x00,0x00,0x00,0x03,0x00,0x00,0x00,0x00,0x00,0x16,0x00,0x1c,0x00,0x18,0x00,0x00,0x00,0x14,0x00,0x10,0x00,0x0c,0x00,0x00,0x00,0x00,0x00,0x08,0x00,0x07,0x00,0x16,0x00,0x00,0x00,0x00,0x00,0x00,0x01,0x14,0x00,0x00,0x00,0x20,0x00,0x00,0x00,0x20,0x00,0x00,0x00,0x01,0x00,0x00,0x00,0x3c,0x00,0x00,0x00,0x03,0x00,0x00,0x00,0xff,0xff,0xff,0xff,0x03,0x00,0x00,0x00,0x01,0x00,0x00,0x00,0xa4,0xff,0xff,0xff,0x1e,0x00,0x00,0x00,0x73,0x65,0x72,0x76,0x69,0x6e,0x67,0x5f,0x64,0x65,0x66,0x61,0x75,0x6c,0x74,0x5f,0x6b,0x65,0x72,0x61,0x73,0x5f,0x74,0x65,0x6e,0x73,0x6f,0x72,0x3a,0x30,0x00,0x00,0x03,0x00,0x00,0x00,0x01,0x00,0x00,0x00,0x03,0x00,0x00,0x00,0x01,0x00,0x00,0x00,0x05,0x00,0x00,0x00,0x4c,0x00,0x00,0x00,0x30,0x00,0x00,0x00,0x20,0x00,0x00,0x00,0x18,0x00,0x00,0x00,0x04,0x00,0x00,0x00,0xd4,0xff,0xff,0xff,0x09,0x00,0x00,0x00,0x00,0x00,0x00,0x09,0x04,0x00,0x04,0x00,0x04,0x00,0x00,0x00,0xe8,0xff,0xff,0xff,0x16,0x00,0x00,0x00,0x00,0x00,0x00,0x16,0xf4,0xff,0xff,0xff,0x03,0x00,0x00,0x00,0x00,0x00,0x00,0x03,0x0c,0x00,0x0c,0x00,0x0b,0x00,0x00,0x00,0x00,0x00,0x04,0x00,0x0c,0x00,0x00,0x00,0x46,0x00,0x00,0x00,0x00,0x00,0x00,0x46};
const int g_model_len = 12072;

const float scaler_i_mean[] = { 5.0, 275.61498842592596, 341.6061213991769 };
const float scaler_i_scale[] = { 2.581988897471611, 168.7548055423628, 150.69688872197918 };
const float scaler_o_mean[] = { 5.458333333333333, 32.75 };
const float scaler_o_scale[] = { 3.3878356742255895, 5.261891294962297 };
#endif  // MODEL_H
