
#ifndef MODEL_H
#define MODEL_H

// MSE(Pos, Temp): [0.00485488 0.19589072]


const unsigned char g_model[] = {0x1c,0x00,0x00,0x00,0x54,0x46,0x4c,0x33,0x14,0x00,0x20,0x00,0x1c,0x00,0x18,0x00,0x14,0x00,0x10,0x00,0x0c,0x00,0x00,0x00,0x08,0x00,0x04,0x00,0x14,0x00,0x00,0x00,0x1c,0x00,0x00,0x00,0x8c,0x00,0x00,0x00,0xe4,0x00,0x00,0x00,0x04,0x26,0x00,0x00,0x14,0x26,0x00,0x00,0x98,0x2e,0x00,0x00,0x03,0x00,0x00,0x00,0x01,0x00,0x00,0x00,0x04,0x00,0x00,0x00,0xd6,0xd8,0xff,0xff,0x0c,0x00,0x00,0x00,0x1c,0x00,0x00,0x00,0x3c,0x00,0x00,0x00,0x0f,0x00,0x00,0x00,0x73,0x65,0x72,0x76,0x69,0x6e,0x67,0x5f,0x64,0x65,0x66,0x61,0x75,0x6c,0x74,0x00,0x01,0x00,0x00,0x00,0x04,0x00,0x00,0x00,0x90,0xff,0xff,0xff,0x11,0x00,0x00,0x00,0x04,0x00,0x00,0x00,0x08,0x00,0x00,0x00,0x6f,0x75,0x74,0x70,0x75,0x74,0x5f,0x30,0x00,0x00,0x00,0x00,0x01,0x00,0x00,0x00,0x04,0x00,0x00,0x00,0x8a,0xda,0xff,0xff,0x04,0x00,0x00,0x00,0x0c,0x00,0x00,0x00,0x6b,0x65,0x72,0x61,0x73,0x5f,0x74,0x65,0x6e,0x73,0x6f,0x72,0x00,0x00,0x00,0x00,0x02,0x00,0x00,0x00,0x34,0x00,0x00,0x00,0x04,0x00,0x00,0x00,0xdc,0xff,0xff,0xff,0x14,0x00,0x00,0x00,0x04,0x00,0x00,0x00,0x13,0x00,0x00,0x00,0x43,0x4f,0x4e,0x56,0x45,0x52,0x53,0x49,0x4f,0x4e,0x5f,0x4d,0x45,0x54,0x41,0x44,0x41,0x54,0x41,0x00,0x08,0x00,0x0c,0x00,0x08,0x00,0x04,0x00,0x08,0x00,0x00,0x00,0x13,0x00,0x00,0x00,0x04,0x00,0x00,0x00,0x13,0x00,0x00,0x00,0x6d,0x69,0x6e,0x5f,0x72,0x75,0x6e,0x74,0x69,0x6d,0x65,0x5f,0x76,0x65,0x72,0x73,0x69,0x6f,0x6e,0x00,0x15,0x00,0x00,0x00,0x1c,0x25,0x00,0x00,0x14,0x25,0x00,0x00,0xf8,0x24,0x00,0x00,0xe0,0x23,0x00,0x00,0x50,0x23,0x00,0x00,0x40,0x22,0x00,0x00,0x30,0x02,0x00,0x00,0xa0,0x01,0x00,0x00,0x10,0x01,0x00,0x00,0xf8,0x00,0x00,0x00,0xe0,0x00,0x00,0x00,0xcc,0x00,0x00,0x00,0xc4,0x00,0x00,0x00,0xbc,0x00,0x00,0x00,0xb4,0x00,0x00,0x00,0xac,0x00,0x00,0x00,0xa4,0x00,0x00,0x00,0x9c,0x00,0x00,0x00,0x94,0x00,0x00,0x00,0x74,0x00,0x00,0x00,0x04,0x00,0x00,0x00,0x5a,0xdb,0xff,0xff,0x04,0x00,0x00,0x00,0x60,0x00,0x00,0x00,0x10,0x00,0x00,0x00,0x00,0x00,0x00,0x00,0x08,0x00,0x0e,0x00,0x08,0x00,0x04,0x00,0x08,0x00,0x00,0x00,0x10,0x00,0x00,0x00,0x24,0x00,0x00,0x00,0x00,0x00,0x06,0x00,0x08,0x00,0x04,0x00,0x06,0x00,0x00,0x00,0x04,0x00,0x00,0x00,0x00,0x00,0x00,0x00,0x0c,0x00,0x18,0x00,0x14,0x00,0x10,0x00,0x0c,0x00,0x04,0x00,0x0c,0x00,0x00,0x00,0x81,0xdb,0xf2,0xa3,0xbb,0xed,0x47,0x42,0x02,0x00,0x00,0x00,0x02,0x00,0x00,0x00,0x04,0x00,0x00,0x00,0x06,0x00,0x00,0x00,0x32,0x2e,0x31,0x37,0x2e,0x30,0x00,0x00,0xc6,0xdb,0xff,0xff,0x04,0x00,0x00,0x00,0x10,0x00,0x00,0x00,0x31,0x2e,0x31,0x30,0x2e,0x30,0x00,0x00,0x00,0x00,0x00,0x00,0x00,0x00,0x00,0x00,0xfc,0xd2,0xff,0xff,0x00,0xd3,0xff,0xff,0x04,0xd3,0xff,0xff,0x08,0xd3,0xff,0xff,0x0c,0xd3,0xff,0xff,0x10,0xd3,0xff,0xff,0x14,0xd3,0xff,0xff,0xfe,0xdb,0xff,0xff,0x04,0x00,0x00,0x00,0x04,0x00,0x00,0x00,0xfd,0xff,0xff,0xff,0x0e,0xdc,0xff,0xff,0x04,0x00,0x00,0x00,0x08,0x00,0x00,0x00,0xff,0xff,0xff,0xff,0x40,0x00,0x00,0x00,0x22,0xdc,0xff,0xff,0x04,0x00,0x00,0x00,0x08,0x00,0x00,0x00,0x4c,0x98,0x2c,0xbd,0x71,0xde,0xbe,0xbe,0x36,0xdc,0xff,0xff,0x04,0x00,0x00,0x00,0x80,0x00,0x00,0x00,0x11,0xb5,0x60,0x3e,0x27,0xff,0xf0,0x3c,0x34,0x2d,0xe3,0xbe,0xe1,0x50,0x91,0xbe,0xdf,0x21,0x71,0x3e,0xea,0x69,0x9f,0x3e,0x90,0x7d,0x25,0x3c,0x25,0x8d,0x74,0xbd,0xf1,0x86,0x9f,0xbd,0xa6,0xe4,0x49,0xbc,0x65,0xba,0xaa,0x3d,0x4b,0x12,0x2e,0x3e,0x35,0xb1,0x36,0xbe,0x63,0x09,0xb7,0x3e,0x8e,0x94,0x8d,0x3d,0xff,0x80,0x94,0x3d,0x0e,0x8b,0xff,0xbc,0x32,0xed,0xb3,0x3e,0x6d,0x1c,0xb1,0x3e,0x5b,0x78,0x03,0x3e,0x7e,0x2a,0x00,0xbf,0xf9,0x15,0x8f,0x3e,0xbf,0x84,0x98,0xbd,0x9a,0x9b,0xb0,0x3e,0x91,0xa2,0x9f,0x3e,0x4f,0x00,0x3d,0xbc,0xa4,0x43,0x2f,0xbe,0x86,0x82,0x43,0xbd,0x13,0xf0,0x56,0x3e,0x36,0x10,0x34,0xbe,0xe5,0xbb,0x29,0xbe,0xb4,0xf0,0xb9,0xbe,0xc2,0xdc,0xff,0xff,0x04,0x00,0x00,0x00,0x80,0x00,0x00,0x00,0xb7,0x83,0xae,0x3e,0x81,0x13,0x8a,0xbe,0xfe,0x79,0x80,0xbe,0x85,0x25,0x91,0x3e,0x8a,0x59,0x2b,0xbd,0x02,0xbb,0x7d,0xbe,0xfb,0xfa,0x7a,0xbe,0x05,0xcd,0x29,0x3c,0xe3,0xac,0xfe,0x3d,0x69,0x3f,0x8d,0xbc,0x36,0x8b,0xa1,0xbe,0xde,0x4f,0xa6,0xbe,0x7d,0xa5,0x2d,0x3e,0x20,0x63,0xa7,0xbe,0xe7,0xa6,0x73,0x3e,0x1e,0x1e,0x14,0xbd,0xc2,0x66,0xd6,0xbe,0xf1,0xc6,0xe5,0xbd,0x13,0x53,0x75,0x3d,0xb8,0x2b,0xfb,0xba,0xe7,0x0d,0xa6,0xbd,0x7e,0x23,0xd3,0x3d,0x90,0x93,0xb0,0xbe,0x38,0x40,0x39,0xbd,0x1f,0x58,0x74,0x3d,0x28,0x46,0x87,0xbb,0xda,0x95,0x66,0xbb,0x41,0x9b,0x8d,0x3e,0xac,0x7d,0xf0,0x3d,0xd6,0xce,0x3c,0x3e,0xc3,0x9c,0x94,0x3e,0xae,0x04,0xca,0x3e,0x4e,0xdd,0xff,0xff,0x04,0x00,0x00,0x00,0x00,0x20,0x00,0x00,0x50,0x83,0xa6,0xbc,0xe3,0x15,0x08,0x3e,0x0b,0x00,0xe4,0xbe,0xd4,0xfb,0x03,0x3e,0xff,0x89,0xaf,0xbd,0x58,0x6b,0xaa,0xbe,0xb6,0x7f,0xf4,0x3d,0x34,0xdf,0xbf,0x3d,0x96,0x8d,0x6b,0xbf,0x9b,0xfc,0x10,0xbe,0x46,0xd3,0x87,0xbe,0x22,0x38,0xce,0xbd,0xa9,0x77,0x77,0x3e,0x16,0xba,0xb2,0xbe,0x8b,0x0a,0x5e,0xbd,0xda,0x91,0x92,0x3e,0xa4,0x89,0x99,0xbe,0x32,0x9e,0x37,0x3e,0x5f,0xf1,0xf0,0x3d,0xab,0xef,0x2a,0xbe,0xde,0x6c,0x72,0xbd,0xed,0x7e,0x86,0xbe,0xb5,0x9f,0x57,0x3d,0xd4,0xb2,0x22,0xbd,0x9e,0x46,0xc7,0x3e,0x93,0xe5,0x73,0xbe,0x60,0xef,0x8c,0xbd,0x4f,0x10,0xe7,0x3e,0x2b,0xdd,0xc5,0xbe,0x95,0xec,0x8c,0xbe,0xc3,0x83,0xa0,0x3d,0x47,0xb3,0x33,0x3e,0xf4,0xbd,0x12,0x3b,0x75,0x86,0xe9,0x3d,0x86,0x9e,0xc2,0xbd,0xa2,0xb5,0x55,0x3e,0xc7,0x8c,0x6d,0x3d,0x46,0x5b,0x38,0x3e,0xe9,0xd9,0x9a,0xbd,0x86,0xab,0xee,0x3d,0xc3,0xaa,0xc2,0xbd,0x80,0xb7,0xf1,0x3c,0x81,0x56,0xc8,0x3d,0xbd,0xb3,0xbf,0xbe,0x28,0x3c,0x14,0xbe,0xb4,0xef,0x53,0xbe,0xdc,0x20,0x08,0x3f,0x0d,0xd5,0xff,0x3d,0x64,0x3a,0x06,0xc0,0x03,0x52,0x8a,0x3e,0x4b,0x02,0x8d,0x3d,0x0d,0x04,0xc0,0x3e,0x86,0x75,0x92,0x3b,0x9a,0x1b,0x52,0x3e,0x84,0xfd,0xba,0xbd,0xeb,0x2c,0x00,0x3d,0x0d,0x71,0x12,0x3e,0xd3,0xa3,0x4c,0x3e,0x57,0x99,0x3a,0x3e,0xca,0xa4,0x6a,0xbe,0x25,0xc7,0x0f,0x3e,0x8b,0x64,0xb6,0x3d,0x32,0x21,0xc1,0x3c,0x0b,0x33,0x5e,0x3e,0x43,0x15,0xaf,0x3e,0xf1,0x32,0xd6,0xba,0xd1,0xc3,0x50,0x3e,0x30,0xff,0x5d,0x3a,0x53,0xb4,0x78,0x3d,0x6e,0xd7,0xe9,0x3d,0x51,0x5d,0x24,0xbe,0x05,0x11,0xb0,0xbd,0x6b,0xd5,0xef,0x3e,0xea,0x59,0x8d,0xbd,0xc0,0xe7,0x8b,0xbe,0x8c,0x9b,0x58,0xbe,0xdc,0x40,0x64,0xbd,0xb8,0x4e,0xde,0x3e,0x17,0x50,0x97,0x3e,0x3d,0x5d,0xaa,0xbd,0x37,0x5e,0xa6,0xbd,0xeb,0x01,0xb2,0x3e,0x8c,0xaf,0x82,0x3e,0xd2,0x89,0x24,0x3d,0xda,0x2b,0x51,0x3c,0x22,0x18,0x5b,0x3e,0xcc,0x3a,0xfc,0x3f,0x32,0x5f,0x4e,0xbe,0x69,0xe3,0x1e,0x3e,0xca,0x67,0x66,0xbe,0x4d,0x26,0x85,0xbe,0xd5,0x04,0xe5,0xbd,0xae,0x45,0x1a,0x3c,0xec,0x1c,0x64,0x3e,0x72,0x6e,0xc9,0xbe,0xe9,0x89,0x55,0xbe,0x18,0xae,0xb5,0xbe,0x65,0x74,0x11,0x3e,0x1f,0x5c,0x03,0xbf,0xd6,0xb6,0xf5,0x3e,0x4c,0x62,0x39,0x3e,0x26,0xce,0x91,0xbe,0x77,0x39,0xf9,0x3e,0xef,0xcf,0x61,0x3e,0x14,0x23,0x07,0xbf,0xd2,0xa1,0x73,0x3e,0xaf,0x99,0x45,0x3e,0x74,0x79,0x7e,0x3f,0x56,0x50,0x25,0x3f,0x04,0x59,0x9a,0x3e,0xd8,0x00,0x42,0xbe,0x7a,0x18,0xe7,0x3d,0x83,0x2a,0x1f,0x40,0x0f,0x82,0x5d,0x3e,0x2a,0x6b,0xd0,0xbd,0x5b,0xce,0x27,0xbb,0x7a,0xab,0x6d,0x3d,0xcc,0xb0,0x68,0x3e,0x35,0x5e,0x93,0xbe,0xab,0xc8,0x26,0x3e,0xf8,0x5e,0x09,0x3e,0xda,0x44,0x14,0xbe,0xae,0x0c,0x35,0x3e,0xbc,0x76,0x24,0xbd,0x81,0xaf,0x3a,0x3c,0x96,0x90,0x21,0x3e,0x07,0x79,0x13,0x3f,0xfc,0x56,0xda,0x3e,0x1c,0xb1,0x1d,0xbf,0x07,0xc8,0x80,0x3e,0x76,0x98,0x36,0x3f,0x38,0xce,0x53,0xbe,0x75,0xc6,0x23,0x3e,0xd0,0x2b,0x4d,0x3e,0x64,0x8a,0xee,0x3d,0xb3,0xb3,0xa4,0xbc,0x05,0x02,0x8a,0xbe,0x56,0x46,0x87,0x3d,0x7d,0x63,0xfa,0x3d,0xa6,0xfa,0x05,0x3e,0x66,0xd1,0x94,0xbe,0xca,0x03,0x30,0x3f,0x84,0xe1,0x35,0x3e,0xea,0x43,0x8b,0x3e,0xbb,0xe9,0xd1,0x3e,0xc3,0xab,0x96,0x3e,0x6d,0xc1,0x2c,0x3e,0xdf,0xe0,0x13,0x3e,0xfe,0xd6,0x2a,0x3f,0x40,0x2f,0xd3,0x3d,0x81,0x5a,0x2a,0x3f,0x36,0xe9,0xc5,0x3d,0xcc,0xb5,0x6e,0x3d,0x24,0x1c,0x90,0x3e,0xff,0x0f,0x83,0x3e,0x88,0xc9,0xa8,0xbe,0xb1,0x8b,0x75,0x3e,0x1d,0x86,0x92,0xbb,0x0b,0xd6,0xd1,0xbe,0xdb,0xc6,0x1b,0xbf,0xe3,0xc4,0x56,0xbf,0x07,0x90,0x97,0x3e,0x41,0x88,0xd7,0x3c,0x6c,0x06,0x0b,0x3e,0x4f,0x88,0xc8,0x3d,0x28,0x4d,0x95,0x3e,0x22,0xb3,0x48,0x3f,0x8e,0x7b,0x9c,0x3e,0x2c,0x81,0x96,0xbf,0x8d,0xe1,0xe3,0x3d,0xc5,0x47,0xf3,0x3d,0x55,0xbb,0xc1,0x3f,0x80,0xa7,0x87,0x3e,0xb8,0xdc,0x83,0x3f,0x9f,0xa6,0x79,0xbe,0xb4,0x64,0xc5,0xbd,0xfd,0xe3,0x69,0x40,0xb7,0x10,0x9e,0x3e,0x65,0xfe,0x61,0xbe,0xb3,0x2c,0xa0,0xbd,0x1d,0x38,0x1a,0xbe,0xb5,0xd2,0x4e,0x3d,0x56,0xb4,0x4d,0xbe,0xf5,0x24,0xe4,0xbd,0x37,0x06,0x40,0x3f,0x24,0xa9,0xb2,0x3e,0x99,0xa5,0x21,0x3e,0xce,0x8a,0xf7,0x3b,0x06,0x33,0x5c,0xbc,0x66,0x6f,0x20,0xbe,0xf1,0xca,0xbc,0x3d,0xf8,0xc5,0x3e,0xbe,0x6f,0xfa,0x03,0xbf,0x5e,0x48,0xcd,0x3e,0xbf,0xde,0xbb,0xbb,0x34,0xf6,0x24,0xbd,0x3a,0x84,0xc8,0x3e,0x36,0x69,0xdb,0x3e,0xd9,0x2a,0x00,0xbe,0xaa,0xc5,0xcf,0x3e,0x82,0x1e,0x0d,0x3f,0x85,0x87,0xa2,0x3e,0xe9,0xaa,0xd9,0x3e,0xd0,0x72,0x86,0x3e,0xb5,0xb2,0x26,0xbd,0x3b,0x89,0x1c,0x3f,0x56,0x2a,0xe3,0x3c,0xb4,0xca,0x60,0x3c,0x48,0x9c,0x07,0x3f,0x4f,0x5d,0x05,0x3e,0xfb,0x67,0x06,0x3e,0xe8,0xe8,0xd4,0x3d,0x9d,0x36,0xfe,0x3e,0xc2,0xf9,0x88,0x3e,0xe0,0x81,0xd1,0x3c,0x62,0xc0,0x25,0x3e,0xcf,0xb0,0x87,0x3e,0x8d,0x21,0xc3,0x3e,0x58,0x0f,0xcc,0x3e,0x96,0x65,0x8f,0xbe,0xda,0x8d,0x71,0x3e,0x57,0xf4,0xad,0x3e,0xee,0x99,0xcc,0xbd,0x13,0x02,0xa8,0xbd,0x08,0xca,0x9e,0xbd,0x0d,0x72,0x38,0x3e,0x0f,0xa3,0x20,0xbe,0x63,0xfa,0x2d,0x3d,0x51,0x08,0x0c,0xbe,0xe3,0x94,0xd6,0x3e,0x98,0xde,0xea,0x3e,0x2b,0x39,0x46,0x3d,0xa7,0x60,0x13,0xbf,0xb9,0xe0,0xcb,0xbd,0xce,0x07,0x52,0xbe,0x79,0xe8,0xa9,0x3f,0xa6,0xa0,0x51,0xbe,0x40,0x1f,0x30,0x3f,0x0c,0x0f,0x2f,0xbf,0xda,0xf0,0xa2,0x3e,0x02,0xc1,0x32,0x40,0x08,0x00,0x2d,0xbd,0x30,0x6b,0xe1,0x3b,0x97,0xb0,0x8b,0x3c,0x29,0xa8,0x2c,0x3c,0x39,0xd5,0x8a,0x3a,0x16,0x2e,0xe9,0x3c,0x5d,0xe4,0x76,0x3e,0x0e,0x6b,0xe0,0xbc,0x60,0x86,0x20,0x3d,0xda,0xb5,0x12,0x3d,0xeb,0xcd,0x72,0xbd,0xfd,0xc2,0x8e,0x3d,0xbe,0xa7,0xe6,0x3d,0xe2,0x92,0xff,0x3d,0xac,0x44,0x24,0xbe,0x67,0x2b,0x97,0xbf,0x00,0xfd,0xbd,0xbd,0x2a,0x20,0xc1,0xbf,0x77,0x3a,0x09,0x3f,0x03,0xca,0xb8,0xbe,0x0a,0x76,0xf3,0xbd,0x80,0x06,0xf9,0x3d,0xa0,0x77,0x29,0xbe,0x1a,0x2f,0x10,0x3f,0x44,0xf5,0xa5,0x3c,0x1f,0xb3,0x88,0xbd,0x8d,0x04,0x51,0x3e,0x92,0x39,0x0d,0x3f,0xda,0xbc,0x9b,0xbe,0xfb,0xc9,0x97,0xbe,0xa1,0x95,0xaa,0xbd,0xf7,0x78,0x2f,0x3e,0x8b,0xe1,0xe7,0xbd,0xb6,0x07,0xf7,0xbd,0x91,0xdc,0x1d,0xbe,0x40,0x15,0x91,0xbf,0x7e,0x63,0x22,0xbf,0x33,0x7e,0x34,0xbf,0x35,0x8f,0xaf,0xbe,0x64,0xe1,0x2e,0xbe,0xde,0x00,0xb5,0xbe,0x84,0x61,0xf6,0xbd,0x4b,0xd9,0xdb,0x3e,0x45,0xde,0xd1,0xbe,0x15,0x06,0x84,0xbe,0xd9,0xd3,0x57,0x3e,0x18,0x60,0x15,0x3f,0x0a,0x1d,0xc1,0xbd,0x77,0x0c,0x05,0x3d,0x42,0x4e,0x78,0xbd,0xab,0x54,0xa9,0xbc,0x12,0xdd,0xc1,0x3e,0x49,0x8f,0x9f,0x3d,0xaa,0xaa,0x42,0xbf,0x3a,0x03,0xc1,0x3e,0x86,0x6e,0x5e,0xbf,0x7a,0xe0,0x0b,0x3e,0x38,0xa5,0x99,0x3e,0xe0,0x61,0xec,0xbf,0x7d,0xaf,0x8d,0xbd,0x03,0x77,0x37,0xbe,0xe7,0x01,0xa4,0xbd,0x29,0x81,0x4c,0xbc,0x00,0xbd,0x28,0xc0,0x9f,0xad,0x8b,0x3e,0xdd,0x6a,0x6b,0x3d,0xbf,0xcc,0xa6,0x3e,0x7d,0x99,0x37,0xbe,0x65,0xe8,0xca,0xbe,0xb2,0x8a,0x48,0xba,0x2a,0x5f,0xe1,0x3d,0x2f,0x41,0xde,0xbc,0x2e,0x0e,0x80,0x3e,0x88,0x3e,0xb7,0x3e,0xbc,0x8d,0x08,0xbe,0x04,0xd8,0x75,0xbe,0x6b,0x16,0xb6,0x3c,0xa6,0xb0,0xd2,0x3d,0xb4,0x65,0x13,0x3e,0xca,0x6a,0xcd,0x3d,0x00,0xf3,0xfc,0x3c,0xab,0x8c,0xf1,0xbe,0x71,0xd0,0x5d,0x3e,0x06,0x9e,0x1a,0x3e,0xbb,0xba,0xd3,0xbe,0x4a,0xc4,0x50,0x3e,0x6d,0xda,0x86,0xbe,0xba,0x3f,0xd0,0x3d,0x2d,0xb9,0xba,0x3d,0x8a,0x61,0x6e,0xbe,0xb6,0x33,0x40,0xbd,0x7d,0x7e,0xde,0x3e,0x4e,0x37,0xd6,0xbe,0x6d,0x8d,0x54,0xbe,0x92,0x53,0x42,0x3e,0x07,0xca,0x7c,0xbe,0x33,0xc2,0x65,0x3e,0x77,0xfe,0x6b,0xbc,0xc9,0xc9,0x9b,0xbe,0xef,0xee,0xec,0xbd,0xc5,0xcf,0xba,0xbd,0xa0,0x91,0x19,0xbe,0x0d,0x18,0xa2,0xbc,0x1e,0x66,0x12,0xbe,0x62,0x5b,0xa0,0x3d,0x6a,0xa7,0x8b,0xbd,0xe4,0x03,0x74,0x3e,0x2d,0xf6,0xec,0x3d,0x61,0x9e,0x77,0xbd,0x63,0xa8,0xe3,0x3e,0xa9,0xb0,0xc3,0x3e,0xe5,0x22,0xd4,0x3e,0xc1,0x47,0x3d,0xbd,0x45,0x47,0xa9,0x3e,0x58,0x5b,0x5e,0xbd,0xbc,0xde,0x39,0x3e,0x1a,0x75,0x01,0x3e,0x7a,0xde,0x0b,0xbf,0x0d,0x04,0x9a,0x3e,0xae,0x92,0xcf,0x3d,0xf3,0x2a,0x12,0xbe,0x12,0x91,0x69,0x3e,0x35,0xf6,0x3b,0xbf,0xc3,0x6b,0x0e,0x3e,0x19,0xd7,0xd6,0xbd,0x1a,0x6a,0xac,0x3e,0xdd,0xc2,0x72,0xbd,0xf1,0xbf,0x28,0xc0,0xed,0x3f,0xb6,0xbd,0xd7,0x88,0x94,0xbc,0x26,0xc6,0x89,0x3e,0x13,0xc0,0x25,0xbe,0x3f,0x84,0x6f,0xbd,0x4d,0x3b,0x59,0x3e,0x56,0xf8,0x81,0x3e,0x2c,0x80,0x4d,0xbd,0x26,0x55,0x1e,0x3e,0x4a,0x6c,0x9b,0x3e,0x13,0x90,0xba,0x3e,0x97,0x05,0x82,0x3d,0xd1,0xe6,0x60,0xbd,0x1b,0x03,0x51,0x3e,0x7c,0xb1,0x27,0x3e,0xb7,0x4c,0xae,0x3e,0xf3,0x61,0x8b,0xbe,0xba,0xdd,0x80,0x3d,0xf8,0xbb,0x0a,0xbe,0x90,0xf2,0x43,0x3a,0xcf,0x34,0x54,0xbe,0xe2,0xdc,0x1b,0xbe,0xe1,0x91,0x04,0x3e,0xde,0xb8,0x4a,0x3f,0xdd,0x71,0x20,0x3d,0x7e,0x2a,0xc9,0x3d,0xf4,0x4e,0x7a,0xbe,0xdf,0x9d,0xe5,0xbd,0xb0,0x85,0xda,0xbd,0x88,0xab,0x17,0x3d,0xb5,0x9b,0xe5,0xbb,0x1d,0xab,0xf6,0xbd,0x30,0xf1,0x56,0xbe,0x62,0xb8,0x80,0x3e,0xa3,0xb1,0x92,0x3e,0x4b,0x29,0x08,0x3e,0xe4,0x8b,0x61,0x3e,0x87,0x3c,0x18,0xbf,0xc1,0x05,0x37,0x3d,0x04,0x8d,0x32,0x3d,0x28,0x9d,0x74,0x3e,0x61,0xfe,0x98,0x3c,0x62,0x0b,0xd0,0x3d,0xcf,0x29,0x1f,0x3e,0x2e,0x42,0xe0,0xbc,0x85,0xd3,0x6d,0x3d,0xb9,0x51,0x46,0xbe,0x4c,0x0a,0xa2,0x3e,0xba,0x0a,0x14,0x3d,0x55,0x97,0x69,0x3e,0x57,0x4d,0xad,0xbe,0x58,0x74,0x16,0x3e,0x1c,0xd6,0x0f,0x3e,0x33,0xf2,0x5c,0x3e,0x8a,0x4d,0x15,0xbe,0x70,0xda,0x2e,0x3f,0x6f,0x89,0x86,0xbd,0x18,0xe2,0x83,0x3e,0xc1,0x4d,0x9a,0xbf,0xe1,0x2b,0xca,0xbe,0x7d,0x7b,0x69,0xbe,0xa8,0xc2,0x20,0x3e,0xf0,0x22,0xfc,0x3e,0x93,0x02,0xb6,0xbf,0xd4,0x51,0x68,0x3e,0x14,0x34,0xe3,0x3e,0xe4,0x88,0x59,0xbe,0xd0,0x98,0x87,0xbd,0x27,0xe0,0x74,0x3e,0x04,0x20,0xf4,0xbc,0x9a,0x07,0xb7,0x3d,0x2f,0x2b,0xf7,0xbe,0x30,0x3f,0x32,0xbb,0x03,0x91,0xe6,0xbc,0x4a,0x2b,0xc4,0xbe,0x08,0xf0,0x74,0x3e,0x06,0x62,0x79,0xbd,0x3b,0xc1,0xe7,0xbd,0xe6,0x02,0x8a,0xbe,0x2f,0x77,0x4e,0x3e,0x8c,0x44,0xb5,0xbd,0x55,0x47,0x12,0x3e,0x2b,0x59,0x3a,0x3c,0xa0,0x58,0xe0,0xbc,0x21,0xd2,0x35,0x3e,0xc2,0x5e,0x4c,0x3a,0x0a,0x00,0x7d,0x3e,0x7c,0x34,0x2f,0x3f,0x85,0xba,0x52,0x3e,0xb4,0x4e,0xf5,0x3d,0x45,0xb3,0x24,0xbd,0xe0,0xed,0x42,0xbe,0x19,0x58,0xf0,0x3e,0xdd,0x82,0x25,0x3e,0xb2,0xd2,0xb1,0x3d,0x5e,0x63,0x76,0x3d,0x69,0xcf,0x6c,0xbe,0x3a,0x99,0x8d,0xbc,0x99,0xb0,0xce,0x3d,0x51,0xcf,0x85,0x3e,0xe6,0xb8,0xb3,0x3e,0xf4,0xa6,0x82,0x3d,0x9f,0xd0,0x1e,0x3d,0x6a,0xf1,0x9a,0x3e,0xde,0xd4,0x0a,0x3e,0xcb,0x06,0xf5,0xbd,0x56,0xba,0x6c,0xbd,0x65,0xa8,0x37,0x3e,0x19,0x52,0x85,0x3e,0xb8,0x0b,0x5d,0x3e,0xb4,0x84,0xdf,0xbc,0x24,0xf2,0x01,0x3f,0x69,0xcd,0x9f,0x3e,0x13,0xaf,0x2c,0xbe,0x26,0x4c,0x6c,0xbe,0x7d,0x43,0xb5,0x3c,0x6e,0x87,0x0f,0x3e,0x13,0xbd,0xc1,0x3c,0x8e,0xb0,0x96,0x3c,0xc3,0x1a,0x56,0x3e,0x62,0x30,0x4f,0xbe,0x6d,0xb0,0xa9,0xbb,0x77,0xa4,0xf9,0xbe,0x77,0xd4,0x1a,0xbf,0xc9,0xbc,0x85,0x3e,0x8c,0x3b,0xa1,0x3e,0xf4,0xa3,0xcf,0x3e,0x8d,0x1e,0xdb,0x3d,0x80,0xf1,0xd8,0x3e,0x96,0xc8,0xad,0x3e,0x65,0x52,0x4a,0xbd,0xcd,0x5b,0xa6,0xbd,0xe8,0x4a,0x8e,0x3d,0xfa,0xf1,0x0e,0xbe,0x91,0x1d,0x7e,0xbe,0x7e,0x9e,0xa1,0xbe,0x29,0x90,0xa8,0x3c,0x77,0x20,0x40,0xbe,0xa4,0xd8,0x2d,0xbf,0x3a,0x1a,0x0c,0x3e,0xbf,0xe8,0xe7,0xbd,0x51,0x61,0xfd,0xbe,0x1a,0xbf,0xe9,0xbd,0x3d,0xe5,0x1d,0x3e,0x0c,0xb7,0x44,0xbe,0xaa,0x49,0xe9,0xbd,0x00,0xef,0x25,0x3d,0x44,0xb0,0xb9,0x3d,0x85,0xe8,0x8d,0xbe,0x00,0xfb,0x8e,0x3c,0x46,0x51,0x57,0xbe,0x6d,0xee,0x94,0xbd,0x87,0x3d,0xaa,0x3d,0x03,0xec,0x02,0xbd,0x78,0x84,0x9e,0x3d,0xc9,0x19,0x1f,0xbe,0x04,0xc1,0x3f,0x3e,0x07,0x73,0x72,0xbe,0xe2,0x8b,0x1e,0xbe,0xe0,0x61,0x6a,0xbe,0xd0,0x8c,0x5c,0xbe,0xdc,0x85,0x50,0xbe,0xd4,0xc0,0xb2,0xbd,0x54,0x30,0xa3,0xbd,0xd3,0x97,0x21,0x3e,0x44,0xfb,0x38,0x3e,0xe7,0x50,0x0d,0xbe,0x3e,0x62,0xad,0xbc,0xd7,0x3b,0xf8,0xbd,0x33,0x02,0x47,0x3e,0x7a,0xa3,0x17,0x3e,0x69,0x99,0xf4,0xbd,0x5e,0x7e,0xda,0xbd,0xf6,0x01,0xa7,0xbb,0x47,0xf2,0x28,0x3e,0xbb,0xc1,0x50,0xbe,0xdc,0xa0,0xcf,0xbb,0x6a,0x10,0xca,0x3d,0x4a,0xa4,0xf1,0xbc,0x05,0x06,0x5a,0x3e,0xd7,0xbf,0x9e,0xbe,0xc0,0xd0,0xef,0x3d,0x09,0x82,0x57,0x3b,0xd4,0x24,0x87,0xbe,0x1c,0xc2,0x60,0xbe,0xaf,0xd5,0x1e,0x3e,0x01,0xc9,0xef,0xbd,0xda,0x2c,0x55,0xbe,0xa4,0x0b,0x1e,0x3e,0x28,0x7c,0x33,0x3b,0x92,0x43,0xef,0x3d,0x6d,0x26,0x0a,0xbe,0x7a,0x35,0x18,0xbe,0x73,0xe5,0xe3,0xbd,0x6b,0xa7,0x68,0xbe,0x89,0xab,0x7b,0xbe,0xcd,0x5a,0x0d,0xbe,0xd2,0x84,0xcb,0x3d,0xa4,0x89,0x2c,0xbe,0x17,0xe3,0x4d,0x3e,0x9d,0x27,0x91,0xbe,0xa5,0xa3,0x9f,0xbd,0xf3,0xdb,0x25,0x3e,0x67,0x7f,0x9b,0x3d,0x48,0x57,0xc4,0x3d,0xd5,0x7b,0xf6,0xbd,0xfb,0xc0,0xb9,0x3d,0xd5,0xd1,0x3c,0xc0,0x09,0xe4,0xf4,0xbc,0x7b,0x20,0xfe,0xbf,0x55,0x3e,0x90,0x3e,0xac,0x88,0xba,0xbe,0x72,0x59,0x91,0x3d,0xec,0xdb,0x92,0x3d,0x06,0x5c,0x61,0xbd,0x22,0xbf,0x58,0xc1,0x46,0xbb,0x06,0xbc,0xdf,0xf3,0xad,0xbe,0x1b,0xb3,0x2e,0x3e,0xb5,0x9e,0x0a,0x3f,0xf4,0x3a,0x15,0xbe,0x37,0xb8,0xad,0xbe,0xb2,0x5d,0x4d,0x3e,0x30,0xea,0x88,0xbe,0x71,0x9d,0x34,0x3e,0x8c,0xf8,0xa3,0xbe,0xfb,0x9b,0x8e,0xbe,0xb1,0x68,0xb0,0xbf,0x35,0x63,0x35,0xbf,0xce,0xc0,0x80,0xbf,0xa7,0x20,0x41,0x3d,0x65,0xe5,0xb4,0x3e,0x15,0x55,0xb0,0xbe,0x34,0x86,0xd7,0x3d,0x30,0x5f,0x21,0x3f,0x1c,0x57,0xab,0xbe,0xd7,0x1e,0x1f,0xbf,0x19,0xba,0xb6,0x3e,0xb2,0xad,0x91,0x3d,0x7f,0xf0,0xb6,0x3e,0x39,0xfb,0x49,0xbe,0x23,0xd3,0x49,0xbe,0xcd,0xab,0xa1,0xbe,0x75,0x48,0x4d,0x3e,0xbc,0x5b,0x52,0x3c,0xe7,0xac,0x38,0xbf,0x15,0x5d,0x6e,0x3e,0xc5,0x36,0x12,0x3f,0xea,0x29,0x18,0x3c,0x19,0xa3,0x8d,0xbe,0x39,0x0e,0x00,0xbf,0xb8,0x49,0x0f,0xbf,0x59,0x1a,0x8c,0xbe,0x9e,0x7d,0xa6,0x3d,0x61,0x80,0x92,0xbd,0x30,0x3b,0xb9,0xbe,0x1f,0x78,0x3a,0xbe,0x01,0x72,0x82,0x3c,0xa8,0xc7,0x1f,0x3e,0x42,0xc2,0x59,0x3d,0x36,0x91,0x20,0x3e,0xe3,0x63,0x05,0xbe,0xf6,0x53,0x7f,0x3c,0xf9,0x71,0x5f,0x3e,0xfe,0x98,0x24,0x3b,0x5a,0x85,0xd8,0xbd,0x21,0xc0,0xb8,0xbe,0x4a,0x6e,0xb1,0x3e,0x0c,0x27,0x34,0xbd,0x7f,0xe1,0xe0,0xbd,0x0b,0x8b,0xfd,0xbd,0xa0,0xe3,0x79,0xbe,0x66,0x91,0x3f,0x3f,0x89,0xd4,0xd2,0x3d,0xa6,0x3b,0xd6,0x3e,0x92,0xfd,0x92,0x3e,0x03,0x98,0x8e,0x3e,0x65,0x48,0x07,0x3e,0x18,0x5c,0x93,0x3e,0x8e,0x31,0x1a,0xbf,0x4b,0x3e,0xba,0x3d,0xa8,0x76,0x10,0x3f,0x3c,0xba,0x84,0xbf,0x04,0x5d,0x34,0x3e,0xce,0x93,0x79,0x3f,0xa0,0xcf,0x5d,0x3e,0x2b,0x79,0x6a,0xbe,0x84,0x70,0xa5,0xbf,0xdb,0xec,0xd2,0xbe,0xd0,0x73,0x36,0xbf,0xb5,0xda,0x82,0x3e,0x94,0xb6,0x6c,0xbe,0xd4,0xda,0xdf,0xbd,0x54,0xbb,0x2a,0xbf,0x96,0xdb,0xc7,0xbd,0xd5,0x13,0xbf,0x3d,0x71,0x7c,0x9c,0x3d,0xc5,0x2b,0xc0,0x3d,0x9f,0x73,0xed,0x3e,0x69,0x8f,0x7c,0x3d,0xf6,0x50,0xd1,0x3d,0xf5,0xa9,0x50,0xbb,0x55,0xce,0xab,0x3e,0x2d,0x29,0xde,0x3e,0x1e,0xa1,0x72,0xbf,0x33,0x82,0xee,0x3c,0xd1,0xf1,0xa8,0xbe,0x61,0x91,0x8e,0x3d,0x12,0x4f,0x97,0xbf,0x72,0x61,0x47,0xbe,0x44,0x13,0x6d,0xbd,0x0b,0x18,0x3d,0x3f,0x4e,0x39,0x4a,0x3d,0x14,0x9f,0xaf,0xbe,0x74,0x86,0x51,0xc1,0x5d,0x14,0xc5,0xbe,0x34,0x13,0xea,0xbe,0x9a,0xe6,0x3d,0x3e,0xec,0x1e,0x1b,0x3d,0x62,0x01,0x96,0xbf,0x36,0xf5,0xee,0x3e,0x6a,0xeb,0xc3,0x3e,0xa5,0x6a,0x1e,0xbe,0x83,0x61,0x28,0xbd,0x92,0x75,0x9b,0x3e,0x83,0x38,0x7a,0x3e,0xe4,0x3f,0x55,0xbe,0xfd,0x98,0x74,0xbe,0xd4,0x8d,0xf9,0xbb,0x08,0xd4,0x86,0xbe,0x90,0x02,0xc1,0xbe,0xed,0x7f,0x0a,0xbe,0x9f,0x94,0x7a,0xbd,0x06,0x7a,0xa6,0xbe,0x07,0x3f,0x1b,0xbe,0xfe,0x58,0xe1,0x3d,0xb0,0x36,0x06,0xbe,0x2c,0x3d,0x13,0xbf,0xb9,0x5a,0xc6,0x3e,0x6a,0x58,0x8c,0xbe,0x44,0xa4,0x10,0xbe,0x88,0x7c,0x91,0xbd,0x67,0xb7,0xdb,0xbb,0x78,0xa2,0xa5,0x3f,0x09,0x01,0x77,0x3b,0x23,0x0b,0x90,0x3e,0xda,0x97,0xbb,0x3d,0xb8,0x05,0xcb,0x3e,0x80,0x51,0xf3,0xbd,0x1b,0xfb,0x1a,0xc0,0x56,0x52,0x62,0xbf,0xdc,0xd0,0x0a,0xbe,0x42,0x21,0x0a,0xbf,0x91,0x4e,0x35,0xc1,0x0b,0x89,0x48,0x3e,0x04,0x75,0xf7,0xbd,0x61,0xd6,0x8b,0xbe,0x24,0x89,0x82,0xbf,0x24,0xc7,0x6f,0xbe,0xb7,0x59,0xa4,0x3c,0xa9,0x37,0xf1,0xbd,0x9a,0x77,0x88,0x3e,0x76,0xce,0xf3,0x3e,0xbb,0xd3,0x7f,0xbe,0xd2,0x56,0x87,0x3c,0x32,0xbd,0xd1,0x3e,0xfe,0xba,0xbb,0x3e,0xe8,0x59,0x1a,0x3f,0xae,0xd7,0x29,0xbf,0x8e,0x4b,0x3c,0x3e,0xf6,0xd6,0x66,0xbe,0xed,0xf3,0x98,0xbe,0x55,0xb2,0x3b,0xbe,0xb4,0x3b,0x25,0xbe,0x50,0x2b,0xab,0x3c,0x73,0xe1,0x42,0x3f,0x0d,0x27,0xda,0x3d,0x77,0x6f,0x0c,0xbe,0xa0,0xfa,0x42,0x3d,0xda,0xd4,0x61,0xbf,0xc8,0xae,0xd4,0x3d,0x6c,0xcd,0x99,0xbf,0xa6,0x3d,0xeb,0x40,0x58,0xbe,0x33,0x3e,0xaf,0xdf,0x74,0xc0,0x62,0x7e,0xfc,0x3e,0x99,0x5c,0x53,0xbe,0xc3,0x77,0x7e,0x3e,0x49,0xfe,0xf7,0x3b,0x6f,0x33,0xff,0x3c,0x81,0xcf,0xcc,0xbd,0xad,0xdc,0xfe,0xbd,0x6a,0x87,0x50,0xbe,0x73,0x36,0xfa,0x3d,0xc2,0xcc,0x7c,0xbf,0x71,0x88,0x82,0x3e,0xb5,0x64,0xe0,0xbd,0x6f,0xa5,0xeb,0xbe,0xe3,0xe1,0x12,0xbe,0xf2,0xae,0x42,0x3e,0x90,0xdd,0x0a,0xbd,0xd4,0x1f,0xdb,0x3e,0x22,0x60,0xee,0xbe,0xea,0x1a,0xb2,0x3e,0xe7,0xaf,0x8f,0x3e,0x42,0xaf,0x24,0xbe,0x29,0xbe,0xfe,0x3a,0x82,0x9b,0x0b,0x3f,0x6e,0x6a,0x7e,0xbd,0x83,0x31,0x38,0xbe,0xaa,0x25,0x42,0xbd,0xe7,0xb1,0xa6,0xbe,0xfd,0x35,0xa2,0x3d,0x1c,0x44,0x24,0x3e,0xe6,0xf8,0xca,0x3c,0x28,0xb3,0x95,0x3e,0x8f,0x0f,0x5e,0xbe,0x13,0xc5,0x87,0x3e,0xd5,0x2e,0xa7,0x3e,0x2e,0x58,0xed,0x3e,0xfe,0xa7,0xac,0xbb,0xcb,0xdc,0x29,0x3e,0x75,0xb6,0x48,0xbd,0x93,0x17,0xab,0x3e,0xb7,0xbc,0xbe,0x3e,0x52,0x2d,0x5d,0x3e,0xcd,0x49,0xfa,0xbe,0x9e,0xdf,0x5c,0xbd,0x02,0xc2,0x29,0x3e,0x8f,0x6a,0xb1,0xbe,0x3c,0x14,0xd7,0xbe,0x2a,0xb7,0xbb,0xbd,0x27,0x66,0xfa,0x3e,0x6b,0x6f,0xb4,0xbe,0x7a,0x50,0x38,0x3e,0x03,0x68,0x6a,0x3e,0x0a,0x4b,0x6b,0x3e,0x0e,0xa8,0x7b,0x3e,0xe0,0x2e,0x41,0x3e,0x52,0x51,0x4c,0x3e,0xae,0xed,0xfc,0x3d,0x0f,0x9f,0x3b,0xbd,0xa0,0xdb,0x8d,0x3e,0xb1,0x22,0xcd,0x3e,0xff,0x29,0x2f,0x3e,0x5a,0xb1,0x0f,0xbf,0x46,0xaa,0xa5,0x3e,0x60,0xb3,0x47,0x40,0xe9,0xae,0x94,0x3e,0xbd,0xce,0xb7,0xbd,0xd6,0x28,0x47,0x3d,0x5d,0xde,0x75,0xbe,0xb7,0xe2,0x3d,0x3e,0x71,0x53,0x07,0xbf,0xf3,0xd2,0x09,0xbd,0x9f,0x59,0xa5,0x3e,0x2e,0xa3,0x86,0x3d,0xb7,0x41,0xd3,0xbd,0x0a,0x8f,0xc5,0xbd,0xef,0xa1,0x63,0xbe,0x50,0xd3,0x9a,0xbe,0xc5,0xb6,0xe9,0x3e,0x47,0x80,0x17,0x3e,0xdb,0x66,0xf9,0x3d,0xd3,0x22,0x3a,0xbd,0x17,0xf7,0x22,0xbe,0x4e,0x06,0xab,0x3e,0xe4,0x3d,0xfb,0x3d,0x12,0x9b,0x54,0xbe,0xdc,0xcf,0xdb,0xbd,0xdb,0x30,0x13,0xbe,0x6f,0xb8,0x02,0xbe,0x66,0x19,0x3f,0x3e,0xae,0x70,0xb4,0xbb,0x5a,0xc8,0x9c,0x3d,0x3f,0x89,0xf1,0x3e,0xc2,0x6d,0xa8,0xbe,0xd2,0x93,0x4b,0x3e,0x2a,0xe3,0x4d,0x3e,0x4a,0xd8,0x57,0xbe,0xa2,0x4c,0x30,0xbe,0xbd,0x9e,0xbf,0x3c,0x4f,0xfc,0x15,0xbe,0x13,0xe1,0xa0,0xbd,0x93,0xab,0x86,0x3e,0x39,0xc4,0x0d,0x3e,0xbb,0xe6,0xae,0xbd,0xb6,0x76,0x58,0xbd,0x3b,0x7e,0x93,0xbe,0xa5,0xdd,0x19,0xbd,0x1a,0x16,0xa1,0x3e,0x8d,0x09,0x55,0x3e,0x14,0xdc,0x81,0x3e,0x87,0xfe,0x7d,0x3d,0x2b,0xbd,0x0a,0x3e,0xae,0x51,0x38,0xbe,0x34,0x9d,0x71,0xbe,0x29,0xb2,0xf4,0xbd,0x52,0x92,0x58,0x3e,0xa9,0x84,0x2d,0x3e,0xb4,0xbb,0xce,0xbd,0x8f,0x92,0x26,0xbe,0x64,0xab,0x3d,0x3e,0xa9,0xaa,0x9e,0xbd,0xed,0x5f,0x9b,0xbd,0xe1,0xaa,0xbc,0x3e,0x53,0x8d,0x2c,0xbf,0x28,0xf0,0xa6,0x3d,0x0f,0x0b,0x9c,0xbe,0x16,0xa6,0xde,0x3e,0xc4,0x76,0x31,0xbe,0x49,0x65,0x1c,0xc0,0xb5,0x09,0x97,0xbd,0xbd,0xd1,0xcb,0x3d,0x43,0x02,0x14,0x3e,0x5c,0x1b,0x28,0xbe,0x7b,0xf5,0x03,0xbe,0x2d,0xd4,0x41,0xbe,0x83,0xed,0x84,0xbd,0xfb,0xe6,0x81,0x3e,0xa3,0xa1,0xa0,0x3e,0x00,0x62,0x83,0x3e,0x07,0x2f,0x0a,0x3f,0x8a,0x40,0x60,0x3e,0x5c,0x9a,0xb7,0x3d,0xba,0xe9,0x5b,0x3e,0x22,0x2f,0x9f,0x3e,0x82,0x87,0xd8,0x3d,0x19,0xc0,0x28,0x3e,0xa6,0xab,0xb1,0x3d,0x50,0x66,0x9c,0x3e,0x49,0x67,0x45,0xbe,0x1a,0xf5,0x5d,0x3f,0x97,0xa2,0xa3,0xbf,0x96,0x69,0x6e,0x3e,0xa3,0x78,0x88,0x3e,0x8a,0xe4,0x46,0x3d,0xea,0x65,0x96,0x3e,0x93,0xd6,0xbc,0xbf,0x4f,0x47,0x5b,0xbe,0x7e,0x7a,0x96,0xbe,0x2b,0x15,0x73,0x3d,0xae,0x0c,0x14,0xbf,0x26,0x97,0x81,0xbf,0x57,0xba,0xe6,0xbe,0x6b,0xfa,0x81,0x3e,0x50,0x48,0x15,0x3e,0xae,0x9a,0x36,0xbd,0x42,0x79,0x68,0x3d,0xd0,0xd8,0xc5,0x3e,0xb8,0x57,0x5b,0x3d,0xba,0x31,0x2e,0x3e,0x34,0xad,0xdc,0x3c,0xbd,0x9e,0xb5,0x3d,0x57,0xe5,0x29,0x3d,0x6b,0xa9,0x72,0xbe,0x99,0xed,0x32,0xbe,0x41,0xb0,0x03,0x3e,0x99,0xd2,0x4e,0x3e,0x3f,0x45,0x44,0x3f,0x81,0xd5,0xb7,0x3e,0x22,0xe3,0x4e,0x3e,0x41,0xf3,0xa2,0x3d,0x88,0xb9,0x81,0x3d,0xd3,0x77,0x8f,0xbe,0xa1,0x74,0xb7,0xbf,0x85,0x9d,0xe5,0xbc,0xda,0x80,0x39,0x3e,0xd6,0xff,0x0a,0xbe,0xd0,0xb9,0x67,0x3e,0x60,0xf9,0x40,0xbe,0x71,0x4e,0x10,0xbf,0xdd,0xd2,0x2d,0xbe,0x62,0x31,0xb7,0x3e,0xc7,0x3b,0x05,0x3e,0xe0,0x66,0x63,0xc0,0x8d,0x2b,0x99,0x3e,0xa8,0x8a,0x10,0x3f,0xbd,0xc3,0xac,0xbd,0x09,0x44,0x55,0x3e,0x1c,0x89,0x8a,0x3e,0xfe,0x79,0x59,0x3d,0x11,0x5c,0x32,0x3e,0x72,0xcf,0xb6,0xbe,0x8a,0x49,0x10,0xbe,0x78,0x00,0xf6,0x3d,0xeb,0x8a,0x12,0xbf,0xe9,0xee,0x9a,0x3d,0xbd,0x48,0x0e,0x3e,0xf4,0x84,0xcf,0xbe,0xdc,0xc0,0xb3,0xbe,0x3c,0xce,0x37,0x3f,0x4c,0x92,0xb2,0xbe,0x3c,0x5e,0xa0,0x3e,0xf8,0xc8,0x47,0x3e,0x38,0x54,0x32,0xbd,0x02,0xa7,0x0e,0x3e,0x5b,0x57,0xc1,0xbe,0x09,0xb2,0x2e,0x3e,0x0c,0xb5,0x25,0x3f,0x5f,0x32,0x1a,0xbe,0xb6,0xcb,0xe5,0x3d,0xcf,0x0a,0x1e,0xbf,0xcc,0x19,0x48,0xbe,0x39,0x2d,0xa6,0x3e,0x25,0x79,0x38,0x3e,0x31,0x0c,0x9a,0xbe,0x26,0x47,0x50,0xbe,0x28,0x36,0x76,0xbe,0xdc,0x01,0x1b,0x3e,0x6c,0x7f,0x9f,0x3d,0x7b,0xea,0x1d,0x3d,0x4b,0x53,0x96,0x3d,0x69,0xaf,0x02,0xbe,0xb5,0x7d,0x9e,0xbd,0xe2,0x0d,0x98,0x3d,0x6b,0xd9,0xb4,0x3e,0x19,0x58,0x15,0x3e,0xc8,0xde,0x24,0xbe,0x0b,0xc9,0x7b,0x3e,0xa6,0xef,0x87,0x3e,0x5e,0x8b,0x5d,0xbe,0x9d,0x53,0xec,0xbd,0x1f,0x44,0xe0,0x3e,0x63,0xa7,0x8e,0xbd,0xce,0x99,0x5b,0x3e,0x81,0x7e,0x18,0xbe,0x56,0x1b,0xec,0xbd,0xed,0xf8,0xa0,0xbe,0x7d,0x68,0xab,0xbe,0x90,0x3d,0xa9,0xbe,0xc8,0x99,0x0b,0x3f,0xb2,0xe2,0xd8,0x3d,0x04,0x19,0x71,0x3c,0x4d,0x74,0x4f,0xc0,0x62,0x57,0xf4,0xbe,0x9c,0xe8,0x6b,0xbf,0x1d,0xac,0x5f,0x3e,0xd4,0x76,0xea,0x3e,0xab,0x40,0x44,0xc0,0x01,0x73,0xf0,0x3e,0x39,0x86,0xe9,0x3d,0x63,0x07,0x9c,0xbe,0x79,0x47,0xed,0xbc,0x34,0xb4,0xde,0x3e,0x47,0x42,0x9d,0x3c,0xf8,0xc8,0xfb,0xbd,0x46,0x2a,0xee,0xbd,0x45,0x62,0xa8,0x3d,0xd1,0x24,0xe6,0xbe,0x60,0xbd,0x33,0xbf,0x2c,0x3e,0x86,0x3e,0x50,0x04,0xfc,0xbd,0xc2,0xa2,0x0d,0xbf,0x7a,0xae,0x99,0xbe,0x4e,0xb8,0xf5,0xbc,0x88,0x66,0x73,0x3e,0x58,0xac,0x85,0xbd,0x26,0x23,0x57,0x3e,0x03,0xf3,0x2d,0x3b,0xe8,0x76,0xd3,0xbd,0x24,0x91,0x6d,0xbe,0xf2,0xdb,0x0f,0xbd,0xd1,0xd4,0x97,0xbd,0x44,0x32,0x45,0xbe,0xac,0xdb,0x43,0xbe,0x78,0x42,0x86,0xbd,0xac,0x39,0xab,0xbc,0xb0,0x43,0x10,0xbe,0xb0,0x41,0x75,0xbd,0x24,0xcf,0x3e,0xbe,0x10,0x90,0x3f,0xbe,0x70,0x5e,0x5a,0xbd,0x24,0xab,0x4b,0x3e,0x6e,0x7b,0xec,0x3d,0xcc,0xc5,0xb8,0xbb,0x36,0xd6,0xe2,0xbd,0xb5,0x5f,0xbf,0x3c,0x10,0x99,0x2d,0xbe,0x5e,0xc6,0xea,0x3d,0x79,0x46,0x16,0x3e,0xd5,0x4e,0x0e,0x3e,0xf0,0x58,0x5b,0xbe,0x3d,0x3e,0xb8,0xbd,0x64,0xd6,0x24,0xbc,0xbf,0x44,0x3c,0xbe,0x3f,0xef,0x97,0xbd,0x97,0x31,0x88,0xbe,0x30,0x06,0x2a,0xbd,0x56,0x6e,0x5c,0xbe,0x52,0x7e,0x89,0x3d,0x3c,0xb8,0x25,0xbe,0x08,0x99,0xa7,0xbd,0xec,0x09,0x0e,0xbe,0x34,0x73,0x84,0xbe,0x58,0x6e,0x50,0xbe,0x00,0xad,0x3d,0x3c,0x5a,0x24,0x1f,0xbe,0x74,0x57,0x01,0x3e,0x94,0xbb,0x7d,0xbe,0xd0,0x1b,0x71,0x3d,0xe0,0x4c,0xb6,0xbd,0x10,0x10,0x0c,0xbd,0x08,0x37,0x76,0x3e,0x1c,0x44,0x25,0x3e,0x84,0x57,0x73,0xbe,0x01,0xff,0xaf,0xbd,0x3b,0x17,0xc3,0xba,0x7f,0xbe,0x85,0xbe,0x1a,0x1d,0x05,0x3e,0x40,0x2b,0xaf,0x3c,0xdd,0x89,0x3b,0x3e,0x10,0xfd,0xec,0x3c,0xf0,0xa6,0x81,0x3d,0x45,0xe8,0xfe,0xbd,0x4e,0x10,0xa2,0xbd,0x47,0x2d,0x89,0xbe,0x9d,0x9f,0xfa,0x3d,0x58,0xc1,0x7d,0xbd,0xfb,0x5a,0xad,0x3e,0xd5,0xbe,0x9b,0xbe,0x51,0xed,0x2e,0xbf,0xfa,0x75,0xac,0x3e,0x20,0x6a,0xdc,0xbc,0x4b,0xb4,0x57,0xbe,0x13,0xc9,0x8f,0x3e,0xe1,0xe2,0x4c,0xbe,0x16,0x82,0x9a,0x3e,0xf7,0x0f,0x46,0x3e,0xd1,0x80,0x9a,0xbd,0x56,0xa3,0xc9,0x3d,0x38,0x53,0xd4,0x3e,0x32,0xc1,0xd8,0xbe,0x5c,0x30,0x1f,0x3d,0xe8,0x9a,0xf0,0xba,0x67,0x52,0x73,0x3b,0xb1,0x9f,0x3c,0x3e,0xa4,0x10,0x1b,0xbe,0xea,0xd6,0x9c,0xbd,0xe6,0xeb,0xaf,0xbe,0xad,0xf6,0x48,0x3e,0xcc,0x96,0xb4,0xbe,0x0c,0x87,0xaf,0xb9,0xce,0x37,0x0b,0xbe,0xfd,0xc9,0x7d,0xbe,0xac,0x12,0x60,0xbd,0x1b,0x92,0x8d,0x3e,0x2c,0xcf,0x16,0xbd,0x0d,0xc3,0x10,0xbe,0xd4,0xc7,0x1a,0x3e,0xde,0x67,0xf9,0x3e,0xcf,0xb7,0xea,0x3e,0x81,0x80,0xb2,0xbd,0xcb,0x12,0x1d,0x3e,0x37,0x2d,0x50,0x3e,0xd2,0x0f,0x63,0xbb,0xe1,0xa6,0x27,0xbd,0x59,0xfa,0x3b,0xbf,0x0d,0xba,0xc0,0x3e,0x62,0x42,0x60,0x3e,0x77,0x2b,0x1b,0x3e,0xbc,0xdf,0x62,0x3d,0x3d,0xb7,0x46,0xbf,0xa8,0xc3,0x45,0x3c,0x81,0xa1,0xf6,0xbb,0xc2,0xfe,0x09,0x3f,0xcb,0x9f,0x48,0x3a,0x35,0xf4,0x24,0xc0,0x1c,0xeb,0x8c,0xbd,0xe6,0xcd,0x47,0x3e,0xb2,0x90,0x87,0x3d,0x55,0xae,0xdd,0x3c,0x27,0x7d,0x80,0xbe,0xe0,0x40,0x0b,0xbd,0xc4,0x46,0x43,0xbd,0xf9,0xaf,0x5b,0x3e,0x0d,0x90,0xae,0x3d,0x37,0xb5,0xa6,0xbd,0x11,0x87,0x6f,0x3e,0xe5,0xf5,0xcc,0x3a,0x4d,0x74,0x1d,0x3d,0x1d,0xd8,0x5f,0x3e,0x23,0xba,0xfe,0xbc,0x23,0x43,0x01,0x3f,0x07,0xab,0x4a,0xbd,0x7a,0x92,0xe6,0xbe,0xfb,0x75,0xaa,0x3e,0xdd,0xdb,0x34,0x3e,0x54,0xa8,0xd4,0xbe,0x79,0x56,0x03,0x3d,0x4f,0x08,0xc4,0x3d,0xf0,0xf4,0xf9,0x3d,0x47,0xcc,0x66,0xbe,0x14,0x92,0xc3,0xbe,0xac,0x8d,0x0c,0xbd,0x66,0x07,0xbb,0x3e,0x22,0xf6,0x16,0xbf,0x3f,0xd0,0x4b,0x3e,0x7e,0x54,0x49,0xbe,0x97,0xfd,0xb7,0xbc,0x0c,0xdf,0xb0,0x3d,0xa6,0xbd,0xa2,0xbd,0x41,0xbf,0x40,0xbe,0xbe,0xc7,0x66,0x3e,0x1c,0xb5,0x21,0x3d,0x2c,0xa1,0x4d,0xbd,0xaa,0xf3,0x5b,0xbe,0xec,0xb6,0x00,0xbe,0xbe,0x5d,0xc3,0x3c,0x79,0x97,0xf6,0x3d,0x01,0x48,0xc2,0x3e,0xce,0x69,0xab,0xbd,0x7a,0x1c,0x47,0xbe,0x59,0xf8,0x0a,0x3e,0xb7,0xf5,0xfe,0x3e,0x40,0xbe,0xa2,0x3d,0x33,0x49,0x07,0xbe,0x45,0xb0,0x55,0xbe,0x0f,0x56,0x9e,0x3e,0xf5,0xa1,0xbd,0xbd,0x64,0xb6,0xc2,0x3c,0x5e,0x24,0x97,0xbe,0xd7,0x63,0x19,0x3e,0xad,0x0d,0x09,0x3d,0xa6,0xcc,0x82,0x3e,0x3e,0x7e,0xc3,0x3e,0x52,0xf4,0x56,0xbf,0x2d,0xc8,0x03,0x3f,0xa1,0xe8,0xf6,0xbc,0x06,0x72,0x80,0x3e,0xf6,0xb3,0x2b,0xbe,0x75,0xe6,0x1c,0xc0,0x97,0x72,0xd4,0xbd,0x50,0xb4,0xfd,0xbc,0x3c,0x79,0x67,0x3e,0xd1,0xb7,0x21,0xbe,0x2d,0x97,0xa3,0xbd,0x3a,0xa0,0x43,0xbe,0xb6,0xa9,0xb0,0x3d,0x70,0xfb,0x55,0x3e,0x6f,0x4a,0x55,0x3e,0x48,0xc9,0x35,0x3d,0x7d,0x2b,0xfb,0x3e,0xe7,0x26,0x30,0xbe,0x60,0xf7,0x2f,0x3e,0x18,0xfb,0x02,0x3f,0x82,0xe6,0xf5,0x3d,0x90,0xdd,0x8c,0x3e,0x92,0x3a,0xe5,0x3d,0xa7,0xec,0x04,0x3f,0xcd,0x72,0x0a,0xbe,0x1f,0x92,0x52,0x3d,0xb1,0x97,0x22,0x3f,0x80,0x50,0x75,0xbf,0xa7,0xf9,0x40,0x3d,0x43,0x76,0xcb,0x3e,0xda,0x50,0x6c,0x3e,0x5c,0x92,0x17,0x3e,0xc1,0x0b,0x0d,0xbf,0x6c,0xe5,0x81,0xbe,0x52,0xe8,0x90,0xbe,0xea,0x4e,0x87,0xbd,0x07,0x8a,0x9e,0xbd,0x3a,0xb2,0x0e,0xbf,0x21,0x65,0xb9,0xbc,0xe4,0xb9,0x72,0xbe,0x42,0x9f,0x5a,0x3e,0xda,0x8c,0x0f,0x3f,0x29,0x6b,0x59,0xbe,0x24,0x20,0xb0,0xbd,0x7e,0xa5,0x86,0x3e,0x67,0xbb,0x64,0x3e,0x76,0xa3,0xc6,0x3e,0x59,0xaa,0x09,0xbe,0x94,0x01,0xa7,0x3d,0x83,0x12,0x4f,0x3d,0xc6,0x82,0x10,0x3e,0x66,0x6e,0xe6,0x3e,0xa8,0xe9,0x40,0x3e,0x2d,0xda,0x3f,0x3f,0x24,0xeb,0x4d,0x3c,0x38,0x04,0x7f,0xbb,0xa3,0x40,0x5b,0xbe,0x02,0xf6,0x76,0xbe,0x7b,0xb3,0x7f,0xbe,0x32,0x1e,0x17,0xc0,0xac,0xdb,0x6b,0xbe,0x86,0x05,0x15,0x3f,0xce,0xad,0x84,0xbe,0x83,0x74,0xa6,0xbe,0xd5,0x29,0x13,0x40,0x43,0x24,0xa1,0xbe,0x0b,0xa6,0xc1,0xbe,0xfc,0x87,0x19,0xbe,0x75,0x33,0x89,0x3e,0xe4,0x22,0x83,0xc0,0xb8,0x69,0x18,0x3f,0x21,0x90,0xec,0x3e,0x9d,0xf9,0x83,0x3c,0x35,0x13,0x2a,0xbb,0xd4,0x90,0xb0,0x3e,0xf1,0xce,0x53,0x3e,0x8e,0x30,0x40,0x3d,0x26,0xe6,0xe2,0xbe,0xa5,0x03,0x7f,0x3d,0xf4,0x79,0x4d,0xbe,0xb4,0x4b,0x28,0xbf,0x4c,0x85,0x0b,0x3e,0x34,0x5e,0xf9,0x3d,0x5b,0x52,0xea,0xbe,0xb8,0x8b,0x0d,0xbe,0x0c,0x11,0xfd,0xbe,0x2b,0x36,0xa7,0x3e,0x43,0x1c,0x24,0x3f,0x76,0x05,0xef,0xbe,0xb4,0x2a,0x88,0x3d,0xd8,0xca,0x2d,0x3f,0xbd,0x2f,0x30,0x3d,0x24,0x9a,0x16,0xbc,0x55,0xba,0xff,0x3e,0x5a,0x94,0x69,0xbd,0x5e,0x5b,0xc6,0x3d,0x86,0x74,0x14,0xbe,0x09,0x25,0xf0,0xbe,0xfa,0x0c,0xbc,0x3e,0x5d,0x1b,0x5a,0x3d,0x9a,0x5e,0xac,0x3e,0x7e,0xbc,0x16,0x3d,0x2f,0x47,0x21,0x3e,0x36,0xe6,0x94,0x3e,0xa6,0xb4,0x44,0x3e,0x70,0xc2,0x7a,0x3f,0x83,0x83,0x30,0xbe,0x9f,0xb1,0xe1,0x3e,0x87,0x9c,0x4a,0xbd,0x22,0x55,0x26,0xbe,0xc1,0xd3,0xfa,0x3c,0x1c,0x30,0x03,0x3b,0xdd,0x3c,0x07,0xbf,0x09,0x66,0x0f,0xbf,0x29,0xce,0x9c,0xbf,0x5f,0x68,0xf2,0xbe,0xe4,0xc6,0x1f,0xbf,0x8c,0x29,0x9c,0xbf,0xfc,0x28,0x13,0x3e,0x3a,0x51,0xd2,0x3d,0x3a,0xd6,0x31,0xbe,0x23,0x60,0x95,0x3c,0xf7,0x7f,0x51,0x3e,0xdb,0x11,0x7b,0x3f,0xa9,0x5f,0xa9,0xbd,0x0d,0x19,0x96,0x3e,0xd5,0xaf,0x98,0xbd,0x5e,0x86,0xe2,0x3e,0x20,0x27,0xcf,0x3f,0x37,0xcc,0xc9,0x3e,0x36,0x48,0x69,0x3f,0x68,0x42,0x0c,0xbf,0x9e,0xa0,0xd5,0x3d,0x24,0x18,0x91,0x40,0x22,0x81,0x68,0x3e,0x40,0x0a,0x7e,0xbe,0x39,0x01,0x55,0x3e,0x82,0xa6,0x5b,0x3e,0x64,0x7f,0xb3,0xbd,0x72,0x78,0x54,0x3e,0x3a,0x5c,0x8b,0x3e,0x7a,0x16,0xc2,0x3d,0xcd,0xb3,0x32,0x3d,0xdb,0x88,0x20,0x3e,0xfd,0x18,0xae,0x3d,0x79,0x84,0x3a,0x3f,0xd2,0xbe,0x75,0x3e,0x3e,0x4c,0x41,0x3e,0xeb,0x9d,0x80,0x3b,0x79,0x9b,0x7d,0x3e,0x0c,0xdb,0xcb,0xbd,0x31,0x6f,0x37,0x3e,0x0b,0xc4,0xc3,0xbc,0xb3,0x7f,0x57,0xbe,0x55,0xc4,0x98,0xbe,0x27,0x2c,0x87,0x3e,0x5c,0x41,0xfe,0xbd,0x66,0xab,0xfc,0xbd,0xd6,0x9d,0x59,0x3e,0x0a,0xaf,0xc4,0xbe,0xd2,0xf6,0x56,0xbd,0xbb,0x15,0xec,0x3e,0xa0,0x28,0xd2,0xbe,0x50,0x25,0xcb,0x3d,0x28,0x59,0xe7,0x3d,0xbb,0xd1,0xb4,0xbe,0x47,0x96,0x0d,0xbe,0xf9,0x33,0xcf,0x3d,0xd1,0x2c,0xb2,0x3c,0xd9,0x41,0xda,0x3e,0x8a,0x86,0x61,0x3e,0x8c,0x93,0xb4,0x3f,0x87,0x37,0xd4,0x3d,0x25,0x43,0x10,0x3e,0x26,0xbf,0x9c,0xbe,0x82,0xf6,0x98,0x3d,0xe2,0x6e,0xf0,0x3d,0x36,0x9a,0x0b,0x3e,0x12,0x37,0x5f,0x3e,0x1b,0x1d,0x76,0x3c,0xfe,0x84,0xb1,0xbd,0x4c,0x3e,0x9f,0x3d,0x40,0xc6,0x30,0xbe,0x5b,0xe2,0xf1,0xbc,0xb1,0x85,0x00,0x3f,0x7b,0x4f,0x97,0x3d,0x55,0xd9,0x13,0xbe,0xdc,0xa1,0x8f,0xbe,0x66,0x36,0x5c,0xbd,0x2c,0x82,0xa4,0xbd,0xed,0x70,0xb3,0x3e,0x3d,0x0d,0xb1,0x3e,0x94,0x7f,0x17,0xbf,0x29,0xa2,0xd3,0x3e,0x40,0xce,0x9a,0xbe,0x46,0xaf,0x4d,0x3d,0x50,0x6d,0x7c,0x3c,0xf5,0xd8,0x17,0xc0,0xcd,0x83,0x91,0xbe,0x81,0x5d,0xac,0x3c,0xba,0x2d,0x86,0x3e,0xb8,0x45,0x81,0xbe,0x7a,0x17,0x0b,0xbe,0x41,0xa9,0x60,0xbe,0xa5,0x68,0xf9,0x3c,0x31,0xd2,0x4c,0x3e,0xa8,0x10,0xa1,0x3e,0xd8,0x04,0x9d,0x3e,0x32,0xb3,0xaf,0x3e,0xa1,0xab,0x2f,0x3e,0x2b,0x13,0xa6,0x3d,0x1c,0xa0,0x8e,0x3e,0x73,0xd2,0xf8,0x3e,0xcd,0x4b,0x51,0xbe,0x88,0x1a,0x05,0x3e,0x64,0x2a,0x0f,0xbf,0xce,0x1c,0xa2,0x3e,0xad,0x96,0xab,0x3e,0x57,0x54,0xa1,0x3e,0x60,0x12,0xb3,0xbe,0x55,0x50,0x81,0x3d,0xd9,0x8f,0xb7,0x3e,0xf1,0x34,0xa7,0x3e,0xa8,0x34,0x84,0x3e,0xd0,0xce,0x9c,0x3d,0x8a,0xb8,0x80,0x3c,0x91,0x77,0x78,0x3e,0x98,0x9e,0xcb,0xbd,0x58,0xb3,0x50,0x3e,0x82,0x0c,0xfc,0x3d,0x7d,0x9e,0x50,0x3e,0x92,0xef,0x75,0xbe,0x66,0x3d,0xbb,0x3d,0xcd,0x06,0x83,0x3d,0xdf,0x03,0x38,0xbc,0x9d,0x99,0xc3,0xbf,0xf1,0x30,0xb3,0xbd,0xd6,0x59,0x1f,0x3e,0x4b,0xe7,0x7c,0x3e,0x46,0xfd,0x2f,0xbd,0xda,0x87,0x84,0xbc,0x50,0x33,0xa1,0x3d,0x01,0xa8,0x69,0x3c,0x04,0xc8,0x6c,0x3e,0x2e,0xdd,0x2b,0x3e,0xfc,0xe4,0x17,0x3e,0xf2,0x79,0x13,0x3e,0xee,0x4c,0x46,0x3e,0x27,0xac,0x8e,0xbe,0x46,0x2b,0x91,0x3a,0xa7,0xba,0x95,0xbd,0xa6,0x6b,0x28,0xbd,0xc0,0xf5,0xd8,0xbd,0x89,0x82,0x0d,0x3f,0x76,0x9b,0xa5,0xbe,0xda,0x36,0xc1,0xbe,0x36,0x55,0xbb,0x3e,0xdb,0x38,0x67,0xbe,0x94,0xba,0x6e,0x3d,0x54,0x99,0x0b,0x3e,0xbd,0xe2,0x24,0x3e,0x41,0x57,0x93,0x3f,0xd7,0x47,0x99,0x3e,0xe4,0xc0,0xa3,0x3e,0x92,0xeb,0x6f,0xbe,0x51,0x32,0x37,0x3d,0xd3,0x92,0xd0,0x3e,0xd5,0xee,0x80,0xbe,0x6c,0x3e,0x94,0x3d,0x7c,0x9d,0xe9,0xbe,0xa3,0x4c,0x94,0xbe,0xd7,0xc3,0xd5,0x3d,0x83,0x42,0xe6,0xbe,0xc6,0x10,0xd1,0x3e,0xca,0x91,0x13,0x3e,0xd2,0x8b,0xeb,0xbd,0x5f,0x08,0xcc,0xbe,0x2f,0x28,0xc8,0x3e,0x8a,0x67,0x21,0xbd,0x36,0xf3,0xc9,0xbe,0xf3,0xac,0x51,0x3e,0x39,0xb4,0x62,0xbd,0x79,0xa5,0x75,0xbe,0x53,0x16,0x2d,0xbc,0x3f,0xa9,0x4f,0xbe,0xd0,0x87,0xd8,0x3b,0xa3,0x90,0x0f,0x3e,0x26,0xf9,0xad,0xbe,0x7b,0xb4,0x8d,0x3c,0x12,0xd9,0xeb,0x3e,0x50,0x76,0xc8,0xbe,0xad,0xcc,0xc3,0x3d,0x80,0xbe,0xf4,0xbd,0xf9,0xe3,0x85,0xbe,0x95,0xe2,0xa8,0x3d,0x36,0x19,0x9d,0xbe,0xc9,0x05,0x45,0xbe,0x55,0xf0,0xb3,0xbe,0xaf,0xec,0x43,0xbd,0x53,0xc2,0x95,0xbe,0x62,0xf8,0xb7,0xbd,0xa3,0x4f,0x47,0xbe,0xb6,0xd5,0xa0,0x3b,0x43,0x1f,0x87,0x3d,0xd3,0xbc,0xe2,0x3d,0x50,0xa7,0xf8,0x3d,0xdb,0x98,0x48,0x3d,0x22,0x06,0x93,0x3e,0x0a,0xc2,0xa5,0x3e,0x9c,0xd9,0x61,0xbd,0x1e,0x4b,0x2d,0x3c,0x64,0xe1,0x80,0x3e,0x22,0x45,0x81,0x3e,0xf8,0x7b,0xfd,0x3d,0x5c,0x8f,0xc0,0x3d,0x48,0xb0,0x19,0xbf,0x8e,0x4f,0x30,0x3e,0x08,0x76,0xab,0x3e,0x68,0xa5,0x8d,0x3e,0xcc,0x70,0x46,0xbe,0x2c,0x3b,0x15,0xbf,0xef,0x24,0x0a,0x3e,0x27,0x94,0x28,0xbd,0x8e,0x29,0x09,0x3d,0x06,0x0e,0xb7,0x3d,0x29,0xfd,0x17,0xc0,0x25,0x4f,0x94,0xbd,0x10,0x67,0x8c,0x3e,0xa1,0xff,0x16,0xbe,0xbe,0x08,0x47,0xbd,0xb4,0x6a,0x4d,0x3d,0xb6,0xc7,0x54,0xbd,0xdc,0x55,0x11,0x3e,0x36,0x87,0xe9,0x3d,0x21,0x4a,0x63,0x3e,0x6d,0x87,0xbb,0x3e,0x53,0x7e,0xd0,0x3e,0x49,0x9c,0xfb,0x3d,0x5a,0xeb,0x0b,0xbd,0xa7,0x75,0xdc,0x3c,0x68,0x58,0x37,0x3e,0x2a,0xce,0x38,0x3e,0xc3,0xe6,0x0e,0x3e,0xcd,0x13,0x9a,0xbc,0xe9,0x65,0x11,0xbd,0x6d,0x9c,0x80,0x3d,0xcb,0xe3,0x4f,0xbd,0x15,0x62,0xc5,0x3c,0x7a,0xea,0xe4,0x3d,0x17,0x86,0x9f,0xbe,0xad,0x30,0x27,0x3c,0xc7,0xde,0xd1,0xbe,0x08,0xbc,0x84,0xbd,0x17,0x65,0x59,0x3e,0x85,0x1d,0x13,0xbf,0x05,0x4c,0x29,0xbd,0xe6,0x4b,0x25,0x3e,0x02,0x9b,0x4c,0xbe,0x4e,0x3a,0xf8,0x3c,0xff,0x18,0x7e,0xbe,0x46,0x76,0x52,0x3d,0xa2,0xd9,0x0a,0xbe,0xfb,0x7c,0x0d,0xbe,0xeb,0x78,0x4b,0x3f,0xd7,0x4d,0xc5,0xbd,0x4b,0x27,0xe3,0x3c,0x16,0x1c,0x28,0xbe,0xce,0xc2,0xa1,0xbe,0x76,0x03,0x27,0x3e,0x00,0x65,0x91,0x3e,0x9b,0x92,0xcc,0x3d,0x02,0xac,0x6d,0x3e,0xa8,0xd3,0x02,0x3e,0x7f,0xd5,0x9b,0xbd,0x12,0xeb,0x5a,0xbe,0x9b,0x4b,0x6f,0xbe,0xde,0x86,0x5e,0x3e,0x64,0xb7,0x5a,0x3e,0x39,0xa7,0xb4,0x3d,0x36,0x53,0x65,0xbe,0x07,0x08,0x7e,0x3e,0x48,0xbb,0x16,0x3e,0x77,0x78,0xb6,0x3d,0xfc,0xb8,0xb2,0xbc,0xcb,0x6f,0x12,0xbf,0x63,0x65,0x5f,0x3e,0x9b,0x68,0xc4,0xbe,0x9a,0xdf,0x82,0x3d,0xa3,0xea,0x8d,0x3c,0x03,0x84,0x16,0xc0,0x35,0x36,0xe0,0xbe,0x86,0x32,0x43,0xbc,0xf4,0xad,0x80,0xbc,0x88,0x95,0x49,0xbe,0x9a,0x14,0xa6,0xbe,0x18,0xd5,0x1b,0xbe,0x92,0x5a,0x61,0x3e,0x22,0x00,0x9d,0x3e,0xd2,0x84,0x9e,0x3e,0x5a,0xb0,0x70,0x3e,0xc3,0x50,0xb3,0x3e,0x6a,0x86,0x09,0xbe,0x87,0xdc,0xce,0xbd,0xfa,0x83,0x14,0x3e,0x72,0xdf,0xe9,0x3e,0x67,0x5d,0x1d,0xbe,0xec,0xc8,0x4e,0xbe,0x76,0x4d,0x40,0xbd,0x00,0x2f,0x5b,0xbd,0xb0,0x7f,0x86,0x3d,0xb5,0xe9,0x4f,0x3d,0xd2,0xf3,0x54,0xbe,0x80,0x3e,0x95,0xbd,0xc0,0x74,0xa8,0xbb,0xd8,0x7f,0x84,0xbd,0xd0,0x54,0x48,0xbd,0x48,0x7a,0x3a,0xbd,0x5f,0xd7,0x94,0xbd,0x93,0x26,0x82,0x3d,0x82,0xbf,0x40,0x3d,0x1f,0x62,0x84,0x3d,0x36,0x54,0x0f,0x3d,0x45,0x1e,0xf7,0xbd,0x53,0xb1,0xfa,0x3b,0xe8,0x2f,0x61,0xbe,0x9c,0xfb,0x37,0xbe,0x80,0xc0,0xc0,0xbd,0x9a,0xd1,0x7a,0xbe,0xd0,0xc4,0x58,0x3e,0x84,0xa2,0x50,0x3e,0x98,0x83,0xfc,0x3d,0xf4,0x96,0x27,0xbe,0x0d,0x3a,0x6e,0xbd,0x2a,0x32,0x87,0xbb,0x59,0xe7,0x2d,0xbe,0x51,0xb4,0x2a,0xbc,0xc0,0xea,0x14,0xbc,0x25,0x10,0x9a,0x3c,0x85,0x46,0x5a,0xbe,0x7f,0xf8,0x9a,0xbb,0x78,0x47,0x03,0xbe,0x00,0xbe,0xd6,0x3a,0xd2,0xc3,0xd2,0x3c,0x63,0x0c,0x0a,0x3e,0x54,0xb0,0x60,0x3e,0x7d,0x63,0x08,0xbe,0x60,0xa2,0x60,0x3d,0x4c,0x6a,0x6c,0xbe,0x67,0x0d,0xfb,0x3d,0x3e,0x8e,0x35,0xbe,0xee,0xfa,0xfb,0xbd,0x0f,0x03,0x31,0x3e,0x59,0x09,0x99,0xbd,0xd8,0xf1,0x05,0xbc,0x70,0xe6,0x4b,0xbd,0x12,0x76,0x51,0xbd,0xc0,0x15,0x03,0x3c,0xb5,0x8c,0x6e,0xbe,0xb8,0x00,0x6a,0x3e,0x44,0xe5,0x19,0xbe,0x30,0x99,0x1b,0x3d,0xff,0x43,0xd8,0x3d,0xc0,0xe7,0x50,0x3c,0xc4,0x39,0x2f,0xbe,0xcc,0xd9,0xfa,0x3d,0xbc,0xd6,0x26,0xbe,0x60,0x3c,0xdf,0xbc,0xb5,0x72,0xd9,0x3d,0x5b,0xc4,0x56,0xbe,0xec,0x12,0x6d,0xbe,0x3c,0x79,0x76,0xbe,0x59,0x8f,0xf5,0xbf,0x2a,0x21,0x6c,0x3e,0x61,0x22,0x07,0x3e,0xb5,0xf8,0x5c,0xbe,0x93,0x11,0x32,0xbf,0xa7,0x0c,0x30,0x3e,0x90,0x6f,0x5f,0xbf,0x20,0x2f,0x99,0x3e,0x90,0x10,0x4d,0xbd,0xcf,0x1e,0x8d,0xbd,0x01,0x2d,0xc9,0x3e,0x3c,0xd2,0x1d,0xbe,0x87,0x02,0x19,0xbe,0x3a,0x94,0x99,0x3e,0xeb,0x23,0xde,0x3e,0x46,0x44,0xcc,0x3c,0x3a,0xea,0x96,0x3e,0x53,0xab,0xe2,0x3d,0x53,0x66,0x34,0xbf,0xbc,0xce,0xdd,0xbe,0xb0,0x2e,0x09,0x3f,0x53,0xca,0x5f,0xbe,0xc7,0xe4,0x68,0x3e,0x60,0x9a,0xb8,0x3d,0x33,0x3b,0x65,0x39,0x02,0xfd,0xda,0x3e,0x5f,0x7d,0xa1,0xbe,0xa6,0xa2,0x1c,0xbe,0x8f,0x58,0x85,0x3e,0xef,0x2a,0xba,0x3d,0x2b,0x39,0xa2,0x3e,0x62,0xac,0xfe,0xbc,0x94,0x7a,0xf7,0x3e,0x77,0x4f,0x2f,0xbf,0x05,0xe2,0x20,0x3e,0xfe,0x18,0x24,0x3e,0xdb,0xe0,0x1e,0x3e,0xf6,0xf2,0x3a,0xbe,0xaf,0xbd,0x8a,0x3f,0x9f,0x27,0x63,0xbe,0x20,0x67,0xdf,0xbe,0x91,0x3c,0x85,0xbf,0xba,0xcf,0x72,0xc0,0xcb,0x83,0x91,0xbe,0x5d,0x43,0x56,0xbe,0x32,0xef,0x9c,0xbd,0x62,0xea,0xb3,0xbf,0xf2,0x2e,0x00,0x3e,0x64,0x5a,0x4b,0xbe,0x72,0xd5,0xef,0xbd,0x96,0xfb,0xcc,0x3e,0x67,0xef,0x65,0x3e,0xd4,0x62,0x25,0x3e,0x2c,0x06,0x5d,0x3e,0xae,0x5d,0x41,0xbe,0xac,0xd9,0xd1,0xbd,0x3c,0x5e,0xa3,0xbc,0x5d,0x95,0xb6,0xbe,0x46,0xf9,0x89,0xbd,0x99,0x0c,0x21,0x3e,0x2f,0x6a,0x2d,0xbf,0x22,0xa5,0x3a,0xbf,0x4b,0x41,0xbe,0x3d,0x92,0x28,0x26,0xbe,0x69,0x82,0x90,0xbe,0x23,0x9d,0x68,0x3c,0xb8,0x1c,0x25,0xbd,0x09,0x35,0xc5,0x3d,0x1e,0xc5,0x73,0xbd,0xd6,0x24,0x74,0x3d,0xaa,0x5f,0x71,0xbd,0x81,0xac,0x0a,0xbd,0x4b,0x5c,0xba,0x3c,0x48,0xe0,0xdf,0x3d,0x98,0x3f,0xa2,0xbd,0x5b,0xa9,0x7e,0x3b,0x80,0x78,0x5a,0xbe,0x13,0x05,0xc8,0x3d,0xa6,0xed,0xfa,0x3d,0xab,0x46,0x2c,0x3d,0x9c,0x34,0x59,0xbe,0x52,0x43,0x67,0xbe,0xb2,0x5b,0xfd,0xbd,0xf4,0xc0,0xa6,0xbd,0x72,0x17,0x18,0xbe,0x69,0x80,0x1b,0x3e,0xee,0x74,0xfc,0x3d,0x73,0x20,0x1f,0xbb,0x8e,0xcb,0x88,0xbe,0xe0,0x0f,0x8f,0xbe,0x40,0xab,0x88,0xbe,0x57,0x8a,0x82,0x3d,0xac,0x49,0x4b,0xbc,0xc2,0x33,0x15,0x3d,0xa7,0xc8,0x88,0xbe,0x97,0x59,0x97,0xbd,0xe4,0x37,0x09,0x3d,0x71,0xe6,0x81,0xbe,0xf4,0x41,0x0a,0xbe,0xf5,0xad,0x1c,0x3e,0xd0,0x7a,0x35,0xbe,0xb4,0xee,0xa2,0xbd,0x37,0xdf,0x2f,0xbd,0x54,0x8f,0x70,0xbe,0xe7,0xdf,0x3b,0x3e,0xdc,0x2b,0x65,0xbe,0xff,0xb1,0xdf,0x3d,0x6e,0x11,0x64,0x3e,0xf2,0xf3,0x0a,0xbe,0x5f,0x59,0x2b,0x3e,0x3f,0x54,0x4e,0x3e,0x02,0x45,0x2b,0xbe,0xab,0xb0,0x83,0xbd,0x5b,0x66,0x64,0x3c,0xe2,0x77,0x1e,0x3e,0x3b,0xf4,0x8a,0xbe,0xbe,0xda,0x69,0xbe,0x10,0x3b,0xc9,0xbd,0x20,0x9b,0xba,0x3d,0xa8,0xca,0xa5,0x3d,0x0c,0x79,0xb7,0x3d,0x5c,0xf3,0xac,0x3d,0x16,0x67,0x9a,0x3d,0x91,0x85,0x34,0xbd,0x2d,0x7a,0x6a,0xbb,0x39,0x65,0x92,0x3d,0x73,0xde,0xfa,0xbd,0xda,0x5b,0x83,0x3c,0xa5,0xf0,0x73,0x3e,0x83,0x19,0xeb,0x3e,0x12,0xe1,0x5f,0x3d,0xe3,0xf8,0xac,0x3d,0x80,0x3e,0x66,0xbd,0xbf,0xc8,0xac,0xbd,0x9c,0x7b,0x1c,0xc0,0xf8,0x63,0x0f,0xbe,0x14,0x07,0xae,0x3d,0xd7,0xc5,0xec,0x3d,0xf1,0x31,0xbe,0x3e,0x5a,0xcc,0x07,0xbf,0x6e,0x91,0xc3,0x3e,0x55,0xc3,0x72,0x3e,0xda,0xc9,0xd9,0xbe,0x24,0xdc,0x0b,0xbe,0x0d,0x8a,0x5e,0x3e,0xa6,0xe0,0x1e,0xbe,0xfc,0x3f,0x5f,0xbe,0x1f,0xbb,0xef,0xbe,0x2e,0x0d,0x88,0xbe,0x90,0xc8,0xd3,0x3d,0xdb,0x97,0xd0,0x3d,0x99,0x22,0x3b,0x3d,0x3b,0x3c,0x74,0xbe,0xe9,0xd4,0x27,0x3f,0x9c,0x98,0x34,0xbe,0x39,0x09,0xe3,0xbe,0xb8,0xdb,0xf2,0x3e,0x56,0x81,0xe7,0x3e,0x6e,0xc4,0xaa,0xbd,0x6c,0xf3,0xde,0x3d,0x79,0x41,0x07,0x3f,0xd0,0x96,0x1f,0xbe,0x4b,0xf6,0x06,0x3e,0xe5,0xe1,0x48,0x3e,0x3d,0x88,0x35,0xbf,0x98,0x16,0x0d,0xbd,0x52,0xdc,0xa4,0xbc,0xca,0x87,0x2d,0xbe,0xce,0x82,0xa0,0xbd,0xc4,0xc8,0xaa,0xbf,0x9a,0x56,0x4c,0xbe,0x03,0xc1,0xa3,0xbe,0xdb,0x1d,0x77,0xbe,0xbe,0x0a,0xed,0x3c,0xf7,0x77,0x17,0xc0,0x4e,0x7c,0x5b,0xbe,0x0e,0xdf,0x8e,0x3d,0xc9,0x91,0x30,0x3e,0x9d,0xeb,0x27,0x3d,0x9c,0x10,0xf6,0x3d,0x04,0x9b,0x84,0x3e,0xe1,0x29,0x7c,0x3e,0xe9,0xad,0xb2,0xbe,0x85,0x56,0x16,0x3e,0x78,0x94,0x70,0x3b,0x4f,0x13,0x70,0xbc,0x94,0x86,0x8f,0xbe,0xfb,0x6d,0x9f,0xbe,0x2d,0xf5,0x83,0xbd,0xcc,0xd1,0xc7,0xbc,0xde,0x6c,0x0b,0x3e,0x02,0xc8,0xb8,0x3e,0xad,0xc4,0xd4,0x3e,0x44,0x3e,0x02,0xbf,0x1b,0xf9,0x24,0xbc,0x06,0x5f,0xd5,0x3e,0xa3,0xbc,0x42,0xbb,0x48,0x92,0xe0,0x3e,0x01,0xbd,0x95,0x3e,0x70,0xe3,0x03,0x3f,0x2d,0xe2,0xb9,0xbd,0xc8,0x55,0x82,0x3d,0x24,0x75,0xdb,0xbe,0xbd,0x52,0x22,0x3f,0x96,0x5c,0xd3,0x3e,0x29,0x50,0xb1,0x3d,0x75,0x19,0x6a,0x3e,0x0c,0x1c,0x5d,0x3c,0xa9,0x06,0x7b,0x3e,0xe0,0x92,0xac,0x3e,0x9c,0xf2,0x75,0x3d,0x96,0xc4,0xc0,0x3e,0xbc,0x84,0xef,0xbe,0x38,0xcd,0x06,0xbe,0xfe,0x0d,0x2e,0x3f,0x7e,0xa1,0xfb,0x3e,0xac,0x0d,0xa9,0x3e,0x60,0xb7,0x2e,0x3c,0xa4,0xed,0xc3,0x3a,0x91,0xa6,0x99,0x3e,0x24,0xdc,0x30,0xbe,0xfd,0xc1,0x4c,0xbe,0x14,0x7c,0xa0,0xbe,0x56,0xf8,0xa4,0x3d,0xd0,0x0c,0x4b,0xbb,0x40,0x96,0xa4,0x3e,0xb5,0xbb,0xa8,0xbf,0x16,0x6f,0x30,0x3e,0xc3,0xa2,0x08,0x3f,0x41,0x49,0x74,0xbf,0xe8,0x61,0x32,0xbe,0x29,0x8c,0x39,0x3e,0x9d,0x90,0xe9,0xbf,0xb0,0xdb,0x23,0x3f,0x51,0x85,0x2d,0x3e,0xac,0x4e,0x2a,0x3e,0xf1,0xcb,0x8a,0xbe,0x81,0x4e,0x64,0xbd,0x87,0x55,0x2d,0x40,0xb9,0xe1,0x1c,0x3e,0x6a,0xa8,0x9d,0xbe,0xaf,0x39,0x9a,0xbf,0xd2,0x45,0x65,0xc1,0xeb,0x9a,0xc2,0x3f,0x99,0x93,0x9f,0x3d,0x81,0x43,0x70,0xbf,0x24,0xb1,0x6a,0xbf,0x04,0xa3,0xa4,0xbf,0x95,0x9b,0x64,0xbf,0x54,0xae,0x8f,0x3e,0x60,0xce,0x59,0x3f,0x69,0x10,0x06,0x3f,0xec,0x5c,0x0d,0x3e,0xe1,0x6d,0x81,0x3d,0x41,0x19,0x77,0x3e,0xc1,0xd4,0xa2,0x3e,0x6b,0x74,0x27,0xbd,0x2c,0x5b,0x28,0x3d,0xe6,0x1e,0x8f,0x3e,0xd1,0x0d,0x68,0xbd,0xb5,0xe1,0xc5,0xbd,0xaa,0xd7,0x84,0x3e,0x73,0x89,0x8e,0x3e,0x0f,0x48,0xb7,0x3d,0x58,0x69,0x14,0x3e,0x85,0xd3,0xfb,0x3c,0x4f,0x2f,0xe5,0xbe,0xad,0x39,0xb2,0x3e,0x84,0x50,0xbb,0xbd,0x9b,0xae,0x10,0x3e,0x6d,0xfd,0x2e,0x3e,0x94,0x0f,0x2e,0xbd,0x15,0x55,0x90,0x3d,0x90,0xe3,0xcd,0x3e,0xc5,0x78,0xd7,0x3d,0x24,0xa6,0x8a,0x3e,0x8e,0x58,0x1c,0xbf,0x5d,0xf5,0x81,0x3e,0x9f,0x27,0x89,0x3e,0x55,0x59,0x46,0x3c,0xec,0xcf,0xbe,0x3e,0x14,0x7d,0x1f,0xbe,0x9f,0xcd,0x28,0xbe,0x3f,0xf7,0x9e,0x3e,0xc8,0xbb,0x08,0xbe,0x7b,0x51,0xcf,0xbe,0xcd,0x16,0x26,0x3e,0xd7,0xaa,0xb9,0x3e,0xe5,0xbd,0xad,0x3d,0x7c,0x9e,0x98,0xbe,0xfc,0x19,0xee,0xbd,0x1c,0xcd,0x48,0x3e,0x52,0xac,0x0d,0x3f,0xae,0x75,0x84,0xbe,0x89,0x1e,0xa3,0x3e,0x4a,0x80,0x97,0xbe,0xd5,0x45,0x02,0xbe,0x29,0x1c,0x1e,0x3f,0x58,0x4e,0x23,0xbe,0x32,0xf5,0x91,0x3d,0x81,0xa9,0xf6,0x3d,0x54,0x70,0xa9,0x3e,0x1d,0xce,0x13,0x40,0x4d,0x6b,0x07,0x3f,0x47,0xe4,0xb2,0x3e,0xa4,0x2c,0x13,0xbd,0x64,0x83,0x36,0x3e,0x22,0x1b,0xa9,0x3e,0x04,0x29,0x96,0xbd,0xda,0xa3,0x4e,0xbe,0xa6,0xaa,0x07,0xbe,0x38,0x3a,0x86,0xbe,0xd4,0xed,0x37,0xbe,0xcf,0xec,0x53,0xbe,0x30,0xb7,0x36,0x3e,0x54,0xb8,0xb5,0x3e,0x56,0x15,0xc6,0xbd,0xe2,0x22,0xd5,0xbd,0x90,0x17,0x87,0xbe,0x05,0xf5,0xd9,0x3e,0xd4,0x13,0x93,0x3f,0xbc,0xd5,0xc7,0xbe,0x4f,0xfa,0x21,0x3f,0xdd,0x72,0x17,0x3f,0x4a,0xb2,0xa9,0x3d,0xb4,0x7e,0x01,0x3e,0xe3,0x1d,0x13,0x3e,0xda,0xa7,0xd1,0xbd,0xe9,0x7e,0x8b,0x3e,0x1c,0xfe,0xfc,0x3e,0x5d,0xff,0xb6,0xbe,0x37,0x13,0x66,0x3e,0xcf,0xd6,0x28,0xbc,0x77,0x6e,0x91,0x3e,0xa0,0x60,0xc4,0x3e,0xa5,0xaf,0x99,0x3e,0x08,0x3c,0x16,0x3e,0xbe,0x86,0xe0,0x3e,0xe9,0xf7,0x71,0x3f,0xdf,0xce,0x22,0xbe,0x8c,0xb0,0x9b,0x3f,0x75,0x40,0x89,0x3e,0xdf,0x21,0xac,0xbe,0xbe,0x1c,0x3c,0x3e,0x23,0xa9,0xa8,0xbb,0xda,0x8c,0x67,0xbc,0xab,0x5a,0x99,0xbd,0xb0,0x66,0x4f,0xbe,0xe9,0x58,0x91,0xbe,0xe7,0x2f,0xed,0xbe,0x2d,0xeb,0xfd,0xbe,0xbb,0xeb,0x70,0x3e,0xe5,0x8b,0x47,0xbd,0x21,0x74,0x59,0xbc,0x26,0x3a,0x00,0xbe,0x1e,0x27,0x2e,0x3d,0x27,0x3b,0x0a,0x3f,0xc3,0x5c,0xda,0xbd,0xf8,0x8a,0x72,0xbe,0xed,0xc1,0x01,0x3e,0x6d,0x89,0x5a,0x3e,0x0f,0xf4,0xa7,0x3f,0x8c,0xce,0xd7,0xbc,0x10,0x96,0x03,0x3f,0x70,0x82,0xec,0xbb,0x8f,0xdf,0xf8,0x3d,0x5c,0xc5,0x37,0x40,0xc1,0x84,0xa8,0xbd,0x3d,0xe0,0x12,0xbe,0x9a,0x4b,0x31,0x3e,0x3e,0x43,0x1e,0x3f,0xac,0x54,0xc6,0xbb,0x9e,0x45,0x80,0xbf,0x89,0x10,0x48,0xbe,0x27,0x95,0x65,0x3e,0x31,0xb6,0x66,0xbe,0x0c,0x5a,0x08,0x3e,0x63,0xe7,0x98,0x3e,0x18,0x57,0x15,0x3e,0x71,0x66,0x3a,0xbe,0xa4,0x5d,0x44,0xbe,0x6b,0x95,0x5f,0xbe,0x5a,0xfd,0xff,0xff,0x04,0x00,0x00,0x00,0x00,0x01,0x00,0x00,0x53,0x3e,0x3d,0xbe,0x93,0x9c,0x27,0xbf,0xf4,0xba,0xd0,0xbe,0x72,0x1d,0x25,0x3e,0x15,0x61,0xb1,0xbe,0xe1,0x3d,0x1a,0x3e,0xcf,0x63,0x6f,0x3e,0x80,0x7b,0x69,0xbe,0xaf,0xc3,0xa8,0xbe,0xe4,0x2d,0x23,0x3e,0xf4,0x3e,0xd9,0x3e,0x63,0x31,0xc0,0x3e,0x88,0x30,0xee,0xbd,0x9e,0xef,0x1b,0xbe,0x87,0xca,0xc0,0xbe,0x8d,0xc0,0xb5,0xbd,0x82,0xdd,0x83,0x3e,0xc4,0x80,0x08,0x3f,0x51,0x04,0x26,0xbd,0xbe,0x60,0xb4,0x3e,0xa2,0xc9,0xab,0xbe,0x0e,0x92,0x1d,0xbe,0x6b,0xb7,0xf3,0x3e,0x9f,0xfb,0xe5,0x3d,0xec,0x58,0x02,0xbe,0xa9,0x47,0x63,0x3e,0x4f,0x3a,0xe9,0x3f,0xcb,0x2a,0xce,0x3e,0x98,0x0e,0x13,0xbe,0xb4,0xa5,0xd4,0x3c,0x94,0x9c,0x28,0x3e,0x09,0xaf,0x85,0xbe,0x67,0xf0,0x32,0xbf,0xea,0xc7,0xb1,0x3d,0x55,0xb5,0xd0,0x3f,0x8f,0x78,0xb9,0x3f,0xe5,0xde,0xfd,0xbf,0x93,0xc3,0x96,0xbe,0x7e,0x11,0x94,0x3f,0x90,0x78,0x66,0x3f,0x0e,0x70,0xdd,0x3d,0x0a,0x1d,0x16,0xc0,0xd5,0xb9,0x41,0x3f,0x99,0xd4,0x72,0x3f,0x57,0x01,0x39,0x3f,0xba,0x7f,0x22,0xbf,0x6c,0x79,0x77,0x3f,0x24,0x39,0x85,0x3f,0x19,0xaa,0xbf,0xbe,0x26,0x03,0x53,0xbf,0xbb,0x1f,0xd6,0xbe,0x10,0x3a,0x71,0x3f,0xb2,0x66,0x87,0x40,0x4b,0xcc,0x90,0xbe,0xfa,0x8f,0xb3,0x3e,0x4c,0xf5,0xc5,0xbe,0xdc,0x4f,0x8e,0xbe,0x64,0x1c,0x68,0x3e,0xeb,0x80,0xa4,0x3f,0x06,0x62,0xa9,0x3e,0xd8,0xfd,0x90,0xbf,0xf1,0xd2,0xa6,0x3f,0x25,0x3b,0xe8,0x3e,0x5f,0x6a,0x08,0x40,0x66,0xfe,0xff,0xff,0x04,0x00,0x00,0x00,0x80,0x00,0x00,0x00,0x00,0x00,0x00,0x00,0x00,0x00,0x00,0x00,0x00,0x00,0x00,0x00,0x00,0x00,0x00,0x00,0x00,0x00,0x00,0x00,0x00,0x00,0x00,0x00,0x00,0x00,0x00,0x00,0x00,0x00,0x00,0x00,0x00,0x00,0x00,0x00,0x00,0x00,0x00,0x00,0x00,0x00,0x00,0x00,0x00,0x00,0x00,0x00,0x00,0x00,0x00,0x00,0x00,0x00,0x00,0x00,0x00,0x00,0x00,0x00,0x00,0x00,0x00,0x00,0x00,0x00,0x00,0x00,0x00,0x00,0x00,0x00,0x00,0x00,0x00,0x00,0x00,0x00,0x00,0x00,0x00,0x00,0x00,0x00,0x00,0x00,0x00,0x00,0x00,0x00,0x00,0x00,0x00,0x00,0x00,0x00,0x00,0x00,0x00,0x00,0x00,0x00,0x00,0x00,0x00,0x00,0x00,0x00,0x00,0x00,0x00,0x00,0x00,0x00,0x00,0x00,0x00,0x00,0x00,0x00,0x00,0x00,0x00,0x00,0x00,0x00,0x00,0x00,0xf2,0xfe,0xff,0xff,0x04,0x00,0x00,0x00,0x00,0x01,0x00,0x00,0x99,0x50,0x11,0x3f,0xcb,0xbc,0x1c,0xbf,0xc0,0xc1,0xcf,0xbe,0xd0,0x89,0xaf,0xbe,0xcb,0xdb,0xf7,0x3e,0x05,0xaf,0x3a,0xbe,0x6d,0x8e,0x83,0xbe,0x7f,0x9b,0x99,0x3e,0xcd,0x35,0x47,0x3e,0x16,0x00,0x87,0x3a,0x38,0x4c,0x94,0xbe,0x57,0xb4,0xce,0xbe,0x6c,0xab,0x36,0xbf,0x3b,0xf8,0x2c,0x3e,0x60,0xca,0xf3,0x3d,0xc6,0xf3,0x64,0x3e,0xf6,0x9f,0x1c,0x3f,0x58,0x4a,0x1d,0xbf,0x13,0xa6,0x15,0xbc,0xdb,0x57,0x82,0x3b,0xe1,0xc0,0xf0,0x3d,0xc0,0x43,0x6d,0x3e,0x67,0x06,0x26,0xbf,0x36,0x00,0x49,0x3e,0xfd,0x71,0xd2,0xbe,0x80,0xe3,0xba,0x3e,0x1d,0x52,0xd5,0xbe,0xf7,0x26,0x5e,0xbe,0xe7,0xc2,0x9d,0x3e,0x2b,0xed,0x55,0xbf,0xa7,0x5d,0xd2,0xbe,0x09,0x77,0xdb,0xbe,0x83,0xc7,0x1f,0xbf,0xcd,0xf4,0xd8,0x3d,0xc5,0x05,0x8f,0xbe,0x89,0x38,0xdb,0xbe,0x98,0x2e,0xcc,0xbc,0xe9,0x43,0x1b,0xbf,0xc0,0xb5,0x0a,0x3e,0xda,0x9a,0xe9,0x3d,0xd9,0x49,0xcb,0x3e,0xa2,0x3b,0x15,0xbe,0x92,0x72,0xc0,0x3e,0xba,0x82,0x90,0xbd,0xfd,0x05,0xc1,0x3e,0x12,0xfe,0x89,0xbd,0xe6,0xf0,0x9a,0x3c,0xd7,0x5b,0x5d,0xbc,0x27,0x9b,0x35,0xbe,0x72,0x2d,0x19,0x3f,0xe3,0x95,0x8c,0x3e,0x37,0x74,0x89,0x3e,0x06,0xcb,0xbc,0xbb,0xd2,0xba,0xef,0x3d,0xf5,0xb4,0xeb,0xbe,0x3d,0xdf,0xb8,0x3e,0x57,0xf6,0x83,0x3e,0x25,0xd9,0x22,0xbe,0xc6,0x0a,0x8b,0x3e,0x32,0x14,0xe4,0xbc,0xf2,0xa9,0x9d,0xbe,0xf6,0x4e,0xa5,0x3e,0x0a,0xcc,0xa7,0xbe,0x23,0x8a,0xaf,0x3e,0x00,0x00,0x06,0x00,0x08,0x00,0x04,0x00,0x06,0x00,0x00,0x00,0x04,0x00,0x00,0x00,0x0c,0x00,0x00,0x00,0xff,0xff,0xff,0xff,0x02,0x00,0x00,0x00,0x20,0x00,0x00,0x00,0x38,0xf7,0xff,0xff,0x3c,0xf7,0xff,0xff,0x0f,0x00,0x00,0x00,0x4d,0x4c,0x49,0x52,0x20,0x43,0x6f,0x6e,0x76,0x65,0x72,0x74,0x65,0x64,0x2e,0x00,0x01,0x00,0x00,0x00,0x14,0x00,0x00,0x00,0x00,0x00,0x0e,0x00,0x18,0x00,0x14,0x00,0x10,0x00,0x0c,0x00,0x08,0x00,0x04,0x00,0x0e,0x00,0x00,0x00,0x14,0x00,0x00,0x00,0x1c,0x00,0x00,0x00,0xcc,0x01,0x00,0x00,0xd0,0x01,0x00,0x00,0xd4,0x01,0x00,0x00,0x04,0x00,0x00,0x00,0x6d,0x61,0x69,0x6e,0x00,0x00,0x00,0x00,0x07,0x00,0x00,0x00,0x84,0x01,0x00,0x00,0x24,0x01,0x00,0x00,0xec,0x00,0x00,0x00,0xa0,0x00,0x00,0x00,0x78,0x00,0x00,0x00,0x3c,0x00,0x00,0x00,0x04,0x00,0x00,0x00,0x02,0xff,0xff,0xff,0x14,0x00,0x00,0x00,0x00,0x00,0x00,0x08,0x10,0x00,0x00,0x00,0x14,0x00,0x00,0x00,0x04,0x00,0x00,0x00,0xc8,0xf7,0xff,0xff,0x01,0x00,0x00,0x00,0x11,0x00,0x00,0x00,0x03,0x00,0x00,0x00,0x10,0x00,0x00,0x00,0x04,0x00,0x00,0x00,0x08,0x00,0x00,0x00,0x36,0xff,0xff,0xff,0x14,0x00,0x00,0x00,0x00,0x00,0x00,0x08,0x14,0x00,0x00,0x00,0x18,0x00,0x00,0x00,0x04,0x00,0x00,0x00,0xa2,0xff,0xff,0xff,0x00,0x00,0x00,0x01,0x01,0x00,0x00,0x00,0x10,0x00,0x00,0x00,0x03,0x00,0x00,0x00,0x0f,0x00,0x00,0x00,0x05,0x00,0x00,0x00,0x07,0x00,0x00,0x00,0x9e,0xff,0xff,0xff,0x0c,0x00,0x00,0x00,0x10,0x00,0x00,0x00,0x02,0x00,0x00,0x00,0x01,0x00,0x00,0x00,0x0f,0x00,0x00,0x00,0x02,0x00,0x00,0x00,0x0e,0x00,0x00,0x00,0x09,0x00,0x00,0x00,0x92,0xff,0xff,0xff,0x1c,0x00,0x00,0x00,0x00,0x00,0x00,0x0b,0x1c,0x00,0x00,0x00,0x20,0x00,0x00,0x00,0x03,0x00,0x00,0x00,0x00,0x00,0x06,0x00,0x08,0x00,0x07,0x00,0x06,0x00,0x00,0x00,0x00,0x00,0x00,0x01,0x01,0x00,0x00,0x00,0x0e,0x00,0x00,0x00,0x02,0x00,0x00,0x00,0x0d,0x00,0x00,0x00,0x06,0x00,0x00,0x00,0x00,0x00,0x0a,0x00,0x10,0x00,0x0c,0x00,0x08,0x00,0x04,0x00,0x0a,0x00,0x00,0x00,0x0c,0x00,0x00,0x00,0x10,0x00,0x00,0x00,0x02,0x00,0x00,0x00,0x01,0x00,0x00,0x00,0x0d,0x00,0x00,0x00,0x02,0x00,0x00,0x00,0x0c,0x00,0x00,0x00,0x01,0x00,0x00,0x00,0x00,0x00,0x0e,0x00,0x1a,0x00,0x14,0x00,0x10,0x00,0x0c,0x00,0x0b,0x00,0x04,0x00,0x0e,0x00,0x00,0x00,0x20,0x00,0x00,0x00,0x00,0x00,0x00,0x01,0x28,0x00,0x00,0x00,0x2c,0x00,0x00,0x00,0x01,0x00,0x00,0x00,0x00,0x00,0x0a,0x00,0x10,0x00,0x0f,0x00,0x08,0x00,0x04,0x00,0x0a,0x00,0x00,0x00,0x01,0x00,0x00,0x00,0x01,0x00,0x00,0x00,0x00,0x00,0x00,0x01,0x01,0x00,0x00,0x00,0x0c,0x00,0x00,0x00,0x03,0x00,0x00,0x00,0x0b,0x00,0x00,0x00,0x02,0x00,0x00,0x00,0x03,0x00,0x00,0x00,0x00,0x00,0x0e,0x00,0x14,0x00,0x00,0x00,0x10,0x00,0x0c,0x00,0x0b,0x00,0x04,0x00,0x0e,0x00,0x00,0x00,0x10,0x00,0x00,0x00,0x00,0x00,0x00,0x34,0x0c,0x00,0x00,0x00,0x10,0x00,0x00,0x00,0x2c,0xf9,0xff,0xff,0x01,0x00,0x00,0x00,0x0b,0x00,0x00,0x00,0x02,0x00,0x00,0x00,0x00,0x00,0x00,0x00,0x0a,0x00,0x00,0x00,0x01,0x00,0x00,0x00,0x11,0x00,0x00,0x00,0x01,0x00,0x00,0x00,0x00,0x00,0x00,0x00,0x12,0x00,0x00,0x00,0x20,0x06,0x00,0x00,0xc8,0x05,0x00,0x00,0x68,0x05,0x00,0x00,0x14,0x05,0x00,0x00,0xd4,0x04,0x00,0x00,0x94,0x04,0x00,0x00,0x50,0x04,0x00,0x00,0x14,0x04,0x00,0x00,0xd8,0x03,0x00,0x00,0x98,0x03,0x00,0x00,0x38,0x03,0x00,0x00,0xb8,0x02,0x00,0x00,0x44,0x02,0x00,0x00,0xd0,0x01,0x00,0x00,0x50,0x01,0x00,0x00,0xf0,0x00,0x00,0x00,0x60,0x00,0x00,0x00,0x04,0x00,0x00,0x00,0x3e,0xfa,0xff,0xff,0x00,0x00,0x00,0x01,0x14,0x00,0x00,0x00,0x1c,0x00,0x00,0x00,0x1c,0x00,0x00,0x00,0x12,0x00,0x00,0x00,0x34,0x00,0x00,0x00,0x02,0x00,0x00,0x00,0xff,0xff,0xff,0xff,0x02,0x00,0x00,0x00,0xc8,0xf9,0xff,0xff,0x1b,0x00,0x00,0x00,0x53,0x74,0x61,0x74,0x65,0x66,0x75,0x6c,0x50,0x61,0x72,0x74,0x69,0x74,0x69,0x6f,0x6e,0x65,0x64,0x43,0x61,0x6c,0x6c,0x5f,0x31,0x3a,0x30,0x00,0x02,0x00,0x00,0x00,0x01,0x00,0x00,0x00,0x02,0x00,0x00,0x00,0x96,0xfa,0xff,0xff,0x00,0x00,0x00,0x01,0x14,0x00,0x00,0x00,0x1c,0x00,0x00,0x00,0x1c,0x00,0x00,0x00,0x11,0x00,0x00,0x00,0x68,0x00,0x00,0x00,0x02,0x00,0x00,0x00,0xff,0xff,0xff,0xff,0x20,0x00,0x00,0x00,0x20,0xfa,0xff,0xff,0x4e,0x00,0x00,0x00,0x73,0x65,0x71,0x75,0x65,0x6e,0x74,0x69,0x61,0x6c,0x5f,0x31,0x2f,0x64,0x65,0x6e,0x73,0x65,0x5f,0x31,0x2f,0x4d,0x61,0x74,0x4d,0x75,0x6c,0x3b,0x73,0x65,0x71,0x75,0x65,0x6e,0x74,0x69,0x61,0x6c,0x5f,0x31,0x2f,0x64,0x65,0x6e,0x73,0x65,0x5f,0x31,0x2f,0x52,0x65,0x6c,0x75,0x3b,0x73,0x65,0x71,0x75,0x65,0x6e,0x74,0x69,0x61,0x6c,0x5f,0x31,0x2f,0x64,0x65,0x6e,0x73,0x65,0x5f,0x31,0x2f,0x41,0x64,0x64,0x00,0x00,0x02,0x00,0x00,0x00,0x01,0x00,0x00,0x00,0x20,0x00,0x00,0x00,0x22,0xfb,0xff,0xff,0x00,0x00,0x00,0x01,0x14,0x00,0x00,0x00,0x1c,0x00,0x00,0x00,0x1c,0x00,0x00,0x00,0x10,0x00,0x00,0x00,0x38,0x00,0x00,0x00,0x02,0x00,0x00,0x00,0xff,0xff,0xff,0xff,0x40,0x00,0x00,0x00,0xac,0xfa,0xff,0xff,0x1e,0x00,0x00,0x00,0x73,0x65,0x71,0x75,0x65,0x6e,0x74,0x69,0x61,0x6c,0x5f,0x31,0x2f,0x66,0x6c,0x61,0x74,0x74,0x65,0x6e,0x5f,0x31,0x2f,0x52,0x65,0x73,0x68,0x61,0x70,0x65,0x00,0x00,0x02,0x00,0x00,0x00,0x01,0x00,0x00,0x00,0x40,0x00,0x00,0x00,0x7e,0xfb,0xff,0xff,0x00,0x00,0x00,0x01,0x14,0x00,0x00,0x00,0x20,0x00,0x00,0x00,0x20,0x00,0x00,0x00,0x0f,0x00,0x00,0x00,0x54,0x00,0x00,0x00,0x03,0x00,0x00,0x00,0xff,0xff,0xff,0xff,0x02,0x00,0x00,0x00,0x20,0x00,0x00,0x00,0x0c,0xfb,0xff,0xff,0x34,0x00,0x00,0x00,0x73,0x65,0x71,0x75,0x65,0x6e,0x74,0x69,0x61,0x6c,0x5f,0x31,0x2f,0x63,0x6f,0x6e,0x76,0x31,0x64,0x5f,0x31,0x2f,0x52,0x65,0x6c,0x75,0x3b,0x73,0x65,0x71,0x75,0x65,0x6e,0x74,0x69,0x61,0x6c,0x5f,0x31,0x2f,0x63,0x6f,0x6e,0x76,0x31,0x64,0x5f,0x31,0x2f,0x61,0x64,0x64,0x00,0x00,0x00,0x00,0x03,0x00,0x00,0x00,0x01,0x00,0x00,0x00,0x02,0x00,0x00,0x00,0x20,0x00,0x00,0x00,0xfa,0xfb,0xff,0xff,0x00,0x00,0x00,0x01,0x14,0x00,0x00,0x00,0x20,0x00,0x00,0x00,0x20,0x00,0x00,0x00,0x0e,0x00,0x00,0x00,0x48,0x00,0x00,0x00,0x03,0x00,0x00,0x00,0xff,0xff,0xff,0xff,0x02,0x00,0x00,0x00,0x20,0x00,0x00,0x00,0x88,0xfb,0xff,0xff,0x29,0x00,0x00,0x00,0x73,0x65,0x71,0x75,0x65,0x6e,0x74,0x69,0x61,0x6c,0x5f,0x31,0x2f,0x63,0x6f,0x6e,0x76,0x31,0x64,0x5f,0x31,0x2f,0x63,0x6f,0x6e,0x76,0x6f,0x6c,0x75,0x74,0x69,0x6f,0x6e,0x2f,0x53,0x71,0x75,0x65,0x65,0x7a,0x65,0x00,0x00,0x00,0x03,0x00,0x00,0x00,0x01,0x00,0x00,0x00,0x02,0x00,0x00,0x00,0x20,0x00,0x00,0x00,0x6a,0xfc,0xff,0xff,0x00,0x00,0x00,0x01,0x14,0x00,0x00,0x00,0x24,0x00,0x00,0x00,0x24,0x00,0x00,0x00,0x0d,0x00,0x00,0x00,0x44,0x00,0x00,0x00,0x04,0x00,0x00,0x00,0xff,0xff,0xff,0xff,0x01,0x00,0x00,0x00,0x02,0x00,0x00,0x00,0x20,0x00,0x00,0x00,0xfc,0xfb,0xff,0xff,0x21,0x00,0x00,0x00,0x73,0x65,0x71,0x75,0x65,0x6e,0x74,0x69,0x61,0x6c,0x5f,0x31,0x2f,0x63,0x6f,0x6e,0x76,0x31,0x64,0x5f,0x31,0x2f,0x63,0x6f,0x6e,0x76,0x6f,0x6c,0x75,0x74,0x69,0x6f,0x6e,0x00,0x00,0x00,0x04,0x00,0x00,0x00,0x01,0x00,0x00,0x00,0x01,0x00,0x00,0x00,0x02,0x00,0x00,0x00,0x20,0x00,0x00,0x00,0xda,0xfc,0xff,0xff,0x00,0x00,0x00,0x01,0x14,0x00,0x00,0x00,0x24,0x00,0x00,0x00,0x24,0x00,0x00,0x00,0x0c,0x00,0x00,0x00,0x50,0x00,0x00,0x00,0x04,0x00,0x00,0x00,0xff,0xff,0xff,0xff,0x01,0x00,0x00,0x00,0x03,0x00,0x00,0x00,0x01,0x00,0x00,0x00,0x6c,0xfc,0xff,0xff,0x2c,0x00,0x00,0x00,0x73,0x65,0x71,0x75,0x65,0x6e,0x74,0x69,0x61,0x6c,0x5f,0x31,0x2f,0x63,0x6f,0x6e,0x76,0x31,0x64,0x5f,0x31,0x2f,0x63,0x6f,0x6e,0x76,0x6f,0x6c,0x75,0x74,0x69,0x6f,0x6e,0x2f,0x45,0x78,0x70,0x61,0x6e,0x64,0x44,0x69,0x6d,0x73,0x00,0x00,0x00,0x00,0x04,0x00,0x00,0x00,0x01,0x00,0x00,0x00,0x01,0x00,0x00,0x00,0x03,0x00,0x00,0x00,0x01,0x00,0x00,0x00,0xaa,0xfd,0xff,0xff,0x00,0x00,0x00,0x01,0x14,0x00,0x00,0x00,0x14,0x00,0x00,0x00,0x0b,0x00,0x00,0x00,0x00,0x00,0x00,0x02,0x40,0x00,0x00,0x00,0xd4,0xfc,0xff,0xff,0x30,0x00,0x00,0x00,0x73,0x65,0x71,0x75,0x65,0x6e,0x74,0x69,0x61,0x6c,0x5f,0x31,0x2f,0x63,0x6f,0x6e,0x76,0x31,0x64,0x5f,0x31,0x2f,0x63,0x6f,0x6e,0x76,0x6f,0x6c,0x75,0x74,0x69,0x6f,0x6e,0x2f,0x45,0x78,0x70,0x61,0x6e,0x64,0x44,0x69,0x6d,0x73,0x2f,0x64,0x69,0x6d,0x00,0x00,0x00,0x00,0x00,0x00,0x00,0x00,0x06,0xfe,0xff,0xff,0x00,0x00,0x00,0x01,0x14,0x00,0x00,0x00,0x14,0x00,0x00,0x00,0x0a,0x00,0x00,0x00,0x00,0x00,0x00,0x02,0x1c,0x00,0x00,0x00,0x30,0xfd,0xff,0xff,0x0f,0x00,0x00,0x00,0x61,0x72,0x69,0x74,0x68,0x2e,0x63,0x6f,0x6e,0x73,0x74,0x61,0x6e,0x74,0x38,0x00,0x01,0x00,0x00,0x00,0x02,0x00,0x00,0x00,0x9e,0xfe,0xff,0xff,0x00,0x00,0x00,0x01,0x10,0x00,0x00,0x00,0x10,0x00,0x00,0x00,0x09,0x00,0x00,0x00,0x1c,0x00,0x00,0x00,0x68,0xfd,0xff,0xff,0x0f,0x00,0x00,0x00,0x61,0x72,0x69,0x74,0x68,0x2e,0x63,0x6f,0x6e,0x73,0x74,0x61,0x6e,0x74,0x37,0x00,0x01,0x00,0x00,0x00,0x02,0x00,0x00,0x00,0xd6,0xfe,0xff,0xff,0x00,0x00,0x00,0x01,0x10,0x00,0x00,0x00,0x10,0x00,0x00,0x00,0x08,0x00,0x00,0x00,0x1c,0x00,0x00,0x00,0xa0,0xfd,0xff,0xff,0x0f,0x00,0x00,0x00,0x61,0x72,0x69,0x74,0x68,0x2e,0x63,0x6f,0x6e,0x73,0x74,0x61,0x6e,0x74,0x36,0x00,0x01,0x00,0x00,0x00,0x20,0x00,0x00,0x00,0x0e,0xff,0xff,0xff,0x00,0x00,0x00,0x01,0x10,0x00,0x00,0x00,0x10,0x00,0x00,0x00,0x07,0x00,0x00,0x00,0x1c,0x00,0x00,0x00,0xd8,0xfd,0xff,0xff,0x0f,0x00,0x00,0x00,0x61,0x72,0x69,0x74,0x68,0x2e,0x63,0x6f,0x6e,0x73,0x74,0x61,0x6e,0x74,0x35,0x00,0x03,0x00,0x00,0x00,0x01,0x00,0x00,0x00,0x01,0x00,0x00,0x00,0x20,0x00,0x00,0x00,0x4e,0xff,0xff,0xff,0x00,0x00,0x00,0x01,0x10,0x00,0x00,0x00,0x10,0x00,0x00,0x00,0x06,0x00,0x00,0x00,0x1c,0x00,0x00,0x00,0x18,0xfe,0xff,0xff,0x0f,0x00,0x00,0x00,0x61,0x72,0x69,0x74,0x68,0x2e,0x63,0x6f,0x6e,0x73,0x74,0x61,0x6e,0x74,0x34,0x00,0x02,0x00,0x00,0x00,0x20,0x00,0x00,0x00,0x40,0x00,0x00,0x00,0x8a,0xff,0xff,0xff,0x00,0x00,0x00,0x01,0x10,0x00,0x00,0x00,0x10,0x00,0x00,0x00,0x05,0x00,0x00,0x00,0x1c,0x00,0x00,0x00,0x54,0xfe,0xff,0xff,0x0f,0x00,0x00,0x00,0x61,0x72,0x69,0x74,0x68,0x2e,0x63,0x6f,0x6e,0x73,0x74,0x61,0x6e,0x74,0x33,0x00,0x02,0x00,0x00,0x00,0x02,0x00,0x00,0x00,0x20,0x00,0x00,0x00,0xc6,0xff,0xff,0xff,0x00,0x00,0x00,0x01,0x10,0x00,0x00,0x00,0x10,0x00,0x00,0x00,0x04,0x00,0x00,0x00,0x1c,0x00,0x00,0x00,0x90,0xfe,0xff,0xff,0x0f,0x00,0x00,0x00,0x61,0x72,0x69,0x74,0x68,0x2e,0x63,0x6f,0x6e,0x73,0x74,0x61,0x6e,0x74,0x32,0x00,0x01,0x00,0x00,0x00,0x20,0x00,0x00,0x00,0x00,0x00,0x16,0x00,0x18,0x00,0x14,0x00,0x00,0x00,0x10,0x00,0x0c,0x00,0x08,0x00,0x00,0x00,0x00,0x00,0x00,0x00,0x07,0x00,0x16,0x00,0x00,0x00,0x00,0x00,0x00,0x01,0x10,0x00,0x00,0x00,0x10,0x00,0x00,0x00,0x03,0x00,0x00,0x00,0x1c,0x00,0x00,0x00,0xe0,0xfe,0xff,0xff,0x0f,0x00,0x00,0x00,0x61,0x72,0x69,0x74,0x68,0x2e,0x63,0x6f,0x6e,0x73,0x74,0x61,0x6e,0x74,0x31,0x00,0x04,0x00,0x00,0x00,0x20,0x00,0x00,0x00,0x01,0x00,0x00,0x00,0x02,0x00,0x00,0x00,0x01,0x00,0x00,0x00,0x00,0x00,0x16,0x00,0x1c,0x00,0x18,0x00,0x17,0x00,0x10,0x00,0x0c,0x00,0x08,0x00,0x00,0x00,0x00,0x00,0x00,0x00,0x07,0x00,0x16,0x00,0x00,0x00,0x00,0x00,0x00,0x01,0x14,0x00,0x00,0x00,0x14,0x00,0x00,0x00,0x02,0x00,0x00,0x00,0x00,0x00,0x00,0x02,0x1c,0x00,0x00,0x00,0x40,0xff,0xff,0xff,0x0e,0x00,0x00,0x00,0x61,0x72,0x69,0x74,0x68,0x2e,0x63,0x6f,0x6e,0x73,0x74,0x61,0x6e,0x74,0x00,0x00,0x01,0x00,0x00,0x00,0x03,0x00,0x00,0x00,0x00,0x00,0x16,0x00,0x1c,0x00,0x18,0x00,0x00,0x00,0x14,0x00,0x10,0x00,0x0c,0x00,0x00,0x00,0x00,0x00,0x08,0x00,0x07,0x00,0x16,0x00,0x00,0x00,0x00,0x00,0x00,0x01,0x14,0x00,0x00,0x00,0x20,0x00,0x00,0x00,0x20,0x00,0x00,0x00,0x01,0x00,0x00,0x00,0x3c,0x00,0x00,0x00,0x03,0x00,0x00,0x00,0xff,0xff,0xff,0xff,0x03,0x00,0x00,0x00,0x01,0x00,0x00,0x00,0xa4,0xff,0xff,0xff,0x1e,0x00,0x00,0x00,0x73,0x65,0x72,0x76,0x69,0x6e,0x67,0x5f,0x64,0x65,0x66,0x61,0x75,0x6c,0x74,0x5f,0x6b,0x65,0x72,0x61,0x73,0x5f,0x74,0x65,0x6e,0x73,0x6f,0x72,0x3a,0x30,0x00,0x00,0x03,0x00,0x00,0x00,0x01,0x00,0x00,0x00,0x03,0x00,0x00,0x00,0x01,0x00,0x00,0x00,0x05,0x00,0x00,0x00,0x4c,0x00,0x00,0x00,0x30,0x00,0x00,0x00,0x20,0x00,0x00,0x00,0x18,0x00,0x00,0x00,0x04,0x00,0x00,0x00,0xd4,0xff,0xff,0xff,0x09,0x00,0x00,0x00,0x00,0x00,0x00,0x09,0x04,0x00,0x04,0x00,0x04,0x00,0x00,0x00,0xe8,0xff,0xff,0xff,0x16,0x00,0x00,0x00,0x00,0x00,0x00,0x16,0xf4,0xff,0xff,0xff,0x03,0x00,0x00,0x00,0x00,0x00,0x00,0x03,0x0c,0x00,0x0c,0x00,0x0b,0x00,0x00,0x00,0x00,0x00,0x04,0x00,0x0c,0x00,0x00,0x00,0x46,0x00,0x00,0x00,0x00,0x00,0x00,0x46};
const int g_model_len = 12072;

const float scaler_i_mean[] = { 5.0, 350.31769781144783, 496.7822320426487 };
const float scaler_i_scale[] = { 2.581988897471611, 148.34905984190482, 120.57640180027173 };
const float scaler_o_mean[] = { 2.5, 32.5 };
const float scaler_o_scale[] = { 1.5811388300841898, 5.5901699437494745 };
#endif  // MODEL_H
