
#ifndef MODEL_H
#define MODEL_H

// MSE(Pos, Temp): [0.03819527 0.05189234]


const unsigned char g_model[] = {0x1c,0x00,0x00,0x00,0x54,0x46,0x4c,0x33,0x14,0x00,0x20,0x00,0x1c,0x00,0x18,0x00,0x14,0x00,0x10,0x00,0x0c,0x00,0x00,0x00,0x08,0x00,0x04,0x00,0x14,0x00,0x00,0x00,0x1c,0x00,0x00,0x00,0x8c,0x00,0x00,0x00,0xe4,0x00,0x00,0x00,0x04,0x26,0x00,0x00,0x14,0x26,0x00,0x00,0x98,0x2e,0x00,0x00,0x03,0x00,0x00,0x00,0x01,0x00,0x00,0x00,0x04,0x00,0x00,0x00,0xd6,0xd8,0xff,0xff,0x0c,0x00,0x00,0x00,0x1c,0x00,0x00,0x00,0x3c,0x00,0x00,0x00,0x0f,0x00,0x00,0x00,0x73,0x65,0x72,0x76,0x69,0x6e,0x67,0x5f,0x64,0x65,0x66,0x61,0x75,0x6c,0x74,0x00,0x01,0x00,0x00,0x00,0x04,0x00,0x00,0x00,0x90,0xff,0xff,0xff,0x11,0x00,0x00,0x00,0x04,0x00,0x00,0x00,0x08,0x00,0x00,0x00,0x6f,0x75,0x74,0x70,0x75,0x74,0x5f,0x30,0x00,0x00,0x00,0x00,0x01,0x00,0x00,0x00,0x04,0x00,0x00,0x00,0x8a,0xda,0xff,0xff,0x04,0x00,0x00,0x00,0x0c,0x00,0x00,0x00,0x6b,0x65,0x72,0x61,0x73,0x5f,0x74,0x65,0x6e,0x73,0x6f,0x72,0x00,0x00,0x00,0x00,0x02,0x00,0x00,0x00,0x34,0x00,0x00,0x00,0x04,0x00,0x00,0x00,0xdc,0xff,0xff,0xff,0x14,0x00,0x00,0x00,0x04,0x00,0x00,0x00,0x13,0x00,0x00,0x00,0x43,0x4f,0x4e,0x56,0x45,0x52,0x53,0x49,0x4f,0x4e,0x5f,0x4d,0x45,0x54,0x41,0x44,0x41,0x54,0x41,0x00,0x08,0x00,0x0c,0x00,0x08,0x00,0x04,0x00,0x08,0x00,0x00,0x00,0x13,0x00,0x00,0x00,0x04,0x00,0x00,0x00,0x13,0x00,0x00,0x00,0x6d,0x69,0x6e,0x5f,0x72,0x75,0x6e,0x74,0x69,0x6d,0x65,0x5f,0x76,0x65,0x72,0x73,0x69,0x6f,0x6e,0x00,0x15,0x00,0x00,0x00,0x1c,0x25,0x00,0x00,0x14,0x25,0x00,0x00,0xf8,0x24,0x00,0x00,0xe0,0x23,0x00,0x00,0x50,0x23,0x00,0x00,0x40,0x22,0x00,0x00,0x30,0x02,0x00,0x00,0xa0,0x01,0x00,0x00,0x10,0x01,0x00,0x00,0xf8,0x00,0x00,0x00,0xe0,0x00,0x00,0x00,0xcc,0x00,0x00,0x00,0xc4,0x00,0x00,0x00,0xbc,0x00,0x00,0x00,0xb4,0x00,0x00,0x00,0xac,0x00,0x00,0x00,0xa4,0x00,0x00,0x00,0x9c,0x00,0x00,0x00,0x94,0x00,0x00,0x00,0x74,0x00,0x00,0x00,0x04,0x00,0x00,0x00,0x5a,0xdb,0xff,0xff,0x04,0x00,0x00,0x00,0x60,0x00,0x00,0x00,0x10,0x00,0x00,0x00,0x00,0x00,0x00,0x00,0x08,0x00,0x0e,0x00,0x08,0x00,0x04,0x00,0x08,0x00,0x00,0x00,0x10,0x00,0x00,0x00,0x24,0x00,0x00,0x00,0x00,0x00,0x06,0x00,0x08,0x00,0x04,0x00,0x06,0x00,0x00,0x00,0x04,0x00,0x00,0x00,0x00,0x00,0x00,0x00,0x0c,0x00,0x18,0x00,0x14,0x00,0x10,0x00,0x0c,0x00,0x04,0x00,0x0c,0x00,0x00,0x00,0x81,0xdb,0xf2,0xa3,0xbb,0xed,0x47,0x42,0x02,0x00,0x00,0x00,0x02,0x00,0x00,0x00,0x04,0x00,0x00,0x00,0x06,0x00,0x00,0x00,0x32,0x2e,0x31,0x37,0x2e,0x30,0x00,0x00,0xc6,0xdb,0xff,0xff,0x04,0x00,0x00,0x00,0x10,0x00,0x00,0x00,0x31,0x2e,0x31,0x30,0x2e,0x30,0x00,0x00,0x00,0x00,0x00,0x00,0x00,0x00,0x00,0x00,0xfc,0xd2,0xff,0xff,0x00,0xd3,0xff,0xff,0x04,0xd3,0xff,0xff,0x08,0xd3,0xff,0xff,0x0c,0xd3,0xff,0xff,0x10,0xd3,0xff,0xff,0x14,0xd3,0xff,0xff,0xfe,0xdb,0xff,0xff,0x04,0x00,0x00,0x00,0x04,0x00,0x00,0x00,0xfd,0xff,0xff,0xff,0x0e,0xdc,0xff,0xff,0x04,0x00,0x00,0x00,0x08,0x00,0x00,0x00,0xff,0xff,0xff,0xff,0x40,0x00,0x00,0x00,0x22,0xdc,0xff,0xff,0x04,0x00,0x00,0x00,0x08,0x00,0x00,0x00,0xbb,0x1f,0x6d,0x3e,0xce,0x2d,0x21,0xbd,0x36,0xdc,0xff,0xff,0x04,0x00,0x00,0x00,0x80,0x00,0x00,0x00,0xb9,0x8c,0xc4,0xbd,0x0f,0x5d,0x6a,0x3d,0x85,0xe0,0x69,0x3e,0xd0,0x7f,0x81,0x3e,0x9e,0x2b,0xa4,0x3e,0x69,0xb0,0x6b,0x3e,0x85,0x32,0xe2,0xbd,0x02,0xe3,0x20,0x3e,0xdb,0x65,0x2d,0xbc,0x96,0x37,0x16,0xbe,0x2d,0xc3,0xdf,0x3d,0xe7,0x7c,0x36,0x3e,0xaa,0xeb,0xba,0xbd,0xbe,0xdd,0xd6,0x3d,0xc7,0xac,0xf0,0xbd,0x6b,0x15,0x80,0x3e,0x08,0x11,0xcf,0xbd,0xb8,0x43,0x69,0x3e,0xdd,0x6b,0x80,0x3e,0x18,0x07,0x94,0x3d,0xb9,0xc6,0x97,0x3e,0x25,0x63,0x36,0x3e,0x52,0xff,0x58,0x3e,0x56,0xf6,0xfe,0xbd,0x18,0x1b,0xc5,0x3d,0x02,0xc5,0x0c,0x3e,0x7a,0xcf,0x06,0x3e,0xbb,0x96,0x01,0xbd,0x9b,0x3b,0x8e,0xbc,0xfe,0x58,0x2c,0x3e,0x1e,0x80,0xa2,0xbd,0x43,0xd6,0x81,0xbd,0xc2,0xdc,0xff,0xff,0x04,0x00,0x00,0x00,0x80,0x00,0x00,0x00,0xfd,0xbd,0xa9,0xbd,0xad,0x8d,0xb8,0xbe,0x10,0x4b,0x79,0x3e,0x32,0xff,0x51,0x3e,0xa5,0x09,0xaf,0xbe,0xeb,0x8f,0x28,0xbe,0x69,0xb3,0x15,0x3e,0x07,0x6f,0x87,0x3e,0x0e,0xf9,0xc8,0xbe,0x46,0x60,0xb9,0x3e,0x39,0xeb,0x1d,0x3e,0xde,0xd4,0x10,0x3e,0xaa,0x41,0x50,0x3d,0x02,0x05,0x29,0xbe,0x37,0x5e,0x33,0xbd,0x4f,0x52,0xe2,0xbc,0x1d,0xe1,0xc5,0x3d,0xd9,0xdd,0xf5,0xbc,0x8b,0xcb,0x21,0xbe,0xac,0xbb,0x14,0x3d,0xd2,0x17,0xc2,0xbc,0x30,0x24,0x50,0xbe,0x70,0xa5,0x27,0xbc,0xe6,0x18,0x69,0x3e,0x3e,0xea,0x28,0xbd,0x1c,0x8a,0x2b,0xbd,0x4e,0xe2,0xd1,0x3b,0x05,0x83,0xae,0x3c,0xd4,0xbb,0xd3,0x3d,0xf2,0xe0,0x17,0xbd,0x30,0x97,0x7f,0x3e,0xf5,0x70,0x9e,0x3d,0x4e,0xdd,0xff,0xff,0x04,0x00,0x00,0x00,0x00,0x20,0x00,0x00,0xb6,0xed,0xe7,0x3e,0xb4,0xc1,0xe4,0x3c,0x69,0x52,0x86,0xbe,0x5f,0xe3,0x02,0x3f,0xcb,0x6c,0x28,0xbf,0xa7,0xfe,0x24,0x3e,0x56,0xde,0x1a,0x3e,0x4a,0x17,0x80,0xbe,0x7f,0x1f,0xf6,0x3e,0x8f,0xf1,0xd8,0x3d,0x4e,0xec,0x45,0x3d,0x20,0x10,0x0c,0x3e,0xb2,0x86,0x1b,0x3d,0x72,0x3d,0x2c,0xbb,0x6b,0xae,0xa0,0x3e,0xf0,0xcc,0xc9,0x3c,0xdd,0xdc,0x85,0xbe,0xa9,0x33,0x45,0xbb,0xa1,0x8e,0x99,0x3f,0x91,0x8b,0x84,0x3c,0xb1,0xf6,0xee,0x3d,0x8f,0xef,0x1d,0x3d,0x7a,0x26,0x8c,0x3e,0xac,0x4f,0x20,0x3e,0x76,0x88,0x2c,0x3e,0x04,0x72,0x31,0x3e,0xcd,0x6f,0x67,0x3e,0x84,0x51,0x32,0x3b,0xca,0xc1,0x0a,0xbe,0x4b,0xc2,0x34,0x3d,0x07,0x3f,0x44,0xbd,0xab,0x10,0xf3,0x3e,0x3f,0x80,0xdb,0x3d,0xdc,0x4d,0x0c,0x3f,0x52,0x54,0x86,0x3e,0x0a,0x36,0xda,0x3e,0xdd,0x6e,0x95,0x3d,0x46,0x1f,0x19,0x3e,0x2b,0x69,0xfc,0x3d,0x2a,0x20,0xe4,0x3d,0x29,0x7a,0x94,0x40,0xb3,0xc3,0x00,0x3e,0x4a,0x24,0xa0,0xbd,0x96,0x67,0xdf,0x3e,0xde,0x57,0xa6,0x3e,0x59,0x95,0xd4,0x3e,0xe9,0xe0,0x25,0x3e,0xbc,0x3b,0xa3,0xbd,0x73,0x1b,0x4a,0x3e,0x24,0x7d,0x81,0xbd,0xa0,0x64,0xa8,0xbd,0x68,0xeb,0x95,0x3d,0xd6,0x11,0xc2,0xbb,0xe8,0x62,0xbc,0x3e,0x48,0x67,0x04,0x3e,0xb5,0x85,0x98,0xbe,0xc6,0x74,0x9f,0x3c,0x99,0x24,0xa3,0x3e,0x58,0xd2,0x88,0x3e,0x69,0xa0,0x56,0x3e,0x62,0xa0,0xc1,0x3d,0x73,0x21,0x1a,0x3e,0xf3,0x9c,0x09,0xbd,0xd2,0xd5,0xa1,0x3e,0xad,0xbd,0xb3,0x3e,0x39,0x89,0x92,0xbe,0x9d,0x4c,0x88,0x3c,0xbd,0x27,0x61,0xbc,0xaf,0x43,0x91,0x3d,0x48,0xd9,0xe9,0xbd,0x17,0xad,0xd8,0xbf,0x50,0xe3,0x43,0xbe,0xd8,0xec,0x54,0x3e,0xe0,0x1f,0x1c,0xbe,0x8c,0x79,0x1f,0xbe,0xec,0xf2,0x40,0xbd,0x74,0x8c,0xad,0xc0,0x98,0x94,0xe6,0xbd,0x1d,0xf0,0x4d,0xbd,0x5c,0x3c,0x48,0x3d,0x25,0x64,0xc2,0xbe,0xfc,0xd5,0x3b,0xbe,0xc0,0xc6,0x2e,0x40,0x00,0xa1,0x32,0xbe,0x03,0xfc,0x1d,0xbe,0xa8,0xa4,0x23,0xbe,0x10,0xe6,0xa4,0xbf,0xfe,0x47,0xb7,0xbe,0x12,0xd1,0xd7,0xbf,0x8c,0x94,0x6f,0x3e,0xee,0xc9,0xf4,0x3d,0x2e,0xdb,0x21,0xbf,0x68,0x17,0xbe,0xbd,0x88,0xa7,0x94,0xbe,0xc5,0x30,0x17,0xbe,0x54,0x8f,0x8e,0x3e,0xa1,0x6e,0x7a,0x3d,0x8f,0x83,0x1b,0xbc,0xfd,0x6e,0x19,0x3f,0xf4,0x09,0x36,0xbf,0x5b,0x58,0xdf,0x3e,0xd4,0xe8,0x5d,0xbe,0xf4,0xba,0x91,0x3f,0xa5,0xd5,0xab,0x3d,0xaa,0xa6,0xfc,0xbb,0x61,0x49,0xda,0x3e,0xf3,0xc0,0xfd,0x3d,0x94,0x57,0x86,0x3f,0xed,0x9a,0xba,0x3d,0xf1,0x1a,0xf8,0xbe,0x49,0xc8,0xbd,0x3b,0x3c,0xca,0xec,0x3e,0xc0,0x76,0x9e,0x3f,0xe2,0x73,0xb5,0x3e,0x76,0xd6,0x63,0x3e,0x80,0x9e,0xa7,0xbb,0x68,0xfb,0x32,0x3e,0xea,0x98,0xc2,0xbe,0x44,0xd6,0xd3,0xbf,0xfa,0xd4,0x83,0xbf,0x24,0x5a,0xe6,0xbe,0x52,0x1b,0x66,0xbf,0x02,0x6b,0xff,0x3d,0x0d,0x6c,0xba,0xc0,0xfd,0xfd,0x84,0x3f,0x27,0x55,0x9a,0x3e,0xc1,0xbe,0xb1,0x3e,0x95,0x66,0xb6,0xbe,0x09,0x1f,0x89,0x3e,0x25,0x4f,0xbd,0xbd,0xa1,0x1e,0xec,0x3d,0x63,0x17,0x1e,0xbf,0x4d,0xf5,0x0e,0x3e,0xc7,0x37,0x39,0x3e,0xf6,0x04,0x9c,0x3d,0x66,0xb2,0x25,0x3e,0x1d,0x96,0x19,0xbf,0xd6,0xb8,0x2a,0xbd,0x66,0x5f,0x4e,0xbd,0xd7,0xf7,0x92,0x3e,0x7a,0x7f,0x8e,0x3e,0x3c,0x50,0x99,0x3d,0x08,0x28,0xd5,0xbd,0x16,0xed,0x49,0xbe,0x5b,0xe6,0x46,0xbe,0xd9,0xbe,0xc7,0x3c,0xa4,0x31,0x3a,0xbf,0x3c,0x72,0xf5,0xbd,0xc3,0xa8,0xcc,0xbe,0xd1,0x2b,0xb7,0xbd,0xf6,0x94,0xee,0x3d,0x35,0x5f,0xb9,0x3c,0x72,0xfa,0xb1,0x3e,0x89,0x0d,0xc7,0x3b,0x83,0xb3,0x7b,0x3d,0x9a,0x7c,0xa3,0x3e,0xb7,0x45,0x7c,0xbd,0x2b,0xf9,0x05,0xbd,0x06,0x21,0x9b,0x3e,0x4e,0x02,0x85,0x3e,0x44,0xba,0x3b,0xbe,0xbf,0x6c,0xc4,0xbc,0xad,0x51,0x7e,0x3e,0xde,0x6a,0x61,0xbf,0xa5,0x85,0x8d,0x3e,0xf7,0x4c,0xda,0xbd,0x82,0x6f,0x10,0xbe,0x06,0x69,0x95,0x3e,0x9b,0x75,0x74,0xc0,0xeb,0x26,0x0b,0x3e,0x4c,0x5a,0x19,0x3e,0xdc,0x65,0x34,0xbe,0x29,0x12,0xde,0x3d,0x36,0x7c,0x21,0x3d,0xbc,0xd8,0x83,0x3e,0xc4,0xfe,0x5c,0x3e,0x1c,0x27,0xac,0x3e,0xc4,0xe3,0x0b,0x3e,0x81,0x38,0x3f,0xbd,0x9b,0x9b,0x26,0xbe,0xe7,0x8f,0x88,0x3e,0x82,0x3c,0x03,0xbe,0xb9,0x47,0x74,0xbe,0xe5,0x1c,0x32,0xbe,0x8a,0xa8,0x34,0xbc,0xca,0x17,0xba,0x3d,0x1c,0x1d,0x9b,0x3d,0xe2,0xd4,0x9b,0xbf,0xc7,0x73,0xc0,0x3e,0xc0,0xb4,0x88,0x3e,0xe2,0x60,0x30,0x3d,0xa0,0x5b,0x65,0xbf,0xe2,0x07,0x83,0xbe,0x6c,0xf8,0xb3,0xbd,0xda,0x31,0x39,0x3e,0x5a,0x7b,0x77,0xbf,0x9d,0x8a,0xa6,0x3e,0xeb,0x1d,0x25,0xbd,0x87,0x7e,0x8e,0xbc,0x8b,0xcb,0x0d,0x3e,0x46,0x32,0xbd,0xbe,0x3d,0xbc,0x3e,0x3d,0x09,0xa9,0xb2,0x3e,0x0a,0x48,0x1e,0x3e,0x0a,0x47,0x4d,0xbe,0x3a,0xb0,0x8d,0xbd,0x1c,0x4d,0x42,0x3d,0x65,0x5e,0xe9,0xbd,0xcb,0x18,0x2b,0xbe,0xd0,0x71,0x88,0xbe,0xd7,0xac,0xe0,0x3c,0xe5,0x4e,0x60,0xbe,0x89,0x39,0xf5,0xbe,0xd8,0xeb,0xa8,0xbe,0xeb,0x9b,0xcc,0x3d,0x0b,0x24,0xbd,0xbe,0x24,0x87,0x9a,0x3e,0x27,0xf9,0x07,0xbe,0x30,0xc3,0xa8,0x3d,0x79,0xbb,0xaf,0x3e,0x3e,0xee,0x98,0x3e,0x6a,0xe9,0xde,0x3d,0x31,0x93,0x1e,0x3e,0xc2,0x8b,0xbd,0xbe,0xa9,0x4a,0xa8,0xbe,0xec,0x9c,0x0e,0xbe,0x64,0x91,0xb1,0x3e,0xa9,0xfa,0x5b,0xbf,0x04,0x96,0x2d,0x3e,0x4c,0x26,0x0a,0x3e,0x40,0x98,0x7c,0xbd,0x39,0x62,0xcb,0x3e,0xa8,0x76,0x8d,0xc0,0x75,0x9a,0xa7,0x3e,0xcc,0x92,0x8c,0x3e,0x5a,0xb0,0x5c,0x3c,0x0c,0x3d,0x3c,0xbd,0x7e,0xc3,0x60,0xbc,0x94,0xb8,0xc8,0x3c,0x50,0x15,0xc2,0xbd,0xb2,0x20,0xaa,0x3e,0xc4,0x18,0xa5,0x3d,0x71,0xee,0xcb,0x3d,0xf1,0x16,0x8a,0xbb,0xda,0x53,0x81,0x3e,0x80,0x8d,0x90,0xbe,0xcb,0x41,0xf0,0x3d,0x77,0xef,0x8a,0x3e,0xf2,0x21,0x50,0xbe,0x70,0x31,0xa0,0x3d,0x8f,0xe5,0x6a,0xbe,0x66,0xa7,0xdb,0xbf,0x9f,0x05,0xb4,0x3d,0xcf,0xc1,0x87,0x3e,0x65,0xeb,0x89,0x3e,0x5f,0x4f,0x29,0xbf,0xe7,0x9c,0xcf,0xbe,0x1f,0xed,0x25,0xbe,0x87,0x23,0x1b,0x3f,0xb8,0xf4,0x0c,0xbf,0xa7,0x9f,0xc1,0x3e,0x0e,0x48,0xc2,0xbe,0x60,0x1b,0x9b,0xbe,0x99,0xc2,0x0a,0x3e,0xf3,0xf7,0x68,0xbf,0x7a,0x07,0x85,0xbd,0x0e,0x9a,0xaf,0x3e,0x37,0xe7,0x23,0x3e,0xd7,0xf8,0x75,0x3d,0xff,0x24,0x21,0xbe,0x84,0x45,0xa0,0x3d,0xa3,0xdb,0xc8,0xbe,0x04,0xb6,0x83,0x3e,0xac,0x89,0x4d,0xbd,0x48,0x82,0x1f,0x3e,0xac,0x1e,0x16,0xbe,0x00,0x37,0x01,0xbf,0x45,0xe6,0xd1,0xbf,0x29,0xa2,0x56,0x3e,0xda,0x5e,0xd3,0x3c,0xea,0x44,0x3c,0xbe,0x53,0xd9,0x36,0xbe,0xad,0x9e,0x21,0x3c,0xce,0x96,0xfa,0xbe,0x6e,0x8c,0x9b,0x3e,0x1a,0xbc,0x90,0x3c,0x5e,0x11,0x02,0x3f,0x15,0x14,0x22,0xbe,0x0e,0x64,0x1e,0xbd,0xbc,0xca,0x1c,0xbf,0x03,0x91,0xd6,0x3e,0xf6,0xbf,0x90,0xbe,0x96,0x71,0x48,0xbe,0xfd,0x1a,0x94,0xbe,0xe2,0x3c,0x84,0xbe,0x28,0x01,0x71,0x3e,0xa7,0x72,0x59,0xc0,0x3d,0x95,0x2b,0x3e,0x61,0xd9,0xd7,0x3c,0x45,0x78,0x05,0xbd,0x4f,0x27,0x6e,0xbe,0x82,0x2c,0x32,0xbf,0xf4,0xb5,0x0f,0xbe,0x7a,0x95,0x00,0x3e,0x7d,0x4e,0x1a,0x3f,0x08,0x07,0x2f,0x3e,0x35,0x4f,0x5e,0x3e,0x67,0x15,0x4a,0xbe,0x8a,0x7a,0xae,0x3e,0x53,0x17,0x8f,0xbf,0x93,0xb6,0xc6,0x3d,0x14,0xcf,0x24,0x3f,0xe1,0x6d,0xc5,0xbe,0xe4,0xce,0xc4,0xbe,0x8a,0x5a,0xf7,0xbd,0x63,0xaf,0x01,0xbd,0x40,0x1f,0x5b,0x3e,0x1f,0x15,0x66,0xbe,0x4a,0x82,0x8c,0x3e,0xaf,0x8b,0x02,0xbd,0xa2,0xa0,0x1d,0xbf,0x9d,0x01,0x1f,0xbe,0xd2,0x89,0x87,0x3c,0x68,0xa3,0x84,0xbf,0x10,0x29,0x5c,0xbc,0x17,0xdb,0x64,0x3e,0xd4,0x6b,0x73,0x3c,0x86,0xe8,0x62,0x3e,0x99,0x2d,0x0f,0xbf,0x0a,0xde,0x02,0xc0,0x81,0xfe,0xaf,0x3e,0xfe,0xd9,0x12,0xbe,0x9f,0x8b,0x91,0x3d,0x9c,0x80,0xb5,0xbd,0x80,0xaa,0x00,0xc0,0x37,0xc7,0x45,0x3e,0x79,0x6d,0x8c,0x3e,0xb1,0xfe,0xba,0xbf,0x68,0x3a,0xba,0xbf,0x45,0x35,0x93,0x3e,0x26,0x66,0x50,0xbe,0x57,0x6e,0xbd,0xbd,0xa8,0x8f,0x11,0x3e,0x81,0x78,0x93,0x3e,0x21,0x7c,0x55,0x3e,0x81,0xc7,0x4f,0x3e,0x07,0xaf,0xab,0xbe,0x13,0xd9,0x74,0x3e,0x92,0x97,0x94,0xbc,0xa7,0xfe,0xbc,0xbe,0xb4,0x9f,0xa9,0x3e,0x03,0x47,0x66,0x3e,0xe3,0xe6,0x3b,0xbe,0x7b,0x2d,0x1d,0xbe,0x97,0xe7,0x75,0xbd,0xda,0x36,0x0b,0xc0,0x34,0xd4,0x09,0xbd,0x0a,0xb4,0x8c,0xbd,0x1a,0x41,0x85,0x3e,0x80,0x02,0x12,0x3e,0x2f,0x54,0x8d,0xc0,0x5a,0xec,0xfa,0x3f,0xe9,0xda,0x20,0x3e,0xd4,0x6d,0xfb,0xbd,0xeb,0x1a,0x8c,0x3e,0x7d,0x75,0xac,0xbd,0xa1,0x6f,0x04,0x3e,0x70,0x7e,0xe8,0xbd,0x0b,0xf1,0x88,0xbe,0x33,0x5a,0x8a,0xc0,0x6e,0xd5,0x74,0xbe,0x37,0x50,0x9a,0x3e,0x00,0x37,0x84,0x3d,0x49,0xcc,0x46,0xbe,0xe0,0x34,0x4d,0x3e,0xdc,0x45,0xaf,0x3e,0x88,0xd0,0xe7,0xbd,0x36,0x2d,0x61,0x3e,0xdf,0x0e,0x85,0xbf,0xf3,0xdf,0x2f,0xbf,0x8c,0x93,0x9e,0xbe,0xd4,0x8b,0xc5,0x3f,0xaa,0x46,0x43,0xbd,0x25,0x6c,0xd6,0xc0,0x6f,0x62,0x76,0xbd,0xf6,0x24,0x94,0xbd,0x66,0x6e,0x9a,0xbd,0xda,0x6f,0x38,0x3f,0x20,0xbb,0x2c,0xbf,0x39,0x19,0x6d,0x3e,0x36,0x15,0xb7,0x3d,0x34,0x5b,0x53,0xbd,0xa5,0x45,0x2c,0x3f,0xfb,0xd4,0xbb,0x3e,0x8f,0x84,0x41,0xbe,0xdf,0x6d,0xfa,0xbd,0x18,0xff,0x49,0x3e,0xe4,0xda,0xf3,0x3c,0xb1,0xac,0x68,0xbd,0xc6,0xf4,0xb5,0x3d,0x7f,0x6b,0x9f,0xbd,0x89,0x39,0xb1,0x3d,0xa9,0x5f,0x52,0x3f,0x7b,0x51,0x74,0x3e,0xe0,0x75,0xda,0x3e,0x98,0xf4,0xa0,0x3e,0x41,0x1f,0x40,0x3e,0x2c,0xdd,0x86,0x3e,0x5e,0x60,0x08,0xbe,0x77,0xc7,0x68,0x3d,0xff,0xbb,0x8d,0x3e,0xf9,0x68,0xa1,0xbd,0xc4,0x30,0x3a,0xbd,0xab,0x30,0xfd,0x3d,0x1f,0x8e,0x50,0x3e,0xee,0xbb,0xc4,0x3d,0x3a,0xcd,0x1d,0x3e,0xf1,0xb3,0x0e,0x3e,0xc3,0xd3,0xd6,0x3d,0x5c,0x11,0x26,0x3f,0x23,0xa1,0x6c,0xbb,0x15,0xe0,0x16,0xbe,0xae,0x24,0x1b,0x3d,0x72,0xa3,0x27,0xbe,0x2d,0x89,0x90,0x40,0x18,0x0c,0xad,0xbd,0xf4,0x12,0xa8,0x3d,0x16,0xc9,0xa0,0x3e,0x00,0x69,0x13,0xbe,0xce,0xbc,0xdb,0xbc,0x28,0x6f,0xe6,0x3d,0x8f,0xaa,0x84,0x3d,0x65,0xe9,0x08,0x3d,0xac,0xe7,0x91,0xbd,0x93,0x3a,0x5e,0xbc,0xf9,0x62,0x26,0x3e,0xd2,0x69,0x17,0xbe,0xe4,0xfc,0x97,0x3e,0x41,0xb3,0x60,0x3e,0x1b,0x8c,0xa7,0x3d,0xe5,0xf0,0xea,0x3e,0xe9,0x56,0xc6,0x3e,0xfc,0x1d,0x1e,0x3d,0xee,0x5c,0x4a,0x3f,0x8c,0x42,0x73,0x3e,0xae,0x38,0xa9,0xbd,0x6f,0xb7,0x6f,0x3e,0xf3,0x2a,0x53,0x3f,0xd7,0x84,0x8f,0x3d,0x3a,0xab,0xad,0x3d,0xe8,0x2b,0x29,0x3e,0x25,0x59,0xf5,0xbe,0xa8,0x33,0x47,0x3e,0x9c,0xf8,0x1a,0x3e,0xcb,0x7f,0x2a,0xbb,0xef,0xb3,0xa3,0x3e,0x2f,0x7d,0x0b,0xbf,0x0f,0x1b,0x83,0xbe,0x07,0x87,0x8d,0xbc,0x5c,0x1e,0xb2,0x3e,0xf9,0xbd,0xaa,0x3e,0x2d,0x62,0x80,0xba,0xbb,0xef,0x7d,0x3d,0xfd,0xdc,0x00,0x3d,0xe6,0xc3,0xc2,0xbe,0x2b,0x8d,0x42,0x3e,0xed,0x42,0x3a,0xbf,0x50,0x8b,0xdc,0x3d,0x00,0x80,0xb1,0xbe,0x9a,0x56,0xa2,0xbe,0x01,0xfc,0xf3,0x3d,0x89,0x58,0xe0,0xbd,0xea,0xff,0x34,0x3d,0x57,0xad,0xad,0x3e,0x5c,0x58,0x63,0x3e,0xdc,0x16,0x82,0x3e,0xcd,0xb6,0xa8,0xbd,0xa6,0x89,0xba,0xbc,0x70,0xde,0x1f,0x3d,0x79,0x63,0xc8,0xbc,0x07,0xfd,0x98,0xbd,0xa9,0x74,0x2c,0x3e,0x3e,0x07,0xd7,0x3e,0xb4,0x99,0x75,0xbf,0x16,0x51,0x03,0x3e,0xa9,0x1a,0x13,0xbd,0x72,0x14,0xee,0x3d,0x82,0x18,0x3b,0x3e,0x55,0x44,0x5d,0xc0,0xce,0xdf,0x97,0x3e,0x03,0x7f,0x99,0x3e,0x4d,0xce,0xed,0xbd,0x39,0xf9,0x1d,0xbe,0xc2,0xd3,0x64,0xbd,0x19,0x86,0x53,0x3e,0x36,0x3c,0x62,0xbd,0x56,0x37,0xf0,0x3e,0x01,0xe1,0xd6,0xbd,0xc4,0xfd,0x02,0x3e,0x84,0x03,0x69,0xbc,0x47,0x60,0xe9,0xbd,0xf5,0x7b,0x12,0xbf,0x6a,0xd4,0xe8,0xbd,0x81,0x73,0xf0,0xbb,0xac,0xe1,0x97,0xbe,0xc5,0x5f,0xb7,0x3d,0xce,0x1b,0x75,0x3e,0xab,0xdf,0x8a,0xbf,0x15,0xa0,0x17,0xbc,0x6a,0x1e,0x1b,0x3e,0xa0,0x50,0x40,0x3e,0xde,0xf5,0x23,0xbf,0x3d,0x65,0xf7,0xbd,0x96,0x51,0x68,0x3e,0xa2,0x98,0xf7,0x3d,0x9c,0x56,0x2e,0xbe,0xae,0x6e,0x00,0xbe,0xa1,0x63,0xfb,0xbc,0xac,0x00,0x37,0xbe,0x64,0xd6,0x4e,0xbe,0x1c,0x74,0x56,0xbe,0xb7,0xa5,0xc9,0x3d,0x50,0xe2,0x2a,0xbe,0x0a,0x9c,0x6a,0x3d,0xd0,0x5a,0x36,0xbe,0x1c,0xe0,0x79,0xbe,0x01,0xbb,0x8e,0x3b,0x74,0xfc,0xe9,0x3b,0xd4,0xc6,0x1a,0xbe,0xbb,0x57,0x74,0x3e,0x73,0x5a,0x36,0x3e,0xdd,0x5c,0x0a,0xbe,0xaf,0x9e,0x05,0x3e,0x92,0x9b,0x24,0xbe,0x39,0x02,0xf9,0xbd,0xa0,0xa1,0x6d,0xbe,0x9c,0xf2,0x70,0xbe,0x68,0xa0,0xe4,0x3d,0xb4,0x12,0x5e,0xbe,0x46,0x45,0x9d,0xbd,0x67,0xc5,0x6d,0xbd,0xa8,0x93,0xc0,0x3d,0xae,0x0e,0x3c,0xbe,0xe2,0x4d,0x18,0xbe,0x77,0x52,0xd4,0xbc,0x13,0x27,0x70,0x3e,0x12,0x06,0x98,0xba,0x3c,0x31,0x3c,0xbc,0x40,0xec,0x6a,0xbd,0x71,0xb0,0x74,0x3e,0xa4,0x07,0x51,0x3d,0x1d,0x28,0x81,0xbe,0xf0,0x58,0x3e,0xbe,0x0b,0x19,0x24,0xbe,0x2c,0x02,0x14,0xbd,0x38,0x96,0xd5,0x3d,0xb5,0xe3,0xa5,0xbd,0xbd,0xc4,0x6a,0xbe,0x8b,0xfd,0x2d,0xbe,0xd9,0x46,0x8a,0x3d,0x7e,0xfc,0x8a,0x3c,0x9c,0x98,0xc4,0xbd,0xeb,0xbc,0x6d,0x3d,0x9c,0x25,0x17,0xbe,0xeb,0x65,0xb9,0xbd,0xa8,0x57,0x0a,0x3e,0xb3,0xb4,0x7d,0x3e,0x33,0x64,0x68,0x3e,0xa7,0xdb,0x38,0xbe,0x35,0x61,0xdb,0x3d,0x14,0x17,0x2d,0xbe,0x82,0x03,0xe3,0x3c,0xfd,0x26,0x56,0xbe,0xee,0xac,0xc7,0xbd,0xf3,0xdb,0x13,0x3c,0x03,0x61,0x2a,0x3e,0x05,0x51,0xbf,0x3d,0x47,0x72,0x2b,0x3f,0x55,0x2c,0xcf,0xbe,0xb0,0x6f,0x24,0x3f,0xa7,0x89,0x8b,0x3e,0x7d,0x1d,0xae,0x3e,0xa8,0xc4,0xc2,0x3e,0x3e,0x25,0xcc,0xbe,0x46,0x49,0x28,0x3f,0x8e,0xdf,0xbb,0x3d,0x61,0xa1,0xb2,0xbe,0x94,0x7a,0x97,0x3e,0x8c,0xda,0xc2,0x3e,0x90,0xfb,0x76,0x3c,0xfb,0x36,0x9c,0x3e,0xa5,0x3b,0x82,0x3e,0xbe,0x76,0x41,0xbf,0xef,0x21,0xf1,0xbd,0x7e,0x1c,0x9c,0x3f,0x87,0x02,0x80,0xbd,0x9f,0x6e,0x9e,0x3e,0xc2,0x0f,0xe9,0x3e,0x46,0x28,0x93,0x3e,0x2e,0x19,0xe1,0x3e,0x65,0xd7,0xb1,0x3d,0xc2,0x38,0xe1,0xbd,0xa3,0xc4,0x21,0x3e,0x07,0x8e,0x4c,0xbe,0x58,0xe2,0xe0,0xbe,0x0e,0x2d,0x91,0xbc,0x15,0x05,0x14,0xbe,0xaa,0xd4,0x2f,0x3f,0x6d,0x57,0x55,0xbe,0x0a,0x20,0x24,0x3f,0xa0,0x2d,0x94,0x3e,0x15,0xda,0x3f,0x3e,0xa8,0x5a,0x5c,0x3f,0x30,0x31,0xea,0xbd,0x7a,0xdc,0xf4,0xbd,0x77,0xb4,0xfc,0xbd,0x2b,0xe3,0x94,0x40,0x06,0x63,0xca,0xbc,0xa2,0x2a,0x54,0x3e,0x2f,0xd6,0x7f,0x3c,0xa1,0xf4,0x2c,0x3e,0x0e,0x41,0x39,0x3e,0x5b,0xc3,0xd0,0xbb,0xf2,0x83,0xab,0x3e,0xc4,0x9b,0x07,0x3f,0xb5,0xeb,0x93,0xbd,0x94,0x1a,0xe5,0xbd,0xdc,0x49,0x76,0xbe,0x9e,0xe0,0x91,0xbe,0x3a,0xa5,0x0e,0x3f,0x79,0x33,0x1c,0x3d,0x60,0xd7,0x98,0xbe,0xc5,0x32,0x89,0x3e,0xb2,0xed,0x75,0x3e,0x18,0xa6,0x3a,0xbe,0x1a,0x31,0x97,0x3d,0x8c,0x65,0x88,0x3e,0x7c,0x73,0x2c,0xbc,0x1e,0x31,0xc2,0x3d,0x66,0x51,0x15,0x3e,0x96,0xca,0xa8,0x3e,0xc2,0xba,0x03,0xbf,0x8c,0x0b,0x54,0xbe,0xe6,0xd6,0x9e,0x3e,0xd9,0x76,0xb8,0x3e,0xf3,0x30,0xac,0xbe,0xb2,0xf9,0x39,0xbe,0xa6,0xfc,0x51,0xbe,0xa1,0xbc,0x0d,0xbe,0x66,0xe7,0x38,0x3e,0xe4,0xe5,0x21,0xbd,0xb3,0x27,0x93,0xbe,0x02,0x44,0x74,0xbe,0xea,0x08,0x82,0xc0,0xc3,0x6f,0x06,0xbe,0x0b,0xb4,0xe7,0x3c,0x15,0x1a,0x76,0xbf,0x27,0x2f,0xa0,0x3d,0x79,0x1c,0x49,0xbf,0x47,0x22,0x67,0xbe,0x86,0x0c,0x33,0x3e,0xdb,0x1b,0x39,0x3f,0x35,0xa1,0x04,0xbe,0x9b,0x49,0xab,0x3d,0x52,0x47,0x2c,0xbf,0x79,0xea,0xa0,0x3e,0xc3,0x00,0x48,0x3e,0x98,0x8d,0x84,0xbf,0xf1,0x32,0x4f,0xbf,0x82,0xc0,0x81,0xbe,0xfb,0x19,0x18,0x3e,0xde,0x92,0x8d,0x3e,0x18,0xb4,0x9d,0x3d,0x32,0x9d,0xa8,0xbe,0xf3,0xdc,0x48,0x3f,0x62,0xc8,0x3b,0xbf,0x77,0xf8,0x68,0xbe,0xa2,0xf0,0x86,0xbf,0x20,0xc7,0x88,0xbf,0x36,0xdb,0x20,0x3e,0xa6,0x1b,0x50,0xc0,0x5c,0x27,0xc9,0x3e,0xfc,0x52,0xb4,0x3e,0x0e,0x9d,0x45,0xbd,0x7b,0x15,0xcb,0xbe,0x16,0xea,0x78,0x3f,0xfe,0xf6,0x44,0xbe,0x76,0x36,0xb5,0x3e,0x14,0x83,0x85,0x3f,0x8d,0x21,0xb4,0x3c,0xb2,0xac,0xc8,0xbd,0x99,0x1d,0x74,0xbf,0x47,0xb7,0xff,0xbf,0xd0,0x0e,0x94,0xbe,0xdd,0x04,0xc3,0xbe,0xeb,0x7f,0xbb,0xbd,0x54,0xc5,0xca,0x3e,0x49,0x7c,0xcd,0xbe,0xb2,0xb3,0x2d,0xbe,0x88,0x56,0xb2,0x3f,0xdd,0x04,0x4f,0x3f,0xc5,0x26,0x8c,0xbb,0xe2,0x12,0xf0,0x3e,0xd2,0x49,0x25,0xbf,0x96,0x65,0xe0,0xbd,0xcd,0x3e,0x86,0x3c,0xa1,0x68,0x22,0x3e,0x94,0xff,0x58,0x3f,0x5a,0xb9,0x83,0xbe,0xcb,0x52,0x29,0x3e,0x99,0x74,0xb5,0x3d,0xdc,0x71,0xd2,0x3e,0x57,0x11,0xfd,0x3d,0xd4,0xd4,0xaf,0x3e,0xcc,0x5d,0xb7,0xbc,0x49,0x2a,0x5e,0x3d,0xea,0x1c,0xd9,0xbd,0xf8,0x4f,0x38,0xbe,0x51,0x54,0xee,0xbd,0xe7,0x63,0x6d,0x3e,0xac,0x3d,0x5f,0x3e,0xf4,0x4a,0xa3,0x3e,0x66,0x63,0xc8,0x3e,0x77,0x26,0x99,0x3e,0xee,0xbe,0xff,0x3d,0x47,0x7e,0x49,0x3e,0x1a,0x46,0xf1,0xbc,0xd8,0xd8,0xf7,0x3e,0xe6,0x5f,0xa9,0xbe,0x1c,0xff,0x9d,0xbe,0xd1,0xad,0xf3,0xbd,0x60,0x85,0x83,0xbe,0x53,0x85,0xd0,0xbd,0x7d,0x0c,0xaa,0x3e,0x86,0x33,0xcb,0x3d,0xe1,0xe4,0x01,0x3e,0xdc,0x3c,0xbe,0x3d,0x6b,0x14,0xf8,0xbe,0x09,0x13,0x13,0xbe,0x1e,0x66,0x8f,0x3f,0xab,0x67,0xd2,0xbe,0xbe,0xa5,0x05,0x3e,0x95,0xf5,0x35,0xbd,0x6e,0xf9,0x9a,0x3c,0xb8,0x80,0x20,0x40,0x55,0xe9,0x50,0x3c,0x28,0x04,0x41,0xbe,0x99,0xf5,0xcc,0xbc,0x47,0x85,0x99,0x3d,0x7d,0x53,0x29,0xbd,0x15,0xb6,0xd7,0x3d,0x08,0x4e,0xd4,0xbd,0xf9,0xa8,0xca,0xbe,0x0a,0x40,0x90,0xbd,0x3c,0x82,0x16,0x3e,0xb2,0xc8,0x09,0xbe,0x3e,0x57,0xaf,0x3d,0xe7,0x20,0x34,0x3e,0x83,0x73,0x6e,0x3d,0xba,0xea,0xb5,0x3e,0x34,0xc5,0xcc,0x3e,0xfc,0xaf,0xe4,0x3e,0x33,0x3d,0x98,0xbd,0x5a,0x6c,0xe2,0x3f,0xd6,0x99,0xdf,0x3d,0xeb,0xaa,0x1c,0x3e,0x6a,0x8f,0x01,0x3e,0x94,0x2e,0x5b,0x3f,0xaf,0xdf,0xa9,0x3e,0x5f,0xbc,0xe1,0x3d,0xca,0xc7,0xd2,0x3d,0x6e,0x82,0x97,0x3e,0x8e,0xdb,0xd6,0xbe,0x46,0x4d,0xbe,0xbc,0xf6,0xbf,0x59,0x3d,0x2f,0xac,0xa8,0x3d,0x97,0x9e,0xb2,0x3f,0xb1,0x9f,0x97,0x3d,0xb7,0xcf,0xd3,0xbd,0x5f,0x29,0xe7,0x3e,0x97,0x81,0x59,0x3e,0xca,0xb0,0xf5,0x3e,0x72,0x5e,0x4f,0xbd,0x1a,0x72,0x93,0x3d,0x89,0x26,0xc5,0xbe,0x99,0x71,0x83,0xbd,0x22,0x1f,0x6e,0x3f,0xc2,0x0a,0xfc,0x3d,0xd8,0xb2,0x0f,0xbf,0x0c,0x9d,0xb7,0x3e,0x5a,0xc5,0x6e,0x3e,0x18,0x5b,0xc6,0xbe,0x76,0x5a,0x33,0x3f,0x9b,0x92,0x80,0xbd,0xa1,0xe5,0xe0,0x3e,0x27,0x48,0x35,0x3f,0x7c,0x64,0x66,0x3e,0xc2,0x60,0x20,0x3e,0xe4,0x2d,0xc3,0x3b,0xf0,0xb8,0xf8,0x3e,0xa5,0x29,0xa5,0xbd,0xfd,0x31,0x73,0x3e,0x56,0x18,0x2a,0x3f,0x14,0xdd,0x0c,0xbf,0x7a,0x37,0xbe,0x3e,0x4d,0x42,0x2e,0xbf,0xb1,0xae,0xb1,0xbd,0xe5,0x68,0xe1,0x3e,0x2d,0x51,0xcf,0x40,0x21,0x99,0x84,0x3e,0x90,0x0f,0x34,0x3f,0x6c,0x15,0x06,0xbe,0x1e,0xa4,0x66,0x3c,0xd4,0x45,0x52,0xbd,0x89,0xbe,0x4a,0x3e,0x05,0x85,0xa8,0x3e,0x40,0x73,0x8b,0x3f,0xb3,0x0e,0xa2,0xbb,0x04,0xc6,0x1d,0xbc,0x20,0xec,0x0b,0xbf,0x89,0xb8,0x91,0xbf,0x4d,0x09,0x49,0xbf,0xf4,0xe3,0x01,0xbf,0x20,0xf9,0x96,0xbf,0x95,0x30,0x2c,0x3f,0x63,0xc4,0x14,0x3d,0x80,0x7f,0x8f,0xbd,0x12,0xb9,0x54,0xbe,0x8d,0xff,0x3b,0x3f,0x17,0x3c,0x77,0x3e,0xd5,0x24,0xc0,0x3d,0xd5,0x99,0x26,0xbf,0xbf,0x92,0x39,0x3f,0x11,0xfc,0xb8,0xbe,0xa1,0x60,0xe0,0xbd,0xc9,0x47,0x8c,0xbe,0x61,0x77,0x42,0x3e,0xa3,0xfd,0x31,0xbd,0x96,0xef,0x12,0x3e,0xfa,0xe6,0x88,0xbd,0x29,0x8b,0xb4,0xbe,0xf0,0xba,0x5c,0xbe,0x61,0x23,0x0f,0x3e,0x37,0xee,0x9c,0x3e,0x3f,0xb8,0xf5,0x3d,0xf1,0x20,0xc9,0x3e,0xbe,0x20,0x8e,0x3e,0x8f,0xdf,0x16,0xbf,0xe7,0x3f,0xdd,0xbe,0x00,0x85,0xf6,0xbd,0xae,0x8c,0x35,0xbf,0xf9,0xf9,0x7c,0x3d,0xdb,0x83,0xb5,0xbe,0xb3,0x73,0x4b,0xbf,0xff,0x9f,0x19,0xbd,0xe0,0xaf,0x0f,0xbe,0x33,0x19,0x0b,0x3f,0x44,0x28,0x87,0x3e,0x6b,0x6b,0xea,0x3e,0xa8,0xb0,0x65,0x3e,0x9c,0xaf,0x6b,0x3c,0x53,0xf5,0x90,0x3d,0xaa,0x39,0x84,0x3e,0xcb,0x05,0x0d,0x3f,0xe7,0x09,0xb6,0x3e,0xac,0xf2,0xa7,0xbc,0x7c,0x97,0xc7,0x3e,0x09,0xc2,0x42,0xbf,0x9a,0x3f,0xcb,0x3e,0x15,0x5c,0x9d,0xbe,0x29,0xf9,0xf9,0x3d,0xd6,0xfa,0x3f,0x3e,0x04,0x4a,0x99,0xc0,0x66,0x89,0x02,0xbe,0x57,0x8c,0x63,0x3e,0x6b,0x31,0x38,0xbe,0xd9,0xd6,0x64,0x3e,0xe7,0x65,0xd1,0xbe,0x43,0x67,0x30,0xbf,0xd4,0x0f,0x97,0x3e,0x9f,0x17,0x7b,0x3c,0x87,0x50,0x82,0x3c,0x2a,0x74,0x8b,0x3e,0x16,0x2a,0x37,0xbe,0x76,0x76,0x6e,0xbc,0x57,0xaa,0x0f,0xbf,0xa3,0xaa,0xf9,0xbd,0xa0,0xec,0x0d,0x3e,0x9c,0x73,0xe0,0xbe,0xcf,0x7e,0xbc,0xbe,0x9e,0x5b,0x58,0x3e,0xa9,0x2d,0x7b,0xbf,0xc7,0x7c,0x25,0x3e,0x32,0xd2,0x93,0xbd,0x04,0x13,0x04,0x3e,0xf5,0xf5,0xbd,0xbe,0x21,0x97,0x0a,0x3f,0xcc,0xa2,0xa6,0x3e,0xde,0x32,0x46,0xbd,0x0e,0x3e,0x63,0x3f,0x22,0xef,0xd7,0xbe,0x40,0xdf,0xc6,0x3e,0xa4,0xc0,0xb3,0x3e,0xa6,0x0a,0x03,0x3e,0xe8,0x7a,0x2a,0x3f,0x06,0xc0,0xa9,0x3e,0x06,0xd6,0x43,0xbe,0xc2,0xc6,0xb0,0x3e,0xc7,0x12,0x3b,0x3e,0x45,0x5a,0x08,0xbe,0xbc,0x29,0xb9,0x3c,0xa7,0x40,0xc2,0xbd,0x0a,0xdb,0x95,0xbe,0x86,0x1f,0xab,0x3e,0x81,0x6c,0x93,0x3f,0x0c,0x1a,0x45,0x3e,0xbb,0x69,0xb2,0x3e,0xdb,0x29,0x8b,0x3e,0xd6,0xa4,0xb1,0x3e,0x79,0xf6,0x2f,0x3e,0xd9,0xba,0x4b,0x3e,0x12,0x5a,0x17,0xbe,0x93,0x54,0x11,0x3f,0xe8,0x3a,0x69,0xbe,0xdf,0xbc,0x30,0xbe,0xd1,0x3c,0xd1,0xbd,0x10,0xa6,0x99,0x3d,0x25,0xa5,0x79,0x3e,0x3c,0x15,0xc6,0x3d,0x09,0xa3,0x35,0x3f,0xc6,0x0a,0xfa,0x3d,0x03,0x3e,0x28,0x3f,0x03,0x15,0xfe,0x3e,0xd9,0xf4,0x39,0x3e,0x88,0x9b,0x15,0xbd,0x9e,0xe0,0x98,0x3e,0xdf,0xbe,0x99,0x40,0xda,0x8a,0xa7,0xbe,0x62,0x81,0x1d,0x3e,0x29,0x28,0xbd,0x3b,0x0d,0x4f,0xf4,0xbd,0x7a,0xb1,0x6e,0x3e,0x56,0x5f,0xa7,0x3c,0x0f,0x31,0x1a,0x3d,0xbb,0x83,0xb1,0x3e,0x8c,0xea,0x5b,0xbe,0xd4,0x47,0xeb,0xbd,0xc2,0xe5,0xf4,0x3d,0x2b,0x16,0x90,0xbe,0x27,0xf6,0x0a,0x3f,0x27,0xe2,0xf6,0x3c,0x74,0x0a,0x81,0xbe,0xd2,0xd7,0xcd,0x3c,0x46,0x5b,0x87,0x3d,0x94,0x98,0x8f,0x3d,0xd1,0x1f,0x08,0x3f,0xe5,0xe1,0x20,0x3e,0x4e,0x63,0xbf,0x3d,0x66,0xb0,0xb4,0x3c,0xcf,0x30,0x0a,0x3f,0x5d,0x18,0x48,0xbe,0x25,0x7f,0x8f,0xbe,0x45,0xec,0x44,0x3e,0x94,0x22,0xba,0xbe,0x20,0xe5,0x06,0x3e,0x99,0x2c,0x1d,0xbe,0x50,0x41,0x82,0xbd,0xfe,0xd0,0x9f,0x3e,0x40,0xb6,0xc7,0xbe,0x6e,0x28,0x13,0xbe,0x70,0xcd,0x73,0xbc,0xe8,0x96,0x4c,0x3e,0xb4,0xd8,0x0c,0x3d,0x28,0xe8,0x52,0x3e,0x38,0x7c,0x32,0xbe,0x45,0xc6,0xc7,0xbd,0xf0,0xb1,0x47,0x3c,0xff,0xfb,0x43,0x3d,0x7d,0x06,0x18,0xbe,0x5e,0xa7,0x17,0x3e,0xd7,0xf1,0x87,0xbe,0xe5,0x32,0x43,0x3d,0xe5,0x53,0x34,0x3e,0xe0,0x6a,0x90,0xbd,0xb3,0x4f,0xeb,0x3d,0xc1,0xd7,0x70,0x3e,0x64,0x76,0xa7,0xbd,0xb6,0x44,0x99,0x3e,0xed,0xb9,0xd7,0xbb,0x42,0x4e,0x80,0xbe,0x7a,0x74,0xfd,0x3e,0x14,0x80,0x74,0x3c,0x69,0xe6,0x20,0xbe,0x76,0x88,0x78,0x3e,0x7e,0x44,0x86,0x3e,0x57,0xfa,0x91,0xbf,0xb5,0x42,0x1f,0x3e,0x54,0x10,0x42,0xbe,0xf0,0x47,0x09,0xbe,0xcf,0x68,0xfd,0x3d,0x21,0xf0,0x7a,0xc0,0xb4,0xec,0x42,0x3e,0x61,0xb5,0x96,0xbd,0x73,0x2f,0x27,0xbe,0xe2,0x3e,0x8b,0x3e,0x36,0xc7,0x13,0xbe,0xd4,0x78,0x5b,0xbe,0xe6,0x70,0x4a,0x3e,0xcb,0x7a,0xd3,0x3e,0x72,0x4a,0x84,0x3e,0x64,0x7f,0x0d,0xbe,0xdd,0x4b,0x2b,0x3d,0xca,0x1b,0x12,0xbe,0x0f,0x8c,0x82,0xbe,0x07,0x34,0xc1,0xbd,0xac,0xb9,0x3e,0xbe,0x02,0x27,0xa9,0xbe,0x7b,0x53,0x91,0xbe,0xf3,0xd4,0x35,0x3e,0x38,0x1f,0x5e,0xbf,0x38,0xb8,0xd7,0x3e,0xf1,0x78,0x22,0xbd,0x91,0xe9,0x34,0x3e,0xc2,0x7d,0x45,0xbf,0x51,0xa8,0x52,0x3e,0x06,0xb0,0x61,0x3e,0x53,0x90,0x1b,0xbe,0xcd,0x8e,0x64,0x3f,0xfe,0x33,0xd4,0xbe,0x66,0x9e,0xff,0x3d,0x0f,0x4a,0xaf,0x3e,0x4d,0x16,0xc1,0xbd,0xbe,0x67,0xe2,0x3e,0x83,0xb5,0x67,0x3c,0xe4,0xd9,0x45,0xbd,0x7d,0x4e,0xba,0xbd,0xde,0xce,0xc7,0x3d,0x4b,0x44,0x52,0xbc,0xa6,0x9b,0x3b,0x3e,0x79,0xf5,0x52,0x3e,0x66,0x30,0x40,0xbe,0x86,0xcf,0x30,0x3e,0x91,0xd4,0x92,0x3f,0x56,0xaf,0xb2,0x3e,0x71,0xc2,0x69,0x3e,0xb7,0x7b,0x31,0x3e,0x9a,0xdc,0x9c,0x3e,0xca,0x33,0xd5,0x3e,0xe1,0x33,0xcc,0x3d,0x59,0x45,0x80,0x3e,0x67,0xf0,0x10,0x3f,0x2d,0xfb,0x81,0xbe,0x27,0x39,0x67,0xbd,0x68,0xad,0xee,0x3d,0x79,0xf7,0x3e,0x3e,0x27,0xa7,0x17,0x3f,0x2b,0xcb,0x81,0x3e,0x92,0x29,0xe3,0x3e,0xf6,0x2c,0x29,0xbd,0x13,0x64,0x06,0x3f,0xfd,0xff,0x2d,0x3e,0xbd,0xe5,0xe6,0x3d,0x21,0xf8,0xc7,0xbc,0xf7,0x77,0xa9,0x3d,0x1e,0x1a,0x82,0x40,0xf0,0xdf,0x88,0x3d,0xf2,0x97,0x0d,0xbe,0x0d,0x45,0xf8,0x3d,0x5f,0xdf,0x81,0x3e,0xd6,0xda,0x96,0x3e,0x1e,0x63,0xb1,0x3a,0xf6,0xef,0x10,0xbe,0x4e,0x4f,0xb4,0x3e,0x95,0x57,0x7d,0xbe,0x22,0xe0,0x58,0x3e,0xe1,0x58,0x82,0x3e,0xf3,0xb3,0x5b,0xbe,0x17,0x58,0x14,0x3f,0x9f,0xdd,0x52,0x3e,0x2b,0xfc,0xe9,0xbc,0xe0,0x38,0x58,0xbc,0xc0,0xf6,0x6c,0xbd,0xd6,0xdf,0x0a,0x39,0x52,0x7b,0x12,0x3f,0xd3,0xf8,0x8c,0x3e,0xd6,0xcb,0x53,0xbe,0x95,0xaf,0xc3,0xbc,0x25,0xca,0x0d,0x3f,0x35,0x11,0xc2,0xbe,0x8d,0xcd,0xd4,0x3d,0xc7,0xaf,0x56,0x3e,0xda,0x82,0x4b,0xbf,0xc4,0x8d,0x30,0x3e,0x3a,0xa7,0x1a,0xbe,0x62,0x10,0x8f,0xbe,0x71,0x3f,0x38,0x3d,0x9e,0x9b,0x1a,0xbf,0x3f,0x39,0xfb,0x3d,0x91,0x72,0xbf,0x3e,0x29,0xc5,0x87,0xbe,0xed,0x7c,0xab,0x3d,0xa2,0xb2,0x81,0x3e,0x8a,0xd2,0xde,0x3d,0x51,0xa2,0x8a,0x3d,0x9e,0xb3,0x12,0x3f,0x1d,0xcc,0xb2,0xbe,0xaf,0xb6,0x10,0xc0,0xa9,0x08,0x69,0xbe,0xd5,0x6d,0x5e,0xbe,0xdf,0x08,0x02,0xbf,0xf6,0x3d,0xa1,0x3d,0x5b,0x08,0x6c,0xbd,0x7a,0x29,0xe0,0xbd,0xd5,0x20,0x11,0xbe,0xad,0xd7,0x45,0xbb,0xc0,0xae,0x34,0xbd,0x6a,0x4c,0x64,0x3e,0xf3,0x8f,0x22,0x3e,0xa4,0x49,0xa8,0x3e,0x54,0x28,0x47,0xbe,0x9c,0xa5,0x29,0x3e,0xdf,0x3a,0x07,0xbf,0xd7,0x2f,0x28,0x3e,0x56,0xaf,0x5e,0xbd,0xa5,0x45,0xd1,0xbe,0xc5,0xfc,0xaa,0xbd,0x64,0x28,0x10,0x3e,0xcf,0xe0,0x2a,0x3e,0xb1,0x56,0xa5,0xc0,0xc4,0x1f,0x61,0x3e,0xda,0xf3,0x88,0x3d,0x19,0x5d,0x24,0xbe,0xc1,0xdc,0x28,0x3e,0xc4,0xca,0xd4,0xbd,0xc1,0x00,0x11,0x3e,0x0f,0x80,0xc3,0xbd,0x54,0x96,0xae,0xbe,0xed,0x09,0x54,0x3e,0x89,0x06,0x5f,0x3e,0x34,0xcf,0x07,0x3e,0x4f,0xc0,0x8e,0x3e,0xf5,0xb0,0x2f,0xbf,0xcf,0x8c,0x1b,0x3e,0x48,0x83,0xda,0x3e,0x9b,0x1e,0x1f,0x3c,0x96,0xa7,0x88,0x3d,0x20,0xa1,0x64,0x3e,0x66,0xcb,0x97,0x3e,0xe3,0x76,0x2c,0xbc,0xed,0x66,0xbf,0x3c,0x13,0xac,0xc7,0x3c,0xd8,0x92,0x6e,0xbc,0xa7,0x74,0xb0,0x3d,0x7b,0x3d,0xc6,0xbd,0xf0,0xf2,0x9c,0xbe,0xea,0xf0,0x2e,0xbe,0xec,0x51,0x60,0x3f,0xfb,0x9b,0x40,0x3e,0x6b,0x5d,0x85,0x3e,0xf1,0x42,0x99,0xbd,0x6e,0x57,0x0d,0xc0,0xf9,0xb4,0x55,0xbd,0x3e,0x08,0xb3,0xbe,0xfb,0x98,0x0e,0x3f,0x5c,0x68,0xb1,0x3e,0xc0,0x9a,0x09,0xbf,0xea,0x4f,0x12,0x3e,0x87,0xc3,0x41,0x3e,0x37,0xe1,0x54,0xbf,0xa6,0xed,0x36,0xbe,0x76,0xec,0x32,0xbf,0x43,0xb6,0x81,0x3e,0x71,0x7e,0xd9,0x3e,0x93,0x46,0x9a,0x3f,0x28,0x70,0x3e,0x3e,0x46,0x3a,0x8d,0x3e,0xc1,0x57,0xc7,0xbe,0x25,0xec,0x8b,0x3d,0x58,0x7a,0x0e,0x3e,0x6f,0xf4,0xac,0xbf,0x9c,0x09,0xdd,0xbe,0x99,0x0b,0xa2,0x3d,0xb4,0x7a,0xc9,0x3e,0x9e,0x1c,0x84,0x3e,0x5e,0x31,0x92,0x3e,0x1c,0x5e,0x65,0x3e,0x46,0x95,0x33,0x3f,0x80,0xea,0xa2,0xbf,0x3b,0x51,0x84,0x3f,0x49,0x32,0x0c,0xbe,0x4f,0x4d,0xdb,0xbd,0x29,0x2a,0x3a,0x3e,0x1c,0xce,0x02,0x40,0x06,0x9c,0x9d,0x3c,0x69,0x94,0x9f,0x3e,0x58,0xa2,0xc5,0x3e,0xcb,0xc3,0x72,0xbd,0x2d,0xf1,0x4d,0x3f,0xc9,0x44,0x07,0x3e,0x88,0xe2,0x93,0x3d,0xd1,0x62,0x8e,0x3f,0x48,0x17,0x15,0x3d,0x2e,0x25,0x32,0x3e,0x57,0xd9,0x24,0x3e,0x7a,0xe5,0x1a,0xbf,0x6f,0x9e,0x43,0xbf,0xe7,0xff,0x96,0x3d,0x34,0xfa,0x20,0xbf,0xd2,0x98,0x52,0x3f,0x68,0x05,0xbc,0x3e,0xcb,0x97,0x44,0x3e,0x9e,0x0c,0x92,0x3e,0xef,0x82,0x85,0x3f,0x84,0x35,0xd6,0xbd,0x00,0xcc,0x53,0x3f,0x2c,0x51,0x30,0xbe,0xf7,0x75,0xa0,0xbd,0x91,0x8b,0xf2,0x3d,0x32,0x6e,0x2d,0x3e,0xa1,0x07,0x5a,0x3f,0x74,0x13,0xc7,0xbc,0x05,0x19,0x2e,0x3d,0xff,0x53,0x80,0x3e,0xe7,0xcc,0x3a,0x3e,0xa0,0x2d,0xbd,0x3e,0x08,0x9b,0x20,0x3e,0x18,0x4d,0xa4,0xbc,0xed,0x40,0xed,0x3d,0x05,0xd8,0x6e,0x3e,0x04,0x1c,0x35,0xbe,0x89,0xdd,0x66,0x3e,0x37,0x75,0x05,0x3e,0xf2,0x42,0x56,0x3e,0xa6,0x84,0xc9,0xbd,0x5d,0xa3,0xf6,0x3e,0x97,0xda,0x9a,0x3e,0xc6,0xe6,0xab,0x3e,0xab,0x63,0x5a,0x3d,0x9c,0x8e,0x17,0x3e,0x39,0xed,0xe8,0x3e,0xd2,0x7b,0xd8,0xbe,0x81,0x1f,0xba,0x3c,0xf3,0xc7,0x7f,0x3d,0xb9,0x47,0xb7,0xbd,0x9e,0xa2,0x75,0xbc,0xd2,0x9c,0x0c,0xbd,0x3f,0x9e,0xfc,0xbd,0x56,0xd1,0xd7,0x3e,0xcb,0x30,0x14,0x3e,0x85,0xae,0xd6,0x3c,0x2e,0xc5,0xb1,0xbc,0xe1,0x88,0x9a,0x3f,0x24,0x10,0xe8,0xbe,0xed,0x75,0xc6,0x3c,0xd7,0xc9,0xc3,0x3d,0x4a,0xc8,0x2f,0x3e,0xc3,0x68,0x3e,0x40,0xb3,0x98,0x46,0xbe,0x70,0xe3,0x92,0x3c,0xb8,0x8a,0x8f,0xbd,0x1b,0x26,0x1e,0xbe,0x37,0x4c,0x60,0xbe,0xc3,0x89,0x05,0x3d,0x16,0xdf,0x5b,0xbe,0x3a,0xd9,0x36,0xbe,0x67,0x5a,0x42,0x3e,0x6c,0x22,0x54,0x3e,0x64,0x3c,0xfb,0xbc,0xb9,0x80,0x51,0x3e,0xc4,0x4a,0x54,0x3e,0x82,0x75,0x3e,0x3e,0x73,0xea,0x47,0x3d,0x97,0x32,0xb1,0x3e,0x1e,0x7e,0xa0,0x3e,0x20,0xb9,0xa8,0xbd,0x5b,0xe2,0xd3,0x3f,0x1d,0xcb,0x57,0x3e,0x26,0x62,0x12,0x3e,0x60,0xab,0x34,0x3e,0xf7,0xf8,0x0f,0x3f,0xa8,0x2b,0xf8,0xbd,0x87,0x3d,0x75,0xbe,0x52,0xfe,0xd5,0x3e,0x79,0xc4,0x77,0xbf,0x1d,0x41,0x81,0xbc,0xb0,0x63,0x76,0xbe,0x8e,0x7c,0xa5,0xbd,0x9a,0xe2,0x29,0x3e,0xa4,0xc2,0x80,0xbf,0x74,0xb2,0x9e,0x3d,0x24,0x0a,0xc7,0x3e,0x01,0xcf,0x74,0xbd,0x6d,0x79,0x2e,0x3d,0xfd,0xcb,0x64,0xbe,0x8d,0xd5,0x21,0x3e,0x66,0x7b,0xa3,0xbd,0x2c,0xb8,0xd2,0x3e,0x54,0x66,0xca,0x3d,0x70,0x80,0xd4,0xbf,0x0d,0x87,0xba,0x3d,0x74,0x39,0xbf,0xbd,0xb9,0x8d,0xc4,0xbd,0xae,0xfc,0xa7,0xbd,0xad,0x8e,0x1c,0x3b,0x58,0x82,0x0e,0x3e,0x1b,0x3a,0xb8,0x3b,0x93,0xc1,0x24,0xbe,0x17,0xbd,0x8e,0xbd,0xca,0x37,0xe0,0x3e,0x8b,0x39,0x83,0xbe,0x3b,0x81,0xc8,0xbd,0x14,0x0f,0x1b,0xbe,0x41,0xd9,0x8c,0xbc,0x7f,0xb6,0xfe,0xbe,0x4f,0xd5,0x35,0xbd,0xaa,0xbe,0x2c,0xbf,0x00,0x1b,0x22,0xbe,0x02,0xf1,0xce,0xbc,0x54,0x5a,0x63,0x3e,0xcf,0xe4,0x3d,0x3e,0xe4,0xcc,0xa2,0xc0,0x98,0x07,0xfb,0x3e,0x64,0x65,0xad,0x3e,0x5e,0x36,0x93,0xbc,0x7c,0x93,0x04,0x3c,0x63,0xcb,0x1e,0xbe,0x77,0xf8,0x55,0xbe,0xd9,0x5c,0x92,0x3e,0x09,0xdd,0x81,0x3d,0x4f,0x26,0x8f,0x3e,0x5d,0x2a,0xdb,0x3d,0x24,0xc9,0x9b,0x3d,0x62,0x55,0xbd,0xbc,0x9d,0x5c,0x93,0xbe,0x38,0x39,0x0e,0xbd,0xba,0xb7,0x02,0x3f,0x58,0x15,0xfd,0xbe,0x86,0x4b,0x72,0x3e,0x0e,0xa9,0x82,0x3e,0x0d,0x7a,0x1f,0xbf,0xa3,0x4b,0x3e,0xbe,0x7e,0x0e,0x0e,0x3e,0x81,0xd2,0x20,0xbe,0x11,0xf5,0x22,0xbf,0x6d,0x19,0x92,0x3e,0xa8,0xe6,0x70,0xbe,0x60,0x45,0x8f,0xbd,0x5a,0x9c,0x03,0x3f,0x46,0x20,0x32,0x3f,0xfb,0xcc,0x1d,0xba,0xc7,0x57,0xb1,0x3d,0x53,0x71,0xb4,0x3d,0x01,0x3d,0x42,0xc0,0x50,0xd2,0x90,0x3d,0xee,0xb3,0xed,0xbd,0x47,0x7e,0x06,0xbd,0x46,0x8f,0x65,0xbd,0xbe,0x02,0x82,0xbf,0xd9,0x95,0xde,0xbc,0xea,0x5d,0xfd,0x3d,0x00,0xfc,0xa5,0xbf,0xc5,0x0a,0x03,0xbe,0xa6,0x94,0x0f,0xbf,0x37,0x9c,0xb3,0x3d,0xd9,0x5b,0x95,0x3c,0xf8,0x14,0xa5,0x3c,0x1f,0xc3,0x0a,0x3d,0xe9,0xed,0xe2,0x3e,0x49,0x6b,0x11,0xc0,0x77,0xe0,0x5f,0x3e,0x75,0xa1,0x5b,0xbd,0x75,0x65,0xa6,0xbf,0x2b,0xef,0x5b,0xbf,0x09,0xa5,0xf4,0xbd,0xe4,0x56,0xcf,0xbc,0x12,0x80,0x1c,0xbc,0xa2,0x8a,0x1f,0x3e,0xb8,0x4a,0x73,0x3e,0x83,0x2c,0x07,0x3f,0x3d,0xf7,0x09,0xbf,0x86,0xee,0x5f,0x3e,0xda,0x12,0x55,0xbe,0xe2,0x5f,0xa5,0x3b,0x01,0xa2,0xfa,0x3e,0x38,0x19,0x26,0x40,0xc8,0x13,0x75,0xba,0x71,0xde,0x06,0x3f,0x29,0xf9,0xcc,0x3e,0x87,0x1e,0xf2,0xbd,0xf5,0xb5,0x08,0x3f,0x2b,0x91,0x0e,0x3e,0xb0,0xc9,0x4b,0x3e,0xac,0x08,0x88,0x3f,0x24,0xef,0xb4,0x3d,0xa8,0x50,0xfc,0xbd,0xf5,0x15,0x17,0x3e,0x6d,0xf0,0x2b,0xbf,0xd5,0x08,0x30,0xc0,0xf0,0x3a,0xf5,0x3d,0x3c,0xb7,0x98,0xbe,0x61,0x04,0xa9,0x3e,0xa8,0x9b,0x60,0xbe,0x72,0x90,0xf3,0xbd,0xac,0x6a,0xa4,0x3e,0xb3,0x26,0x02,0x3f,0xa0,0x44,0x5e,0x3e,0x15,0xd8,0xec,0x3e,0x0c,0x9d,0xa2,0xbe,0xbb,0xa4,0xce,0x3e,0x07,0xf6,0x8d,0x3c,0x52,0x95,0x0d,0xbd,0x08,0xf9,0xcd,0xbe,0xc7,0x77,0x57,0xbe,0x29,0x68,0x29,0x3c,0x33,0x9c,0x19,0x3d,0x39,0xbe,0xc0,0x3e,0xda,0xc3,0x35,0xbf,0x45,0xdb,0xd2,0xbd,0x32,0xd4,0x37,0x3e,0x50,0x1e,0x7f,0x3e,0x92,0xf0,0x78,0x3d,0x50,0x99,0xd9,0xbd,0xb4,0x86,0x65,0x3f,0xb3,0x97,0x27,0xc0,0xd1,0x98,0xb4,0xbd,0xd5,0x9a,0x18,0xbd,0x12,0x3a,0x5a,0xba,0x6e,0x1d,0x6e,0xbe,0x33,0x72,0x14,0xbd,0x03,0x9c,0x7f,0xbe,0x9d,0x7b,0x94,0x3d,0xaa,0xab,0x8c,0x3e,0x46,0x44,0xdd,0x3d,0x21,0xf3,0xd4,0xbd,0x28,0xc8,0x7f,0xbe,0x2d,0x5f,0x4e,0x3e,0x93,0x3d,0x91,0x3e,0x77,0x65,0xac,0xbe,0xf4,0x0e,0x57,0x3e,0xef,0xa7,0x23,0x3d,0x9a,0xea,0x16,0xc0,0x98,0x6c,0x4a,0xbe,0xa2,0xd5,0x29,0x3c,0xf1,0xdb,0xd5,0xbf,0xac,0xe4,0x69,0xbe,0x4f,0x4e,0x3e,0xbe,0x47,0xc1,0xce,0x3e,0xae,0xbf,0xc7,0xbd,0x71,0xbb,0x8d,0xc0,0xdb,0x13,0x30,0x3f,0xc1,0xda,0x63,0xbd,0x77,0x31,0x50,0x3e,0x54,0x58,0x19,0xbd,0x98,0xff,0xc1,0xbe,0x07,0x6a,0xb8,0xbe,0x06,0x87,0xc5,0x3e,0x99,0x38,0x36,0xbe,0x27,0x98,0x93,0xbd,0x17,0x0e,0x67,0xbe,0xd3,0xd4,0x4e,0x3e,0x7d,0x8c,0x32,0xbd,0x9d,0x87,0xf3,0xbd,0x58,0x07,0x0d,0xbc,0xba,0x7b,0xb0,0x3e,0x4a,0x22,0x06,0xbe,0x4a,0x36,0x0b,0xbe,0x31,0xd5,0xa6,0x3f,0x05,0x17,0x67,0xbf,0x7e,0xe9,0x41,0xbe,0x5e,0x89,0x47,0x3e,0xe7,0xa8,0x06,0xbe,0x49,0x07,0xfd,0xbf,0x9a,0x1d,0xf3,0x3c,0x28,0x1a,0x11,0xbe,0x41,0x27,0x9b,0xbe,0x4b,0xc2,0xeb,0x3e,0xd3,0xfe,0x0c,0xbe,0x13,0x4a,0xd1,0x3e,0x15,0xe5,0x0c,0x3f,0x24,0x55,0xb6,0xbe,0x53,0x58,0x2f,0x3f,0x1f,0x5c,0x03,0x3e,0x25,0x5c,0x1a,0xbe,0x53,0x7e,0x87,0x3e,0x46,0xec,0x26,0x3d,0x6b,0xcc,0x56,0x3d,0x23,0xd7,0xf5,0x3d,0xc3,0x38,0x3d,0xbd,0x19,0x36,0x17,0xbe,0xd4,0xab,0x42,0x3e,0xa6,0xdd,0xb7,0x3f,0x7b,0xc7,0x58,0x3e,0x9a,0x2f,0x4f,0x3d,0xc8,0x07,0xc4,0x3e,0xef,0x7b,0x47,0x3e,0x95,0xd8,0xdd,0x3d,0x98,0x47,0x8f,0x3d,0xa0,0x07,0x97,0x3d,0xb4,0x54,0x02,0x3e,0x04,0x45,0x53,0x3d,0x7d,0xac,0x02,0xbe,0xe0,0x92,0xf0,0x3c,0x86,0xe0,0xcc,0x3b,0x7a,0xa9,0x61,0xbd,0xa2,0x7b,0xf2,0xbc,0xaa,0x41,0xcb,0x3e,0xc4,0x67,0xe2,0x3e,0x8e,0xf3,0x40,0x3d,0x5c,0xd2,0xa6,0x3e,0x19,0xf3,0x9f,0xbd,0x70,0x52,0xf5,0x3d,0x45,0xe6,0x27,0xbe,0x43,0x07,0x9e,0x40,0xa4,0x39,0x87,0x3d,0x81,0xa6,0x7d,0x3d,0x24,0xc0,0xb2,0x3d,0x01,0x65,0xb2,0x3c,0x3a,0x4b,0x47,0x3e,0xa7,0x5e,0x3d,0xbe,0x6c,0x78,0xc5,0x3e,0x85,0x2f,0x2c,0x3f,0xa8,0xc5,0xb9,0xbd,0xf5,0x58,0x9d,0xbd,0x7f,0x85,0xf1,0xbd,0x45,0x86,0xb5,0xbe,0x46,0x0e,0x71,0x3e,0x48,0xc3,0x79,0x3e,0x44,0x86,0x20,0xbe,0x1d,0xb4,0x23,0x3e,0x64,0xb7,0xab,0x3e,0xdf,0x42,0x62,0xbe,0xa5,0xde,0xc2,0xbe,0xf7,0x83,0x0c,0x3f,0x18,0xd3,0xb1,0xbd,0x6f,0xbc,0x9a,0x3e,0x38,0x71,0x42,0xbe,0x00,0xe2,0x47,0x3e,0x54,0x52,0x6f,0x39,0xe2,0x35,0xc4,0x3c,0x40,0x61,0x4c,0xbe,0xc5,0xc8,0xae,0xbd,0x59,0x92,0x05,0x3e,0xbf,0x9d,0x1d,0xbc,0xc8,0xf8,0x0f,0xbe,0xb5,0x39,0xb6,0xbe,0x55,0x87,0xda,0x3b,0x8a,0x9b,0xa2,0x3d,0xcb,0x71,0xf1,0x3e,0xab,0xe1,0x2e,0x3e,0x0d,0x67,0x89,0x3e,0xfc,0x8e,0xec,0x3d,0x7f,0x51,0xdd,0xbc,0x81,0x3a,0x7c,0xbe,0x53,0x48,0x1c,0x3e,0x3f,0xf8,0xb2,0xbe,0x87,0x58,0x9e,0x3d,0xc7,0x07,0xdd,0xbe,0x3a,0xd1,0x2a,0xbe,0x36,0x30,0x3c,0x3e,0xc9,0xd5,0xfe,0xbd,0xf6,0x47,0x7a,0x3e,0x0d,0x03,0x62,0xbc,0x64,0xcf,0x8c,0x3e,0xe0,0x14,0xed,0x3d,0x0a,0xdb,0x89,0xbd,0xe0,0x47,0x40,0x3d,0xf6,0x10,0xfc,0x3c,0x0d,0xf3,0xb7,0xbd,0x7d,0x14,0xfa,0xbd,0x3f,0x5a,0x75,0x3e,0xcd,0x14,0xaf,0x3e,0x61,0x1a,0x79,0xbf,0xa7,0x60,0x0e,0x3f,0x16,0x85,0x5b,0xbe,0xf9,0xd6,0x48,0x3e,0xb1,0x7b,0x54,0x3d,0x49,0xc5,0x21,0xc0,0x8f,0x9b,0xae,0x3e,0x95,0xad,0x02,0x3e,0xa3,0xd1,0x63,0x3d,0xf2,0xc6,0xb4,0x3e,0x85,0x8c,0xfa,0xbd,0xeb,0x37,0x04,0xbc,0x1c,0xc1,0xe2,0x3d,0x65,0x53,0x97,0x3e,0xcd,0x6d,0x2e,0xbe,0x28,0x71,0x2e,0xbe,0x99,0xb5,0x41,0x3c,0x3d,0x35,0x09,0x3e,0xce,0xa6,0x2d,0xbe,0x7b,0xc8,0xdf,0x3d,0xbc,0x56,0x78,0xbe,0xe5,0x8d,0x87,0xbd,0xb7,0x4a,0x42,0xbe,0x8f,0xfa,0x1c,0xbe,0x66,0xbe,0xe3,0xbf,0xbe,0x12,0x92,0x3e,0x91,0x44,0x86,0xbe,0xa0,0x5c,0xae,0x3e,0xe9,0xc1,0xa9,0xbe,0x2b,0x9b,0xf4,0x3d,0x19,0x45,0xf0,0x3e,0x06,0x42,0xfe,0x3e,0xbd,0xd8,0xb8,0xbf,0x2e,0x0e,0x23,0x3d,0xac,0xb6,0x88,0xbc,0x91,0xd4,0x82,0xbe,0x97,0x35,0xb8,0x3e,0xc9,0xc2,0x5c,0xbc,0x5b,0x7a,0xc8,0xbd,0x39,0x98,0x8d,0x3e,0xd9,0xc1,0x39,0x3e,0xe0,0x2e,0x49,0xbc,0x8b,0x36,0x17,0x3f,0xe7,0x8d,0xe6,0x3e,0x9f,0xdf,0xa8,0x3d,0xd8,0x7f,0x20,0x3f,0xb6,0x6e,0x00,0xbe,0x75,0x30,0x08,0x3d,0x56,0x91,0x28,0xbd,0x39,0xf0,0xb8,0xbe,0x0d,0x23,0x5c,0xbe,0x3d,0xee,0x23,0xbe,0x5f,0xea,0x13,0xbf,0x25,0x66,0x0d,0x3f,0xfc,0xae,0xee,0x3c,0x62,0x47,0xee,0x3e,0x38,0xc0,0x9a,0x3e,0x32,0xdf,0x64,0x3e,0x11,0xb4,0x18,0x3e,0x72,0xeb,0x92,0x3e,0x11,0x41,0x7d,0x3f,0x64,0x78,0x73,0x3e,0x7c,0x0e,0x95,0xbd,0x88,0x3b,0x16,0xbf,0x04,0xd5,0x6e,0x3e,0x0d,0x44,0x83,0xbf,0x97,0x6f,0xa9,0x3e,0x95,0x68,0xee,0xbd,0xce,0xb7,0x17,0xbe,0xac,0xfd,0xad,0xc0,0xd0,0x85,0xda,0x3d,0xe8,0x6a,0x14,0xbf,0x9c,0xda,0xb4,0x3d,0xe8,0x55,0xe1,0xbd,0x55,0x54,0x29,0x3c,0xf4,0x10,0xa4,0xbd,0x96,0xca,0xbd,0xbe,0x53,0x79,0x76,0xbf,0x5d,0x60,0xab,0x3d,0x64,0x5c,0xa7,0x3d,0xf0,0xdc,0xa5,0x3d,0xbd,0xea,0x82,0x3e,0xb6,0xa5,0x98,0x3e,0x3b,0xb9,0x15,0x3e,0xf9,0x89,0x09,0x3f,0xfd,0x3d,0xfb,0x3d,0x56,0x6c,0xdb,0xbd,0xde,0x3e,0xf7,0x3e,0x9f,0x6d,0x2a,0xbf,0xc7,0x15,0x6c,0xbf,0x45,0x9e,0x29,0xbd,0x98,0x16,0x47,0xbe,0x46,0x63,0x81,0xbe,0x27,0x42,0xda,0xbd,0x6a,0x3d,0x8b,0xbd,0x12,0x3a,0xb0,0x3e,0x2c,0xf1,0x12,0xbf,0x79,0x7a,0xca,0x3d,0xa5,0xb2,0x12,0xbe,0xbb,0xd2,0x79,0x3e,0x17,0xd8,0x18,0xbe,0xa6,0x45,0x55,0xbe,0x6d,0xb4,0xe7,0x3d,0xb3,0x31,0xab,0xbc,0x1f,0x96,0x0b,0x3d,0xd5,0x9e,0x9f,0x3a,0x62,0x8a,0x3c,0x3e,0xf3,0x4e,0x81,0x3e,0x34,0x8e,0xd3,0x3c,0xd7,0xb2,0xac,0xbe,0xde,0xd2,0x64,0x3d,0x06,0xee,0xb6,0xbe,0x7a,0xe6,0x14,0xbb,0x04,0x8f,0x02,0xbe,0x02,0x99,0x9f,0xbd,0xae,0x65,0x10,0x3d,0x92,0x46,0x8b,0xbe,0x61,0xea,0x82,0x3d,0x99,0x16,0xcb,0x3e,0x16,0xd0,0x16,0x3e,0x5d,0xaf,0x80,0x3d,0xa4,0xae,0x07,0xbe,0xa9,0xa0,0x10,0x3e,0x6f,0xdb,0x26,0x3e,0x91,0x06,0x75,0x3e,0xba,0x89,0xfb,0xbd,0x4d,0x49,0x53,0x3e,0xc7,0xe5,0xec,0x3e,0x28,0x6f,0x5a,0xbf,0xa6,0x62,0x00,0x3f,0xdd,0x03,0x8f,0x3e,0xf7,0x0c,0x11,0x3d,0xbb,0x79,0xef,0x3d,0x36,0xac,0x59,0xc0,0x80,0x7b,0x0a,0x3e,0x67,0xae,0xd2,0xbd,0x1f,0x38,0x3d,0x3e,0x03,0xdf,0xf1,0xbd,0xfd,0xea,0xc8,0xbd,0x01,0xcf,0xa9,0xbc,0x86,0x20,0x9d,0x3e,0x50,0xd4,0xbe,0x3e,0x25,0x57,0xf3,0xbd,0x28,0x9b,0xd6,0xbd,0x95,0xf9,0x33,0xbd,0xf2,0x69,0xe7,0xbd,0xe2,0xda,0x87,0xbe,0xd3,0xd7,0xd3,0x3d,0x3f,0x0f,0x89,0xbd,0xbf,0x0c,0x71,0xbe,0xb9,0x61,0xd3,0x3d,0x1a,0xf6,0x61,0xbd,0xc6,0xf0,0x6f,0xbf,0x4b,0xdc,0xbf,0x3e,0xc6,0x3f,0x29,0x3d,0x49,0x22,0x62,0x3e,0x51,0x8c,0x07,0xbf,0xa0,0xee,0xe3,0xbc,0x60,0x1b,0xf5,0xbd,0x71,0x9a,0xc7,0xbd,0x18,0x96,0xad,0xbd,0x80,0x5e,0x1b,0xbc,0x1e,0x61,0x67,0xbd,0x58,0x6a,0xd1,0xbd,0x1f,0x21,0x81,0xbe,0x57,0x6c,0x32,0xbe,0xe8,0xf7,0x08,0x3e,0x9e,0x27,0xca,0x3c,0x36,0x86,0x46,0xbe,0xcc,0x67,0x23,0xbe,0x74,0x9c,0x47,0x3d,0xc8,0x43,0xa6,0x3d,0xd4,0x95,0x23,0xbe,0xb6,0xc8,0x3b,0x3e,0x80,0x44,0xc3,0x3b,0xb0,0x8a,0x66,0xbd,0x77,0x14,0x61,0xbe,0x0c,0x78,0x17,0x3e,0x6c,0xe4,0x52,0x3e,0xef,0xc6,0x58,0x3e,0x8c,0xf1,0xde,0xbd,0x21,0x75,0x24,0x3e,0x2f,0xba,0x81,0xbe,0xac,0x96,0x42,0xbe,0xaa,0xbe,0xe2,0x3c,0xec,0x34,0xdd,0xbd,0xc8,0xca,0x10,0xbe,0x01,0xc5,0x1e,0x3e,0x20,0xc7,0x2b,0xbd,0x00,0x87,0x88,0x3c,0x64,0xae,0x4c,0xbe,0xb8,0x68,0x22,0x3e,0xc8,0x54,0xb3,0xbd,0xcc,0xd9,0x7b,0xbe,0x9e,0xf5,0x10,0xbe,0xa5,0x25,0xe3,0x3b,0xa7,0x3a,0x51,0xbe,0x00,0x63,0xb8,0x3c,0x6a,0xd8,0xde,0x3c,0x91,0x20,0xd4,0xbc,0xd2,0xd1,0xdc,0xbd,0x12,0x3a,0x22,0xbe,0x2e,0xf1,0x32,0xbe,0x6c,0x3e,0x5f,0x3e,0xb0,0x2b,0x78,0xbe,0xd3,0x59,0x23,0xbe,0xc0,0xf4,0x96,0x3d,0x50,0xfc,0xfc,0xbd,0xc5,0x02,0x7e,0xbe,0x87,0xbe,0x5f,0x3d,0x18,0x71,0x02,0xbe,0x9c,0x70,0x0e,0xbe,0x59,0xb6,0x83,0xbe,0x9e,0x56,0x41,0x3e,0x5d,0x48,0x23,0x3e,0x6c,0x8e,0x0b,0xbe,0xfd,0x3a,0xc1,0x3d,0x62,0xe9,0x8a,0xbe,0x14,0x17,0x1b,0xbe,0xfe,0x34,0xd9,0x3d,0x38,0x8b,0x91,0x3d,0xf7,0x4f,0x0d,0xbe,0xa0,0xf9,0x4f,0x3d,0xc4,0x43,0x7b,0xbe,0xb5,0xae,0x47,0xbe,0xaf,0xca,0x3c,0x3d,0x08,0x52,0x40,0x3e,0x04,0xb5,0x2d,0xbe,0x03,0x73,0xf5,0xbc,0x4f,0x2b,0x30,0x3e,0x2f,0xa9,0x43,0xbe,0xb8,0x5c,0x3a,0xbd,0xa8,0xab,0x45,0x3e,0xe4,0x84,0x71,0x3e,0x94,0x78,0x72,0xbe,0x99,0xb1,0xc6,0xb8,0x44,0x13,0x72,0x3e,0x1e,0xa0,0x52,0xbe,0x8f,0x70,0x22,0xbe,0xd1,0xee,0x61,0x3d,0x80,0xb7,0x24,0x3c,0x60,0x7d,0x01,0x3d,0x8c,0xc6,0x06,0x3e,0x48,0xc3,0x79,0xbe,0xb0,0xf8,0x10,0xbe,0x84,0x5b,0x47,0xbe,0xc0,0x13,0x77,0x3d,0x71,0x4e,0xdb,0xbd,0x00,0xd9,0xd3,0xbb,0x72,0x0e,0x11,0xbe,0xeb,0xae,0x19,0xbe,0xa0,0xe2,0x09,0x3e,0x07,0x1b,0xea,0xbd,0x2f,0x59,0x95,0x3d,0xf1,0xad,0xfd,0xba,0xcc,0xf8,0x2a,0xbe,0xe8,0x5d,0x8f,0x3d,0xc5,0x71,0xf3,0x3d,0x3c,0x35,0x63,0xbe,0x27,0x54,0x42,0xbe,0x07,0x4e,0xc8,0x3d,0x1c,0x47,0x02,0xbe,0x5e,0x78,0x1b,0xbe,0xa2,0x62,0x81,0xbe,0xe0,0x22,0x40,0xbe,0xca,0xbf,0x7b,0xbe,0xc4,0xa1,0x27,0x3e,0x3c,0x4b,0xd2,0x3b,0xdf,0xed,0x63,0x3e,0x05,0x71,0xa1,0xbd,0xae,0x28,0xb0,0xbd,0x83,0x03,0xcc,0x3d,0x98,0xba,0x9a,0xbd,0xf2,0x4b,0xe3,0x3d,0x8b,0xfa,0x38,0x3e,0x7f,0xf2,0x66,0x3e,0xe0,0xc0,0xf2,0x3d,0x59,0xdb,0x10,0x3e,0x88,0xf7,0xf9,0x3d,0xa2,0x22,0x96,0xbc,0x56,0xb5,0xff,0x3b,0x0c,0x9c,0x0b,0xbe,0x39,0x9f,0x3c,0x3e,0x9b,0x0f,0x55,0xbd,0xe7,0x15,0x33,0xbe,0x67,0x33,0x65,0xbe,0x38,0x8b,0x2d,0xbe,0xa6,0x3f,0x69,0x3e,0x2e,0x44,0xca,0xbe,0x71,0x98,0xf6,0x3e,0xd3,0x85,0x7c,0x3c,0xd6,0x2f,0x0d,0x3d,0xd1,0x3c,0x83,0x3d,0x2f,0xd6,0x23,0xbf,0x4a,0x51,0x33,0xbe,0xd0,0x11,0x6f,0x3e,0x74,0xcb,0x36,0xbe,0xca,0xcb,0x22,0xbe,0x66,0xf1,0x78,0x3d,0x84,0x9a,0xe5,0x3d,0x44,0x78,0xb5,0xbd,0x99,0x21,0x98,0x3e,0xb9,0xb8,0x1c,0xbe,0xfd,0x62,0x5b,0xbf,0x25,0xdd,0x14,0xbe,0xba,0xc1,0xb4,0xbd,0x8e,0xcc,0xd1,0xbe,0x50,0x7c,0x5e,0x3d,0xe0,0xde,0xc6,0x3c,0xec,0x2e,0x8f,0x3e,0x7c,0x7a,0x5d,0x3e,0x3a,0x71,0x20,0x3d,0xde,0x19,0xbc,0x3e,0x32,0x2a,0x52,0x3d,0x87,0x5b,0xc5,0x3d,0x30,0x1b,0x3f,0x3c,0x9b,0xd1,0x59,0x3d,0x49,0x70,0x1d,0xbe,0x3a,0x07,0x03,0xbe,0x3a,0x1d,0xed,0x3e,0x46,0x95,0x60,0xbf,0x04,0xe4,0x06,0x3e,0x38,0x2d,0x14,0x3e,0x2d,0xbb,0x35,0xbe,0x4d,0xd0,0x8c,0x3e,0x85,0xf9,0x9d,0xc0,0xad,0x53,0xde,0x3e,0x8c,0xa8,0x49,0xbd,0x80,0x45,0x86,0xbd,0x00,0x65,0xd1,0x3c,0x0c,0x51,0x8d,0xbd,0x7a,0x61,0x0c,0x3e,0x04,0x6a,0xe4,0xbd,0x5d,0x83,0x8c,0x3e,0xca,0xd8,0x26,0x3e,0x20,0xc5,0x07,0x3d,0xbf,0xa0,0x03,0xbe,0x37,0x25,0xf5,0x3d,0x9d,0x8c,0xbf,0xbd,0x54,0x61,0x56,0x3e,0xfb,0xb1,0x2d,0xbe,0xaf,0xbc,0x08,0x3e,0x3a,0x86,0xf6,0xbd,0x51,0xc4,0xf9,0x3d,0x0e,0x78,0x5c,0xbf,0x26,0x82,0xc5,0x3e,0xfa,0x98,0xa6,0xbd,0x94,0xd1,0x5b,0x3d,0x49,0x76,0x65,0xbf,0x86,0xf4,0xc7,0x3e,0x84,0x35,0xaa,0x3e,0x3d,0x29,0xdd,0xbe,0xe8,0xa3,0x5b,0x3e,0x59,0x85,0x56,0x3e,0xb1,0x1f,0x03,0xbf,0x7c,0x68,0x34,0x3f,0xe6,0x5a,0xf3,0x3d,0x47,0x7a,0x40,0x3e,0x08,0x65,0x98,0x3e,0x0f,0x71,0x02,0xbe,0xdb,0xc6,0x88,0xbf,0x9d,0x4d,0x23,0xbf,0x51,0xfb,0x94,0xbe,0x5a,0x27,0xa0,0x3d,0x7d,0x70,0x21,0x3e,0x66,0x6d,0xde,0x3e,0x03,0xd1,0x1b,0x3e,0xa3,0x6b,0xb6,0xbe,0x0f,0xa7,0x42,0xbe,0xfd,0x43,0x1b,0xc1,0xe8,0x11,0x13,0xbf,0xe5,0x6d,0x09,0xbf,0x76,0x28,0x5f,0x3e,0xf8,0xb3,0xae,0x3f,0xc4,0xc6,0xaa,0xbf,0x41,0x43,0x12,0x3f,0xfb,0x5b,0x1e,0x3f,0xa9,0x0a,0x0b,0x3e,0xc3,0x1d,0xd7,0x3d,0xaf,0x1d,0xea,0xbe,0x3a,0x37,0xb9,0x3d,0xdc,0xf8,0x5f,0x3e,0xf4,0x55,0x68,0x3e,0xc5,0x80,0x34,0xbf,0x2d,0x0c,0x00,0x3f,0x16,0xce,0x8c,0xbe,0xef,0xef,0xff,0xbf,0xc9,0xaf,0xab,0x3f,0x8a,0x36,0x53,0x3b,0x3b,0xf6,0x4c,0xbd,0x2d,0xcc,0x35,0xbb,0x21,0xbf,0xf3,0xbe,0x35,0xb5,0x8f,0xbf,0x6d,0xeb,0x8d,0x3d,0xa4,0x32,0x8b,0xbf,0xfa,0xab,0xe6,0xbc,0x6a,0x2f,0x64,0xbe,0x17,0x17,0x69,0xbf,0x79,0xe9,0x03,0x3e,0x38,0x2a,0x1a,0x3e,0xd9,0x9e,0x21,0x40,0x47,0x2e,0x90,0xbd,0x68,0x8c,0xd6,0xbe,0x6f,0xa9,0x85,0x3f,0x11,0x65,0x11,0x3f,0x2c,0x7f,0xd4,0x3e,0x07,0x9c,0xee,0xbf,0xa4,0x9c,0x7f,0x3e,0xe2,0xec,0x6a,0x3f,0x8e,0x26,0x44,0xbf,0xc0,0x9a,0x3e,0xbe,0x72,0x90,0x22,0xbf,0xe9,0xfe,0x07,0x3f,0x7a,0x8a,0xb1,0x3e,0x35,0x8b,0xc6,0x3e,0x11,0x8d,0x3e,0xbe,0xbc,0x05,0x85,0x3f,0x52,0x04,0x00,0xbf,0x00,0xbe,0x81,0x3e,0x61,0xf4,0x16,0x3e,0xb3,0xfc,0x87,0xbe,0x1c,0x0c,0xd1,0x3e,0x70,0x13,0xa2,0x3e,0xb8,0xfc,0x60,0x3d,0xdd,0x58,0xf2,0x3c,0xb6,0xf8,0x2c,0x3d,0x85,0x5b,0x15,0x3d,0x64,0xc1,0x36,0x3d,0x9d,0x98,0x97,0x3e,0x19,0xde,0x51,0xbd,0xe1,0xa1,0xc8,0x3e,0x73,0x62,0x9c,0x3f,0x3d,0xba,0xd8,0x3d,0xbf,0x56,0x39,0x3e,0x27,0x24,0x4f,0x3e,0x68,0x31,0x45,0x3e,0x34,0x82,0x0c,0x3f,0x19,0x46,0xb2,0xbd,0x21,0x55,0x3d,0x3e,0xef,0x93,0xb9,0x3e,0xf2,0xc4,0xa0,0xbe,0xc0,0x0d,0x1e,0x3e,0x54,0xe2,0xf1,0x3d,0x4d,0x33,0x17,0xbe,0xd8,0x45,0x83,0x3e,0xb7,0x15,0x1f,0xbd,0x14,0xe9,0x0e,0x3e,0x9e,0x1b,0x31,0xbe,0xf8,0x3c,0x4a,0x3f,0x10,0xc1,0x7a,0x3e,0x5f,0xc5,0x1e,0xbe,0xc1,0xf8,0xa2,0xbc,0x12,0x23,0x1c,0xbe,0x55,0x93,0x87,0x40,0xfb,0x3e,0x95,0xbe,0xf3,0x14,0x26,0xbb,0xa2,0x52,0x46,0x3e,0x39,0x57,0xc2,0x3e,0x90,0x05,0xdf,0x3e,0x1c,0x54,0xfb,0x3d,0x5a,0xcf,0x1c,0x3e,0x16,0xbb,0x0b,0xbb,0xe9,0xbf,0xa1,0x3c,0x4e,0x4c,0xf3,0x3d,0x70,0x40,0x96,0x3e,0xf3,0x7f,0xcc,0xbd,0x68,0x6f,0xa3,0x3e,0x87,0x8e,0xf2,0xbd,0xbc,0x1d,0x32,0x3e,0x80,0x15,0xba,0x3e,0xa5,0x3e,0x07,0x3e,0xec,0x52,0x27,0xbe,0x22,0x4b,0x07,0x3f,0x9d,0xe7,0x47,0x3e,0x8f,0x3e,0x82,0xbe,0xb6,0xb6,0x2e,0x3e,0x89,0xdb,0xd4,0x3e,0x5a,0xfd,0xff,0xff,0x04,0x00,0x00,0x00,0x00,0x01,0x00,0x00,0x07,0xf3,0xcb,0xbe,0x5d,0xa9,0x09,0xc0,0x77,0xf9,0x09,0xbf,0xe6,0x9d,0x81,0xbf,0x65,0xa8,0x54,0x3e,0x80,0x37,0xfa,0x3d,0xff,0x5c,0x8b,0x3c,0x26,0x0d,0x2a,0xbf,0xea,0x81,0xaf,0xbd,0xc6,0x8c,0x6d,0xbe,0x68,0x5e,0xe4,0x3d,0x93,0x23,0x32,0x3f,0x91,0xbe,0x91,0xbe,0x4b,0x5e,0xda,0xbe,0x00,0x7f,0xae,0xbe,0x19,0xe7,0xc5,0xbe,0x7f,0x81,0x88,0xbe,0xe3,0xb1,0xf9,0x3e,0x4c,0x95,0xf0,0xbd,0xda,0xa1,0x38,0x3f,0x14,0x7c,0x3d,0x3d,0x18,0x34,0x28,0xbf,0xef,0xd0,0x91,0x3f,0xde,0xa9,0x61,0xbf,0x6a,0x91,0x71,0xbf,0x9b,0x5b,0xb7,0x3f,0xff,0xba,0x20,0xbf,0x5f,0xb1,0xd2,0xbe,0xc5,0x3c,0x89,0xbe,0xaa,0x3c,0x2e,0xbe,0x7e,0x0f,0x3a,0x3f,0x6c,0xc9,0x5e,0xbd,0x85,0xa6,0x24,0x3f,0xdc,0x22,0x0a,0xbf,0xdd,0xf0,0x83,0xbf,0x19,0x98,0x13,0xc0,0x2f,0x32,0x0d,0xbf,0x91,0xc3,0x16,0xc0,0xc9,0x7c,0x12,0x3f,0x10,0x6c,0x7c,0xbf,0xe2,0x98,0x84,0xbe,0x4e,0x54,0x8a,0x3f,0xb0,0x71,0x01,0xc0,0xad,0x1a,0x01,0x3f,0xa8,0x53,0xda,0x3f,0x74,0x52,0x23,0xc0,0x66,0x4d,0x78,0x3f,0x48,0x49,0x91,0xbf,0x7a,0x86,0x73,0x3f,0x33,0x05,0x52,0xbf,0x2d,0x77,0xf9,0xbf,0x8c,0x75,0x39,0x3f,0xc2,0xe9,0x8f,0xbf,0x83,0x28,0xcf,0xbf,0x7d,0xaf,0x27,0xc0,0x9d,0xda,0x32,0x3f,0x42,0x72,0x14,0xbf,0xa2,0xd0,0xce,0xbf,0x89,0xc5,0x81,0xbf,0x68,0xfa,0x79,0x3e,0x01,0xf2,0x88,0x3e,0x0a,0xaf,0xd3,0xbf,0x81,0xba,0x8f,0x3f,0xfb,0x3c,0x67,0x3f,0x66,0xfe,0xff,0xff,0x04,0x00,0x00,0x00,0x80,0x00,0x00,0x00,0x00,0x00,0x00,0x00,0x00,0x00,0x00,0x00,0x00,0x00,0x00,0x00,0x00,0x00,0x00,0x00,0x00,0x00,0x00,0x00,0x00,0x00,0x00,0x00,0x00,0x00,0x00,0x00,0x00,0x00,0x00,0x00,0x00,0x00,0x00,0x00,0x00,0x00,0x00,0x00,0x00,0x00,0x00,0x00,0x00,0x00,0x00,0x00,0x00,0x00,0x00,0x00,0x00,0x00,0x00,0x00,0x00,0x00,0x00,0x00,0x00,0x00,0x00,0x00,0x00,0x00,0x00,0x00,0x00,0x00,0x00,0x00,0x00,0x00,0x00,0x00,0x00,0x00,0x00,0x00,0x00,0x00,0x00,0x00,0x00,0x00,0x00,0x00,0x00,0x00,0x00,0x00,0x00,0x00,0x00,0x00,0x00,0x00,0x00,0x00,0x00,0x00,0x00,0x00,0x00,0x00,0x00,0x00,0x00,0x00,0x00,0x00,0x00,0x00,0x00,0x00,0x00,0x00,0x00,0x00,0x00,0x00,0x00,0x00,0x00,0x00,0x00,0x00,0xf2,0xfe,0xff,0xff,0x04,0x00,0x00,0x00,0x00,0x01,0x00,0x00,0x5e,0x4a,0xa3,0x3e,0xeb,0x46,0xf4,0xbd,0x37,0xc7,0x94,0x3d,0x91,0x8d,0x5a,0x3e,0x25,0xd9,0xc2,0xbe,0xdb,0x08,0xed,0x3e,0xa8,0x65,0x2b,0x3f,0x71,0xe5,0x08,0xbf,0x18,0xa1,0x25,0xbc,0xb0,0xb9,0x78,0x3e,0x87,0xb0,0x5c,0x3d,0x70,0x5c,0x02,0xbf,0x31,0x29,0x80,0x3e,0x65,0xa7,0xf0,0xbe,0x53,0xed,0xae,0xbd,0xba,0xda,0x6d,0x3e,0x6d,0xe1,0x0c,0xbf,0xde,0x6a,0x0e,0x3e,0xaf,0x5a,0x5f,0xbd,0x03,0xd0,0x0c,0x3f,0xcf,0x21,0x07,0xbe,0x9f,0x57,0x5e,0x3e,0x50,0x37,0x03,0xbe,0x9d,0x6c,0xd8,0xbc,0xb9,0x09,0x61,0xbc,0xad,0xc0,0x48,0xbd,0xd2,0x76,0x07,0xbf,0xe1,0x45,0xff,0x3d,0x29,0xdf,0xd8,0x3d,0x65,0x28,0x40,0xbd,0x96,0x2f,0x14,0xbd,0x94,0x7c,0xa1,0x3e,0x8a,0x96,0xbf,0xbe,0xf9,0x9d,0xc7,0x3e,0x10,0x9d,0xa4,0x3b,0xef,0xbb,0xc5,0x3b,0xab,0x9b,0x80,0x3e,0x02,0xed,0x44,0xbe,0x14,0xd8,0x05,0x3e,0x46,0xe4,0xbb,0xbe,0x66,0x7c,0x95,0x3e,0xa0,0x15,0x16,0xbf,0x6b,0x81,0xd8,0x3d,0xaf,0xdf,0xda,0xbe,0x70,0x98,0xf3,0x3b,0x21,0x3e,0x45,0xbc,0x1d,0xdd,0xc1,0x3e,0xe9,0x64,0xe5,0xbe,0xcd,0xdd,0x6a,0xbf,0x05,0xbd,0x3b,0x3f,0xbe,0xc0,0xd9,0xbd,0x70,0xe4,0xd9,0xbc,0xab,0xa2,0xcf,0x3e,0x60,0xec,0x8e,0xbe,0x6b,0xbc,0x0a,0xbf,0xa9,0x2b,0x08,0x3f,0x55,0xb2,0x84,0xbe,0x20,0xf4,0x84,0x3e,0x62,0x16,0x99,0xbc,0x32,0x09,0xa8,0x3c,0x41,0xc0,0x60,0xbe,0x6e,0x4e,0x49,0x3e,0x27,0x2d,0x0a,0x3f,0x47,0xef,0xd2,0xbe,0x00,0x00,0x06,0x00,0x08,0x00,0x04,0x00,0x06,0x00,0x00,0x00,0x04,0x00,0x00,0x00,0x0c,0x00,0x00,0x00,0xff,0xff,0xff,0xff,0x02,0x00,0x00,0x00,0x20,0x00,0x00,0x00,0x38,0xf7,0xff,0xff,0x3c,0xf7,0xff,0xff,0x0f,0x00,0x00,0x00,0x4d,0x4c,0x49,0x52,0x20,0x43,0x6f,0x6e,0x76,0x65,0x72,0x74,0x65,0x64,0x2e,0x00,0x01,0x00,0x00,0x00,0x14,0x00,0x00,0x00,0x00,0x00,0x0e,0x00,0x18,0x00,0x14,0x00,0x10,0x00,0x0c,0x00,0x08,0x00,0x04,0x00,0x0e,0x00,0x00,0x00,0x14,0x00,0x00,0x00,0x1c,0x00,0x00,0x00,0xcc,0x01,0x00,0x00,0xd0,0x01,0x00,0x00,0xd4,0x01,0x00,0x00,0x04,0x00,0x00,0x00,0x6d,0x61,0x69,0x6e,0x00,0x00,0x00,0x00,0x07,0x00,0x00,0x00,0x84,0x01,0x00,0x00,0x24,0x01,0x00,0x00,0xec,0x00,0x00,0x00,0xa0,0x00,0x00,0x00,0x78,0x00,0x00,0x00,0x3c,0x00,0x00,0x00,0x04,0x00,0x00,0x00,0x02,0xff,0xff,0xff,0x14,0x00,0x00,0x00,0x00,0x00,0x00,0x08,0x10,0x00,0x00,0x00,0x14,0x00,0x00,0x00,0x04,0x00,0x00,0x00,0xc8,0xf7,0xff,0xff,0x01,0x00,0x00,0x00,0x11,0x00,0x00,0x00,0x03,0x00,0x00,0x00,0x10,0x00,0x00,0x00,0x04,0x00,0x00,0x00,0x08,0x00,0x00,0x00,0x36,0xff,0xff,0xff,0x14,0x00,0x00,0x00,0x00,0x00,0x00,0x08,0x14,0x00,0x00,0x00,0x18,0x00,0x00,0x00,0x04,0x00,0x00,0x00,0xa2,0xff,0xff,0xff,0x00,0x00,0x00,0x01,0x01,0x00,0x00,0x00,0x10,0x00,0x00,0x00,0x03,0x00,0x00,0x00,0x0f,0x00,0x00,0x00,0x05,0x00,0x00,0x00,0x07,0x00,0x00,0x00,0x9e,0xff,0xff,0xff,0x0c,0x00,0x00,0x00,0x10,0x00,0x00,0x00,0x02,0x00,0x00,0x00,0x01,0x00,0x00,0x00,0x0f,0x00,0x00,0x00,0x02,0x00,0x00,0x00,0x0e,0x00,0x00,0x00,0x09,0x00,0x00,0x00,0x92,0xff,0xff,0xff,0x1c,0x00,0x00,0x00,0x00,0x00,0x00,0x0b,0x1c,0x00,0x00,0x00,0x20,0x00,0x00,0x00,0x03,0x00,0x00,0x00,0x00,0x00,0x06,0x00,0x08,0x00,0x07,0x00,0x06,0x00,0x00,0x00,0x00,0x00,0x00,0x01,0x01,0x00,0x00,0x00,0x0e,0x00,0x00,0x00,0x02,0x00,0x00,0x00,0x0d,0x00,0x00,0x00,0x06,0x00,0x00,0x00,0x00,0x00,0x0a,0x00,0x10,0x00,0x0c,0x00,0x08,0x00,0x04,0x00,0x0a,0x00,0x00,0x00,0x0c,0x00,0x00,0x00,0x10,0x00,0x00,0x00,0x02,0x00,0x00,0x00,0x01,0x00,0x00,0x00,0x0d,0x00,0x00,0x00,0x02,0x00,0x00,0x00,0x0c,0x00,0x00,0x00,0x01,0x00,0x00,0x00,0x00,0x00,0x0e,0x00,0x1a,0x00,0x14,0x00,0x10,0x00,0x0c,0x00,0x0b,0x00,0x04,0x00,0x0e,0x00,0x00,0x00,0x20,0x00,0x00,0x00,0x00,0x00,0x00,0x01,0x28,0x00,0x00,0x00,0x2c,0x00,0x00,0x00,0x01,0x00,0x00,0x00,0x00,0x00,0x0a,0x00,0x10,0x00,0x0f,0x00,0x08,0x00,0x04,0x00,0x0a,0x00,0x00,0x00,0x01,0x00,0x00,0x00,0x01,0x00,0x00,0x00,0x00,0x00,0x00,0x01,0x01,0x00,0x00,0x00,0x0c,0x00,0x00,0x00,0x03,0x00,0x00,0x00,0x0b,0x00,0x00,0x00,0x02,0x00,0x00,0x00,0x03,0x00,0x00,0x00,0x00,0x00,0x0e,0x00,0x14,0x00,0x00,0x00,0x10,0x00,0x0c,0x00,0x0b,0x00,0x04,0x00,0x0e,0x00,0x00,0x00,0x10,0x00,0x00,0x00,0x00,0x00,0x00,0x34,0x0c,0x00,0x00,0x00,0x10,0x00,0x00,0x00,0x2c,0xf9,0xff,0xff,0x01,0x00,0x00,0x00,0x0b,0x00,0x00,0x00,0x02,0x00,0x00,0x00,0x00,0x00,0x00,0x00,0x0a,0x00,0x00,0x00,0x01,0x00,0x00,0x00,0x11,0x00,0x00,0x00,0x01,0x00,0x00,0x00,0x00,0x00,0x00,0x00,0x12,0x00,0x00,0x00,0x20,0x06,0x00,0x00,0xc8,0x05,0x00,0x00,0x68,0x05,0x00,0x00,0x14,0x05,0x00,0x00,0xd4,0x04,0x00,0x00,0x94,0x04,0x00,0x00,0x50,0x04,0x00,0x00,0x14,0x04,0x00,0x00,0xd8,0x03,0x00,0x00,0x98,0x03,0x00,0x00,0x38,0x03,0x00,0x00,0xb8,0x02,0x00,0x00,0x44,0x02,0x00,0x00,0xd0,0x01,0x00,0x00,0x50,0x01,0x00,0x00,0xf0,0x00,0x00,0x00,0x60,0x00,0x00,0x00,0x04,0x00,0x00,0x00,0x3e,0xfa,0xff,0xff,0x00,0x00,0x00,0x01,0x14,0x00,0x00,0x00,0x1c,0x00,0x00,0x00,0x1c,0x00,0x00,0x00,0x12,0x00,0x00,0x00,0x34,0x00,0x00,0x00,0x02,0x00,0x00,0x00,0xff,0xff,0xff,0xff,0x02,0x00,0x00,0x00,0xc8,0xf9,0xff,0xff,0x1b,0x00,0x00,0x00,0x53,0x74,0x61,0x74,0x65,0x66,0x75,0x6c,0x50,0x61,0x72,0x74,0x69,0x74,0x69,0x6f,0x6e,0x65,0x64,0x43,0x61,0x6c,0x6c,0x5f,0x31,0x3a,0x30,0x00,0x02,0x00,0x00,0x00,0x01,0x00,0x00,0x00,0x02,0x00,0x00,0x00,0x96,0xfa,0xff,0xff,0x00,0x00,0x00,0x01,0x14,0x00,0x00,0x00,0x1c,0x00,0x00,0x00,0x1c,0x00,0x00,0x00,0x11,0x00,0x00,0x00,0x68,0x00,0x00,0x00,0x02,0x00,0x00,0x00,0xff,0xff,0xff,0xff,0x20,0x00,0x00,0x00,0x20,0xfa,0xff,0xff,0x4e,0x00,0x00,0x00,0x73,0x65,0x71,0x75,0x65,0x6e,0x74,0x69,0x61,0x6c,0x5f,0x31,0x2f,0x64,0x65,0x6e,0x73,0x65,0x5f,0x31,0x2f,0x4d,0x61,0x74,0x4d,0x75,0x6c,0x3b,0x73,0x65,0x71,0x75,0x65,0x6e,0x74,0x69,0x61,0x6c,0x5f,0x31,0x2f,0x64,0x65,0x6e,0x73,0x65,0x5f,0x31,0x2f,0x52,0x65,0x6c,0x75,0x3b,0x73,0x65,0x71,0x75,0x65,0x6e,0x74,0x69,0x61,0x6c,0x5f,0x31,0x2f,0x64,0x65,0x6e,0x73,0x65,0x5f,0x31,0x2f,0x41,0x64,0x64,0x00,0x00,0x02,0x00,0x00,0x00,0x01,0x00,0x00,0x00,0x20,0x00,0x00,0x00,0x22,0xfb,0xff,0xff,0x00,0x00,0x00,0x01,0x14,0x00,0x00,0x00,0x1c,0x00,0x00,0x00,0x1c,0x00,0x00,0x00,0x10,0x00,0x00,0x00,0x38,0x00,0x00,0x00,0x02,0x00,0x00,0x00,0xff,0xff,0xff,0xff,0x40,0x00,0x00,0x00,0xac,0xfa,0xff,0xff,0x1e,0x00,0x00,0x00,0x73,0x65,0x71,0x75,0x65,0x6e,0x74,0x69,0x61,0x6c,0x5f,0x31,0x2f,0x66,0x6c,0x61,0x74,0x74,0x65,0x6e,0x5f,0x31,0x2f,0x52,0x65,0x73,0x68,0x61,0x70,0x65,0x00,0x00,0x02,0x00,0x00,0x00,0x01,0x00,0x00,0x00,0x40,0x00,0x00,0x00,0x7e,0xfb,0xff,0xff,0x00,0x00,0x00,0x01,0x14,0x00,0x00,0x00,0x20,0x00,0x00,0x00,0x20,0x00,0x00,0x00,0x0f,0x00,0x00,0x00,0x54,0x00,0x00,0x00,0x03,0x00,0x00,0x00,0xff,0xff,0xff,0xff,0x02,0x00,0x00,0x00,0x20,0x00,0x00,0x00,0x0c,0xfb,0xff,0xff,0x34,0x00,0x00,0x00,0x73,0x65,0x71,0x75,0x65,0x6e,0x74,0x69,0x61,0x6c,0x5f,0x31,0x2f,0x63,0x6f,0x6e,0x76,0x31,0x64,0x5f,0x31,0x2f,0x52,0x65,0x6c,0x75,0x3b,0x73,0x65,0x71,0x75,0x65,0x6e,0x74,0x69,0x61,0x6c,0x5f,0x31,0x2f,0x63,0x6f,0x6e,0x76,0x31,0x64,0x5f,0x31,0x2f,0x61,0x64,0x64,0x00,0x00,0x00,0x00,0x03,0x00,0x00,0x00,0x01,0x00,0x00,0x00,0x02,0x00,0x00,0x00,0x20,0x00,0x00,0x00,0xfa,0xfb,0xff,0xff,0x00,0x00,0x00,0x01,0x14,0x00,0x00,0x00,0x20,0x00,0x00,0x00,0x20,0x00,0x00,0x00,0x0e,0x00,0x00,0x00,0x48,0x00,0x00,0x00,0x03,0x00,0x00,0x00,0xff,0xff,0xff,0xff,0x02,0x00,0x00,0x00,0x20,0x00,0x00,0x00,0x88,0xfb,0xff,0xff,0x29,0x00,0x00,0x00,0x73,0x65,0x71,0x75,0x65,0x6e,0x74,0x69,0x61,0x6c,0x5f,0x31,0x2f,0x63,0x6f,0x6e,0x76,0x31,0x64,0x5f,0x31,0x2f,0x63,0x6f,0x6e,0x76,0x6f,0x6c,0x75,0x74,0x69,0x6f,0x6e,0x2f,0x53,0x71,0x75,0x65,0x65,0x7a,0x65,0x00,0x00,0x00,0x03,0x00,0x00,0x00,0x01,0x00,0x00,0x00,0x02,0x00,0x00,0x00,0x20,0x00,0x00,0x00,0x6a,0xfc,0xff,0xff,0x00,0x00,0x00,0x01,0x14,0x00,0x00,0x00,0x24,0x00,0x00,0x00,0x24,0x00,0x00,0x00,0x0d,0x00,0x00,0x00,0x44,0x00,0x00,0x00,0x04,0x00,0x00,0x00,0xff,0xff,0xff,0xff,0x01,0x00,0x00,0x00,0x02,0x00,0x00,0x00,0x20,0x00,0x00,0x00,0xfc,0xfb,0xff,0xff,0x21,0x00,0x00,0x00,0x73,0x65,0x71,0x75,0x65,0x6e,0x74,0x69,0x61,0x6c,0x5f,0x31,0x2f,0x63,0x6f,0x6e,0x76,0x31,0x64,0x5f,0x31,0x2f,0x63,0x6f,0x6e,0x76,0x6f,0x6c,0x75,0x74,0x69,0x6f,0x6e,0x00,0x00,0x00,0x04,0x00,0x00,0x00,0x01,0x00,0x00,0x00,0x01,0x00,0x00,0x00,0x02,0x00,0x00,0x00,0x20,0x00,0x00,0x00,0xda,0xfc,0xff,0xff,0x00,0x00,0x00,0x01,0x14,0x00,0x00,0x00,0x24,0x00,0x00,0x00,0x24,0x00,0x00,0x00,0x0c,0x00,0x00,0x00,0x50,0x00,0x00,0x00,0x04,0x00,0x00,0x00,0xff,0xff,0xff,0xff,0x01,0x00,0x00,0x00,0x03,0x00,0x00,0x00,0x01,0x00,0x00,0x00,0x6c,0xfc,0xff,0xff,0x2c,0x00,0x00,0x00,0x73,0x65,0x71,0x75,0x65,0x6e,0x74,0x69,0x61,0x6c,0x5f,0x31,0x2f,0x63,0x6f,0x6e,0x76,0x31,0x64,0x5f,0x31,0x2f,0x63,0x6f,0x6e,0x76,0x6f,0x6c,0x75,0x74,0x69,0x6f,0x6e,0x2f,0x45,0x78,0x70,0x61,0x6e,0x64,0x44,0x69,0x6d,0x73,0x00,0x00,0x00,0x00,0x04,0x00,0x00,0x00,0x01,0x00,0x00,0x00,0x01,0x00,0x00,0x00,0x03,0x00,0x00,0x00,0x01,0x00,0x00,0x00,0xaa,0xfd,0xff,0xff,0x00,0x00,0x00,0x01,0x14,0x00,0x00,0x00,0x14,0x00,0x00,0x00,0x0b,0x00,0x00,0x00,0x00,0x00,0x00,0x02,0x40,0x00,0x00,0x00,0xd4,0xfc,0xff,0xff,0x30,0x00,0x00,0x00,0x73,0x65,0x71,0x75,0x65,0x6e,0x74,0x69,0x61,0x6c,0x5f,0x31,0x2f,0x63,0x6f,0x6e,0x76,0x31,0x64,0x5f,0x31,0x2f,0x63,0x6f,0x6e,0x76,0x6f,0x6c,0x75,0x74,0x69,0x6f,0x6e,0x2f,0x45,0x78,0x70,0x61,0x6e,0x64,0x44,0x69,0x6d,0x73,0x2f,0x64,0x69,0x6d,0x00,0x00,0x00,0x00,0x00,0x00,0x00,0x00,0x06,0xfe,0xff,0xff,0x00,0x00,0x00,0x01,0x14,0x00,0x00,0x00,0x14,0x00,0x00,0x00,0x0a,0x00,0x00,0x00,0x00,0x00,0x00,0x02,0x1c,0x00,0x00,0x00,0x30,0xfd,0xff,0xff,0x0f,0x00,0x00,0x00,0x61,0x72,0x69,0x74,0x68,0x2e,0x63,0x6f,0x6e,0x73,0x74,0x61,0x6e,0x74,0x38,0x00,0x01,0x00,0x00,0x00,0x02,0x00,0x00,0x00,0x9e,0xfe,0xff,0xff,0x00,0x00,0x00,0x01,0x10,0x00,0x00,0x00,0x10,0x00,0x00,0x00,0x09,0x00,0x00,0x00,0x1c,0x00,0x00,0x00,0x68,0xfd,0xff,0xff,0x0f,0x00,0x00,0x00,0x61,0x72,0x69,0x74,0x68,0x2e,0x63,0x6f,0x6e,0x73,0x74,0x61,0x6e,0x74,0x37,0x00,0x01,0x00,0x00,0x00,0x02,0x00,0x00,0x00,0xd6,0xfe,0xff,0xff,0x00,0x00,0x00,0x01,0x10,0x00,0x00,0x00,0x10,0x00,0x00,0x00,0x08,0x00,0x00,0x00,0x1c,0x00,0x00,0x00,0xa0,0xfd,0xff,0xff,0x0f,0x00,0x00,0x00,0x61,0x72,0x69,0x74,0x68,0x2e,0x63,0x6f,0x6e,0x73,0x74,0x61,0x6e,0x74,0x36,0x00,0x01,0x00,0x00,0x00,0x20,0x00,0x00,0x00,0x0e,0xff,0xff,0xff,0x00,0x00,0x00,0x01,0x10,0x00,0x00,0x00,0x10,0x00,0x00,0x00,0x07,0x00,0x00,0x00,0x1c,0x00,0x00,0x00,0xd8,0xfd,0xff,0xff,0x0f,0x00,0x00,0x00,0x61,0x72,0x69,0x74,0x68,0x2e,0x63,0x6f,0x6e,0x73,0x74,0x61,0x6e,0x74,0x35,0x00,0x03,0x00,0x00,0x00,0x01,0x00,0x00,0x00,0x01,0x00,0x00,0x00,0x20,0x00,0x00,0x00,0x4e,0xff,0xff,0xff,0x00,0x00,0x00,0x01,0x10,0x00,0x00,0x00,0x10,0x00,0x00,0x00,0x06,0x00,0x00,0x00,0x1c,0x00,0x00,0x00,0x18,0xfe,0xff,0xff,0x0f,0x00,0x00,0x00,0x61,0x72,0x69,0x74,0x68,0x2e,0x63,0x6f,0x6e,0x73,0x74,0x61,0x6e,0x74,0x34,0x00,0x02,0x00,0x00,0x00,0x20,0x00,0x00,0x00,0x40,0x00,0x00,0x00,0x8a,0xff,0xff,0xff,0x00,0x00,0x00,0x01,0x10,0x00,0x00,0x00,0x10,0x00,0x00,0x00,0x05,0x00,0x00,0x00,0x1c,0x00,0x00,0x00,0x54,0xfe,0xff,0xff,0x0f,0x00,0x00,0x00,0x61,0x72,0x69,0x74,0x68,0x2e,0x63,0x6f,0x6e,0x73,0x74,0x61,0x6e,0x74,0x33,0x00,0x02,0x00,0x00,0x00,0x02,0x00,0x00,0x00,0x20,0x00,0x00,0x00,0xc6,0xff,0xff,0xff,0x00,0x00,0x00,0x01,0x10,0x00,0x00,0x00,0x10,0x00,0x00,0x00,0x04,0x00,0x00,0x00,0x1c,0x00,0x00,0x00,0x90,0xfe,0xff,0xff,0x0f,0x00,0x00,0x00,0x61,0x72,0x69,0x74,0x68,0x2e,0x63,0x6f,0x6e,0x73,0x74,0x61,0x6e,0x74,0x32,0x00,0x01,0x00,0x00,0x00,0x20,0x00,0x00,0x00,0x00,0x00,0x16,0x00,0x18,0x00,0x14,0x00,0x00,0x00,0x10,0x00,0x0c,0x00,0x08,0x00,0x00,0x00,0x00,0x00,0x00,0x00,0x07,0x00,0x16,0x00,0x00,0x00,0x00,0x00,0x00,0x01,0x10,0x00,0x00,0x00,0x10,0x00,0x00,0x00,0x03,0x00,0x00,0x00,0x1c,0x00,0x00,0x00,0xe0,0xfe,0xff,0xff,0x0f,0x00,0x00,0x00,0x61,0x72,0x69,0x74,0x68,0x2e,0x63,0x6f,0x6e,0x73,0x74,0x61,0x6e,0x74,0x31,0x00,0x04,0x00,0x00,0x00,0x20,0x00,0x00,0x00,0x01,0x00,0x00,0x00,0x02,0x00,0x00,0x00,0x01,0x00,0x00,0x00,0x00,0x00,0x16,0x00,0x1c,0x00,0x18,0x00,0x17,0x00,0x10,0x00,0x0c,0x00,0x08,0x00,0x00,0x00,0x00,0x00,0x00,0x00,0x07,0x00,0x16,0x00,0x00,0x00,0x00,0x00,0x00,0x01,0x14,0x00,0x00,0x00,0x14,0x00,0x00,0x00,0x02,0x00,0x00,0x00,0x00,0x00,0x00,0x02,0x1c,0x00,0x00,0x00,0x40,0xff,0xff,0xff,0x0e,0x00,0x00,0x00,0x61,0x72,0x69,0x74,0x68,0x2e,0x63,0x6f,0x6e,0x73,0x74,0x61,0x6e,0x74,0x00,0x00,0x01,0x00,0x00,0x00,0x03,0x00,0x00,0x00,0x00,0x00,0x16,0x00,0x1c,0x00,0x18,0x00,0x00,0x00,0x14,0x00,0x10,0x00,0x0c,0x00,0x00,0x00,0x00,0x00,0x08,0x00,0x07,0x00,0x16,0x00,0x00,0x00,0x00,0x00,0x00,0x01,0x14,0x00,0x00,0x00,0x20,0x00,0x00,0x00,0x20,0x00,0x00,0x00,0x01,0x00,0x00,0x00,0x3c,0x00,0x00,0x00,0x03,0x00,0x00,0x00,0xff,0xff,0xff,0xff,0x03,0x00,0x00,0x00,0x01,0x00,0x00,0x00,0xa4,0xff,0xff,0xff,0x1e,0x00,0x00,0x00,0x73,0x65,0x72,0x76,0x69,0x6e,0x67,0x5f,0x64,0x65,0x66,0x61,0x75,0x6c,0x74,0x5f,0x6b,0x65,0x72,0x61,0x73,0x5f,0x74,0x65,0x6e,0x73,0x6f,0x72,0x3a,0x30,0x00,0x00,0x03,0x00,0x00,0x00,0x01,0x00,0x00,0x00,0x03,0x00,0x00,0x00,0x01,0x00,0x00,0x00,0x05,0x00,0x00,0x00,0x4c,0x00,0x00,0x00,0x30,0x00,0x00,0x00,0x20,0x00,0x00,0x00,0x18,0x00,0x00,0x00,0x04,0x00,0x00,0x00,0xd4,0xff,0xff,0xff,0x09,0x00,0x00,0x00,0x00,0x00,0x00,0x09,0x04,0x00,0x04,0x00,0x04,0x00,0x00,0x00,0xe8,0xff,0xff,0xff,0x16,0x00,0x00,0x00,0x00,0x00,0x00,0x16,0xf4,0xff,0xff,0xff,0x03,0x00,0x00,0x00,0x00,0x00,0x00,0x03,0x0c,0x00,0x0c,0x00,0x0b,0x00,0x00,0x00,0x00,0x00,0x04,0x00,0x0c,0x00,0x00,0x00,0x46,0x00,0x00,0x00,0x00,0x00,0x00,0x46};
const int g_model_len = 12072;

const float scaler_i_mean[] = { 2.5, 1029.7751851851851, 1222.7953703703704 };
const float scaler_i_scale[] = { 1.2909944487358056, 462.6550220226119, 418.71872009966296 };
const float scaler_i_mean[] = { 2.4166666666666665, 35.0 };
const float scaler_i_scale[] = { 1.5920810978785667, 7.0710678118654755 };
#endif  // MODEL_H
