
#ifndef MODEL_H
#define MODEL_H

// MSE(Pos, Temp): [0.01094219 0.1864652 ]


const unsigned char g_model[] = {0x1c,0x00,0x00,0x00,0x54,0x46,0x4c,0x33,0x14,0x00,0x20,0x00,0x1c,0x00,0x18,0x00,0x14,0x00,0x10,0x00,0x0c,0x00,0x00,0x00,0x08,0x00,0x04,0x00,0x14,0x00,0x00,0x00,0x1c,0x00,0x00,0x00,0x8c,0x00,0x00,0x00,0xe4,0x00,0x00,0x00,0x04,0x26,0x00,0x00,0x14,0x26,0x00,0x00,0x98,0x2e,0x00,0x00,0x03,0x00,0x00,0x00,0x01,0x00,0x00,0x00,0x04,0x00,0x00,0x00,0xd6,0xd8,0xff,0xff,0x0c,0x00,0x00,0x00,0x1c,0x00,0x00,0x00,0x3c,0x00,0x00,0x00,0x0f,0x00,0x00,0x00,0x73,0x65,0x72,0x76,0x69,0x6e,0x67,0x5f,0x64,0x65,0x66,0x61,0x75,0x6c,0x74,0x00,0x01,0x00,0x00,0x00,0x04,0x00,0x00,0x00,0x90,0xff,0xff,0xff,0x11,0x00,0x00,0x00,0x04,0x00,0x00,0x00,0x08,0x00,0x00,0x00,0x6f,0x75,0x74,0x70,0x75,0x74,0x5f,0x30,0x00,0x00,0x00,0x00,0x01,0x00,0x00,0x00,0x04,0x00,0x00,0x00,0x8a,0xda,0xff,0xff,0x04,0x00,0x00,0x00,0x0c,0x00,0x00,0x00,0x6b,0x65,0x72,0x61,0x73,0x5f,0x74,0x65,0x6e,0x73,0x6f,0x72,0x00,0x00,0x00,0x00,0x02,0x00,0x00,0x00,0x34,0x00,0x00,0x00,0x04,0x00,0x00,0x00,0xdc,0xff,0xff,0xff,0x14,0x00,0x00,0x00,0x04,0x00,0x00,0x00,0x13,0x00,0x00,0x00,0x43,0x4f,0x4e,0x56,0x45,0x52,0x53,0x49,0x4f,0x4e,0x5f,0x4d,0x45,0x54,0x41,0x44,0x41,0x54,0x41,0x00,0x08,0x00,0x0c,0x00,0x08,0x00,0x04,0x00,0x08,0x00,0x00,0x00,0x13,0x00,0x00,0x00,0x04,0x00,0x00,0x00,0x13,0x00,0x00,0x00,0x6d,0x69,0x6e,0x5f,0x72,0x75,0x6e,0x74,0x69,0x6d,0x65,0x5f,0x76,0x65,0x72,0x73,0x69,0x6f,0x6e,0x00,0x15,0x00,0x00,0x00,0x1c,0x25,0x00,0x00,0x14,0x25,0x00,0x00,0xf8,0x24,0x00,0x00,0xe0,0x23,0x00,0x00,0x50,0x23,0x00,0x00,0x40,0x22,0x00,0x00,0x30,0x02,0x00,0x00,0xa0,0x01,0x00,0x00,0x10,0x01,0x00,0x00,0xf8,0x00,0x00,0x00,0xe0,0x00,0x00,0x00,0xcc,0x00,0x00,0x00,0xc4,0x00,0x00,0x00,0xbc,0x00,0x00,0x00,0xb4,0x00,0x00,0x00,0xac,0x00,0x00,0x00,0xa4,0x00,0x00,0x00,0x9c,0x00,0x00,0x00,0x94,0x00,0x00,0x00,0x74,0x00,0x00,0x00,0x04,0x00,0x00,0x00,0x5a,0xdb,0xff,0xff,0x04,0x00,0x00,0x00,0x60,0x00,0x00,0x00,0x10,0x00,0x00,0x00,0x00,0x00,0x00,0x00,0x08,0x00,0x0e,0x00,0x08,0x00,0x04,0x00,0x08,0x00,0x00,0x00,0x10,0x00,0x00,0x00,0x24,0x00,0x00,0x00,0x00,0x00,0x06,0x00,0x08,0x00,0x04,0x00,0x06,0x00,0x00,0x00,0x04,0x00,0x00,0x00,0x00,0x00,0x00,0x00,0x0c,0x00,0x18,0x00,0x14,0x00,0x10,0x00,0x0c,0x00,0x04,0x00,0x0c,0x00,0x00,0x00,0x81,0xdb,0xf2,0xa3,0xbb,0xed,0x47,0x42,0x02,0x00,0x00,0x00,0x02,0x00,0x00,0x00,0x04,0x00,0x00,0x00,0x06,0x00,0x00,0x00,0x32,0x2e,0x31,0x37,0x2e,0x30,0x00,0x00,0xc6,0xdb,0xff,0xff,0x04,0x00,0x00,0x00,0x10,0x00,0x00,0x00,0x31,0x2e,0x31,0x30,0x2e,0x30,0x00,0x00,0x00,0x00,0x00,0x00,0x00,0x00,0x00,0x00,0xfc,0xd2,0xff,0xff,0x00,0xd3,0xff,0xff,0x04,0xd3,0xff,0xff,0x08,0xd3,0xff,0xff,0x0c,0xd3,0xff,0xff,0x10,0xd3,0xff,0xff,0x14,0xd3,0xff,0xff,0xfe,0xdb,0xff,0xff,0x04,0x00,0x00,0x00,0x04,0x00,0x00,0x00,0xfd,0xff,0xff,0xff,0x0e,0xdc,0xff,0xff,0x04,0x00,0x00,0x00,0x08,0x00,0x00,0x00,0xff,0xff,0xff,0xff,0x40,0x00,0x00,0x00,0x22,0xdc,0xff,0xff,0x04,0x00,0x00,0x00,0x08,0x00,0x00,0x00,0x06,0x65,0x2a,0x3d,0x3b,0x57,0xb9,0xbd,0x36,0xdc,0xff,0xff,0x04,0x00,0x00,0x00,0x80,0x00,0x00,0x00,0x2e,0x76,0xe5,0x3d,0xe9,0x4b,0xc4,0xbd,0x52,0x0f,0xe2,0x3d,0x0b,0x2c,0x9b,0xbc,0xc4,0x7c,0x89,0x3d,0x00,0x00,0x00,0x00,0x64,0x18,0x4f,0x3e,0x7f,0x96,0xb4,0x3c,0xce,0xb0,0x46,0x3e,0x53,0xa2,0x00,0xbe,0x9c,0x42,0x78,0x3d,0x1d,0xc4,0xf4,0xbc,0x2f,0x04,0x23,0xbd,0x24,0x9d,0xd9,0xbb,0x53,0xfb,0xb8,0x3d,0x91,0x1a,0x42,0xbc,0xda,0x75,0x0f,0x3e,0xff,0xb2,0xd7,0x3d,0xd1,0xb8,0x8f,0xbe,0xce,0xf7,0x0e,0xbc,0xe9,0x58,0x2f,0x3e,0x94,0x41,0x18,0xbc,0x57,0x68,0x21,0xbe,0xfb,0xf4,0xb9,0xbc,0x6c,0x56,0xfa,0x3c,0xb5,0x26,0x55,0x3e,0x90,0xc2,0x95,0xbd,0x34,0x26,0x47,0xbe,0xe8,0x6d,0xd8,0x3d,0x87,0x45,0x78,0xbc,0x99,0x14,0xeb,0x3d,0x00,0x00,0x00,0x00,0xc2,0xdc,0xff,0xff,0x04,0x00,0x00,0x00,0x80,0x00,0x00,0x00,0xb9,0x68,0xd6,0x3d,0x5d,0x8e,0x74,0x3e,0xea,0x76,0x18,0x3e,0x92,0x28,0x31,0x3e,0xb6,0x86,0xca,0x3b,0x5b,0x33,0x80,0x3d,0xb6,0xdb,0x65,0x3e,0xd9,0xb2,0xca,0x3d,0xad,0xbd,0x5b,0x3e,0xc4,0x1b,0xea,0x3d,0x87,0x0c,0xf6,0x3d,0xed,0x0f,0x5b,0xbe,0xdc,0xb4,0x7a,0x3d,0x7b,0x41,0x06,0xbe,0x34,0x2d,0x3d,0xbd,0xbb,0x2d,0x84,0x3e,0x17,0x3e,0x1c,0xbd,0x99,0xeb,0x2b,0x3e,0xd9,0x1e,0x82,0x3d,0xdf,0x0b,0x87,0xbe,0x23,0x96,0x36,0x3e,0xc4,0x89,0x5e,0x3e,0xb3,0xf9,0x86,0x3e,0xdc,0xfe,0xea,0xbc,0xd0,0x0e,0x66,0x3e,0xc7,0xbd,0xbe,0xbe,0xba,0x3f,0x8e,0x3e,0xe2,0x18,0x36,0xbe,0xec,0xa8,0xc0,0xbe,0xfa,0x0a,0x52,0x3d,0xdb,0xc2,0x81,0xbe,0x06,0xdd,0x96,0x3e,0x4e,0xdd,0xff,0xff,0x04,0x00,0x00,0x00,0x00,0x20,0x00,0x00,0x72,0xde,0x10,0xbf,0x2d,0xa9,0x2a,0x3e,0x3f,0x73,0x96,0x3d,0xb7,0x67,0x5e,0xbc,0xb1,0x1a,0x9a,0x3c,0xc4,0xaa,0xed,0x3d,0x9a,0x32,0xe6,0x3e,0x80,0x5a,0x38,0xbe,0xec,0xb4,0x4f,0xbc,0x04,0x7a,0x2f,0x3e,0xeb,0x5e,0x3c,0xbf,0xe9,0xe6,0x6d,0xbe,0x61,0xa2,0x69,0x3e,0x6d,0xcb,0x89,0xbe,0xd6,0x18,0xa0,0xbe,0xce,0x9b,0x96,0x3e,0xae,0xc6,0x42,0x3e,0x81,0xd7,0x5e,0xbd,0x5c,0x96,0xe2,0xbd,0x58,0xf6,0x42,0x3d,0xd7,0x74,0xb0,0xbf,0x61,0x58,0x99,0x3e,0x67,0xed,0xa8,0xbe,0xb6,0xbc,0xc4,0xbd,0xb5,0x68,0xd8,0xbe,0xc0,0xc5,0x36,0x3d,0x88,0x4c,0xc3,0x3d,0x63,0xee,0xf7,0xbd,0xdf,0x53,0xaf,0xbe,0xc2,0x40,0x79,0xbf,0x5d,0x00,0x31,0xbe,0xd7,0x39,0x60,0xbd,0x2c,0xd6,0x41,0x3e,0xfd,0xa5,0xd2,0xbd,0x23,0x71,0xe2,0x3d,0x2b,0xa7,0xed,0x3e,0x8d,0x96,0x10,0xbd,0xbc,0x42,0x97,0x3e,0x59,0xbd,0x8b,0xbe,0x66,0x1d,0x47,0x3d,0xc4,0x6e,0x15,0x3e,0x31,0x92,0x38,0xbe,0x92,0xc9,0xa2,0xbd,0xc4,0xd6,0x0e,0xbd,0xa9,0x81,0x14,0xbe,0x47,0x2d,0x9c,0x3e,0x7d,0x24,0xce,0x3c,0xdb,0xae,0x9d,0xbd,0xff,0x48,0x6f,0x3e,0x32,0xb7,0x95,0xbe,0x1b,0xd7,0xe2,0xbd,0xc9,0xd2,0x53,0x3e,0xb5,0xae,0xc7,0x3e,0x47,0x31,0x5a,0xbe,0x78,0x3b,0xd9,0x3d,0xc0,0x47,0xe3,0xbd,0x70,0x71,0x3e,0x3e,0x23,0xb3,0x41,0xbf,0x8d,0xe3,0x75,0xbe,0x85,0xec,0x3e,0xbe,0x13,0x9a,0x96,0xbe,0x64,0x4a,0xb8,0x3e,0xbd,0x7e,0x88,0xbe,0xb8,0x54,0xe8,0x3e,0xee,0xc7,0x59,0x3e,0x89,0xf7,0x50,0xbe,0xda,0xf5,0xa8,0x3e,0xc9,0x6b,0xd0,0xba,0x84,0x02,0xc9,0xbc,0x83,0x4f,0xfe,0x3d,0x64,0x2c,0x87,0xbe,0x90,0xfd,0x85,0xbd,0xf3,0x1e,0x3d,0x3e,0x2e,0x53,0x40,0xbe,0x19,0x57,0xca,0x3e,0xb6,0x17,0xc6,0x3e,0x57,0x43,0xda,0x3d,0x6c,0x9d,0x08,0x3e,0x19,0xed,0x63,0x3e,0xc0,0x7c,0x7a,0xbe,0x7c,0x64,0x6f,0x3e,0xd6,0x60,0xc8,0x3d,0x9f,0x16,0x68,0x3e,0xc6,0x6f,0xa3,0x3e,0x20,0x57,0x95,0x3e,0x89,0x9f,0x11,0x3e,0x67,0xa5,0x71,0x3e,0x3d,0x5e,0xd8,0xbd,0xde,0x7e,0xda,0x3d,0xd1,0xdb,0xe6,0x3d,0x03,0xd0,0xe1,0xbe,0xf5,0x05,0x8a,0x3d,0x64,0x3e,0x0a,0x3f,0xeb,0xf4,0x61,0x3e,0x3f,0xda,0x02,0xbe,0xdd,0xe9,0x72,0x3e,0x19,0x73,0x43,0xbe,0x25,0x51,0xed,0xbd,0xc6,0xd4,0xa6,0x3e,0x8f,0x08,0xca,0xbd,0x13,0xea,0xeb,0x3d,0x05,0x0e,0xa5,0x3c,0xe5,0x5d,0xb7,0xbe,0x65,0xe0,0x3b,0xbe,0xd9,0xc8,0x93,0xbc,0xe7,0x66,0x14,0x3e,0x3e,0x8f,0x85,0x3d,0x04,0xd9,0x32,0x3e,0x08,0x67,0x6b,0x3e,0xbf,0xa9,0x25,0x3e,0xc5,0x7a,0xa0,0xbd,0x65,0xa9,0xaf,0xbe,0xcb,0x48,0x89,0xbc,0x58,0xc5,0x3c,0x3e,0x10,0x8d,0xb0,0x3d,0xe5,0x33,0xce,0x3c,0x16,0x5b,0xaa,0xbe,0x5a,0x08,0x77,0x3e,0x72,0xb8,0x37,0x3e,0xc2,0x53,0x3c,0x3e,0x1c,0x2d,0x1a,0x3e,0xe5,0x9a,0x80,0x3f,0xa5,0x9e,0x88,0x3e,0xd8,0x6b,0x1b,0x3d,0xd7,0x72,0xb8,0x3e,0xea,0xf0,0xd1,0xbd,0x87,0x32,0x80,0x3e,0x95,0x53,0xa2,0xbd,0xce,0x8b,0x2a,0xbe,0xb9,0x22,0x51,0x3e,0x7f,0xcb,0xc5,0x3d,0x4d,0x14,0x68,0xbd,0x9f,0xc3,0xed,0x3c,0x3e,0x3d,0x1d,0x3e,0x1e,0xda,0x32,0x3e,0x7a,0x8b,0x48,0xbe,0xf7,0x40,0x5f,0xbe,0xe6,0x7b,0xfa,0x3c,0x00,0x53,0x6e,0x3e,0x5f,0x22,0x7c,0xbd,0x4e,0x8a,0x69,0x3e,0xec,0x3c,0xcf,0xbd,0x38,0xb6,0x96,0x3e,0x74,0x58,0x9e,0x3e,0x39,0x48,0xdd,0xbc,0x0e,0xe6,0x2d,0xbe,0xe7,0xf2,0x5e,0xbc,0xaa,0xc8,0x4a,0xbe,0x05,0x99,0xf1,0x3d,0x51,0x56,0x75,0x3e,0x6f,0x4d,0x7b,0x3e,0xcb,0x08,0x10,0xbd,0x51,0xdb,0x4c,0x3d,0x21,0x82,0xcf,0xbd,0x70,0x95,0x0c,0x3e,0x09,0x18,0xf3,0xbb,0x22,0x9a,0x4e,0xbe,0x53,0xe9,0xb8,0xbe,0xf9,0x48,0x9c,0xbd,0xce,0xe9,0x06,0xbe,0x25,0xed,0x6d,0xbe,0x06,0xae,0x0a,0x3e,0x45,0x5d,0xa5,0xbe,0xe3,0x06,0xf0,0xbd,0xb5,0x0f,0x3e,0xbe,0x6a,0x46,0x7f,0xbc,0xb0,0xcf,0x03,0x3e,0x28,0x38,0x85,0x3e,0x99,0x74,0x77,0x3e,0x9c,0x4e,0x0d,0x3e,0xd2,0x74,0x38,0xbf,0x00,0xaf,0x85,0xbe,0x8c,0x1c,0xed,0xbc,0x27,0x96,0x1d,0xbe,0x33,0x47,0xa2,0xbe,0xd4,0x2a,0xf5,0x3e,0x73,0xd6,0x7c,0xbd,0xcf,0xd1,0xca,0xbe,0x37,0x71,0xf2,0xbc,0x53,0x4f,0xa7,0x3c,0x46,0x3d,0xe5,0xbd,0xe5,0x16,0x95,0x3e,0x9f,0x3a,0xde,0x3d,0x37,0xe0,0xe8,0x3d,0xa3,0xa0,0x77,0x3e,0xa9,0x83,0x8c,0xbf,0xf1,0xb3,0xf8,0x3e,0x68,0xb9,0xff,0x3b,0x99,0xec,0xf9,0xbe,0xec,0x86,0xab,0xbe,0x7c,0x82,0xe1,0xbd,0x63,0x7d,0xa7,0xbc,0x78,0x64,0x2c,0xbe,0x2f,0x60,0x53,0xbe,0x2f,0xd4,0x99,0x3d,0x9e,0x22,0x4f,0xbe,0x19,0x4d,0xf0,0xbd,0xa2,0x04,0x81,0xbe,0xd3,0x41,0x6f,0x3e,0x4c,0x4b,0xcd,0x3c,0x73,0xd8,0x97,0xbd,0xe3,0x9f,0x11,0xbe,0x65,0xc6,0x11,0x3e,0xce,0xde,0x40,0x3e,0x2a,0x01,0x57,0x3d,0xf5,0x5f,0xeb,0x3d,0xba,0xcf,0xe0,0x3d,0xe8,0x22,0x60,0x3e,0xf8,0xf4,0x48,0x3e,0x6e,0xc0,0x49,0xbe,0x77,0x62,0xf5,0xbd,0x37,0x26,0x3c,0x3e,0x99,0x5a,0x35,0x3e,0x11,0xf1,0x9d,0xbc,0xec,0x62,0xbe,0xbd,0xaa,0xf1,0x19,0xbe,0x41,0xf0,0x80,0xbe,0x9e,0xd2,0xc2,0xbd,0x5e,0xf0,0xcc,0xbd,0x61,0x21,0x39,0x3e,0x7a,0xdf,0x06,0x3e,0xc0,0x34,0x6b,0x3e,0x8e,0x08,0x65,0xbe,0x04,0xce,0x10,0xbe,0x60,0xfd,0x04,0xbe,0x40,0x04,0x35,0xbe,0x10,0x6c,0x19,0x3e,0x39,0xa0,0xbd,0xbb,0x38,0xeb,0x66,0x3e,0x1f,0xc0,0x06,0x3d,0xf4,0x85,0xbe,0xbd,0x92,0x03,0x2a,0x3e,0x47,0xdd,0x9b,0x3c,0x42,0xaf,0x40,0x3e,0x02,0xa8,0x13,0x3e,0x8e,0x5a,0xc7,0xbb,0x25,0x32,0x88,0xbe,0xb5,0x2f,0xa2,0x3b,0x48,0x95,0xfa,0xbd,0x96,0x70,0x60,0x3e,0x50,0xf8,0xf8,0xbd,0xec,0x05,0x00,0xbe,0x08,0x50,0x25,0x3e,0x65,0xac,0x9d,0x3c,0xf0,0xe1,0x98,0x3d,0x32,0x99,0x18,0xbe,0x01,0xf4,0x5b,0xbe,0x3c,0x76,0x2d,0xbe,0xcd,0x85,0x02,0x3e,0x10,0xc9,0x23,0x3e,0x98,0x2f,0x63,0xbe,0xe2,0x9b,0x02,0x3e,0xc0,0x46,0x58,0xbe,0x02,0x39,0x26,0x3e,0x19,0x32,0x42,0xbe,0x79,0xb5,0x48,0xbe,0xb4,0x83,0xfc,0x3c,0x53,0x63,0xa0,0x3e,0xbd,0x91,0x6e,0x3e,0x65,0x82,0x11,0xbe,0x7f,0x2f,0x34,0x3e,0xf0,0x64,0x5a,0x3c,0xae,0x41,0xbd,0x3d,0xa7,0x72,0x62,0xbe,0x14,0x5a,0x82,0xbe,0xc7,0xf5,0x57,0xbc,0xdb,0x56,0x63,0x3e,0x50,0x2e,0x67,0xbd,0xa5,0xe5,0xa9,0xbd,0xfb,0xe6,0xb3,0x3c,0x51,0x8a,0xb6,0x3d,0xe0,0x1e,0xb4,0xbd,0xac,0x07,0x7c,0x3e,0x7d,0xca,0x5d,0x3e,0x81,0x49,0x42,0xbc,0xa3,0x6c,0x6e,0xbe,0xbf,0x64,0xce,0x3d,0xf6,0x0f,0x29,0x3d,0x3b,0x66,0xdb,0x3d,0x8f,0x91,0x22,0xbe,0x10,0xa7,0xf3,0x3d,0xa1,0xa4,0x01,0xbd,0xfb,0xe9,0x7d,0x3e,0xd2,0xc2,0x02,0x3d,0xe4,0xd7,0x8d,0xbe,0x2c,0xff,0xa9,0xbd,0xee,0xf8,0x26,0x3e,0x6f,0x92,0x1d,0x3e,0x77,0xfc,0xa9,0xbe,0xd6,0x39,0x37,0x3e,0x27,0xb3,0xd2,0xbe,0x2e,0x51,0x10,0xbe,0x64,0x0b,0xc6,0x3b,0x0e,0xa7,0xe7,0xbd,0xdd,0x33,0xd8,0x3e,0xfc,0x66,0xb0,0x3b,0xee,0x9b,0xe8,0x3d,0x31,0xf7,0x64,0x3e,0xf8,0x8c,0xcb,0xbe,0x13,0x4a,0xbf,0xbe,0x0e,0xba,0x15,0x3e,0x75,0x29,0xbc,0x3d,0xb2,0xd3,0x75,0xbe,0xe4,0xbb,0xd8,0x3d,0x72,0x98,0x88,0x3e,0xaa,0xf8,0xee,0xbe,0xeb,0xb7,0xa8,0xbd,0x4f,0x82,0x1c,0xbe,0x58,0xa4,0x89,0x3d,0xca,0x61,0x4e,0x3e,0xca,0xcb,0xea,0x3d,0x99,0xe7,0xad,0x3e,0xe3,0xc6,0x0e,0xbc,0x64,0x15,0x61,0xbf,0xe0,0x8e,0x28,0x3e,0xcb,0xd1,0xf9,0x3d,0xa0,0x68,0x0f,0xbe,0xa9,0x90,0xfc,0xbe,0x49,0x33,0x40,0xbd,0xdd,0x98,0x10,0x3d,0x10,0x13,0x24,0xbd,0xe0,0x2a,0xd0,0xbd,0x48,0xa9,0xde,0xbd,0xc8,0x9b,0xa0,0xbd,0xc8,0xa5,0xb4,0x3d,0x78,0xce,0x74,0xbe,0x00,0x47,0xec,0xbb,0xe4,0xa1,0x51,0x3e,0x94,0xcd,0x6a,0xbe,0x58,0x81,0xfb,0xbd,0x68,0x8a,0x44,0xbe,0x60,0xfa,0xae,0xbc,0xb0,0x7c,0xcb,0xbd,0x80,0xb6,0x42,0x3e,0x00,0x5a,0x30,0xbb,0x50,0x88,0x66,0xbd,0xcc,0xf4,0x58,0x3e,0xd0,0x4f,0x11,0xbe,0xac,0xab,0x72,0xbe,0x20,0x6b,0xf1,0xbd,0xc0,0xf8,0xa3,0x3c,0x6c,0x9b,0x16,0x3e,0xc0,0x2b,0x8e,0xbd,0x00,0xd1,0x43,0x3d,0x0c,0xd2,0x61,0xbe,0x90,0x9c,0x1b,0xbe,0x8c,0x7a,0x27,0xbe,0x10,0xa7,0xeb,0x3d,0xf4,0x06,0x5c,0x3e,0x00,0xa9,0xe8,0xbd,0x80,0xd1,0xaf,0x3b,0xe0,0x8d,0xb2,0x3c,0xa4,0x09,0x44,0x3e,0x58,0x59,0x9e,0x3d,0x90,0xfd,0x1d,0x3e,0x00,0x3a,0x54,0x3e,0x34,0x45,0x4a,0xbe,0x44,0xbb,0x24,0x3e,0x44,0x01,0x0d,0x3e,0x94,0xed,0x51,0xbe,0x44,0x2e,0x73,0xbe,0x78,0x3a,0xac,0xbd,0xf0,0x48,0x1a,0xbe,0x9c,0x49,0x50,0xbe,0x24,0x99,0x57,0xbe,0xb4,0x66,0x64,0xbe,0x28,0x74,0x4a,0xbe,0x78,0xd8,0xa1,0x3d,0x60,0x52,0x03,0x3e,0xec,0x60,0x2d,0xbe,0x80,0xf0,0x06,0xbd,0x7c,0xe7,0x29,0x3e,0x08,0x7c,0xc6,0xbd,0xe4,0xf3,0x22,0xbe,0x58,0xe4,0x78,0x3e,0x80,0xd3,0xde,0x3d,0x94,0xfe,0x5b,0xbe,0xc8,0x9a,0x65,0x3e,0xa8,0xb0,0x95,0x3d,0x00,0x61,0x05,0xbb,0xe0,0x5e,0xbc,0x3d,0xb8,0x9e,0xdc,0xbd,0x8c,0xff,0x17,0xbe,0x00,0xa3,0x41,0xbc,0x6d,0xb4,0x02,0x3f,0xbc,0x4c,0xb0,0x3e,0xeb,0x84,0x18,0xbe,0xc8,0x55,0x80,0x3e,0x87,0x31,0x9c,0x3d,0x9d,0xeb,0x0a,0xbe,0x6e,0xda,0x06,0xbe,0x56,0x65,0x41,0xbe,0xb6,0x70,0x02,0x3d,0x4c,0x7e,0x09,0xbd,0xe9,0x69,0x89,0x3d,0xae,0x59,0x9e,0xbd,0xa7,0x75,0x50,0xbd,0xcd,0x22,0x81,0xbe,0x01,0x50,0xda,0xbc,0x95,0x7e,0xa8,0x3e,0x6a,0xf7,0xef,0xbc,0x83,0x40,0x53,0xbd,0x1e,0x2b,0xdd,0xbd,0xb2,0x82,0x4e,0xbd,0xa4,0x74,0x43,0x3b,0x40,0x0a,0x5b,0x3e,0xa1,0x90,0xa6,0x3d,0xd3,0xff,0x97,0xbe,0x2f,0xa4,0x0c,0x3e,0x1f,0x7b,0x3d,0xbf,0x29,0x3a,0x06,0xbe,0xa9,0x56,0x4e,0xbd,0x8a,0x68,0x07,0xbf,0x8d,0x0a,0x49,0x3e,0x3b,0x96,0xd3,0xbd,0xcb,0x82,0xca,0x3e,0x72,0x2e,0x2e,0x3b,0x3a,0x9b,0x12,0x3f,0x85,0xb8,0x02,0xbd,0x89,0xd6,0xf5,0x3d,0x4b,0x24,0x17,0xbe,0x42,0x99,0x32,0x3e,0x7d,0x0d,0x00,0x3e,0x18,0xd4,0xd8,0x3d,0x39,0x8b,0x0f,0x3e,0x8a,0x85,0xc2,0x3e,0x78,0x09,0xf7,0xbe,0x7a,0x22,0x6d,0xba,0xd2,0x91,0xf1,0xbc,0x93,0x26,0x29,0x3d,0xc6,0xdb,0x81,0xbd,0x1c,0x94,0x1c,0x3e,0xfc,0x5c,0xd6,0xbc,0x5d,0x15,0x64,0xbe,0x90,0x42,0x1c,0x3e,0x0b,0x90,0x24,0xbe,0x03,0xb2,0xee,0xbe,0xad,0x91,0xe0,0x3e,0x82,0x40,0xbd,0xbe,0x7a,0xf7,0xa4,0x3d,0xf2,0x97,0x17,0x3e,0xb4,0x75,0x49,0xbf,0x17,0x87,0xd5,0x3e,0x05,0x2d,0xad,0xba,0x04,0xe8,0xdc,0xbe,0x3b,0xdf,0x5e,0xbf,0xc0,0xbc,0x87,0x3d,0x85,0xf7,0x2f,0xbe,0xe8,0x4f,0x07,0xbe,0x7d,0xad,0x2b,0xbd,0x3e,0x3c,0xa4,0xbe,0x4b,0x3c,0x9b,0xbe,0xd6,0x4d,0x8a,0xbe,0xa5,0x48,0x88,0x3e,0x51,0x9a,0x4e,0x3c,0xef,0x6f,0x13,0xbe,0xd2,0x5e,0xfa,0x3d,0xd2,0x8f,0x8e,0x3d,0xf8,0x47,0xee,0xbe,0xb1,0xf7,0x0b,0xbe,0xc9,0x20,0xc3,0xbd,0xf6,0x06,0x5a,0xbe,0x43,0x90,0x30,0xbd,0xd3,0xc5,0x0a,0x3e,0xe2,0x91,0x15,0xbd,0x53,0x00,0xc2,0xbe,0x0e,0x0d,0x4a,0x3e,0x9d,0x18,0xb0,0xbe,0x2c,0x25,0x50,0x3d,0x11,0xcf,0x3a,0xbe,0x9c,0x0f,0xed,0xbe,0x03,0xa0,0xc9,0x3d,0x42,0xe6,0x41,0x3c,0x04,0x52,0x2b,0xbe,0xe5,0x07,0x11,0x3e,0x6c,0xed,0x0a,0xbe,0x18,0xf4,0x1a,0xbe,0xb4,0x94,0x3c,0xbf,0xaf,0x0b,0x61,0x3a,0x2e,0xb3,0x39,0xbe,0xff,0x5e,0x41,0x3f,0xa5,0x2c,0x92,0xbe,0x7e,0x3a,0x0d,0x3e,0x8f,0x1a,0x37,0x3f,0x93,0x2d,0xfd,0x3d,0xf2,0xbc,0x82,0xbe,0x34,0xa6,0x9b,0xbe,0x01,0x67,0x4d,0xbd,0xbd,0x4e,0xbf,0xbd,0x53,0x0a,0xa5,0xbf,0x57,0x74,0x28,0x3f,0x55,0x97,0x8b,0x3e,0xef,0x51,0xbc,0xbd,0x5c,0xdc,0xe1,0x3e,0xf5,0x0a,0x9d,0x3e,0xfa,0xce,0xef,0xbe,0x9a,0x00,0x35,0xbe,0xdb,0x50,0xce,0x3c,0x81,0xe7,0xb1,0x3c,0x8a,0x25,0xe8,0xbb,0xc6,0x1b,0xa8,0x3e,0x76,0x61,0x33,0xbf,0x29,0xf3,0x34,0xbe,0x74,0x80,0x82,0xbe,0xe9,0x33,0x2a,0x3e,0xd8,0x96,0x12,0xbe,0xf9,0xa0,0xce,0xbe,0xe5,0xfd,0x20,0x3e,0x21,0x64,0xaa,0x3e,0x20,0x9a,0xac,0x3f,0xed,0x11,0xee,0x3d,0x11,0x76,0x56,0x3f,0x95,0x0d,0x06,0x3e,0xce,0x87,0x31,0x3e,0xd8,0x04,0x9c,0xbe,0x61,0x84,0x6f,0x3c,0x22,0x92,0xe7,0xbd,0x39,0x49,0xbe,0x3d,0x3a,0x09,0xce,0x3e,0xd6,0x51,0xb1,0x3d,0xdd,0xb5,0x5d,0xbe,0x02,0x62,0x69,0x3e,0x47,0xdb,0x26,0xbe,0x66,0x03,0xac,0xbd,0xef,0x15,0x2e,0xbe,0xb9,0xe0,0xbc,0xbe,0x92,0x31,0xe1,0xbd,0xcd,0xc2,0x9d,0x3e,0x3e,0x81,0x9f,0xbe,0xb2,0xe3,0xa8,0xbe,0xe3,0x19,0x90,0xbc,0xfb,0xe5,0xdb,0xbd,0x99,0xfd,0x29,0xbe,0x0f,0xca,0x07,0x3e,0xdc,0xbc,0x13,0xbe,0xeb,0x4a,0x5f,0xbe,0xea,0x96,0x19,0x3e,0x11,0x3d,0xa6,0x3d,0xfe,0xd3,0x6c,0x3e,0xed,0x66,0x48,0x3d,0xbc,0xf9,0x19,0xbf,0x7a,0xdd,0xec,0xbe,0x8b,0x32,0x33,0x3e,0x37,0x6b,0xc2,0x3d,0xa3,0xfc,0x82,0x3d,0x31,0x7d,0x8c,0x3e,0x05,0x55,0xcb,0xbd,0xc5,0x7f,0x92,0x3e,0xb1,0xea,0xb3,0x3d,0x9d,0x58,0x9e,0xbd,0xb9,0x07,0x0d,0x3e,0x5b,0x10,0x5d,0x3e,0xfb,0x6b,0x5b,0x3e,0xf2,0xef,0x86,0x3e,0xbd,0x24,0xd0,0xbe,0xc7,0xc5,0xcd,0xbe,0xfa,0x36,0x71,0xbd,0xed,0x3c,0xe7,0x3d,0x7f,0x73,0xac,0xbd,0x3e,0xc3,0x8a,0x3e,0xf4,0x22,0x29,0x3d,0x42,0x87,0x03,0xbf,0x3d,0xaf,0x59,0x3e,0xec,0xb1,0x2a,0x3d,0x35,0x5d,0x1a,0xbd,0x21,0x50,0x3f,0x3e,0x1f,0x0e,0x20,0x3e,0x92,0xa9,0x15,0xbe,0x5e,0x3f,0x86,0x3e,0x0e,0xff,0xa7,0xbf,0x64,0xad,0x45,0x3e,0xef,0x89,0x02,0xbe,0x02,0xfa,0x16,0xbe,0xbd,0x67,0x33,0x3e,0x94,0x52,0xba,0x3d,0x4f,0x9e,0x4a,0x3e,0x4b,0x95,0x72,0x3d,0xbd,0x27,0x00,0xbf,0x8f,0xac,0x80,0x3e,0x1c,0xe9,0xe2,0x3d,0xd5,0x51,0xd4,0x3d,0xc5,0xab,0xeb,0x3d,0x02,0xed,0x5e,0xbe,0x06,0x0a,0x29,0xbe,0x9e,0xee,0x26,0x3c,0x2a,0x4d,0x4a,0xbe,0xea,0x4c,0xf2,0x3d,0x30,0x10,0xd6,0x3e,0x9f,0x02,0x07,0x3e,0x76,0x36,0x70,0xbd,0x90,0x70,0x57,0x3c,0x3c,0xb1,0x86,0xbe,0xb7,0xb4,0x08,0x3e,0xa4,0x33,0xc8,0x3e,0xb5,0x9c,0x9f,0xbb,0x7f,0x07,0x48,0xbd,0x72,0xb4,0xfc,0x3e,0x14,0x39,0x5e,0xbd,0x65,0xcc,0x70,0x3d,0x13,0x9a,0xc1,0xbc,0xf6,0x65,0x38,0x3d,0xdb,0xbb,0xc1,0x3c,0x70,0x39,0x3b,0xbe,0x82,0xb2,0x4f,0x3e,0xa0,0x09,0x84,0x3e,0xb8,0x57,0x26,0x3f,0xc9,0xe6,0xb4,0xbd,0x69,0x87,0x4b,0x3e,0xc1,0x56,0xb8,0xbe,0x6a,0x4d,0x96,0x3e,0x60,0x82,0x85,0x3e,0xbf,0xce,0xed,0xbe,0xd6,0x5f,0x82,0xbc,0x1c,0x83,0x1a,0x3e,0x64,0x95,0x6a,0x3d,0x09,0xa7,0xec,0xbd,0x43,0xde,0x0f,0x3e,0xc9,0x79,0x6d,0x3e,0x3a,0xd5,0xb3,0xbe,0x23,0x7e,0xcb,0x3e,0x3d,0x09,0x44,0x3e,0x43,0x49,0x6c,0x3c,0xa2,0x39,0x80,0xbd,0x7a,0x09,0x73,0x3d,0x47,0x3e,0x15,0x3e,0x11,0x11,0xda,0xbd,0x5c,0x50,0x41,0x3c,0x29,0xfd,0x8b,0x3e,0xe9,0x15,0x79,0xbe,0x97,0x6a,0x85,0x3d,0x8e,0x85,0x03,0xbd,0xe0,0x12,0x4b,0x3e,0xb6,0x3e,0x4a,0x3e,0xb0,0x20,0x99,0x3f,0x93,0xbd,0xc6,0x3e,0x8e,0xf5,0xe3,0xbd,0x0d,0x1d,0xa7,0x3e,0xb9,0xda,0x2e,0xbf,0x4d,0xd2,0xb9,0x3c,0x27,0x3b,0x93,0xbe,0xac,0x27,0xc7,0xbf,0x49,0x27,0xd6,0x3e,0x86,0x7a,0x20,0xbe,0x94,0x02,0xba,0xbf,0x8f,0x1d,0x45,0x3e,0x59,0x76,0xa4,0xbd,0xa2,0x10,0x80,0x3d,0xd9,0x10,0x80,0xbe,0xb1,0xa3,0x07,0x3e,0xd4,0xce,0xe3,0x3e,0xb4,0x01,0x1f,0xbf,0xb1,0x7b,0x20,0xbe,0x26,0x6d,0xcd,0x3d,0xf7,0x59,0xad,0x3c,0x9c,0xed,0x05,0xbf,0x94,0xb4,0x0b,0x3f,0x16,0x46,0x2b,0xbe,0x99,0xff,0x8c,0xbe,0x0e,0xb3,0x28,0xbd,0xdf,0x2f,0x2d,0xbd,0x33,0x9c,0x91,0xbf,0x62,0xa4,0x6a,0xbd,0xad,0xc6,0x67,0xbe,0x30,0xb9,0x35,0xbe,0x5d,0xcf,0x9c,0x3d,0x5c,0x31,0x8b,0x3e,0x92,0x56,0x36,0x3e,0x70,0x59,0x72,0xbd,0xe1,0xfd,0x4d,0xbe,0x89,0xa7,0x36,0xc0,0x33,0xfe,0xe0,0xbd,0x75,0x87,0x5c,0xbf,0x90,0x9b,0x98,0x3e,0x86,0x16,0x87,0xbe,0xc1,0xf9,0xf7,0x3c,0xe1,0xe2,0x11,0x3f,0x15,0xc6,0x8e,0xbe,0x88,0xeb,0x41,0x3e,0x0f,0xbb,0x88,0xbd,0x3b,0xad,0x91,0x3c,0xf8,0x77,0x23,0x3e,0xa4,0x1c,0xb7,0xbe,0xba,0x00,0xa5,0x3d,0x4a,0x8a,0x3e,0xbe,0xd6,0x86,0xb6,0x3d,0xc9,0x3f,0x7b,0x3e,0x9a,0x0d,0x90,0x3d,0x23,0x87,0xfe,0xbd,0xd9,0x35,0x45,0xbe,0x6b,0x20,0x44,0x3c,0xca,0x09,0xb9,0x3d,0x48,0xfa,0xd8,0xbd,0x49,0x13,0xb7,0x3e,0x69,0x72,0xb9,0xbe,0x73,0x09,0x9f,0x3d,0xa3,0x71,0x05,0xbd,0x58,0xbe,0x4a,0x3e,0x19,0x4a,0x83,0xbf,0x58,0x4b,0x05,0xbf,0x7c,0xed,0x3b,0xbd,0xf2,0xbc,0xb4,0xbc,0x80,0xe5,0x1f,0x3f,0xee,0x4a,0x5b,0xbe,0x3c,0x37,0x8f,0x3e,0x6c,0xc7,0xc0,0xbf,0x71,0x04,0x86,0x3e,0x81,0x8b,0xa3,0xbd,0xfd,0x91,0x89,0xbf,0x6a,0xb7,0xdd,0xbb,0xaa,0x81,0xef,0xbd,0xf9,0x0d,0x44,0x3e,0xa2,0x6e,0x7d,0xbd,0x2a,0x17,0x69,0xbe,0xf1,0xde,0xdb,0x3e,0xf5,0x49,0x43,0x3d,0x50,0x57,0x5e,0x3e,0x82,0x9c,0x90,0x3d,0x0a,0x15,0x36,0xbe,0x33,0x88,0x16,0xbc,0xb8,0xb7,0x8b,0x3e,0xb1,0x96,0xfa,0xbc,0xad,0x29,0x9f,0x3c,0xbd,0x14,0x03,0xbe,0xfc,0x89,0x02,0xbd,0xf8,0x75,0xd3,0xbe,0xfc,0xf6,0x09,0x3d,0x51,0xae,0xac,0xbe,0xbb,0xb6,0x63,0x3e,0x8e,0xdf,0x9b,0xbd,0x75,0x14,0xbc,0x3e,0x6b,0x57,0xe4,0x3e,0xfc,0x2b,0x19,0xbd,0xfd,0x36,0x8c,0x3e,0x9b,0x33,0xa0,0xbf,0x27,0x07,0x2d,0xbe,0x8b,0x5e,0x6a,0xbf,0x94,0x5c,0x14,0x3f,0x18,0xbe,0xf3,0xbe,0xe8,0xbc,0x96,0x3c,0x7d,0x90,0xa0,0x3e,0xad,0x10,0x56,0x3d,0x6b,0x3c,0x2e,0x3e,0xa4,0x2d,0xbf,0xbe,0x2d,0x52,0xdb,0x3d,0x91,0xc2,0x24,0x3e,0xbd,0x17,0x20,0xbf,0x76,0xb6,0x1c,0x3e,0x78,0xa2,0x87,0xbb,0xd8,0xc7,0x98,0x3d,0x97,0xec,0xdb,0x3d,0x0b,0x4d,0x30,0x3e,0x22,0xe7,0xe3,0xbd,0x5a,0xca,0xb9,0x3d,0x85,0x36,0x35,0x3e,0x86,0x34,0xa4,0x3d,0x47,0x64,0x3b,0x3d,0xba,0xd0,0xe5,0x3e,0xac,0xd5,0x0d,0xbe,0x07,0xa1,0x96,0x3d,0x83,0xed,0x34,0x3e,0xa4,0x49,0x01,0x3e,0x2f,0x1d,0x2b,0xbf,0xaa,0x26,0xec,0xbe,0x4b,0x2f,0x20,0xbe,0xef,0xa2,0x5e,0xbe,0xd0,0xdd,0x29,0x3f,0x4a,0xc8,0x6d,0x3e,0x4a,0xc8,0x8b,0x3e,0xe5,0xd0,0xbe,0x3c,0x69,0x62,0x06,0x3e,0x95,0xee,0xf9,0xbd,0x6a,0xa4,0x26,0xbe,0x8d,0x37,0xc7,0x3d,0x26,0xd9,0x80,0xbd,0x50,0x01,0xbf,0x3d,0x32,0xf1,0x66,0x3e,0x44,0xa1,0xa5,0x3e,0x08,0x9b,0x5f,0xbd,0x42,0xfe,0x2a,0xbb,0x03,0xae,0xbb,0xbd,0xe6,0x7f,0x54,0xbe,0x6e,0x35,0x82,0xbe,0x60,0x04,0x9d,0xbe,0x62,0x18,0xfa,0xbd,0xa2,0x35,0x8b,0xbd,0xf3,0x4a,0x7e,0x3c,0x77,0x5e,0x28,0xbb,0x55,0x51,0x80,0xbe,0x6e,0xa6,0x76,0xbe,0x7c,0xce,0x34,0xbe,0x38,0xb9,0x0c,0xbf,0x43,0xe6,0x9c,0xbd,0xb9,0xce,0x8d,0xbd,0x13,0xba,0x29,0xbf,0x52,0xd1,0x66,0x3d,0xc7,0xa7,0x69,0x3e,0xd2,0x3e,0xad,0xbd,0xf9,0x95,0x36,0xbe,0xb0,0x7a,0x6a,0x3e,0x7a,0xe3,0x29,0xbe,0xee,0xed,0x4b,0x3f,0x1f,0x28,0xa9,0xbe,0x23,0x3f,0xff,0x3e,0xb4,0x6a,0x20,0x3f,0xe6,0x38,0xb8,0x3d,0x7f,0x09,0xac,0xbd,0x1d,0xfa,0x8d,0xbe,0x59,0x62,0x6f,0xbe,0xdf,0x43,0x04,0xbe,0xd9,0x62,0x6b,0xbf,0xa6,0x47,0x19,0x3f,0x7f,0x5d,0xca,0x3d,0x10,0xff,0x97,0xbd,0xb4,0x92,0xf2,0x3e,0x9f,0x24,0x8c,0x3e,0x79,0xf3,0xc7,0xbe,0x82,0x65,0xac,0xbe,0x81,0x20,0x9e,0x3d,0x82,0xb0,0x64,0x3e,0x7e,0xf0,0xaa,0x3e,0xcb,0xae,0x2f,0x3f,0xf1,0x24,0xd9,0xbe,0x74,0x7f,0x0c,0x3d,0x17,0xf8,0x57,0xbe,0x33,0x6e,0x14,0xbe,0xe6,0xf9,0x2a,0x3e,0x57,0x4e,0x18,0xbf,0x56,0x74,0x30,0xbe,0xd0,0x72,0x24,0xbe,0x33,0x6f,0x93,0x3f,0x3b,0x53,0x70,0xbe,0xab,0x3a,0x26,0x3f,0x85,0x3a,0x35,0xbe,0x46,0x14,0xe7,0x3c,0xe6,0xd8,0xb2,0x3d,0x2f,0xf9,0x99,0x3d,0x2c,0x08,0x0f,0xbe,0x38,0x57,0x5c,0xbe,0xac,0x55,0x1d,0x3e,0xac,0x57,0x17,0x3e,0xff,0x19,0x15,0xbe,0x58,0x90,0x30,0xbe,0xb6,0x1d,0x71,0x3e,0xa9,0xff,0x09,0xbe,0x3f,0xe0,0x3a,0x3e,0xdc,0xe0,0x46,0xbe,0xaf,0x90,0x21,0xbe,0xf0,0xd8,0x0a,0xbe,0x40,0xe2,0x2b,0x3c,0x60,0xe6,0x3d,0xbc,0xe3,0xf6,0x0f,0xbe,0xe7,0x13,0x26,0x3d,0x30,0x3f,0x64,0xbe,0xfe,0xe6,0xd9,0xbd,0x68,0xd3,0x63,0xbe,0x44,0x28,0x69,0x3e,0xde,0xd0,0x4f,0xbe,0x18,0x12,0xde,0xbd,0xfe,0xb4,0x1c,0x3e,0x48,0xb5,0xfa,0x3d,0xb4,0x3f,0x0e,0xbe,0xd8,0xe8,0xa8,0xbd,0x20,0x71,0x6e,0xbe,0xde,0x41,0x1a,0x3e,0x7d,0xa7,0x2a,0xbd,0xec,0x04,0x27,0x3e,0x94,0x43,0x52,0x3e,0x07,0x23,0x7b,0xbe,0x9a,0xda,0x48,0x3d,0xb0,0x9b,0x87,0x3d,0x84,0xab,0x3d,0xbe,0xb8,0xd1,0xf3,0x3d,0x88,0x74,0xd5,0xbd,0x00,0x3a,0xac,0x3d,0x0d,0xf2,0x00,0x3e,0x99,0xdc,0x1d,0x3e,0xfb,0x09,0x12,0xbd,0xe0,0x8d,0x59,0xbe,0xe0,0xc2,0x7c,0x3d,0xb8,0x27,0x7a,0x3e,0xf0,0x35,0xe8,0xbd,0x08,0x89,0x50,0xbe,0x08,0xc7,0x97,0xbd,0xd3,0x67,0x90,0xbc,0x00,0x76,0x34,0x3c,0x49,0xa4,0x7d,0xbd,0x74,0xa3,0x8e,0xbd,0x48,0xfb,0x9e,0xbd,0xf0,0x2d,0x29,0x3d,0x82,0x59,0x3f,0xbe,0x15,0x55,0x1a,0x3e,0x28,0xb9,0x1b,0x3e,0xfc,0x16,0x4c,0xbe,0x22,0x18,0x17,0xbe,0x38,0xa6,0x83,0x3d,0x41,0x99,0x14,0xbd,0x55,0x29,0xde,0x3d,0x12,0xbe,0xf0,0x3d,0xdb,0xd8,0x13,0xbe,0xef,0x26,0x91,0x3d,0x36,0xaa,0x46,0xbe,0xea,0x59,0x14,0xbd,0xf9,0xab,0x05,0xbd,0xcc,0x8f,0x97,0x3e,0x75,0x7b,0xf0,0xbb,0xc7,0x04,0x02,0xbd,0xc0,0xfd,0x16,0xbf,0x8f,0x05,0x6a,0xbe,0x59,0x94,0xe4,0xbe,0x91,0x2e,0x4f,0xbe,0x69,0x84,0xae,0xbe,0x09,0xd9,0x2b,0x3e,0xe9,0x45,0x77,0x3d,0x80,0x1e,0xa2,0xbe,0x53,0x7b,0x1a,0x3e,0x46,0xdc,0x10,0xbe,0x70,0x7e,0x3a,0xbd,0xbf,0x6d,0x0d,0xbd,0x44,0x32,0x2f,0x3d,0x8b,0x4e,0xa1,0x3e,0x3c,0x17,0x93,0x3e,0x14,0x46,0x4d,0xbf,0x6b,0xf0,0xba,0x3e,0xfb,0x4e,0x2d,0xbe,0x99,0x8c,0x00,0xbf,0xe4,0x4d,0xdd,0xbe,0xdb,0xed,0x25,0xbe,0xcf,0x4d,0x89,0x3e,0x77,0xe5,0x89,0x3f,0x4a,0x90,0x55,0xbe,0x12,0xb1,0x03,0x3e,0x00,0x5a,0xd3,0x3e,0xda,0x18,0x3f,0x3b,0x41,0x87,0x3a,0x3c,0x63,0xa6,0x76,0xbe,0x54,0x79,0x69,0xbe,0xb3,0x79,0x28,0xbd,0x65,0x48,0x54,0xbf,0x3f,0x9f,0x07,0x3f,0xc7,0x8a,0x7c,0xbe,0xc5,0x6c,0x15,0x3d,0x34,0xcd,0x6b,0xbb,0x8d,0x56,0xd7,0x3e,0x85,0x41,0xbe,0xbe,0x42,0xca,0x83,0x3c,0xfd,0x65,0x6d,0x3e,0xb5,0x75,0xde,0x3c,0x9c,0x19,0x51,0x3e,0x79,0xe6,0xf2,0x3e,0x4a,0x54,0x39,0xbe,0xf9,0x9d,0xa8,0x3e,0x16,0xe4,0x82,0xbe,0xf9,0xaa,0x05,0x3e,0xbc,0x06,0xa6,0x3e,0x89,0x15,0x29,0xbf,0x85,0xbf,0x6d,0x3e,0x6b,0x8e,0xdd,0xbd,0x61,0xfc,0x42,0x3f,0x4d,0x10,0xc0,0x3d,0x98,0xbe,0x41,0x3f,0x04,0x84,0x27,0xbd,0x01,0x97,0x99,0xbe,0x34,0xee,0x88,0xbe,0xea,0x46,0x20,0xbd,0x1d,0xdc,0xe0,0x3d,0xa0,0x95,0x06,0xbd,0x4e,0x54,0x7c,0xbe,0xdd,0xd6,0x22,0x3e,0x9c,0xcd,0xd6,0x3d,0x02,0x36,0xac,0xbc,0x11,0x14,0x9e,0xbe,0x22,0x1e,0x37,0xba,0xaa,0xa7,0x06,0x3e,0xb7,0xbb,0x56,0xbd,0x62,0xa7,0xb3,0xbe,0x63,0x41,0x3d,0xbd,0x89,0x6e,0x4a,0x3d,0x2a,0xa8,0x0b,0xbe,0xdc,0x85,0x2b,0x3e,0x8d,0x28,0xa7,0x3e,0xca,0x1a,0x2f,0xbe,0x66,0xca,0x3c,0xbe,0x15,0xa6,0x76,0xbd,0x10,0x4e,0x46,0x3e,0x2e,0x6e,0x1a,0x3d,0xaa,0x28,0xc9,0x3e,0xd5,0x75,0x72,0xbe,0x8f,0xf6,0x82,0xbd,0x9a,0xdc,0xc5,0x3e,0x36,0x51,0x6c,0xbe,0xbf,0xaa,0xd3,0x3c,0x7f,0x5e,0x25,0xbe,0x3a,0xe4,0xfe,0x3e,0xf9,0x3b,0xfe,0xbd,0x6c,0xb2,0xd7,0x3e,0xa0,0xb8,0xe3,0x3d,0x86,0x72,0x91,0x3e,0x44,0x9c,0xfe,0xbc,0xd9,0xe8,0x56,0xbe,0xff,0xc7,0xd9,0x3d,0xd8,0x66,0x9e,0x3d,0x54,0xdb,0x4b,0xbe,0xd6,0xe4,0x5c,0x3f,0xe4,0x6e,0x2d,0x3e,0x45,0xcc,0xf9,0x3d,0xd3,0xed,0x7f,0x3e,0xba,0x34,0xab,0x3e,0xbc,0x13,0x00,0xbf,0x23,0xa1,0x73,0xbe,0xea,0x29,0xa4,0x3e,0x33,0x85,0x88,0x3e,0x29,0x4e,0x98,0x3e,0xb8,0x5f,0xcc,0x3e,0xae,0xcb,0x49,0xbe,0xe2,0x3b,0x8b,0x3e,0x2b,0x90,0x05,0x3e,0xc8,0x0c,0x8c,0xbd,0xde,0x59,0xa5,0x3f,0x82,0x35,0x1e,0xbf,0x8d,0x70,0xa5,0xbd,0xae,0xe5,0xc0,0x3e,0x9e,0x87,0x6b,0x3e,0x7b,0x97,0x39,0xbd,0x1b,0x08,0xcb,0x3e,0x3f,0xd3,0xce,0xbd,0x0b,0xad,0xab,0x3e,0x45,0xd7,0xec,0xbd,0x53,0x6e,0x74,0x3c,0x5d,0x6b,0x8b,0xbd,0x1e,0x89,0x9f,0x3b,0x1f,0x98,0xde,0x3e,0x95,0x35,0xe2,0x3d,0x45,0xae,0xf7,0x3d,0xdf,0x25,0x91,0xbc,0xd3,0x56,0xba,0xbc,0x19,0x85,0xc7,0xbe,0xcd,0x6b,0x85,0x3d,0x87,0xff,0xcc,0xbe,0x03,0xad,0x54,0x3e,0xbc,0xbb,0xeb,0x3e,0x87,0x6a,0x20,0x3e,0x8f,0x6f,0x19,0x3d,0x4b,0x15,0x0f,0x3e,0xee,0x90,0x8a,0x3d,0x43,0x3c,0x47,0x3d,0x7b,0xa7,0x91,0x3e,0xc8,0x10,0x83,0x3d,0x3a,0xfc,0x44,0x3c,0xcf,0xd8,0xa2,0xbe,0x80,0xec,0x97,0xbd,0xb9,0x2d,0xb9,0x3e,0x86,0x33,0x12,0xbe,0x85,0x20,0x06,0xbf,0xe5,0x03,0xc6,0xbe,0x56,0x08,0x50,0xbe,0x6d,0x6f,0x96,0x3d,0x79,0x52,0xd9,0x3e,0x09,0x07,0x26,0xbd,0xfd,0xfe,0x4a,0xbd,0xee,0x37,0xbb,0x3e,0x82,0xe7,0x80,0xbe,0x85,0x0f,0x6c,0x3e,0x63,0xf6,0x94,0x3e,0xa2,0x15,0xcf,0x3c,0x0e,0x2e,0x96,0x3e,0x3e,0x7a,0xd4,0xbd,0x4c,0x71,0x06,0xbf,0xa8,0xa2,0xae,0xbe,0xa1,0x13,0x4e,0xbc,0xf0,0x61,0xed,0xbc,0x9a,0x46,0x15,0xbd,0xa3,0x84,0xb6,0x3d,0x24,0xb7,0xaf,0x3c,0x37,0x97,0xb3,0xbe,0x6d,0x17,0x2d,0x3d,0xb9,0xb9,0x82,0xbb,0x99,0xa4,0x79,0x3d,0x1f,0x2d,0x26,0x3e,0x60,0x63,0xdb,0xbd,0x0d,0x14,0x9f,0x3e,0x09,0x13,0x85,0xbd,0xee,0x05,0x9f,0xbf,0xad,0x8d,0x0a,0x3e,0xa7,0x68,0x2d,0x3d,0x92,0x7f,0x29,0xbe,0x99,0x74,0x88,0xbd,0x56,0x8b,0x9f,0xbd,0xc0,0x92,0x2c,0x3e,0xc5,0xaa,0x82,0xbe,0x48,0x43,0xba,0x3e,0x5b,0x23,0x53,0xbe,0x74,0xc4,0x97,0xbe,0x79,0xed,0x94,0x3d,0xb1,0x1f,0x5b,0xbe,0x60,0xe6,0x7a,0x3e,0xd9,0xa0,0x0c,0x3d,0xa6,0x75,0x8a,0x3d,0x14,0xde,0x90,0x3e,0xc5,0x36,0xe3,0xbe,0xaa,0xf6,0xf0,0x3d,0x69,0xfb,0x13,0x3e,0x9e,0xd1,0xa2,0xbe,0x92,0x6c,0xad,0xbe,0xbd,0x86,0xea,0x3e,0xfc,0xea,0x1c,0x3c,0xfd,0xe1,0x4e,0xbe,0x78,0x32,0x72,0x3d,0xe6,0x68,0xb7,0xbd,0xfa,0xd8,0x6f,0xbf,0xff,0xea,0x30,0xbc,0x83,0x64,0x60,0xbe,0x5e,0xc1,0x4b,0x3e,0x54,0xb7,0x06,0xbe,0x30,0x4e,0x55,0xbe,0x49,0x1f,0xf1,0x3e,0x92,0x4a,0x95,0xbe,0xb8,0xd6,0x6c,0xbe,0xea,0x6c,0x84,0xbf,0xc1,0xe7,0x1e,0xbe,0x0a,0xd3,0xbe,0xbe,0xc0,0x77,0xbc,0x3e,0xe0,0x06,0x5a,0xbe,0x60,0xa5,0x0d,0x3e,0x36,0xce,0xfe,0x3e,0xe9,0xe5,0x74,0x3d,0x3a,0xcc,0x3d,0x3e,0x83,0x60,0x4e,0xbe,0xf1,0x97,0x19,0xbd,0xfe,0x8e,0x06,0x3e,0xf7,0xb3,0x01,0xbe,0x79,0xc2,0x8c,0xbe,0x63,0x11,0x1b,0xbe,0x0f,0xdd,0x26,0xbd,0x5b,0x65,0xb7,0x3e,0x71,0x93,0x2b,0xbe,0xbd,0x7d,0x9e,0x3d,0x04,0x26,0x80,0xbd,0xc1,0x6d,0xd3,0xbe,0xa9,0xd3,0x4f,0xbe,0x48,0x86,0x6f,0x3e,0x4f,0xf2,0x81,0x3e,0x63,0x87,0x80,0xbc,0x68,0x19,0xa5,0xbd,0x1f,0xe2,0x72,0xbe,0xd3,0x7c,0x85,0x3d,0x7f,0x32,0x76,0xbf,0x3d,0x75,0x2d,0xbe,0xa9,0x61,0x3c,0x3d,0x8b,0x5f,0xaa,0x3d,0xa2,0x91,0xf6,0x3d,0xc9,0xac,0x52,0xbd,0x33,0x58,0x2d,0x3e,0x88,0xfe,0x3c,0xbe,0x7d,0x3a,0xb3,0xbe,0x87,0x7a,0xb4,0x3e,0x3c,0xa1,0xca,0xbe,0xdc,0x4b,0xe4,0x3e,0x8e,0xfa,0x0d,0xbe,0x6b,0xf8,0xcf,0xbe,0xaa,0x73,0x4e,0xbe,0x8c,0xf3,0x7b,0x3e,0xef,0xfd,0x22,0xbe,0x35,0xd4,0x73,0x3e,0xdb,0x68,0x9e,0x3e,0xc6,0x53,0x93,0x3d,0xf0,0xea,0x99,0x3e,0x84,0xce,0xed,0xbc,0xb4,0x9f,0xdc,0xbe,0x6e,0xca,0x2b,0xbb,0x26,0x3e,0x69,0x3e,0xc0,0x8a,0x5a,0x3e,0x50,0xed,0xe4,0x3e,0x8a,0x57,0x44,0x3d,0xbb,0x3a,0xb7,0xbd,0xed,0x9e,0x44,0x3d,0x53,0x5d,0xf5,0xbd,0xad,0xa6,0x2c,0x3d,0xfa,0xa4,0x57,0x3f,0xed,0x3b,0xab,0xbe,0xd5,0x9b,0xb0,0x3e,0xaf,0xb8,0x28,0x3f,0x53,0x58,0x28,0x3e,0xd3,0xbe,0xa0,0x3e,0xfe,0x80,0xb2,0xbe,0x0b,0x8a,0xa1,0xbf,0x0f,0xfc,0xd1,0x3e,0x2b,0xa0,0x92,0x3a,0x27,0x8f,0x28,0xbf,0x70,0x03,0xa0,0x3e,0xae,0x70,0x0b,0xbe,0x40,0x92,0x12,0x3e,0x8a,0x74,0x88,0xbd,0x23,0x0f,0x61,0x3e,0x6f,0x0f,0xef,0x3e,0x2e,0x6c,0xea,0xbe,0x4d,0x6c,0xa8,0x3e,0x22,0x00,0x6f,0x3d,0xf3,0x5a,0x2f,0x3d,0xf3,0xbb,0x7f,0x3e,0x84,0x61,0xf7,0x3d,0x30,0x7a,0xef,0x3e,0xdb,0x64,0x41,0x3c,0xca,0x0a,0x12,0xbe,0x61,0xd1,0x2b,0x3e,0x8e,0xdc,0x2a,0xbf,0x9a,0x22,0x29,0x3e,0xbf,0x85,0x8b,0x3c,0x82,0xd3,0x62,0x3e,0x5f,0x2e,0x18,0x3e,0xf3,0x3a,0x99,0x3f,0x33,0xb5,0xa6,0x3e,0xcf,0x40,0x07,0x3e,0x68,0x54,0xa6,0x3e,0xe9,0x13,0x9c,0xbf,0x49,0x52,0x2c,0x3d,0xb0,0x85,0x8d,0xbf,0xea,0xd7,0x5e,0xbe,0x3f,0xd4,0x59,0x3c,0x4c,0xca,0x57,0x3e,0x1d,0x5c,0x15,0x3e,0x50,0x6e,0xe2,0xbd,0x00,0x66,0x23,0xbe,0x60,0xa9,0xd2,0xbc,0x88,0xf4,0x83,0x3d,0x00,0x28,0x68,0x3c,0xd0,0xa5,0x67,0xbe,0x2e,0xaf,0x49,0xbe,0xf0,0x7a,0x41,0xbe,0x37,0x72,0x5f,0x3d,0xd6,0x42,0x37,0xbe,0x64,0xed,0xf0,0x3d,0xe0,0xa2,0x7c,0xbe,0xcc,0x94,0x5d,0xbe,0xde,0x25,0x34,0xbe,0xe8,0x75,0xed,0xbd,0xb7,0xf2,0x2a,0xbe,0x4e,0x36,0xe2,0xbd,0xed,0x1b,0x2a,0x3e,0xea,0x53,0x8d,0x3c,0x54,0xaa,0x43,0xbe,0x50,0xf7,0xbe,0xbd,0x2c,0x98,0x27,0x3e,0x17,0x87,0x11,0x3e,0x78,0x8e,0xd2,0xbd,0xd6,0x2f,0xce,0x3c,0x4a,0x8e,0xd6,0xbd,0x00,0x04,0x4d,0x3e,0x99,0x51,0x11,0x3d,0x02,0xfe,0xc9,0x3c,0xd2,0x28,0xb4,0xbc,0x8c,0x7e,0x05,0x3e,0xa3,0x7d,0x27,0xbe,0x55,0x57,0x8f,0xbc,0x5c,0x69,0x50,0x3e,0x80,0x61,0x45,0x3c,0x90,0xc3,0x22,0xbd,0xd4,0xa9,0x1b,0xbe,0xa0,0x6a,0x0a,0x3e,0xb0,0xfb,0xbe,0xbd,0x62,0xf6,0x0b,0x3e,0xd6,0xd1,0xdd,0xbd,0xad,0x51,0x23,0x3e,0x34,0x8a,0x7c,0x3e,0x10,0xb6,0x43,0xbe,0x28,0x12,0x2a,0xbe,0x88,0x1b,0x0d,0xbe,0xe0,0x84,0xa5,0xbc,0x00,0x38,0xf8,0x3c,0xe8,0x94,0x9a,0x3c,0x7f,0x23,0xac,0xbc,0xba,0xf4,0x76,0xbe,0x40,0x35,0x35,0xbd,0x7c,0x97,0x48,0xbe,0x64,0x2b,0x6e,0xbc,0x6f,0x68,0x73,0xbe,0xa0,0x84,0xa2,0x3c,0xea,0xe7,0xc0,0x3d,0xdd,0x94,0x05,0xbd,0x2c,0x44,0x16,0xbe,0xc0,0x03,0x37,0x3e,0xfd,0x71,0x20,0xbd,0x27,0x82,0xdc,0x3e,0x3c,0xb4,0x27,0xbf,0xe5,0xd1,0xe7,0x3d,0x98,0x9f,0x7b,0xbe,0x64,0xb6,0x1d,0xbd,0xd1,0x85,0x0e,0x3f,0xb6,0xc7,0x25,0xbf,0x4f,0x5c,0xe4,0xbe,0xe0,0x96,0xaf,0x3e,0x51,0x30,0x08,0xbf,0x96,0x43,0xab,0xbe,0xa3,0x69,0x33,0x3e,0x5e,0x30,0x9a,0xbd,0x3a,0xf0,0xa2,0xbe,0x80,0xa7,0x15,0x3f,0x5c,0xff,0x51,0x3e,0x22,0x6a,0x26,0xbf,0x8a,0xdc,0x07,0xbf,0xd9,0x97,0xa5,0x3d,0xa3,0xda,0xad,0xbe,0xeb,0x62,0xc0,0x3e,0xdf,0x03,0x8d,0xbd,0x3e,0x9b,0x16,0xbe,0x31,0xf6,0x80,0xbf,0x64,0x82,0x04,0xbe,0x15,0x12,0xe4,0x3e,0x83,0xe1,0x10,0x3e,0x31,0x48,0x86,0xbe,0x1a,0xd2,0x54,0xbe,0x26,0xeb,0xb0,0xbe,0xc0,0x94,0x59,0xbe,0xbe,0x53,0x18,0x3f,0x86,0x5b,0x32,0xbe,0x60,0x8f,0xa1,0xbf,0xfd,0xe6,0x0a,0x3f,0x6c,0xab,0x2c,0xbe,0x6d,0x9b,0x76,0x3b,0x96,0xee,0x88,0x3e,0x56,0xa3,0x0a,0x3e,0x30,0xbc,0x4e,0xbd,0x02,0xe9,0xb9,0xbe,0x26,0x5a,0x52,0xbf,0x9c,0x7b,0xbc,0xbd,0x18,0xd1,0xd0,0xbd,0x95,0x94,0x7c,0x3e,0x7b,0xa7,0x8b,0xbf,0x0a,0xd0,0x63,0x3d,0x98,0x1d,0x5d,0x3e,0xd5,0x60,0xa2,0xbf,0xef,0x73,0x2d,0x3d,0x3a,0x42,0x23,0xbe,0x50,0x8b,0x9e,0x3e,0xe6,0x00,0x2d,0x3e,0x7a,0xe9,0x12,0x3e,0xfd,0x1d,0x26,0xbe,0x96,0x7f,0x34,0xbe,0xce,0x58,0x59,0xbf,0xb1,0x35,0xc7,0xbc,0x6f,0x1a,0x2a,0xbe,0x76,0x16,0xc6,0xbd,0xab,0x0b,0xbb,0x3e,0x40,0x2b,0xf4,0xbc,0xc7,0x93,0x56,0x3e,0x55,0xb7,0xcf,0xbc,0x22,0xa4,0x5f,0x3d,0x6b,0xef,0x1e,0x3e,0x34,0xcc,0x4d,0xbe,0x0a,0x10,0x62,0xbd,0xdf,0x34,0xd6,0x3d,0x83,0x46,0x40,0xbe,0x9d,0x54,0x72,0xbe,0x73,0x07,0xfa,0x3d,0xcb,0x79,0x61,0x3d,0x87,0x12,0x76,0x3e,0x43,0xfe,0xe5,0x3b,0x30,0x32,0x24,0x3e,0x7e,0x7b,0xe3,0xbd,0xf0,0x02,0x15,0x3e,0xad,0x36,0xe4,0xbc,0xd5,0xed,0xbc,0x3c,0x8a,0x5b,0xf0,0xbd,0x92,0xb9,0x76,0xbb,0xb2,0x00,0xed,0xbd,0x92,0x4e,0x30,0xbe,0x1d,0xb2,0x16,0xbe,0x51,0x73,0x62,0xbe,0xfd,0x10,0x72,0xbc,0xf9,0xe5,0x8f,0xbd,0x9c,0xe7,0xe6,0x3d,0xe4,0x5f,0x26,0xbe,0xde,0xc1,0xdc,0xbd,0x8a,0x1f,0x68,0xbd,0x44,0xe5,0x6b,0xbe,0xec,0x45,0xa4,0xbd,0x15,0x3e,0x14,0xbe,0xf2,0x73,0x5a,0x3d,0x31,0x20,0x2a,0xbe,0xba,0x79,0x06,0xbe,0x30,0x8f,0x6c,0x3d,0x53,0x8a,0x10,0x3e,0x8d,0xc7,0x8f,0x3d,0xf6,0x31,0x3a,0xbc,0xe9,0x06,0x70,0xbe,0xcc,0x98,0x52,0x3e,0xa2,0x16,0x56,0x3e,0xf9,0xf1,0xc6,0x3d,0xc6,0xd2,0x6b,0xbd,0x34,0x9e,0x29,0xbd,0x31,0x17,0x0b,0xbe,0x89,0x63,0xfc,0x3d,0xfe,0x9c,0x15,0xbd,0xb4,0xe9,0x4d,0xbe,0xa3,0xe2,0x22,0xbe,0x65,0xc5,0x91,0xbd,0x39,0x5e,0x29,0x3e,0x31,0xad,0x8b,0xbd,0x41,0x41,0x13,0xbe,0xae,0x6d,0x61,0x3b,0xad,0x34,0x7d,0xbe,0x91,0x82,0x0b,0x3e,0xb6,0x92,0x7c,0xbe,0xf5,0x50,0x15,0x3e,0x24,0x31,0xe3,0xba,0x64,0x4c,0x56,0x3e,0x20,0xf6,0x74,0xbe,0x51,0x01,0x91,0xbb,0x6c,0xa3,0x80,0xbe,0x30,0x7d,0x87,0x3e,0xa6,0xe1,0xeb,0xbc,0x1e,0x52,0xb8,0x3e,0xc7,0x7c,0xa8,0xbe,0x03,0x34,0x14,0x3a,0x94,0x69,0x5d,0x3e,0x75,0x2e,0x32,0xbc,0xe9,0xdb,0x8c,0x3e,0xd2,0xf3,0x89,0x3d,0x9e,0xfd,0x23,0x3e,0x6e,0x55,0xcc,0x3c,0x1a,0xa6,0x39,0x3e,0x2b,0x05,0x9e,0xbd,0x47,0xc1,0x44,0xbc,0x37,0x60,0x8e,0x3e,0x0b,0x01,0x65,0xbe,0x75,0x41,0xd6,0x3e,0x36,0x03,0x27,0x3d,0xb4,0x32,0x17,0x3e,0xb3,0x0b,0xaa,0xbd,0x03,0x6f,0x3b,0x3c,0x00,0x18,0xa4,0xbe,0xd4,0x8a,0x91,0xbb,0x95,0x9c,0xad,0x3b,0x8f,0x50,0x46,0xbd,0x10,0x9d,0x65,0x3e,0xcb,0xde,0xd0,0xbe,0x2d,0x57,0x5c,0x3e,0x4b,0xf6,0x63,0xbd,0xa0,0x2c,0x5f,0x3d,0x43,0x72,0xb1,0x3d,0x8f,0x88,0x18,0xbe,0xc9,0xc0,0x73,0xbe,0x3d,0xa0,0x91,0xbd,0xf2,0xad,0x56,0x3e,0x36,0x4b,0x3c,0xbd,0xc1,0x85,0x27,0x3e,0xb6,0x5e,0xb7,0xbd,0xce,0x7e,0x8a,0xbc,0x56,0x8f,0xcb,0xbc,0x43,0xb0,0xd4,0xbc,0x11,0x84,0xb1,0xbe,0x22,0x78,0x0c,0xbe,0xbc,0x46,0x2f,0x3e,0x07,0xe2,0x3b,0xbe,0x7c,0x6b,0x57,0x3c,0x47,0xae,0x88,0x3d,0xaa,0x3b,0x15,0xbe,0xf4,0x05,0xe1,0x3d,0x00,0x84,0x2e,0xbe,0xac,0x86,0x13,0xbd,0x92,0xaf,0x0c,0x3e,0x73,0x12,0x46,0x3d,0xfa,0xd0,0xd8,0xbe,0x1b,0x0d,0x9e,0x3e,0x78,0x4b,0x29,0x3e,0x33,0x97,0x39,0xbe,0x8b,0x00,0x36,0xbe,0xc5,0x15,0xa2,0xbe,0xc1,0xb4,0x84,0x3e,0xbd,0x12,0xae,0x3c,0x4b,0x2e,0x4f,0xbe,0x56,0x8b,0x45,0x3e,0xea,0xdc,0x9f,0xbe,0x7c,0xbb,0x8f,0xbe,0x75,0xc6,0x42,0xbe,0xda,0xbf,0x21,0x3e,0x58,0x9a,0x85,0xbe,0x7f,0x29,0xab,0x3d,0x3c,0x8b,0x48,0xbe,0x38,0xad,0x9a,0x3d,0x8b,0x98,0x57,0xbe,0x18,0xa7,0x99,0xbd,0xf7,0x44,0xf9,0x3c,0xac,0x8a,0x07,0xbd,0xa5,0x6e,0x5e,0xbe,0x2c,0xb7,0x88,0x3c,0xc3,0xed,0x5d,0x3e,0xce,0xea,0xe2,0x3c,0x71,0x14,0x13,0xbe,0x2c,0x5d,0x30,0x3e,0x57,0x5d,0x0d,0xbe,0x6b,0xb4,0x6f,0xbe,0x89,0x96,0x18,0x3e,0x67,0xb5,0x01,0xba,0x4d,0x05,0x31,0xbe,0xbf,0xf8,0xef,0xbc,0x57,0xd2,0xae,0x3d,0x1b,0xff,0x4e,0xbe,0x3d,0xfa,0x30,0xbd,0x4e,0x4d,0x35,0xbe,0xc0,0xe1,0x7b,0x3d,0xd0,0x45,0x89,0xbd,0x08,0x43,0xe1,0x3d,0x8f,0x22,0x64,0xbd,0x1c,0x84,0x42,0xbd,0xf4,0x88,0xe8,0x3c,0x14,0x82,0x25,0x3e,0x74,0xfa,0x6c,0xbe,0xa9,0x63,0xfa,0x3d,0xf2,0x2c,0x1d,0x3e,0xd0,0x0c,0xd0,0xbd,0x5b,0xaf,0x35,0xbc,0x30,0x22,0x8c,0xbd,0xe0,0xba,0xbd,0xbd,0x57,0xa6,0x16,0x3e,0xa1,0x89,0x11,0x3e,0xcd,0x52,0x0e,0x3e,0xb7,0x7a,0xde,0xbd,0x91,0x9a,0x2a,0x3d,0x6c,0x0e,0x22,0xbe,0xad,0x04,0x42,0x3e,0x38,0x05,0x9b,0x3d,0x9e,0x2a,0x8b,0x3d,0x20,0xf8,0x70,0x3e,0x82,0x6a,0xec,0x3b,0xb8,0xed,0x3f,0xbe,0x54,0x12,0xe4,0xbd,0x04,0x97,0xec,0x3c,0x80,0x57,0xcb,0xbc,0xc0,0x16,0x0e,0xbe,0x91,0x80,0xeb,0x3c,0xf8,0x89,0x42,0xbe,0x00,0x58,0x6e,0x3e,0x23,0x25,0x03,0xbe,0x87,0x43,0x5a,0xbe,0x70,0xed,0x61,0xbe,0x90,0x4e,0xa2,0xbd,0x9b,0x37,0x52,0x3e,0x9a,0xe9,0xaa,0xbe,0x93,0xa3,0x18,0x3e,0xb8,0xf2,0xd8,0x3e,0x5a,0x9e,0x5b,0xbe,0x57,0xac,0x28,0xb9,0xed,0xba,0xe6,0x3d,0xc7,0xdd,0x05,0x3e,0x11,0x0e,0xf9,0xbb,0xcf,0xd7,0xb1,0xbd,0xba,0x10,0x40,0xbe,0x6e,0x82,0x4a,0xbd,0x8d,0x79,0xf1,0xbe,0x7c,0x09,0xb4,0xbd,0xc2,0x60,0x75,0xbd,0xe2,0xbb,0xb7,0x3d,0xde,0xbd,0x8c,0x3e,0xf0,0x29,0x10,0x3e,0xce,0x09,0x8b,0x3e,0x66,0x4b,0x54,0xbe,0xaa,0x95,0xde,0x3e,0x72,0xee,0x20,0x3c,0x86,0x98,0xc1,0x3d,0xd6,0xc3,0xb5,0xbc,0xa6,0xae,0x45,0x3d,0x46,0x3b,0x24,0xbf,0x94,0x79,0xc8,0xbe,0x15,0x38,0xcc,0x3d,0xb1,0x62,0xd8,0xbe,0x8e,0x42,0x05,0x3f,0xd4,0x71,0xff,0xbc,0x25,0xba,0x81,0x3e,0xbe,0xc5,0x62,0x3f,0x9e,0x94,0xcb,0xbe,0xf5,0xfe,0xd6,0x3d,0x41,0x22,0x16,0x3f,0xec,0xde,0x4b,0x3e,0x0f,0x1d,0x73,0xbe,0xce,0x5a,0xfb,0xbe,0x91,0x5b,0x2c,0x3e,0x7d,0x7e,0x82,0xbe,0x23,0x3a,0x2f,0xbf,0xc1,0x9b,0x1c,0x3f,0x44,0x59,0x4c,0x3c,0x9f,0xbd,0xd3,0xbb,0x2e,0xfd,0x99,0x3e,0x9d,0xb3,0x0a,0x3e,0x15,0x5d,0xf5,0xbd,0x66,0x69,0x1c,0xbe,0x5f,0xe5,0x4e,0x3e,0x99,0xcd,0x8b,0xbd,0x52,0x36,0xef,0x3b,0x6b,0x43,0x3f,0x3f,0xae,0x7a,0x71,0xbe,0xbe,0xcb,0x06,0x3f,0x0d,0x1a,0x39,0xbd,0x44,0x43,0xa4,0x3d,0xaa,0x7a,0xe3,0x3e,0x0a,0x2f,0xdd,0xbe,0x88,0xad,0x41,0x3e,0x57,0xbf,0x17,0x3e,0x03,0x4d,0x86,0x3f,0x11,0xb4,0xb6,0xbd,0xe2,0xbf,0x3a,0x3f,0xc6,0xd6,0x3b,0x3c,0x84,0xa5,0x0e,0x3f,0xbf,0xb9,0xf2,0xbd,0x6e,0xb4,0xa0,0x3d,0x95,0x3c,0x38,0xbe,0x88,0x7a,0x0b,0x3e,0xb4,0xaa,0xc4,0x3e,0x81,0x7c,0xb5,0xbe,0x8f,0xee,0x8f,0xbc,0x39,0x3c,0xbe,0x3e,0x71,0x79,0x0f,0xbe,0xb2,0xff,0xe5,0xbe,0x4e,0x18,0xc5,0xbd,0x85,0x9a,0xbc,0x3c,0xdc,0x43,0xc5,0x3d,0xd2,0x35,0x2e,0x3e,0x7a,0x6a,0x33,0xbe,0x6a,0x0e,0xb1,0xbe,0x34,0xa5,0x70,0xbe,0x90,0xca,0x56,0xbe,0xe1,0x33,0x14,0xbe,0xb4,0xde,0xa2,0x3e,0x07,0xf9,0xd7,0xbd,0xde,0x00,0x88,0x3d,0x0f,0x31,0x5c,0xbe,0xb0,0xca,0x95,0xbe,0x5c,0x15,0x8b,0x3e,0x45,0xeb,0x17,0x3d,0xe7,0x33,0xc5,0xbe,0xc4,0x49,0xe0,0xbe,0x5a,0xe1,0x5a,0xbe,0x2b,0x2c,0x21,0x3e,0xa6,0xaf,0xc4,0x3e,0xb7,0x9e,0x06,0x3c,0xc7,0xb3,0x43,0xbe,0xe4,0xe0,0xab,0x3e,0x68,0x85,0xa0,0xbe,0x5a,0x57,0x2a,0x3e,0x8b,0x77,0x51,0x3e,0x2f,0x31,0x71,0x3e,0x5f,0xe3,0x10,0x3e,0x3f,0xba,0x11,0xbe,0xed,0x27,0xbf,0xbe,0x18,0x3d,0x08,0xbe,0x39,0xb4,0x82,0x3d,0x62,0x2a,0x98,0xbe,0xc4,0xfb,0x0e,0xbe,0x45,0x82,0xae,0x3e,0x07,0xea,0xcf,0x3b,0x61,0xa7,0x6a,0xbd,0x86,0x0d,0x70,0xbe,0xe8,0xb3,0x02,0x3c,0x01,0x19,0xc0,0x3d,0x89,0xa9,0xa3,0xbc,0x45,0x4a,0x77,0x3e,0x82,0xb4,0x8d,0x3e,0x45,0x8c,0x12,0xbe,0xcb,0x67,0x8b,0xbf,0x20,0x07,0x1d,0x3e,0xc1,0xaf,0x7e,0xbd,0x0c,0x01,0xa6,0xbe,0xb5,0xcb,0x48,0x3d,0x9f,0x90,0x0e,0x3e,0xbf,0xab,0x66,0x3e,0xfd,0xff,0x16,0xbd,0x10,0x1b,0x82,0xbd,0x4b,0x76,0xc4,0x3d,0x30,0x17,0x52,0xbc,0x89,0xbc,0x23,0x3e,0x64,0x83,0x8b,0x3d,0x99,0x2e,0x80,0x3d,0x78,0x7e,0x57,0x3d,0xd8,0xb9,0x9a,0x3e,0x19,0x7d,0x19,0x3d,0xb4,0xcf,0x25,0xbe,0xf2,0xdb,0x6b,0x3e,0x70,0x60,0x5e,0x3e,0x12,0x55,0xc0,0x3e,0x27,0x08,0xc0,0x3d,0xaa,0x5c,0x6b,0xbe,0xfa,0xe1,0x36,0x3c,0xb2,0x5e,0x79,0x3e,0x42,0xda,0xa8,0xbd,0x58,0xcd,0x86,0x3e,0x1f,0x66,0xa9,0x3e,0xb8,0x6d,0x81,0xbe,0x0b,0xca,0x92,0xbd,0xe8,0xb9,0x06,0xbd,0xa1,0x8b,0x05,0xbe,0x29,0xb2,0x55,0x3e,0x21,0x40,0x68,0xbe,0xab,0x52,0xea,0x3d,0xfe,0xee,0x23,0x3f,0x91,0xf1,0x3a,0x3e,0xf9,0x36,0x33,0xbe,0x3a,0x6a,0x47,0xbd,0xe9,0x6d,0xe5,0x3d,0x9c,0x58,0xad,0xbe,0x9b,0x42,0xce,0x3e,0xc7,0xd1,0x91,0xbd,0xbe,0xce,0xa1,0x3d,0xb1,0x3f,0x06,0x3d,0x75,0x0c,0x9d,0xbe,0x76,0x90,0xf8,0x3c,0x0c,0x38,0x7b,0x3d,0x24,0xb1,0x33,0x3c,0x6f,0x7e,0xd9,0x3e,0x94,0x61,0x12,0x3e,0x16,0xd5,0x2b,0xbd,0x53,0xc5,0x84,0x3e,0x3f,0x0b,0x1b,0x3d,0x7d,0x1a,0x21,0xbe,0x18,0x2b,0x94,0xbd,0x82,0x5c,0x10,0x3f,0x06,0x5d,0x5c,0x3e,0x08,0x79,0x62,0x3e,0xd4,0xc6,0x08,0x3d,0x0a,0xa0,0x22,0x3e,0x6c,0x57,0xa1,0x3d,0x83,0x55,0xec,0x3d,0x83,0xe8,0x2c,0x3e,0x64,0x4e,0x92,0x3f,0x7f,0x10,0x98,0xbe,0x9e,0xc8,0x93,0xbe,0x7b,0x42,0xb1,0x3e,0xdc,0xa9,0x5f,0x3e,0x6e,0x3a,0x68,0xbe,0xa1,0x80,0xae,0xbd,0x21,0x10,0x23,0x3d,0x1d,0xd7,0x0d,0xbf,0x3f,0x93,0x9f,0x3e,0x10,0x69,0x6b,0x3e,0xb1,0x8f,0xb8,0x3e,0x7e,0x21,0x82,0x3e,0xb3,0x0a,0xab,0xbe,0xcb,0xcb,0x79,0x3e,0x03,0x3a,0xcc,0x3d,0xb4,0x4a,0xa8,0xbe,0xe3,0x55,0xd2,0x3e,0x8c,0xf4,0x35,0x3e,0x8f,0xe0,0xa6,0x3d,0x7a,0x1a,0x2e,0x3e,0x20,0x43,0x67,0xbe,0xa4,0x81,0xd8,0xbe,0xba,0x3d,0x82,0x3e,0xd4,0xa9,0x0c,0x3e,0x6d,0x55,0xa9,0x3d,0xe8,0x6e,0xb8,0x3e,0x86,0x02,0x07,0x3e,0xc9,0x83,0x0a,0xbe,0xf3,0x5e,0x36,0x3d,0x0b,0x1f,0x27,0x3e,0x52,0x67,0x07,0x3e,0x0b,0x78,0x0a,0x3f,0x91,0xe5,0xcf,0xbe,0xdd,0x20,0x7e,0x3e,0x64,0x4d,0x54,0x3f,0x95,0x10,0xcf,0x3e,0xf4,0x4e,0xeb,0x3d,0x11,0x0f,0xb8,0x3e,0x14,0x97,0xb4,0xbe,0x66,0x43,0x85,0x3e,0xa8,0x73,0x36,0x3d,0x09,0x6e,0x17,0xbf,0xf1,0x65,0x68,0x3e,0x08,0x1e,0xc2,0xbc,0x6f,0x5b,0x05,0xbe,0x42,0xaa,0x0d,0x3e,0x2f,0x9d,0x1d,0x3e,0x6c,0xe3,0x7e,0xbb,0x71,0x2d,0x80,0x3d,0x2a,0xc8,0x85,0x3d,0xae,0x20,0x02,0x3e,0x67,0xa1,0x8f,0x3e,0x28,0x45,0x7d,0x3e,0x94,0x88,0x45,0xbe,0x48,0x58,0x7e,0xbd,0x23,0x17,0x74,0x3e,0x95,0x2d,0x4b,0x3d,0xdf,0x93,0x3c,0x3e,0x36,0xf7,0x9e,0xbe,0x23,0x3d,0xef,0xbd,0xa0,0x24,0x4e,0xbe,0xcd,0x80,0x65,0x3e,0x1b,0xed,0x0f,0x3e,0x57,0x0e,0x7e,0x3f,0xe8,0x32,0x28,0x3d,0x5b,0x25,0xf6,0x3d,0x8e,0x82,0xa2,0x3e,0x33,0x1a,0xdc,0xbe,0x70,0xab,0x5c,0x3d,0xc9,0xd6,0xed,0xbe,0x59,0x27,0x89,0x3d,0x37,0x9e,0xe8,0xbd,0x6c,0xf7,0x1c,0x3d,0x49,0x39,0xc6,0x3e,0x28,0x40,0x85,0xbe,0xf3,0x3c,0x18,0xbe,0x40,0x27,0x0b,0x3e,0xbb,0x35,0x0f,0x3d,0x9a,0x04,0xf0,0xbd,0x4f,0x9e,0x31,0xbe,0x19,0x4d,0xca,0xbd,0x58,0x3c,0x04,0xbf,0xac,0x22,0x07,0xbe,0xc8,0xc7,0x05,0xbe,0x69,0x2f,0x07,0x3e,0xba,0xfc,0x5a,0x3e,0xa7,0x05,0xc4,0xbc,0xcb,0x09,0x15,0x3e,0x9d,0x1d,0x02,0x3e,0x75,0xb8,0xea,0x3b,0xee,0xc7,0x0d,0x3e,0xd1,0x11,0x33,0xbd,0x62,0x79,0xa4,0xbc,0x4f,0xdd,0x49,0x3d,0xb0,0x76,0xae,0x3d,0xf7,0x20,0xf3,0xbe,0x18,0x72,0xeb,0xbd,0xe1,0x73,0x31,0x3d,0xd9,0x10,0x15,0xbf,0xe6,0x8e,0xcb,0x3e,0x29,0xfc,0x02,0x3d,0x3d,0x79,0xc0,0x3e,0x62,0x4b,0x78,0x3d,0xf6,0xd7,0xf0,0x3e,0x4a,0xe7,0x25,0xbe,0xae,0x6f,0x9d,0xbd,0xfa,0xba,0x28,0x3d,0x91,0x09,0x0a,0x3e,0x75,0xb7,0x08,0x3e,0x31,0x95,0x63,0x3e,0xe4,0x69,0x25,0x3e,0xa9,0x35,0x50,0x3e,0x66,0x54,0x1d,0xbf,0x19,0xc5,0x03,0xbe,0x00,0x5b,0xa4,0xbd,0xbc,0x8c,0x56,0xbe,0x12,0xac,0xc5,0xbe,0xcd,0x68,0x07,0x3f,0xb8,0x3f,0x90,0xbd,0x48,0x2b,0x73,0xbe,0xa6,0x40,0x31,0x3d,0x6b,0x7c,0x39,0xbe,0x23,0xde,0xc9,0xbd,0xae,0x50,0x88,0x3e,0xf0,0x2a,0x1b,0xbe,0x68,0x73,0xcf,0x3d,0xd7,0x2c,0x15,0xbe,0xbe,0x63,0x6a,0xbf,0xd7,0x8b,0x17,0x3f,0x84,0x9f,0xe0,0x3d,0xe7,0xb7,0xd8,0xbe,0xd4,0x35,0x49,0xbf,0xa5,0x6c,0xec,0x3c,0x5d,0x0c,0x8d,0xbd,0xd2,0xea,0x3a,0x3f,0x37,0x74,0x0b,0xbf,0x5b,0x95,0x88,0x3d,0x99,0x41,0x13,0x3f,0xb8,0x77,0x8b,0x3d,0x76,0x9c,0x63,0xbd,0x1e,0xe0,0x12,0xbe,0xfd,0x3a,0x8d,0x3e,0x29,0x7a,0x7e,0x3e,0xde,0xad,0x30,0xbf,0x99,0x51,0xce,0x3e,0xa9,0xd4,0xfd,0xbd,0x7d,0xc3,0xd7,0xbe,0x27,0x52,0x34,0x3e,0x52,0xdc,0x1c,0xbe,0xf9,0xd6,0xaf,0xbd,0x65,0xe9,0x94,0x3e,0x66,0xf0,0x12,0x3c,0x12,0x64,0x91,0x3e,0xa6,0x41,0x7c,0xbe,0x9b,0x92,0xa2,0x3e,0xfb,0x74,0xc2,0xbe,0x45,0x74,0x14,0x3e,0xce,0x52,0xf3,0x3d,0xf7,0x11,0xa8,0x3e,0xda,0xec,0x16,0xbf,0xdc,0x1d,0xfc,0xbe,0x47,0x3c,0x5d,0x3e,0xfd,0x6d,0x60,0xbd,0x15,0xf9,0x49,0x3f,0x2d,0xe9,0x51,0x3e,0xf8,0xbb,0x7e,0x3e,0xed,0x95,0x0e,0x3f,0xc0,0x25,0x73,0xbe,0x21,0x83,0xf1,0x3e,0xa8,0xa9,0xab,0x3e,0x59,0x3e,0xcf,0x3e,0x4e,0x3b,0x6b,0x3e,0xab,0xc0,0xe8,0xbe,0x59,0x00,0xef,0xbd,0xae,0x25,0xac,0xbe,0xea,0xc1,0xef,0xbd,0xd3,0x92,0x1d,0x3f,0x2c,0x3a,0xed,0x3e,0xb4,0x72,0xab,0x3e,0x49,0x45,0x0e,0x3e,0x0d,0x56,0x1a,0x3e,0x87,0xd3,0xfe,0xbe,0x09,0xdc,0x1d,0xbe,0x44,0xaa,0x03,0x3f,0xee,0x6d,0x2f,0xbe,0x99,0xf0,0x3f,0x3e,0xbe,0xd8,0x8f,0x3e,0x33,0xdd,0x6a,0xbe,0x5a,0xf7,0x49,0x3e,0xf0,0x81,0x6d,0xbe,0x9c,0xf2,0x21,0x3d,0x31,0x09,0x64,0x3f,0x5f,0xa1,0x1b,0xbf,0x0f,0x13,0x1c,0xbe,0xf8,0x4c,0xe2,0x3e,0x8e,0x2a,0x44,0x3f,0x91,0xb1,0x3d,0xbe,0x02,0xc4,0xc0,0x3e,0x63,0x1c,0x60,0xbd,0xa4,0xda,0x21,0x3c,0x31,0xac,0x51,0xbe,0xe9,0xf1,0x20,0xbe,0x85,0x17,0x47,0xbe,0x27,0x97,0xa9,0xbe,0x95,0x71,0x87,0x3e,0x31,0xa0,0x60,0x3e,0xc0,0x12,0x23,0x3d,0xcd,0xb1,0x0c,0x3e,0xc4,0x4a,0x02,0xbf,0x11,0x3e,0x5a,0x3d,0x76,0xc7,0x87,0xbd,0x34,0xe9,0x04,0xbf,0x54,0x6c,0x80,0xbe,0xf0,0xb4,0x98,0x3e,0xa3,0x00,0xb3,0xbe,0x61,0x60,0x75,0xbe,0x31,0x5f,0xbd,0xbc,0x9d,0x23,0xd9,0xbd,0xe5,0x03,0x8f,0xbc,0x18,0x1e,0xa7,0x3e,0x61,0x00,0xb3,0x3d,0x9b,0x52,0x6a,0xbd,0xef,0xc8,0x16,0x3e,0x83,0x79,0x4c,0x3e,0xbb,0x8b,0xf7,0x3d,0xbb,0x77,0x83,0xbd,0xc2,0x0f,0x14,0x3d,0x94,0x54,0x8b,0xbe,0x63,0x56,0xc5,0xbd,0xca,0x75,0x91,0xbe,0xa7,0x34,0xc6,0xbe,0xde,0x3d,0xfb,0x3e,0x02,0x1d,0x00,0xbd,0x5c,0xf0,0xc2,0xbe,0xe2,0x1f,0x13,0xbe,0x0b,0x47,0x34,0x3e,0xcf,0xc1,0xef,0x3c,0x5d,0x7c,0x03,0xbd,0xc9,0x9c,0x96,0x3d,0x7b,0xcc,0x5b,0x3f,0x89,0x0d,0x8c,0xbe,0xe9,0xe0,0xa7,0xbe,0x36,0x0c,0x6e,0xbd,0x43,0x71,0xec,0xbd,0xae,0x17,0x53,0xbe,0x3a,0xdd,0x1c,0x3d,0xb2,0x7d,0x64,0x3d,0x8c,0xbd,0x47,0xbe,0x93,0x8e,0x3a,0x3e,0xd2,0x08,0x10,0xbe,0xc4,0x0b,0x89,0x3d,0x72,0x63,0x2e,0x3f,0x78,0x6b,0xbc,0xbe,0x7a,0x27,0xba,0xbd,0xcc,0x6e,0x8f,0xbd,0x9e,0x19,0x05,0xbf,0xaf,0xf5,0x55,0x3e,0xd9,0x6b,0xef,0x3c,0xbf,0xf5,0x33,0xbe,0x99,0x7c,0x4d,0xbf,0x54,0xfe,0x83,0xbb,0xac,0x72,0x3c,0xbe,0x70,0xe0,0xbf,0x3d,0x90,0x54,0x64,0xbd,0x78,0x75,0x10,0x3e,0x00,0xb0,0x71,0x39,0x18,0x32,0xd8,0xbd,0x58,0xbc,0xc9,0xbd,0xe0,0x29,0xb5,0x3c,0x38,0x52,0x6e,0xbe,0x40,0x8a,0xf7,0x3c,0x78,0xc6,0x3d,0xbe,0xc0,0x9b,0x53,0x3c,0xb0,0x7c,0x1a,0xbe,0x78,0x60,0x4b,0xbe,0x4c,0x57,0x4a,0xbe,0xa8,0x2a,0x7c,0xbe,0x4c,0x12,0x59,0x3e,0xf4,0xa1,0x06,0xbe,0x88,0xdc,0x83,0x3d,0xb8,0xee,0x06,0xbe,0xb8,0x0a,0x48,0xbe,0x10,0xad,0x6f,0xbe,0x80,0xda,0x97,0x3c,0x68,0x9e,0x04,0xbe,0x40,0x5e,0x67,0x3c,0xa8,0xcd,0x76,0xbe,0x00,0x60,0x90,0xbc,0xb0,0xcb,0x35,0x3d,0x20,0xf6,0xa0,0xbd,0x78,0xc9,0x93,0xbd,0x00,0x14,0x44,0xbb,0xb8,0x2f,0xe9,0xbd,0xf4,0xa0,0x4f,0x3e,0xb4,0x6a,0x5b,0xbe,0x0c,0x6d,0x08,0xbe,0x50,0x97,0x2a,0xbd,0xd4,0x8f,0x70,0x3e,0x60,0xc0,0x61,0x3e,0x80,0x18,0x3e,0xbe,0xa8,0x6d,0x14,0xbe,0x44,0x8d,0x3c,0xbe,0x44,0x7e,0x76,0xbe,0x74,0x24,0x06,0x3e,0x20,0x0b,0xb9,0x3c,0x8c,0x6b,0x5f,0xbe,0xcc,0xbb,0x76,0xbe,0xa0,0x6d,0x9e,0x3d,0x00,0x7a,0xe9,0x3b,0xd0,0x16,0x01,0x3e,0xe4,0x57,0x64,0xbe,0x08,0x28,0x5c,0xbe,0xa0,0x2d,0xc7,0xbc,0x08,0xfc,0x71,0xbe,0xb0,0x5d,0x66,0xbe,0xa0,0x40,0x9f,0x3d,0x70,0xc9,0x88,0xbd,0x18,0xb6,0x11,0xbe,0x08,0xdd,0x74,0xbe,0x24,0xc8,0x7a,0xbe,0x10,0x23,0x3d,0x3e,0x68,0x48,0xd7,0x3d,0x88,0x3b,0x06,0x3e,0x3c,0x2f,0x67,0x3e,0x00,0x3b,0x76,0xbe,0x00,0x76,0xf6,0x3a,0x5a,0xfd,0xff,0xff,0x04,0x00,0x00,0x00,0x00,0x01,0x00,0x00,0x4d,0xfb,0x37,0x3e,0x29,0xc3,0xa8,0xbe,0x1e,0x65,0x0b,0xbf,0x54,0x24,0xa4,0x3e,0xbd,0x6e,0xbd,0xbe,0x16,0xaf,0x34,0xbe,0xfd,0x5b,0xc3,0x3d,0xa7,0x08,0x8b,0x3f,0x68,0xc3,0xb2,0x3d,0x28,0x50,0xca,0xbe,0xa4,0x6c,0xf4,0x3e,0x6c,0x62,0x23,0x3f,0x8a,0x30,0xa7,0x3f,0xed,0x6c,0x2f,0xbe,0xc5,0xfa,0x1a,0x3f,0xc0,0x9f,0x00,0x3f,0xf8,0x6b,0x81,0x3d,0x5b,0xe3,0xc6,0x3e,0x15,0x09,0x74,0xbf,0x50,0xf4,0xb3,0xbe,0x36,0xdb,0x9c,0xbe,0x83,0x56,0xd1,0x3e,0x4c,0x5d,0x24,0xbf,0x3c,0x16,0xc5,0x3e,0x38,0xb4,0xeb,0x3e,0xdd,0x48,0x2c,0x3e,0x34,0x64,0xab,0x3e,0x11,0x28,0xba,0xbe,0x2f,0x82,0xb7,0xbe,0xd9,0xee,0xbf,0x3c,0x37,0x08,0x85,0xbf,0xd0,0xe5,0x7a,0x3d,0x04,0x36,0x91,0xbf,0xbb,0x42,0x04,0x3f,0x56,0x51,0x55,0xbf,0x10,0x78,0xf8,0xbd,0xc4,0x5c,0x95,0xbe,0x02,0x6d,0xa2,0xbe,0xb1,0xc5,0x58,0xbf,0x68,0x37,0x4f,0x3f,0x26,0x5a,0x53,0xbf,0x99,0xba,0xe1,0x3e,0xd4,0xa8,0xc3,0xbf,0xa7,0x04,0x2d,0xbf,0x63,0xcc,0x77,0x3f,0x58,0x75,0xbd,0x3e,0xf9,0x28,0x6f,0x3f,0x58,0x2b,0x15,0x3f,0x4b,0xa6,0xe3,0xbe,0xb4,0x12,0x60,0xbf,0x38,0xa3,0xa4,0x3f,0xb8,0xe5,0xee,0xbd,0x45,0xbb,0x4d,0xbf,0xd8,0x27,0x71,0xbd,0xf4,0x2a,0xec,0x3e,0x3e,0x79,0xd0,0xbd,0x9b,0x44,0xdf,0x3f,0x2b,0xb8,0x77,0xbf,0xb6,0x07,0x3d,0x3f,0x30,0xda,0x4a,0x3f,0x8f,0xdb,0x20,0xbf,0xa9,0x88,0xcc,0x3f,0xf6,0x09,0xb8,0xbf,0xce,0x83,0x10,0x3e,0x66,0xfe,0xff,0xff,0x04,0x00,0x00,0x00,0x80,0x00,0x00,0x00,0x00,0x00,0x00,0x00,0x00,0x00,0x00,0x00,0x00,0x00,0x00,0x00,0x00,0x00,0x00,0x00,0x00,0x00,0x00,0x00,0x00,0x00,0x00,0x00,0x00,0x00,0x00,0x00,0x00,0x00,0x00,0x00,0x00,0x00,0x00,0x00,0x00,0x00,0x00,0x00,0x00,0x00,0x00,0x00,0x00,0x00,0x00,0x00,0x00,0x00,0x00,0x00,0x00,0x00,0x00,0x00,0x00,0x00,0x00,0x00,0x00,0x00,0x00,0x00,0x00,0x00,0x00,0x00,0x00,0x00,0x00,0x00,0x00,0x00,0x00,0x00,0x00,0x00,0x00,0x00,0x00,0x00,0x00,0x00,0x00,0x00,0x00,0x00,0x00,0x00,0x00,0x00,0x00,0x00,0x00,0x00,0x00,0x00,0x00,0x00,0x00,0x00,0x00,0x00,0x00,0x00,0x00,0x00,0x00,0x00,0x00,0x00,0x00,0x00,0x00,0x00,0x00,0x00,0x00,0x00,0x00,0x00,0x00,0x00,0x00,0x00,0x00,0x00,0xf2,0xfe,0xff,0xff,0x04,0x00,0x00,0x00,0x00,0x01,0x00,0x00,0x8e,0x85,0x6f,0x3e,0x27,0xf6,0x8e,0xbe,0xb8,0xd0,0x92,0xbe,0x41,0xad,0x97,0x3e,0x06,0xba,0xb8,0x3e,0xa4,0x6a,0x25,0xbe,0xcf,0x97,0x9a,0x3e,0x10,0x68,0x93,0xbe,0xea,0x2a,0x7c,0xbe,0x62,0x41,0x4a,0xbe,0x5d,0xbc,0xac,0x3d,0xf3,0x33,0x5f,0x3e,0xdb,0x58,0x05,0xbe,0xb5,0x6d,0x7e,0x3e,0xf8,0x40,0x58,0xbd,0x1e,0x9e,0x68,0x3e,0xda,0xcb,0xa0,0xbd,0xa2,0x27,0xf0,0x3e,0xc9,0x04,0xb0,0xbe,0xdf,0x5a,0x96,0x3e,0x9b,0xed,0x04,0x3f,0xaa,0xe2,0xdb,0xbe,0xe8,0xdd,0x0e,0xbe,0x0b,0x10,0x69,0xbe,0xd0,0x56,0x3e,0xbf,0x2f,0xae,0x2c,0xbd,0x52,0xdf,0xb8,0xbd,0x6e,0x17,0xf3,0xbe,0xd0,0x1a,0x04,0x3f,0x01,0xca,0x91,0xbe,0xe4,0x3b,0x26,0xbe,0x2a,0x1c,0x93,0x3e,0xbf,0x98,0x1a,0x3d,0x3e,0x43,0x91,0x3e,0x9e,0xea,0xe4,0x3e,0x51,0x9a,0x81,0xbe,0x49,0xea,0x84,0x3e,0xf4,0xec,0x95,0x3d,0xa8,0x6a,0xac,0xbe,0x83,0xb6,0xd2,0xbe,0x34,0xa2,0x00,0x3f,0x8c,0xbc,0xd5,0xbe,0xa4,0x7e,0x82,0xbe,0xdc,0xed,0x1d,0x3e,0x87,0xdb,0x36,0x3e,0xb8,0xbb,0xef,0xbe,0x11,0x2a,0xbf,0xbd,0x8e,0xd6,0x64,0x3e,0x0a,0xc8,0xbf,0x3d,0x11,0xa1,0xe6,0x3d,0x86,0xf0,0x0c,0xbf,0x33,0xf1,0x28,0x3e,0x2c,0x4c,0xc6,0xbe,0xb4,0xb4,0xda,0x3e,0x01,0xb5,0x8a,0x3e,0xd5,0xbe,0xa5,0x3e,0x15,0xc9,0x4f,0xbe,0x78,0xef,0x80,0xbe,0x00,0x50,0xbb,0x3e,0xd2,0xd2,0xc6,0xbe,0x9b,0x21,0x5b,0x3e,0x8c,0x47,0xaa,0x3e,0x33,0xcf,0xe1,0x3e,0xcb,0x63,0x08,0xbf,0x00,0x00,0x06,0x00,0x08,0x00,0x04,0x00,0x06,0x00,0x00,0x00,0x04,0x00,0x00,0x00,0x0c,0x00,0x00,0x00,0xff,0xff,0xff,0xff,0x02,0x00,0x00,0x00,0x20,0x00,0x00,0x00,0x38,0xf7,0xff,0xff,0x3c,0xf7,0xff,0xff,0x0f,0x00,0x00,0x00,0x4d,0x4c,0x49,0x52,0x20,0x43,0x6f,0x6e,0x76,0x65,0x72,0x74,0x65,0x64,0x2e,0x00,0x01,0x00,0x00,0x00,0x14,0x00,0x00,0x00,0x00,0x00,0x0e,0x00,0x18,0x00,0x14,0x00,0x10,0x00,0x0c,0x00,0x08,0x00,0x04,0x00,0x0e,0x00,0x00,0x00,0x14,0x00,0x00,0x00,0x1c,0x00,0x00,0x00,0xcc,0x01,0x00,0x00,0xd0,0x01,0x00,0x00,0xd4,0x01,0x00,0x00,0x04,0x00,0x00,0x00,0x6d,0x61,0x69,0x6e,0x00,0x00,0x00,0x00,0x07,0x00,0x00,0x00,0x84,0x01,0x00,0x00,0x24,0x01,0x00,0x00,0xec,0x00,0x00,0x00,0xa0,0x00,0x00,0x00,0x78,0x00,0x00,0x00,0x3c,0x00,0x00,0x00,0x04,0x00,0x00,0x00,0x02,0xff,0xff,0xff,0x14,0x00,0x00,0x00,0x00,0x00,0x00,0x08,0x10,0x00,0x00,0x00,0x14,0x00,0x00,0x00,0x04,0x00,0x00,0x00,0xc8,0xf7,0xff,0xff,0x01,0x00,0x00,0x00,0x11,0x00,0x00,0x00,0x03,0x00,0x00,0x00,0x10,0x00,0x00,0x00,0x04,0x00,0x00,0x00,0x08,0x00,0x00,0x00,0x36,0xff,0xff,0xff,0x14,0x00,0x00,0x00,0x00,0x00,0x00,0x08,0x14,0x00,0x00,0x00,0x18,0x00,0x00,0x00,0x04,0x00,0x00,0x00,0xa2,0xff,0xff,0xff,0x00,0x00,0x00,0x01,0x01,0x00,0x00,0x00,0x10,0x00,0x00,0x00,0x03,0x00,0x00,0x00,0x0f,0x00,0x00,0x00,0x05,0x00,0x00,0x00,0x07,0x00,0x00,0x00,0x9e,0xff,0xff,0xff,0x0c,0x00,0x00,0x00,0x10,0x00,0x00,0x00,0x02,0x00,0x00,0x00,0x01,0x00,0x00,0x00,0x0f,0x00,0x00,0x00,0x02,0x00,0x00,0x00,0x0e,0x00,0x00,0x00,0x09,0x00,0x00,0x00,0x92,0xff,0xff,0xff,0x1c,0x00,0x00,0x00,0x00,0x00,0x00,0x0b,0x1c,0x00,0x00,0x00,0x20,0x00,0x00,0x00,0x03,0x00,0x00,0x00,0x00,0x00,0x06,0x00,0x08,0x00,0x07,0x00,0x06,0x00,0x00,0x00,0x00,0x00,0x00,0x01,0x01,0x00,0x00,0x00,0x0e,0x00,0x00,0x00,0x02,0x00,0x00,0x00,0x0d,0x00,0x00,0x00,0x06,0x00,0x00,0x00,0x00,0x00,0x0a,0x00,0x10,0x00,0x0c,0x00,0x08,0x00,0x04,0x00,0x0a,0x00,0x00,0x00,0x0c,0x00,0x00,0x00,0x10,0x00,0x00,0x00,0x02,0x00,0x00,0x00,0x01,0x00,0x00,0x00,0x0d,0x00,0x00,0x00,0x02,0x00,0x00,0x00,0x0c,0x00,0x00,0x00,0x01,0x00,0x00,0x00,0x00,0x00,0x0e,0x00,0x1a,0x00,0x14,0x00,0x10,0x00,0x0c,0x00,0x0b,0x00,0x04,0x00,0x0e,0x00,0x00,0x00,0x20,0x00,0x00,0x00,0x00,0x00,0x00,0x01,0x28,0x00,0x00,0x00,0x2c,0x00,0x00,0x00,0x01,0x00,0x00,0x00,0x00,0x00,0x0a,0x00,0x10,0x00,0x0f,0x00,0x08,0x00,0x04,0x00,0x0a,0x00,0x00,0x00,0x01,0x00,0x00,0x00,0x01,0x00,0x00,0x00,0x00,0x00,0x00,0x01,0x01,0x00,0x00,0x00,0x0c,0x00,0x00,0x00,0x03,0x00,0x00,0x00,0x0b,0x00,0x00,0x00,0x02,0x00,0x00,0x00,0x03,0x00,0x00,0x00,0x00,0x00,0x0e,0x00,0x14,0x00,0x00,0x00,0x10,0x00,0x0c,0x00,0x0b,0x00,0x04,0x00,0x0e,0x00,0x00,0x00,0x10,0x00,0x00,0x00,0x00,0x00,0x00,0x34,0x0c,0x00,0x00,0x00,0x10,0x00,0x00,0x00,0x2c,0xf9,0xff,0xff,0x01,0x00,0x00,0x00,0x0b,0x00,0x00,0x00,0x02,0x00,0x00,0x00,0x00,0x00,0x00,0x00,0x0a,0x00,0x00,0x00,0x01,0x00,0x00,0x00,0x11,0x00,0x00,0x00,0x01,0x00,0x00,0x00,0x00,0x00,0x00,0x00,0x12,0x00,0x00,0x00,0x20,0x06,0x00,0x00,0xc8,0x05,0x00,0x00,0x68,0x05,0x00,0x00,0x14,0x05,0x00,0x00,0xd4,0x04,0x00,0x00,0x94,0x04,0x00,0x00,0x50,0x04,0x00,0x00,0x14,0x04,0x00,0x00,0xd8,0x03,0x00,0x00,0x98,0x03,0x00,0x00,0x38,0x03,0x00,0x00,0xb8,0x02,0x00,0x00,0x44,0x02,0x00,0x00,0xd0,0x01,0x00,0x00,0x50,0x01,0x00,0x00,0xf0,0x00,0x00,0x00,0x60,0x00,0x00,0x00,0x04,0x00,0x00,0x00,0x3e,0xfa,0xff,0xff,0x00,0x00,0x00,0x01,0x14,0x00,0x00,0x00,0x1c,0x00,0x00,0x00,0x1c,0x00,0x00,0x00,0x12,0x00,0x00,0x00,0x34,0x00,0x00,0x00,0x02,0x00,0x00,0x00,0xff,0xff,0xff,0xff,0x02,0x00,0x00,0x00,0xc8,0xf9,0xff,0xff,0x1b,0x00,0x00,0x00,0x53,0x74,0x61,0x74,0x65,0x66,0x75,0x6c,0x50,0x61,0x72,0x74,0x69,0x74,0x69,0x6f,0x6e,0x65,0x64,0x43,0x61,0x6c,0x6c,0x5f,0x31,0x3a,0x30,0x00,0x02,0x00,0x00,0x00,0x01,0x00,0x00,0x00,0x02,0x00,0x00,0x00,0x96,0xfa,0xff,0xff,0x00,0x00,0x00,0x01,0x14,0x00,0x00,0x00,0x1c,0x00,0x00,0x00,0x1c,0x00,0x00,0x00,0x11,0x00,0x00,0x00,0x68,0x00,0x00,0x00,0x02,0x00,0x00,0x00,0xff,0xff,0xff,0xff,0x20,0x00,0x00,0x00,0x20,0xfa,0xff,0xff,0x4e,0x00,0x00,0x00,0x73,0x65,0x71,0x75,0x65,0x6e,0x74,0x69,0x61,0x6c,0x5f,0x31,0x2f,0x64,0x65,0x6e,0x73,0x65,0x5f,0x31,0x2f,0x4d,0x61,0x74,0x4d,0x75,0x6c,0x3b,0x73,0x65,0x71,0x75,0x65,0x6e,0x74,0x69,0x61,0x6c,0x5f,0x31,0x2f,0x64,0x65,0x6e,0x73,0x65,0x5f,0x31,0x2f,0x52,0x65,0x6c,0x75,0x3b,0x73,0x65,0x71,0x75,0x65,0x6e,0x74,0x69,0x61,0x6c,0x5f,0x31,0x2f,0x64,0x65,0x6e,0x73,0x65,0x5f,0x31,0x2f,0x41,0x64,0x64,0x00,0x00,0x02,0x00,0x00,0x00,0x01,0x00,0x00,0x00,0x20,0x00,0x00,0x00,0x22,0xfb,0xff,0xff,0x00,0x00,0x00,0x01,0x14,0x00,0x00,0x00,0x1c,0x00,0x00,0x00,0x1c,0x00,0x00,0x00,0x10,0x00,0x00,0x00,0x38,0x00,0x00,0x00,0x02,0x00,0x00,0x00,0xff,0xff,0xff,0xff,0x40,0x00,0x00,0x00,0xac,0xfa,0xff,0xff,0x1e,0x00,0x00,0x00,0x73,0x65,0x71,0x75,0x65,0x6e,0x74,0x69,0x61,0x6c,0x5f,0x31,0x2f,0x66,0x6c,0x61,0x74,0x74,0x65,0x6e,0x5f,0x31,0x2f,0x52,0x65,0x73,0x68,0x61,0x70,0x65,0x00,0x00,0x02,0x00,0x00,0x00,0x01,0x00,0x00,0x00,0x40,0x00,0x00,0x00,0x7e,0xfb,0xff,0xff,0x00,0x00,0x00,0x01,0x14,0x00,0x00,0x00,0x20,0x00,0x00,0x00,0x20,0x00,0x00,0x00,0x0f,0x00,0x00,0x00,0x54,0x00,0x00,0x00,0x03,0x00,0x00,0x00,0xff,0xff,0xff,0xff,0x02,0x00,0x00,0x00,0x20,0x00,0x00,0x00,0x0c,0xfb,0xff,0xff,0x34,0x00,0x00,0x00,0x73,0x65,0x71,0x75,0x65,0x6e,0x74,0x69,0x61,0x6c,0x5f,0x31,0x2f,0x63,0x6f,0x6e,0x76,0x31,0x64,0x5f,0x31,0x2f,0x52,0x65,0x6c,0x75,0x3b,0x73,0x65,0x71,0x75,0x65,0x6e,0x74,0x69,0x61,0x6c,0x5f,0x31,0x2f,0x63,0x6f,0x6e,0x76,0x31,0x64,0x5f,0x31,0x2f,0x61,0x64,0x64,0x00,0x00,0x00,0x00,0x03,0x00,0x00,0x00,0x01,0x00,0x00,0x00,0x02,0x00,0x00,0x00,0x20,0x00,0x00,0x00,0xfa,0xfb,0xff,0xff,0x00,0x00,0x00,0x01,0x14,0x00,0x00,0x00,0x20,0x00,0x00,0x00,0x20,0x00,0x00,0x00,0x0e,0x00,0x00,0x00,0x48,0x00,0x00,0x00,0x03,0x00,0x00,0x00,0xff,0xff,0xff,0xff,0x02,0x00,0x00,0x00,0x20,0x00,0x00,0x00,0x88,0xfb,0xff,0xff,0x29,0x00,0x00,0x00,0x73,0x65,0x71,0x75,0x65,0x6e,0x74,0x69,0x61,0x6c,0x5f,0x31,0x2f,0x63,0x6f,0x6e,0x76,0x31,0x64,0x5f,0x31,0x2f,0x63,0x6f,0x6e,0x76,0x6f,0x6c,0x75,0x74,0x69,0x6f,0x6e,0x2f,0x53,0x71,0x75,0x65,0x65,0x7a,0x65,0x00,0x00,0x00,0x03,0x00,0x00,0x00,0x01,0x00,0x00,0x00,0x02,0x00,0x00,0x00,0x20,0x00,0x00,0x00,0x6a,0xfc,0xff,0xff,0x00,0x00,0x00,0x01,0x14,0x00,0x00,0x00,0x24,0x00,0x00,0x00,0x24,0x00,0x00,0x00,0x0d,0x00,0x00,0x00,0x44,0x00,0x00,0x00,0x04,0x00,0x00,0x00,0xff,0xff,0xff,0xff,0x01,0x00,0x00,0x00,0x02,0x00,0x00,0x00,0x20,0x00,0x00,0x00,0xfc,0xfb,0xff,0xff,0x21,0x00,0x00,0x00,0x73,0x65,0x71,0x75,0x65,0x6e,0x74,0x69,0x61,0x6c,0x5f,0x31,0x2f,0x63,0x6f,0x6e,0x76,0x31,0x64,0x5f,0x31,0x2f,0x63,0x6f,0x6e,0x76,0x6f,0x6c,0x75,0x74,0x69,0x6f,0x6e,0x00,0x00,0x00,0x04,0x00,0x00,0x00,0x01,0x00,0x00,0x00,0x01,0x00,0x00,0x00,0x02,0x00,0x00,0x00,0x20,0x00,0x00,0x00,0xda,0xfc,0xff,0xff,0x00,0x00,0x00,0x01,0x14,0x00,0x00,0x00,0x24,0x00,0x00,0x00,0x24,0x00,0x00,0x00,0x0c,0x00,0x00,0x00,0x50,0x00,0x00,0x00,0x04,0x00,0x00,0x00,0xff,0xff,0xff,0xff,0x01,0x00,0x00,0x00,0x03,0x00,0x00,0x00,0x01,0x00,0x00,0x00,0x6c,0xfc,0xff,0xff,0x2c,0x00,0x00,0x00,0x73,0x65,0x71,0x75,0x65,0x6e,0x74,0x69,0x61,0x6c,0x5f,0x31,0x2f,0x63,0x6f,0x6e,0x76,0x31,0x64,0x5f,0x31,0x2f,0x63,0x6f,0x6e,0x76,0x6f,0x6c,0x75,0x74,0x69,0x6f,0x6e,0x2f,0x45,0x78,0x70,0x61,0x6e,0x64,0x44,0x69,0x6d,0x73,0x00,0x00,0x00,0x00,0x04,0x00,0x00,0x00,0x01,0x00,0x00,0x00,0x01,0x00,0x00,0x00,0x03,0x00,0x00,0x00,0x01,0x00,0x00,0x00,0xaa,0xfd,0xff,0xff,0x00,0x00,0x00,0x01,0x14,0x00,0x00,0x00,0x14,0x00,0x00,0x00,0x0b,0x00,0x00,0x00,0x00,0x00,0x00,0x02,0x40,0x00,0x00,0x00,0xd4,0xfc,0xff,0xff,0x30,0x00,0x00,0x00,0x73,0x65,0x71,0x75,0x65,0x6e,0x74,0x69,0x61,0x6c,0x5f,0x31,0x2f,0x63,0x6f,0x6e,0x76,0x31,0x64,0x5f,0x31,0x2f,0x63,0x6f,0x6e,0x76,0x6f,0x6c,0x75,0x74,0x69,0x6f,0x6e,0x2f,0x45,0x78,0x70,0x61,0x6e,0x64,0x44,0x69,0x6d,0x73,0x2f,0x64,0x69,0x6d,0x00,0x00,0x00,0x00,0x00,0x00,0x00,0x00,0x06,0xfe,0xff,0xff,0x00,0x00,0x00,0x01,0x14,0x00,0x00,0x00,0x14,0x00,0x00,0x00,0x0a,0x00,0x00,0x00,0x00,0x00,0x00,0x02,0x1c,0x00,0x00,0x00,0x30,0xfd,0xff,0xff,0x0f,0x00,0x00,0x00,0x61,0x72,0x69,0x74,0x68,0x2e,0x63,0x6f,0x6e,0x73,0x74,0x61,0x6e,0x74,0x38,0x00,0x01,0x00,0x00,0x00,0x02,0x00,0x00,0x00,0x9e,0xfe,0xff,0xff,0x00,0x00,0x00,0x01,0x10,0x00,0x00,0x00,0x10,0x00,0x00,0x00,0x09,0x00,0x00,0x00,0x1c,0x00,0x00,0x00,0x68,0xfd,0xff,0xff,0x0f,0x00,0x00,0x00,0x61,0x72,0x69,0x74,0x68,0x2e,0x63,0x6f,0x6e,0x73,0x74,0x61,0x6e,0x74,0x37,0x00,0x01,0x00,0x00,0x00,0x02,0x00,0x00,0x00,0xd6,0xfe,0xff,0xff,0x00,0x00,0x00,0x01,0x10,0x00,0x00,0x00,0x10,0x00,0x00,0x00,0x08,0x00,0x00,0x00,0x1c,0x00,0x00,0x00,0xa0,0xfd,0xff,0xff,0x0f,0x00,0x00,0x00,0x61,0x72,0x69,0x74,0x68,0x2e,0x63,0x6f,0x6e,0x73,0x74,0x61,0x6e,0x74,0x36,0x00,0x01,0x00,0x00,0x00,0x20,0x00,0x00,0x00,0x0e,0xff,0xff,0xff,0x00,0x00,0x00,0x01,0x10,0x00,0x00,0x00,0x10,0x00,0x00,0x00,0x07,0x00,0x00,0x00,0x1c,0x00,0x00,0x00,0xd8,0xfd,0xff,0xff,0x0f,0x00,0x00,0x00,0x61,0x72,0x69,0x74,0x68,0x2e,0x63,0x6f,0x6e,0x73,0x74,0x61,0x6e,0x74,0x35,0x00,0x03,0x00,0x00,0x00,0x01,0x00,0x00,0x00,0x01,0x00,0x00,0x00,0x20,0x00,0x00,0x00,0x4e,0xff,0xff,0xff,0x00,0x00,0x00,0x01,0x10,0x00,0x00,0x00,0x10,0x00,0x00,0x00,0x06,0x00,0x00,0x00,0x1c,0x00,0x00,0x00,0x18,0xfe,0xff,0xff,0x0f,0x00,0x00,0x00,0x61,0x72,0x69,0x74,0x68,0x2e,0x63,0x6f,0x6e,0x73,0x74,0x61,0x6e,0x74,0x34,0x00,0x02,0x00,0x00,0x00,0x20,0x00,0x00,0x00,0x40,0x00,0x00,0x00,0x8a,0xff,0xff,0xff,0x00,0x00,0x00,0x01,0x10,0x00,0x00,0x00,0x10,0x00,0x00,0x00,0x05,0x00,0x00,0x00,0x1c,0x00,0x00,0x00,0x54,0xfe,0xff,0xff,0x0f,0x00,0x00,0x00,0x61,0x72,0x69,0x74,0x68,0x2e,0x63,0x6f,0x6e,0x73,0x74,0x61,0x6e,0x74,0x33,0x00,0x02,0x00,0x00,0x00,0x02,0x00,0x00,0x00,0x20,0x00,0x00,0x00,0xc6,0xff,0xff,0xff,0x00,0x00,0x00,0x01,0x10,0x00,0x00,0x00,0x10,0x00,0x00,0x00,0x04,0x00,0x00,0x00,0x1c,0x00,0x00,0x00,0x90,0xfe,0xff,0xff,0x0f,0x00,0x00,0x00,0x61,0x72,0x69,0x74,0x68,0x2e,0x63,0x6f,0x6e,0x73,0x74,0x61,0x6e,0x74,0x32,0x00,0x01,0x00,0x00,0x00,0x20,0x00,0x00,0x00,0x00,0x00,0x16,0x00,0x18,0x00,0x14,0x00,0x00,0x00,0x10,0x00,0x0c,0x00,0x08,0x00,0x00,0x00,0x00,0x00,0x00,0x00,0x07,0x00,0x16,0x00,0x00,0x00,0x00,0x00,0x00,0x01,0x10,0x00,0x00,0x00,0x10,0x00,0x00,0x00,0x03,0x00,0x00,0x00,0x1c,0x00,0x00,0x00,0xe0,0xfe,0xff,0xff,0x0f,0x00,0x00,0x00,0x61,0x72,0x69,0x74,0x68,0x2e,0x63,0x6f,0x6e,0x73,0x74,0x61,0x6e,0x74,0x31,0x00,0x04,0x00,0x00,0x00,0x20,0x00,0x00,0x00,0x01,0x00,0x00,0x00,0x02,0x00,0x00,0x00,0x01,0x00,0x00,0x00,0x00,0x00,0x16,0x00,0x1c,0x00,0x18,0x00,0x17,0x00,0x10,0x00,0x0c,0x00,0x08,0x00,0x00,0x00,0x00,0x00,0x00,0x00,0x07,0x00,0x16,0x00,0x00,0x00,0x00,0x00,0x00,0x01,0x14,0x00,0x00,0x00,0x14,0x00,0x00,0x00,0x02,0x00,0x00,0x00,0x00,0x00,0x00,0x02,0x1c,0x00,0x00,0x00,0x40,0xff,0xff,0xff,0x0e,0x00,0x00,0x00,0x61,0x72,0x69,0x74,0x68,0x2e,0x63,0x6f,0x6e,0x73,0x74,0x61,0x6e,0x74,0x00,0x00,0x01,0x00,0x00,0x00,0x03,0x00,0x00,0x00,0x00,0x00,0x16,0x00,0x1c,0x00,0x18,0x00,0x00,0x00,0x14,0x00,0x10,0x00,0x0c,0x00,0x00,0x00,0x00,0x00,0x08,0x00,0x07,0x00,0x16,0x00,0x00,0x00,0x00,0x00,0x00,0x01,0x14,0x00,0x00,0x00,0x20,0x00,0x00,0x00,0x20,0x00,0x00,0x00,0x01,0x00,0x00,0x00,0x3c,0x00,0x00,0x00,0x03,0x00,0x00,0x00,0xff,0xff,0xff,0xff,0x03,0x00,0x00,0x00,0x01,0x00,0x00,0x00,0xa4,0xff,0xff,0xff,0x1e,0x00,0x00,0x00,0x73,0x65,0x72,0x76,0x69,0x6e,0x67,0x5f,0x64,0x65,0x66,0x61,0x75,0x6c,0x74,0x5f,0x6b,0x65,0x72,0x61,0x73,0x5f,0x74,0x65,0x6e,0x73,0x6f,0x72,0x3a,0x30,0x00,0x00,0x03,0x00,0x00,0x00,0x01,0x00,0x00,0x00,0x03,0x00,0x00,0x00,0x01,0x00,0x00,0x00,0x05,0x00,0x00,0x00,0x4c,0x00,0x00,0x00,0x30,0x00,0x00,0x00,0x20,0x00,0x00,0x00,0x18,0x00,0x00,0x00,0x04,0x00,0x00,0x00,0xd4,0xff,0xff,0xff,0x09,0x00,0x00,0x00,0x00,0x00,0x00,0x09,0x04,0x00,0x04,0x00,0x04,0x00,0x00,0x00,0xe8,0xff,0xff,0xff,0x16,0x00,0x00,0x00,0x00,0x00,0x00,0x16,0xf4,0xff,0xff,0xff,0x03,0x00,0x00,0x00,0x00,0x00,0x00,0x03,0x0c,0x00,0x0c,0x00,0x0b,0x00,0x00,0x00,0x00,0x00,0x04,0x00,0x0c,0x00,0x00,0x00,0x46,0x00,0x00,0x00,0x00,0x00,0x00,0x46};
const int g_model_len = 12072;

const float scaler_i_mean[] = { 2.5, 418.931737012987, 498.2339385922719 };
const float scaler_i_scale[] = { 1.2909944487358056, 173.68251083917716, 153.87725056777126 };
const float scaler_o_mean[] = { 2.5, 32.5 };
const float scaler_o_scale[] = { 1.5811388300841898, 5.5901699437494745 };
#endif  // MODEL_H
