
#ifndef MODEL_H
#define MODEL_H

// MSE(Pos, Temp): [0.00905177 0.05716645]


const unsigned char g_model[] = {0x1c,0x00,0x00,0x00,0x54,0x46,0x4c,0x33,0x14,0x00,0x20,0x00,0x1c,0x00,0x18,0x00,0x14,0x00,0x10,0x00,0x0c,0x00,0x00,0x00,0x08,0x00,0x04,0x00,0x14,0x00,0x00,0x00,0x1c,0x00,0x00,0x00,0x8c,0x00,0x00,0x00,0xe4,0x00,0x00,0x00,0x04,0x26,0x00,0x00,0x14,0x26,0x00,0x00,0x98,0x2e,0x00,0x00,0x03,0x00,0x00,0x00,0x01,0x00,0x00,0x00,0x04,0x00,0x00,0x00,0xd6,0xd8,0xff,0xff,0x0c,0x00,0x00,0x00,0x1c,0x00,0x00,0x00,0x3c,0x00,0x00,0x00,0x0f,0x00,0x00,0x00,0x73,0x65,0x72,0x76,0x69,0x6e,0x67,0x5f,0x64,0x65,0x66,0x61,0x75,0x6c,0x74,0x00,0x01,0x00,0x00,0x00,0x04,0x00,0x00,0x00,0x90,0xff,0xff,0xff,0x11,0x00,0x00,0x00,0x04,0x00,0x00,0x00,0x08,0x00,0x00,0x00,0x6f,0x75,0x74,0x70,0x75,0x74,0x5f,0x30,0x00,0x00,0x00,0x00,0x01,0x00,0x00,0x00,0x04,0x00,0x00,0x00,0x8a,0xda,0xff,0xff,0x04,0x00,0x00,0x00,0x0c,0x00,0x00,0x00,0x6b,0x65,0x72,0x61,0x73,0x5f,0x74,0x65,0x6e,0x73,0x6f,0x72,0x00,0x00,0x00,0x00,0x02,0x00,0x00,0x00,0x34,0x00,0x00,0x00,0x04,0x00,0x00,0x00,0xdc,0xff,0xff,0xff,0x14,0x00,0x00,0x00,0x04,0x00,0x00,0x00,0x13,0x00,0x00,0x00,0x43,0x4f,0x4e,0x56,0x45,0x52,0x53,0x49,0x4f,0x4e,0x5f,0x4d,0x45,0x54,0x41,0x44,0x41,0x54,0x41,0x00,0x08,0x00,0x0c,0x00,0x08,0x00,0x04,0x00,0x08,0x00,0x00,0x00,0x13,0x00,0x00,0x00,0x04,0x00,0x00,0x00,0x13,0x00,0x00,0x00,0x6d,0x69,0x6e,0x5f,0x72,0x75,0x6e,0x74,0x69,0x6d,0x65,0x5f,0x76,0x65,0x72,0x73,0x69,0x6f,0x6e,0x00,0x15,0x00,0x00,0x00,0x1c,0x25,0x00,0x00,0x14,0x25,0x00,0x00,0xf8,0x24,0x00,0x00,0xe0,0x23,0x00,0x00,0x50,0x23,0x00,0x00,0x40,0x22,0x00,0x00,0x30,0x02,0x00,0x00,0xa0,0x01,0x00,0x00,0x10,0x01,0x00,0x00,0xf8,0x00,0x00,0x00,0xe0,0x00,0x00,0x00,0xcc,0x00,0x00,0x00,0xc4,0x00,0x00,0x00,0xbc,0x00,0x00,0x00,0xb4,0x00,0x00,0x00,0xac,0x00,0x00,0x00,0xa4,0x00,0x00,0x00,0x9c,0x00,0x00,0x00,0x94,0x00,0x00,0x00,0x74,0x00,0x00,0x00,0x04,0x00,0x00,0x00,0x5a,0xdb,0xff,0xff,0x04,0x00,0x00,0x00,0x60,0x00,0x00,0x00,0x10,0x00,0x00,0x00,0x00,0x00,0x00,0x00,0x08,0x00,0x0e,0x00,0x08,0x00,0x04,0x00,0x08,0x00,0x00,0x00,0x10,0x00,0x00,0x00,0x24,0x00,0x00,0x00,0x00,0x00,0x06,0x00,0x08,0x00,0x04,0x00,0x06,0x00,0x00,0x00,0x04,0x00,0x00,0x00,0x00,0x00,0x00,0x00,0x0c,0x00,0x18,0x00,0x14,0x00,0x10,0x00,0x0c,0x00,0x04,0x00,0x0c,0x00,0x00,0x00,0x81,0xdb,0xf2,0xa3,0xbb,0xed,0x47,0x42,0x02,0x00,0x00,0x00,0x02,0x00,0x00,0x00,0x04,0x00,0x00,0x00,0x06,0x00,0x00,0x00,0x32,0x2e,0x31,0x37,0x2e,0x30,0x00,0x00,0xc6,0xdb,0xff,0xff,0x04,0x00,0x00,0x00,0x10,0x00,0x00,0x00,0x31,0x2e,0x31,0x30,0x2e,0x30,0x00,0x00,0x00,0x00,0x00,0x00,0x00,0x00,0x00,0x00,0xfc,0xd2,0xff,0xff,0x00,0xd3,0xff,0xff,0x04,0xd3,0xff,0xff,0x08,0xd3,0xff,0xff,0x0c,0xd3,0xff,0xff,0x10,0xd3,0xff,0xff,0x14,0xd3,0xff,0xff,0xfe,0xdb,0xff,0xff,0x04,0x00,0x00,0x00,0x04,0x00,0x00,0x00,0xfd,0xff,0xff,0xff,0x0e,0xdc,0xff,0xff,0x04,0x00,0x00,0x00,0x08,0x00,0x00,0x00,0xff,0xff,0xff,0xff,0x40,0x00,0x00,0x00,0x22,0xdc,0xff,0xff,0x04,0x00,0x00,0x00,0x08,0x00,0x00,0x00,0x2c,0x10,0x98,0xbe,0x0b,0x89,0x79,0xbf,0x36,0xdc,0xff,0xff,0x04,0x00,0x00,0x00,0x80,0x00,0x00,0x00,0x00,0x00,0x00,0x00,0xf6,0x3e,0x4b,0xbf,0x29,0xee,0x87,0xbe,0xeb,0x3b,0x2d,0xbf,0x19,0x12,0x2f,0x3f,0x67,0xa1,0x97,0xbd,0x96,0xa1,0xa4,0xbe,0xa0,0x8c,0x12,0x3f,0xf4,0x10,0x2f,0xbf,0xfe,0x2d,0x4b,0x3f,0x33,0x82,0x49,0x3f,0x83,0x00,0xe4,0x3d,0x84,0x96,0x32,0xbf,0xab,0xcf,0xe4,0x3e,0x75,0x5f,0x0c,0xbe,0xe7,0xe7,0x5d,0x3f,0x5c,0x55,0x57,0xbf,0x1c,0x4d,0x54,0x3f,0x7b,0x3f,0xb7,0xbe,0x53,0x6c,0x3e,0x3f,0xef,0xbe,0x50,0x3f,0x7d,0xc6,0xe1,0xbe,0x89,0x8e,0xeb,0xbe,0x5e,0xdb,0x34,0xbf,0xb1,0xb3,0xbb,0x3e,0x97,0x3f,0xb3,0xbc,0x8f,0x09,0x29,0x3f,0x65,0x63,0x0d,0xbf,0x71,0x74,0x75,0x3f,0x7b,0x0f,0xfb,0xbc,0xd3,0x2d,0x40,0xbd,0xe0,0x1b,0x95,0xbd,0xc2,0xdc,0xff,0xff,0x04,0x00,0x00,0x00,0x80,0x00,0x00,0x00,0xe5,0xb4,0x7b,0x3e,0xfc,0x03,0x0b,0xbe,0xd1,0xb8,0x6a,0x3e,0x69,0x67,0xae,0x3e,0x79,0x9d,0xc5,0xbe,0x6b,0x4c,0x78,0x3e,0xc5,0xb5,0x51,0x3e,0x53,0xaf,0x12,0xbf,0xb3,0x25,0xb6,0xbe,0x14,0x5b,0x4e,0x3d,0xec,0xc9,0x26,0xbe,0x34,0xdb,0x3d,0x3d,0x20,0x18,0x05,0x3e,0x6f,0xdc,0x67,0xbd,0x88,0x33,0x96,0xbd,0xe6,0x05,0xe7,0x3d,0xf0,0x04,0x4a,0xbc,0xa0,0xaf,0x2a,0x3d,0xfc,0x0a,0xda,0xbe,0x09,0xc4,0xd1,0xbc,0x73,0x96,0x1b,0x3e,0x06,0x13,0x51,0x3d,0x08,0xd9,0x4c,0x3e,0xe2,0xf3,0x3a,0xbd,0xac,0x91,0xfa,0x3c,0x95,0x03,0x7f,0xbc,0x0d,0xb5,0x8a,0xbc,0x3e,0x12,0x8f,0x3e,0x64,0xd6,0xb5,0x3e,0xd6,0x72,0x80,0xbe,0xa0,0xa0,0x99,0xbd,0x2f,0x97,0x0f,0x3f,0x4e,0xdd,0xff,0xff,0x04,0x00,0x00,0x00,0x00,0x20,0x00,0x00,0x38,0x81,0x7a,0xbe,0x54,0x45,0x09,0xbe,0x40,0x96,0x58,0x3c,0x40,0xd9,0x22,0x3c,0x90,0x78,0x0e,0xbd,0x9c,0xb9,0x21,0xbe,0xc8,0xec,0xc8,0x3d,0x00,0x44,0x55,0x3c,0x8c,0x61,0x14,0x3e,0xb8,0xbf,0xf6,0xbd,0xf0,0x80,0xcb,0xbd,0xa8,0xb6,0xce,0xbd,0xa0,0x15,0x0e,0xbd,0x00,0xd0,0x40,0xb9,0xb0,0x31,0x65,0xbd,0x88,0x4a,0x55,0xbe,0x20,0x60,0x50,0xbe,0x58,0x33,0x50,0x3e,0x08,0x28,0x64,0x3e,0xd8,0x94,0x09,0x3e,0x80,0x76,0x06,0xbd,0xf0,0x88,0x25,0xbe,0xd0,0x05,0xaf,0xbd,0x2c,0xeb,0x12,0xbe,0x3c,0xac,0x2b,0xbe,0x34,0xea,0x07,0x3e,0x88,0xc8,0xde,0xbd,0x20,0x31,0x79,0xbe,0xc8,0x18,0x36,0xbe,0x34,0xc5,0x03,0xbe,0xa8,0x9e,0x2f,0xbe,0x44,0x1f,0x02,0xbe,0x40,0xfd,0x4a,0xbd,0x10,0xe9,0x47,0xbe,0x00,0x96,0x8d,0x3b,0x60,0x65,0xf1,0x3c,0x18,0x74,0x20,0xbe,0xf0,0x0a,0x33,0xbd,0x80,0x62,0x65,0x3d,0x00,0xc0,0x2a,0x39,0xe0,0x31,0x33,0xbe,0xd0,0xfb,0x68,0x3d,0x08,0x56,0x6a,0x3e,0x80,0xa5,0xc9,0xbd,0x00,0xee,0xeb,0xbb,0xc8,0xa2,0xe2,0xbd,0x30,0xf6,0x74,0x3e,0x6c,0xc5,0x4c,0xbe,0x24,0x7f,0x59,0x3e,0xe0,0x90,0x2e,0xbd,0xc8,0xdf,0x34,0xbe,0x7c,0xd3,0x79,0x3e,0x54,0x91,0x7b,0xbe,0x4c,0x9e,0x2a,0xbe,0x00,0x9d,0x98,0x3b,0x50,0xaf,0x15,0x3e,0x28,0xc2,0xbe,0x3d,0xf4,0x91,0x78,0xbe,0x60,0x31,0x4f,0xbd,0x50,0x8a,0x6a,0x3d,0xb0,0xee,0xfb,0x3d,0x64,0x37,0x49,0xbe,0x80,0x95,0x86,0xbc,0xec,0x40,0x63,0x3e,0xf0,0x54,0x30,0xbe,0xc1,0x42,0x06,0x3e,0xfa,0x7b,0xf5,0xbc,0x5d,0x30,0x90,0xbe,0x29,0xb5,0x67,0x3f,0x4c,0xfe,0xa6,0xbe,0x25,0xf7,0xe0,0x3e,0xa4,0x3b,0x23,0x3d,0x00,0xf6,0x0f,0x3f,0x0b,0x92,0xe0,0xbd,0xa0,0x22,0x36,0x3f,0x40,0xf7,0x49,0x3d,0x51,0xec,0xb8,0xbd,0x58,0x38,0xac,0x3e,0xc1,0x8a,0xdb,0x3e,0x56,0xe9,0xa5,0x3e,0xb5,0xc5,0xb3,0xbd,0x4c,0x58,0xb2,0x3c,0xef,0xf2,0x04,0x3f,0xfb,0x29,0xa1,0xbd,0x77,0xef,0x0f,0x3e,0x03,0x03,0xaa,0x3e,0x42,0xdc,0x16,0xbf,0xa6,0xd9,0xbc,0x3e,0x55,0xd6,0x37,0x3e,0xe5,0x6e,0xb7,0x3e,0xf0,0xb7,0x64,0x3c,0xc1,0xa2,0x89,0x3e,0x94,0x45,0x69,0x3e,0x2a,0x50,0xac,0x3e,0x26,0x18,0x5e,0x3f,0xc5,0xdc,0xf8,0xbe,0x0c,0x32,0x00,0xbe,0xe4,0xe4,0x05,0x3e,0xca,0xde,0xe2,0x3e,0x45,0x1e,0xaa,0xbe,0x31,0x3e,0x5a,0x3e,0x69,0x9a,0x0a,0x3e,0x45,0x58,0xad,0x3e,0xa5,0x5f,0xa3,0x40,0xbb,0xf6,0x5a,0x3e,0x6c,0xcb,0xc1,0x3d,0x14,0x5b,0x2c,0x3f,0xce,0xe9,0x2e,0xbf,0xca,0x36,0xd3,0x3f,0x69,0x29,0xf1,0x3e,0xda,0xc9,0xc0,0xbe,0x7d,0xbb,0x94,0x3e,0xed,0x44,0x62,0xbe,0x85,0x31,0xad,0x3e,0xf7,0x62,0x23,0x3f,0x3f,0xaf,0xcc,0x3d,0x48,0x08,0x0e,0xbe,0x24,0x90,0x31,0x3e,0x45,0x7d,0xf7,0x3e,0x0e,0x36,0x7f,0x3e,0x3d,0xc4,0x23,0x3d,0x5a,0xc8,0x00,0xbf,0x63,0x87,0xb3,0x3c,0x4c,0x18,0x90,0xbe,0x39,0x2a,0x01,0xbf,0x54,0x7b,0xc9,0xbc,0xdc,0xf1,0x04,0xbc,0x27,0xdd,0xf9,0xbe,0x20,0xaa,0x8e,0x3e,0xec,0xf2,0x07,0xbf,0x9d,0xba,0xdb,0xbe,0x11,0x6c,0x9b,0xbc,0xe6,0x34,0xc7,0xbe,0x18,0xcf,0x90,0x3e,0xcf,0x23,0xd9,0x3e,0x27,0xd1,0xc1,0xbf,0x89,0xed,0x29,0x3f,0x02,0x63,0x6d,0x3e,0x62,0x2a,0x24,0xc0,0xc3,0xe0,0xc7,0xbd,0xaf,0x86,0x43,0x3f,0xb8,0xb1,0xf5,0xbd,0xf5,0x10,0xd9,0xbf,0xee,0xed,0x75,0xbf,0x10,0x8e,0x6a,0x3d,0x19,0x1b,0x2a,0x3a,0x7f,0x2e,0x5c,0xbd,0x0b,0xfe,0x17,0x3d,0xe4,0x27,0x2b,0x3e,0xca,0xa0,0xdc,0xbf,0x8e,0xb0,0xd8,0x3d,0xb5,0xb9,0x0b,0x3f,0xcc,0x5d,0xdf,0x3d,0x50,0xfc,0xa1,0x3d,0x23,0x6d,0x27,0x3e,0xce,0xb2,0x76,0x3e,0xbb,0x42,0xa1,0x3d,0xa2,0xea,0xea,0xbe,0x1f,0xc4,0xb8,0x3e,0x25,0x53,0x8a,0x3e,0x8a,0x6d,0xde,0xbf,0x64,0x86,0xe3,0x3e,0xaa,0xf1,0x35,0x3e,0x55,0x82,0x42,0x3f,0xa2,0x3f,0x0b,0x3f,0xf0,0x81,0x06,0xc0,0x0c,0xc7,0x81,0x3e,0x3d,0x6c,0xe9,0x40,0xbe,0xd7,0x2b,0x3f,0xed,0x8d,0x29,0xbf,0xe8,0x74,0x95,0x3e,0x0d,0x90,0x97,0xbe,0xd8,0x64,0x76,0x3f,0xec,0x5d,0x27,0x3f,0xaf,0x29,0xd2,0xbd,0x87,0xd8,0xb5,0xbf,0x23,0x0f,0x0a,0xbc,0xd6,0x68,0xaf,0x3e,0xf0,0xb1,0x08,0x3f,0x6f,0x14,0xdd,0x3d,0x6e,0xa8,0x6b,0xbf,0x21,0x19,0x4e,0x3f,0xd0,0x1e,0x89,0xc0,0x06,0x1d,0x20,0xbc,0xf4,0xb2,0x79,0xbd,0xd8,0xa1,0x63,0xbe,0x01,0x31,0xa7,0x3c,0xe7,0xb0,0x7a,0x3f,0x8e,0xff,0xbb,0x3e,0x8a,0xe4,0xd9,0x3e,0xe8,0x33,0xf3,0xbe,0xf0,0xb8,0x68,0xbf,0x9c,0x58,0x79,0x3e,0xfc,0xe1,0x22,0x3e,0xc0,0x9b,0xbf,0xbe,0xcf,0xda,0xb1,0x3d,0xda,0x2f,0x13,0x3f,0xb5,0x21,0xa5,0x3e,0x6c,0x46,0x1b,0xc0,0x6e,0x53,0x7b,0x3f,0xd9,0x60,0x73,0x3e,0x18,0x45,0x1a,0x3e,0x7f,0x4b,0xd0,0x3e,0x4d,0x96,0xfe,0xbe,0xb5,0x3c,0x8e,0x3e,0xba,0x2a,0xbf,0xbd,0x83,0x90,0x5b,0x3e,0x35,0xb5,0x9e,0x3d,0x0a,0x3a,0x32,0x3e,0x18,0x65,0xab,0x3e,0x50,0x07,0xf0,0x3e,0x40,0x10,0x9d,0x3d,0x0b,0xf4,0xed,0x3d,0x3e,0x32,0xb5,0x3e,0x7d,0xd9,0x59,0x3d,0xce,0x95,0xc5,0xbd,0x9f,0x90,0xc9,0x3f,0x48,0xc8,0xb6,0xbf,0xc1,0x6c,0x49,0x3e,0x12,0xcc,0xfd,0xbe,0x82,0x56,0xfb,0xbd,0x5d,0x49,0x63,0x3c,0xe5,0x19,0x21,0xc0,0xc0,0xad,0x9e,0xbe,0x62,0xfe,0xa7,0x3e,0xc1,0xe8,0x89,0x3d,0xae,0x2a,0xb4,0xbd,0xa8,0x76,0x26,0xbf,0x6f,0x55,0xdd,0x3e,0x66,0xab,0xad,0x3e,0x27,0xba,0x81,0xc0,0x5d,0xf6,0x2c,0x40,0xaa,0x6a,0xa8,0xbd,0xca,0xb4,0x89,0x3e,0x34,0x6b,0xd0,0xbf,0xf4,0x19,0xe0,0x40,0x7e,0xd7,0xc6,0xbd,0xb2,0x06,0x23,0x3c,0xef,0x53,0x74,0xbd,0xfc,0x48,0xc2,0xbe,0xab,0xf4,0x65,0x3e,0xbc,0xf9,0x3e,0xc0,0x00,0x87,0xda,0x3b,0xb8,0x93,0xb4,0x3d,0x70,0x5a,0x80,0x3e,0xda,0xf1,0xc1,0xbe,0x6f,0xd4,0x84,0x3f,0x23,0x18,0x58,0xbe,0x33,0x2a,0x16,0xc0,0xc4,0xfc,0x92,0x40,0x57,0x1b,0x8f,0xbd,0x47,0x6c,0x22,0xbf,0xf3,0x9b,0x17,0xbf,0x60,0x65,0x6e,0xbe,0x4d,0x9d,0x9a,0xbf,0xa0,0xaa,0x1b,0x3e,0x7d,0x7e,0xab,0x3e,0x21,0xad,0xc6,0x3d,0x05,0xfb,0xd3,0x3e,0x79,0xb7,0x7e,0xbe,0xba,0x6f,0xd2,0xbe,0xed,0x6a,0x8e,0x3e,0x9e,0xaf,0x0f,0xbe,0x80,0x40,0xf9,0xbe,0x8f,0x14,0xcc,0x3d,0xf4,0x94,0x81,0x3e,0x89,0x47,0xe8,0x3e,0x7f,0x91,0xa6,0xbe,0x75,0x68,0xa0,0xbf,0xa5,0x82,0x3d,0x3e,0xae,0xe3,0x34,0x3e,0x8d,0x1e,0x6f,0xbe,0x21,0x77,0x84,0x3e,0x51,0x6a,0x9d,0xbd,0xdb,0x3d,0xb0,0xbe,0x4a,0x12,0x7d,0x3e,0x96,0x16,0x9b,0x3e,0xc2,0xa4,0xbf,0x3e,0xd0,0x4b,0xee,0x3e,0xfd,0xc1,0x49,0xbe,0xba,0x5b,0x29,0xbd,0x52,0x9a,0x3a,0x3e,0x26,0x32,0xdf,0x3e,0xd7,0x81,0x3a,0xbd,0xd4,0x0c,0x2c,0xbe,0x4f,0x13,0x5b,0xbc,0x2b,0x8f,0x10,0xbf,0xf5,0x82,0xed,0x3e,0x19,0xbe,0x0b,0x3d,0xd2,0x2c,0x41,0xbd,0xd6,0x8f,0x69,0xbf,0x1b,0xef,0x1f,0x3d,0x63,0x50,0x3c,0xbf,0x19,0xb8,0x63,0x3e,0xcc,0xc4,0x0b,0xbf,0x49,0x6b,0xca,0xc0,0xa6,0x28,0x5e,0xbe,0xed,0x89,0x35,0xbe,0x76,0xb5,0x80,0xbf,0xc3,0x4e,0x7a,0x3e,0xaa,0xda,0xc8,0x3e,0x81,0xb4,0xa0,0x3c,0x14,0xe6,0x42,0xbd,0xbc,0x23,0x4e,0x3e,0xa0,0x09,0xc4,0xbd,0x4e,0xae,0x48,0x3e,0x72,0x4a,0xf4,0xbe,0x64,0x5f,0x0e,0x3e,0x17,0x3b,0x8f,0xbc,0xba,0x60,0x9d,0x3d,0x50,0x83,0x47,0xbe,0xaa,0xe0,0x23,0xbe,0xe6,0x78,0xee,0x3d,0xbe,0x42,0x6a,0xbe,0xd1,0xe3,0xe8,0xbc,0x60,0xd6,0xa8,0xbe,0xaf,0x53,0x8e,0xba,0x0a,0x28,0xb1,0xbe,0xe8,0x8c,0x45,0x3f,0x0a,0x58,0xc0,0x3e,0xe4,0x45,0x10,0x3d,0x72,0xb9,0x40,0xbe,0xdc,0x9b,0x9e,0xbc,0xca,0x5a,0x60,0xbd,0x58,0x5e,0x04,0xbe,0x79,0xc5,0xfe,0x3d,0x28,0x00,0x14,0xbe,0x01,0xc4,0xb8,0xbc,0xff,0x3f,0x2e,0xbe,0x27,0xd3,0x8e,0xbb,0x0c,0xc8,0x38,0xbe,0x51,0x8b,0xb5,0x3d,0xa8,0x29,0xa5,0xbc,0xc5,0x7b,0x08,0x3e,0xe8,0x55,0x37,0xbe,0x47,0x14,0xfc,0xbd,0x59,0x7d,0xa2,0xbe,0x47,0x45,0x4f,0xbe,0x21,0x74,0x8b,0x3d,0xa7,0x6c,0x21,0x3e,0xf8,0x20,0x07,0x3e,0xdb,0x47,0x5d,0xbe,0x81,0x04,0x8b,0x3c,0x32,0xe6,0x80,0xbe,0x28,0xd8,0x53,0xbe,0x80,0x46,0xad,0x3b,0xfe,0xbc,0x06,0xbe,0x68,0x07,0x8d,0xbe,0xee,0xae,0x0b,0x3d,0x76,0x72,0x45,0xbd,0x4c,0x60,0xbb,0xbd,0x05,0x9f,0x04,0x3e,0xf8,0x8d,0xbb,0x3d,0x77,0x0a,0x5b,0x3c,0xb1,0xc0,0x58,0x3e,0x39,0xdb,0x08,0xbe,0x28,0x52,0x2b,0xbe,0x23,0x60,0xa7,0xbe,0x6f,0x64,0xd2,0x3d,0x92,0x0c,0x93,0xbe,0x09,0x16,0xb3,0xbd,0xfa,0x56,0x2a,0x3d,0x26,0x36,0xe6,0xbd,0x72,0x35,0x25,0xbe,0xa5,0x78,0x1f,0xbd,0x50,0x3d,0x3e,0x3d,0x04,0xd6,0x8e,0x3d,0xc9,0x98,0x68,0x3d,0x93,0xcc,0x37,0x3e,0x0a,0x02,0x64,0x3e,0xe8,0xf5,0x79,0xbe,0xcf,0x18,0xf5,0xbd,0xa9,0x38,0x8f,0xbc,0xa1,0xc7,0x28,0x3b,0xf4,0xe7,0x18,0x3e,0x8d,0x7f,0x8b,0xba,0xd2,0xb3,0x88,0x3d,0x61,0xe3,0x6b,0xbe,0xca,0xfb,0x3f,0x3d,0x37,0xb8,0x05,0xbd,0xc2,0xb0,0x85,0xbe,0x33,0x1b,0x58,0x3e,0xd8,0xcf,0xb8,0x3d,0xb7,0xc8,0x45,0xbe,0x3b,0x83,0x55,0x3f,0x0a,0x32,0x41,0xbf,0xe1,0x07,0x0f,0xbf,0x32,0xcb,0xc9,0x3d,0xef,0x07,0xc7,0xbf,0x5b,0xbb,0x3c,0x3f,0xee,0x30,0xd9,0xbd,0x22,0x55,0xc7,0x3f,0x89,0x3f,0xe5,0xbe,0x09,0xf8,0x99,0x3f,0x4d,0x95,0xca,0xbf,0x95,0x81,0x98,0x3e,0xa6,0x8d,0xdf,0x3f,0x94,0x5a,0x02,0xbf,0x68,0x7f,0xd6,0xbf,0x6b,0x81,0x53,0xbf,0x12,0x4e,0xeb,0x3d,0xf7,0x74,0x1b,0xbf,0x4d,0x1a,0x6c,0xbf,0x14,0x50,0xd8,0xbe,0x25,0xfb,0x96,0x3f,0xe0,0x61,0xf9,0xbf,0x15,0xaf,0x98,0x3e,0x5a,0xbe,0x4b,0x3e,0xd7,0xf5,0x0c,0x3e,0x25,0x1f,0x64,0x3d,0x40,0x24,0x15,0xbd,0xc7,0x07,0x35,0x3e,0xf5,0x94,0xb9,0x3e,0x79,0x86,0x65,0xbf,0x49,0xbe,0xb9,0x3d,0xd0,0xac,0xfa,0x3a,0x23,0xf6,0xbe,0xbf,0xf9,0xcc,0xee,0x3d,0x26,0xc8,0xc2,0x3e,0xcd,0x11,0x67,0x3f,0x2b,0xaa,0xb1,0x3e,0xdf,0xee,0xac,0xbf,0xc9,0x2e,0x5d,0xbb,0xb8,0x53,0x06,0x40,0x14,0x7b,0x0b,0x3e,0xf6,0x1b,0x2c,0xbf,0xa9,0xd1,0x8f,0x3b,0x45,0xf0,0x49,0xbe,0xb7,0x74,0x74,0x3f,0xf0,0xfe,0xfd,0x3e,0xec,0x7c,0xc1,0x3f,0xd9,0xb6,0x16,0x3f,0x17,0x8c,0x0a,0x3e,0xb6,0xc4,0xbc,0xbe,0x81,0xf0,0x8a,0xbe,0xf8,0xd8,0x1e,0xbd,0xbb,0x3a,0x84,0xbf,0xf7,0xa1,0x8a,0x3e,0xa9,0xf0,0x77,0x40,0x79,0x54,0xa9,0xbe,0xd6,0x37,0x15,0xbf,0xae,0x39,0x41,0x3d,0xa0,0x46,0xcb,0xbd,0x60,0xdf,0x04,0x3f,0x8b,0x91,0x05,0x3f,0xd5,0xe5,0x29,0x3f,0x0b,0x6f,0x20,0xbf,0x4f,0x55,0x10,0xbf,0xe9,0xd8,0x54,0xbf,0xdd,0x23,0x21,0x3e,0x05,0xce,0xa8,0x3e,0xbf,0x7c,0x9b,0x3d,0xd3,0x0c,0x4d,0x3e,0xfd,0xb0,0xc9,0xbe,0x22,0xd4,0x1e,0x3e,0xb9,0x17,0xca,0xbf,0x5c,0x40,0x31,0xbf,0x76,0xf2,0x5c,0xbf,0x82,0x42,0x47,0x3f,0xfc,0x33,0xa1,0xbd,0x34,0x38,0xf3,0x3e,0x52,0xb5,0xae,0x3c,0x29,0xd7,0x58,0xbf,0x2f,0xe6,0x16,0x3f,0xcb,0x06,0xf9,0xbd,0xe3,0xe8,0x42,0x3e,0xbf,0x0e,0xcb,0xbe,0x35,0xe0,0x00,0xbd,0xdd,0x49,0x2d,0xbf,0xda,0xe6,0xd1,0x3e,0x4e,0xb6,0x1c,0x3f,0x89,0x98,0x82,0xbd,0x22,0xd6,0x77,0x3e,0xb9,0x6b,0xeb,0xbe,0x0a,0x17,0xd0,0xbd,0x35,0x77,0x2c,0x3f,0xa3,0x73,0xb0,0x3e,0x2e,0x88,0xaa,0x3e,0x04,0xd9,0x5e,0xbd,0xb4,0x0b,0xea,0xbd,0xb7,0x12,0x0b,0x3f,0xfc,0x11,0x90,0x3f,0x27,0xa5,0xd0,0x3d,0xf3,0xf5,0x3d,0x3e,0x5b,0x3d,0x8d,0xbf,0xe5,0xf7,0x5e,0x3e,0x0b,0xe9,0xf1,0xbd,0xcd,0x36,0xbc,0x3e,0x80,0xb8,0xde,0xbf,0x11,0xf7,0x1f,0x3f,0x76,0x68,0x92,0xbe,0xe1,0x13,0x58,0x3e,0xa6,0xf2,0xa5,0xbf,0xde,0x73,0x03,0x3f,0xbb,0xb8,0x3e,0x3e,0x1c,0x02,0xad,0x3f,0x0f,0xd3,0xde,0x3d,0xbc,0xd4,0xee,0x3d,0xfb,0x5b,0x6b,0xbe,0x12,0x48,0x1a,0x3f,0xda,0xd3,0xa2,0x3e,0x93,0xd2,0xc9,0xbe,0x0e,0x78,0x28,0x3f,0x86,0x7b,0xc1,0x3e,0xfd,0x16,0x07,0x3f,0xa7,0x56,0xc7,0x3e,0xa0,0x13,0x0b,0x3e,0xab,0xd0,0x13,0xbf,0x2b,0x58,0xcd,0xbd,0x61,0x38,0x8a,0xbf,0x8b,0x11,0xab,0xbd,0xa1,0x2b,0x0e,0x3f,0x8e,0xf0,0x0b,0xbf,0xf8,0xbd,0x47,0x3f,0x41,0xd7,0x61,0xbf,0x89,0x5c,0x10,0xbf,0x0d,0x00,0x82,0x3f,0x24,0xc1,0x3f,0xbe,0x10,0xf9,0xb9,0x3e,0xb3,0x1c,0x79,0xbe,0x24,0xab,0x39,0x3f,0xf4,0x73,0x06,0xbf,0xca,0xc7,0x16,0x3f,0x28,0x07,0x6d,0x3e,0xc3,0x72,0x1c,0xbf,0x5f,0xb5,0x38,0x3f,0xd3,0xa3,0x02,0x3f,0xff,0x74,0xa0,0xbc,0x79,0x78,0xa8,0x3e,0xfa,0x54,0xb5,0xbe,0x30,0xa0,0x2f,0x3f,0xe4,0xee,0xbe,0x3e,0x14,0x37,0x03,0xbf,0xaa,0x5a,0xb5,0x3e,0x98,0xb8,0x3b,0xbf,0xd2,0xec,0xa1,0x3f,0xcd,0xe0,0x8e,0x3e,0x9a,0x50,0xfa,0x3d,0x04,0x78,0x89,0x3e,0x64,0xa3,0x80,0xbe,0x2b,0xa8,0x1e,0xbc,0x59,0xa3,0x55,0x3f,0xe4,0xd0,0x35,0x3f,0xc0,0xd6,0xb1,0xbe,0xcd,0x5f,0x14,0x3f,0xda,0x31,0x69,0xbd,0x87,0xbb,0x8e,0xbe,0x4e,0x93,0x1a,0xbf,0x69,0x82,0x53,0x3e,0xbc,0x10,0x22,0x3f,0xa4,0x10,0x94,0x3e,0x07,0xbf,0x7e,0x40,0x37,0xb2,0x9c,0x3d,0xa4,0x91,0x00,0x3f,0x7f,0x1b,0x6a,0x3f,0xa1,0x3e,0x96,0x3d,0xc3,0xb6,0xe5,0x3e,0x22,0x96,0x8f,0xbd,0xca,0x5e,0xf2,0xbe,0xd0,0x24,0x2e,0xbe,0x78,0x70,0x3e,0x3c,0xa0,0xa0,0xda,0xbb,0xb8,0x0a,0x5b,0x3e,0xbc,0x48,0xb9,0x3c,0xed,0x6e,0xeb,0x3e,0xf1,0xfa,0xb8,0x3d,0x65,0x6e,0x8d,0x3e,0x59,0x19,0xa3,0x3e,0x68,0xd6,0x1d,0x3e,0xf8,0x3a,0xb0,0xbc,0x2b,0x02,0xae,0x3c,0xe0,0x65,0x51,0xbf,0x2d,0xdc,0x1d,0xbf,0xc7,0xfb,0xc2,0x3c,0x51,0x9c,0x14,0xbc,0xfa,0x1c,0x16,0x3d,0x76,0xdc,0x05,0x3e,0x51,0x6e,0x89,0x3e,0x8c,0x73,0xc5,0x3e,0x95,0x8b,0xe0,0x3b,0xf5,0x3c,0xea,0xbd,0x2e,0x5e,0x00,0x3e,0x6c,0x00,0x11,0xbe,0xd9,0xea,0x0b,0xbe,0x82,0x8e,0x94,0xbd,0xdb,0xd7,0x86,0xbe,0x50,0xd4,0x7f,0x3f,0xe8,0x28,0x8d,0xbe,0x7a,0x60,0xb3,0x3e,0x17,0x7f,0xf6,0x3d,0x93,0xff,0x17,0xbe,0x95,0xfe,0x79,0x3e,0x49,0x9f,0x49,0x3e,0x07,0x88,0x78,0x3e,0x92,0x96,0x9f,0x3c,0x1b,0x52,0x40,0x3e,0xe3,0xa5,0xe5,0x3c,0xa1,0x48,0xb3,0x3d,0x71,0x3a,0xa3,0x3e,0xe9,0x14,0xf2,0xbd,0xff,0x4f,0xae,0xbe,0x21,0x81,0xc5,0xbe,0x36,0xfc,0x18,0x3d,0x4d,0x38,0x2d,0x3e,0x88,0x8c,0x07,0xbe,0x9d,0x4d,0x12,0x3e,0x07,0xa7,0x5e,0xbe,0x95,0xac,0xea,0x3e,0x62,0xd6,0x7a,0x3d,0x19,0x66,0x08,0x3f,0xec,0xda,0x49,0x3e,0x48,0x95,0xc2,0x3e,0xfe,0x5b,0xdd,0xbe,0x42,0xe9,0x49,0x3d,0x47,0x56,0xed,0xbe,0xd5,0xb0,0x7f,0xc0,0x69,0x4e,0x35,0x3e,0x5d,0xa8,0x6a,0xbe,0xe0,0x97,0x08,0xbe,0xf2,0x39,0xc7,0xbe,0xb8,0x67,0x8f,0x3f,0x9b,0xd4,0xa2,0x3e,0xd6,0x7b,0x4e,0x3e,0x13,0x13,0x1e,0x3e,0x79,0xe4,0xd5,0x3d,0xaa,0x60,0xf7,0x3d,0x64,0xae,0x3e,0x3e,0xe0,0xb5,0xb9,0x3e,0x35,0x72,0xc3,0xbe,0xdd,0xb1,0xee,0xbd,0xa2,0xb4,0xf4,0xbe,0x5e,0x03,0x63,0x3e,0x7e,0x74,0x84,0x3e,0xe5,0x45,0x80,0x3d,0x9d,0x39,0x06,0x3e,0x9e,0x1a,0x7b,0x3e,0x6f,0x5a,0xc5,0x3c,0x0a,0xf2,0x2c,0xbe,0x16,0xfe,0x03,0xbf,0x5b,0xd9,0xdf,0x3e,0xc7,0xe4,0x3f,0x3e,0x76,0xc7,0xaa,0x3e,0x74,0x42,0x11,0x3e,0x90,0xc2,0xa5,0x3e,0x8a,0x6c,0xd1,0xbd,0x24,0x19,0x52,0x3e,0x88,0x5d,0x49,0xbe,0xb6,0xed,0xac,0xbd,0x1d,0xb9,0x39,0x3e,0xb7,0xaa,0x38,0xbe,0x47,0x44,0xf9,0x3e,0x61,0x9e,0x36,0xbe,0x30,0x28,0xb8,0x3e,0x5d,0x51,0x01,0x3e,0x91,0x63,0x1b,0x3e,0x60,0x07,0x87,0xbd,0x3a,0x51,0x9f,0x3c,0xe9,0x99,0xab,0xbc,0x34,0xd4,0x18,0xbe,0xa0,0x0d,0xb6,0x3e,0x63,0xeb,0x9d,0xbd,0x02,0xd9,0xa4,0x3e,0x0d,0x21,0x2a,0x3f,0x7b,0xcd,0x8e,0xbe,0x25,0x62,0x8b,0xbe,0xb2,0x0a,0xea,0xbe,0x9c,0xc0,0x22,0x3e,0x59,0x81,0xbd,0x3e,0x99,0xe5,0x6f,0x3e,0x35,0xe5,0x5e,0xbc,0xa5,0x8a,0xbb,0xbe,0x23,0x82,0x66,0x3e,0x77,0xbb,0x35,0xbe,0xcc,0x1b,0x2c,0x3e,0x05,0xfb,0xfd,0x3c,0x79,0xa3,0xbf,0x3e,0xa1,0x9b,0xb9,0xbe,0x08,0xeb,0x23,0x3e,0x53,0x55,0x25,0xbf,0x4c,0xf3,0x81,0xc0,0x0e,0xf8,0x1a,0x3e,0x9e,0x5c,0x84,0xbe,0x48,0x44,0x09,0xbf,0x7f,0xce,0x58,0xbd,0xe7,0xa4,0x0f,0xbc,0x47,0xa6,0x45,0x3e,0x4e,0x45,0xd1,0x3e,0xb4,0xc7,0xf4,0x3e,0xcb,0x3e,0xa3,0x3d,0xed,0x23,0x69,0xbb,0xe2,0x9d,0x55,0xbd,0xd4,0x0f,0x86,0x3e,0xd9,0x34,0x23,0xbe,0x91,0x0e,0xe9,0xbd,0xbb,0x08,0x10,0xbf,0xd5,0x64,0x97,0x3e,0x27,0x8f,0x8f,0x3e,0xa2,0xab,0x61,0x3e,0xd4,0x5c,0x88,0x3e,0xab,0x77,0xc7,0x3e,0x54,0xd9,0x14,0x3e,0x43,0x97,0x64,0x3e,0xed,0x92,0x97,0x3d,0xaa,0x88,0xaf,0x3d,0x15,0xa6,0x0b,0x3e,0x8e,0xe2,0x1f,0x3f,0x6e,0x01,0x9a,0xbf,0x8b,0xe0,0x0b,0x3e,0xbb,0x9f,0xdc,0x3d,0x37,0x70,0x47,0x3e,0x3e,0x52,0x15,0xbf,0x72,0x31,0x15,0xbf,0x21,0xc0,0x06,0x3f,0xd3,0xd2,0xc1,0x3e,0xf1,0x0a,0xf8,0x3f,0x36,0x2b,0xc5,0x3e,0x56,0xb6,0x38,0xbe,0x13,0xcd,0x83,0x3e,0x50,0xdf,0xe6,0x3e,0x02,0xdd,0xc2,0x3f,0x02,0x6e,0x06,0x3e,0x1d,0x56,0x37,0xbf,0x74,0x70,0xb0,0x3e,0x4e,0x78,0xe0,0x3e,0xd3,0x9a,0x7a,0x3e,0xbf,0xb3,0x5b,0x3f,0xa2,0xbf,0xbf,0x3e,0x62,0xf7,0x01,0xbf,0x07,0xdd,0x8e,0xbe,0x6d,0xd0,0xa8,0x3e,0xd3,0xc2,0x67,0x3e,0xf2,0x11,0x4f,0x3f,0x5a,0xc8,0x34,0xbf,0xe7,0xb9,0xe3,0x3e,0x2a,0x82,0xaf,0x3e,0x38,0x14,0x73,0xbd,0x9e,0xeb,0x28,0xbf,0x6c,0xc8,0xc7,0xbe,0x51,0x2b,0x95,0x3f,0xd9,0xd7,0xf1,0xbd,0xa0,0xdc,0x2e,0xbf,0x77,0xab,0x1f,0xbf,0x21,0x90,0xec,0xba,0x77,0x93,0x97,0x3f,0xa1,0xc3,0x03,0xbf,0xf0,0x00,0x17,0xbe,0xc5,0xa8,0xc1,0x3f,0xa5,0x62,0x34,0xbf,0x64,0x41,0xe7,0x3e,0x3c,0x72,0x08,0xbe,0x17,0x9f,0x19,0xbe,0x0c,0x11,0xdc,0xbe,0x64,0x3e,0x99,0xbe,0x42,0x88,0xb2,0x3a,0x0c,0x30,0x4a,0xbe,0xc2,0xf7,0x2d,0x3e,0x10,0xa4,0x27,0xbe,0xa4,0xeb,0xb1,0x3e,0x76,0xd2,0x75,0xbf,0x8b,0xfb,0x07,0x3f,0x68,0x4b,0xff,0xbe,0xe9,0xd1,0x83,0xbe,0xe1,0x4d,0x03,0x3d,0x55,0xa4,0x2e,0xbd,0x7f,0x5a,0x90,0xbe,0xf5,0x50,0xec,0xbe,0xd8,0x35,0x03,0xbf,0x44,0xd2,0x20,0xbf,0x62,0xa2,0xd9,0xbe,0x32,0x72,0x3f,0x3e,0x7c,0xe9,0x9d,0x3e,0x54,0x6c,0xef,0x3e,0x3d,0xfe,0x2d,0x3f,0xf8,0xc5,0xfa,0xbe,0x0a,0xe2,0xfa,0x3e,0x89,0x16,0x33,0x3f,0x06,0x8a,0xb1,0x3e,0x74,0xac,0xfa,0xbe,0x81,0xa6,0x2c,0x3e,0xa3,0x3b,0x97,0xbf,0x43,0x63,0x62,0x3f,0x24,0x76,0x35,0xbd,0x29,0xe4,0xfa,0x3e,0x0b,0xdf,0x0f,0x3f,0x1b,0x70,0x26,0xbe,0xa6,0xf0,0x27,0x3e,0xa2,0x3d,0x28,0x3f,0x91,0x47,0xc3,0x3a,0xc3,0xaf,0x94,0xbe,0xb7,0xe9,0x00,0xbe,0xb6,0x72,0x86,0xbe,0x62,0x27,0xbf,0xbd,0x3a,0xb3,0x37,0x3f,0x22,0x61,0x7c,0xbf,0xe9,0x05,0xc5,0xbe,0x2d,0x91,0x10,0xbc,0x66,0xe4,0xbb,0x3c,0xe1,0xf6,0xce,0x3e,0x57,0x2c,0xd7,0xbc,0x6e,0x23,0x30,0xbf,0xab,0x06,0x34,0x3e,0x22,0x5b,0x01,0xbe,0x26,0x9b,0x55,0x3d,0x5e,0x70,0x9b,0xbe,0xf9,0x31,0x0b,0x3e,0xbd,0x1f,0xa0,0x3e,0x59,0x3b,0xd0,0x3d,0xee,0x4f,0x98,0x40,0x01,0x8d,0x2a,0x3e,0x1d,0xc9,0xec,0x3d,0xe7,0x96,0x7d,0xc1,0x26,0x98,0xd3,0xbf,0x4b,0xe0,0xfa,0xbe,0xa3,0xbb,0x69,0xbd,0x4d,0xb2,0xdc,0xbe,0x42,0x7f,0x54,0x3d,0x0a,0x00,0x17,0xbe,0x36,0xb7,0x4e,0x40,0x53,0x52,0x0f,0x3e,0x04,0x36,0x21,0x3d,0x8e,0x0d,0x99,0xbd,0x06,0x64,0xd3,0x3e,0x6e,0xf6,0xc7,0x3e,0x5f,0x88,0x5a,0x40,0xcc,0x3f,0x08,0xc0,0xe7,0x8b,0xb4,0xbf,0xb0,0xd2,0x72,0x3e,0x11,0x91,0xc6,0xbe,0xb1,0xfb,0x3c,0xbf,0x0e,0x2f,0xfc,0x3d,0x62,0x76,0xca,0x3f,0x70,0x96,0x5d,0xbe,0x41,0x54,0xa8,0xbc,0xd1,0x39,0xe6,0xbd,0x90,0xf7,0xa1,0x3e,0xa7,0x10,0x7d,0x3d,0x5b,0xa4,0x27,0x3d,0x18,0x2a,0xe4,0xbc,0x9d,0x4d,0xb9,0xbe,0x5c,0xfb,0x49,0x3f,0x7e,0xd7,0x44,0xbf,0x52,0x36,0x30,0xbe,0xf4,0xee,0x98,0xbe,0x9e,0x22,0x91,0xbe,0x27,0x09,0xa4,0xbe,0x64,0x39,0x8d,0xbe,0x6f,0xe7,0x20,0xbf,0x99,0x37,0x94,0x3e,0x4f,0x8b,0xcf,0x3d,0xa5,0xef,0x43,0x3e,0x54,0xef,0x0b,0xbf,0x3b,0x58,0xa8,0x3e,0x24,0xa3,0x4c,0xbd,0xec,0xd5,0x1e,0x3e,0x3e,0x61,0x96,0x3e,0x2f,0x42,0x8c,0xbe,0xd3,0xb7,0xab,0xbe,0x6a,0xcb,0xbe,0x3c,0xae,0xa1,0x12,0x3c,0x9d,0x04,0x07,0xbe,0x5c,0x3e,0xb2,0xbe,0x04,0x50,0x5c,0xbe,0x78,0xba,0x4b,0xbe,0xbf,0x32,0x00,0xbc,0x95,0x05,0xf7,0x3d,0xd8,0x6c,0x3d,0x40,0xa1,0xd9,0xf9,0x3c,0x06,0x63,0x82,0xbd,0xec,0xe2,0xa0,0xc1,0x29,0x9b,0x88,0x3e,0x74,0x8b,0x9e,0x3d,0xa4,0xe1,0x93,0xc1,0xbe,0x0b,0xfc,0x40,0x87,0x30,0x99,0x3e,0x60,0x49,0xc7,0xbe,0x28,0x86,0x02,0x3e,0x2b,0x2b,0x20,0x3f,0xdf,0x50,0x51,0x3d,0xbc,0xdf,0xa5,0xbf,0xa7,0xc3,0x3d,0x3f,0xfc,0xca,0xa3,0x3d,0x4a,0x72,0x24,0x3e,0xe6,0xbb,0x12,0x41,0x4d,0x83,0xf2,0xbe,0x90,0x70,0xaa,0x3d,0x04,0x91,0x03,0xc0,0x71,0x12,0x89,0x3f,0x8f,0xdc,0x93,0x3e,0x25,0x73,0x88,0x3e,0x1d,0xcb,0x3d,0x3d,0xcb,0xed,0x0d,0x3e,0x1c,0x38,0xcf,0xbd,0xe9,0xcb,0xca,0xbd,0x01,0xf7,0xb2,0x40,0xf5,0xb7,0x8b,0xbc,0xe3,0x91,0x9f,0x3e,0x10,0xb5,0xb6,0xbe,0x79,0xbf,0x6d,0xbe,0x8b,0x3c,0x9f,0x3e,0x7f,0x43,0x75,0x3e,0x88,0xb5,0x64,0x3e,0xbf,0xb9,0x08,0xbf,0x11,0x4a,0x88,0x3d,0x8d,0x58,0x5a,0xc1,0x13,0x76,0x8c,0x3e,0x2e,0x11,0x02,0x3f,0xd2,0x2c,0x22,0xbe,0xae,0xc6,0x15,0xbe,0x4b,0xe7,0xa7,0x3e,0x57,0x69,0x2c,0xbf,0xa5,0x14,0x8f,0xbd,0x3b,0xc7,0x84,0xbe,0x70,0xd5,0x7f,0xbe,0x39,0xf1,0x3d,0xbe,0x77,0xed,0x05,0xbe,0x48,0x61,0x57,0xbf,0x7f,0xac,0xa3,0x3e,0xe0,0xa3,0x6d,0xbf,0x8a,0xb5,0x19,0xc0,0xe7,0x57,0x1b,0xbf,0xec,0x6e,0xf8,0x3e,0x52,0xae,0x80,0x3f,0x13,0x60,0x13,0x3e,0x74,0x13,0xed,0x3e,0x5a,0x44,0x17,0x3f,0x5a,0x8a,0xc6,0xbe,0x1a,0xac,0x0e,0xbf,0xd2,0x88,0xc1,0xbe,0x2c,0x0d,0xad,0x3c,0xfa,0x3b,0xcd,0x3d,0x0d,0xd3,0xa6,0x3e,0x36,0xc7,0xa6,0x3e,0x98,0x00,0xe7,0xbd,0x1c,0x82,0x39,0x3d,0x45,0xd0,0x19,0x40,0x9e,0x6b,0x35,0x40,0x69,0xb8,0x18,0xbd,0xa1,0x2d,0x0a,0x3e,0xa3,0x08,0xe0,0x3e,0x4e,0xb7,0x6a,0xbf,0x10,0xcd,0x6e,0x3f,0xde,0x25,0xd5,0x3e,0xdd,0x4e,0x4d,0x3d,0x61,0x4a,0x1d,0x3e,0xdd,0xce,0xe9,0x3e,0x47,0xdb,0x4b,0x3f,0x5b,0x56,0x81,0xbd,0xe7,0xc7,0xdc,0x3e,0x03,0xda,0x81,0x3d,0x60,0xcc,0x32,0x3f,0xa5,0xcf,0x91,0x3d,0x8c,0x54,0x24,0xc0,0x3b,0x8a,0x07,0xbe,0x1c,0x35,0xac,0xbc,0x2d,0xed,0x9b,0x3e,0x05,0xcd,0xf7,0x3e,0xd4,0x35,0x89,0x3e,0xb1,0x25,0xe0,0x3e,0x4b,0xb6,0xe0,0xbf,0x6d,0x22,0xb9,0xbd,0x72,0x3b,0xec,0x3e,0x48,0x45,0xe4,0xbe,0xec,0x39,0x88,0xbd,0x54,0xf9,0xa0,0x3e,0x1f,0xf7,0x62,0xbf,0xdb,0x10,0x83,0x3e,0xf4,0xf8,0x94,0xbe,0xf4,0x78,0x3b,0x3d,0xe4,0x26,0x20,0xbe,0x59,0xa8,0x9c,0x3e,0x5f,0x72,0x5f,0xbe,0x37,0x9d,0x16,0xbe,0x91,0x5d,0xa3,0xbd,0x50,0x16,0x4b,0x3d,0x00,0xce,0x3d,0xbe,0x05,0xf2,0xda,0xbe,0xd4,0x98,0x6a,0x3e,0xf9,0x49,0x46,0x3e,0x92,0x35,0xbc,0xbe,0x89,0x3a,0x20,0xbe,0xfb,0x8e,0xaa,0x3e,0xb7,0xee,0xa2,0xbd,0xf8,0x2a,0xba,0x3e,0x38,0x82,0x75,0xbe,0x99,0x47,0x2a,0xbe,0x08,0xf4,0xc5,0x3d,0xa0,0xe6,0xc2,0x3e,0x29,0x98,0x7f,0x3d,0x13,0x90,0x4c,0x3d,0xff,0x91,0x58,0xbe,0xeb,0x6e,0x04,0xbf,0x51,0x41,0xff,0x3e,0x8d,0xcd,0xc7,0xbd,0x87,0x30,0xff,0x3d,0xb4,0x56,0xb3,0x3e,0x95,0xd0,0x01,0x3f,0x1a,0x4e,0x32,0xbe,0x53,0xcd,0xc2,0xbd,0x2a,0xd7,0xb5,0xbe,0x88,0x1e,0xa5,0xc0,0x59,0xac,0x7b,0xbd,0xf1,0x30,0xa9,0xbe,0xb2,0xc9,0x4b,0xbf,0x2c,0x46,0xa6,0xbe,0x61,0x1c,0x2d,0x3f,0x21,0x50,0x07,0x3e,0x90,0x56,0x9a,0x3e,0x71,0x43,0x26,0x3e,0xac,0xf1,0x4c,0x3d,0x84,0x4f,0xfc,0x3d,0x65,0x5c,0x04,0xbe,0xf6,0x35,0x76,0xbe,0xe8,0x1c,0x3b,0xbd,0xfb,0xab,0x2d,0xbe,0x9c,0x51,0x2e,0xbf,0xcc,0xf7,0xf1,0xbd,0x68,0xd4,0x7f,0x3e,0x23,0x1c,0x18,0xbe,0xd1,0x89,0x3e,0xbe,0x68,0xde,0x1f,0x3f,0x84,0xbc,0x19,0x3f,0x7c,0x64,0xb1,0x3e,0xf9,0x96,0xcd,0x3e,0xe1,0xf4,0x60,0x3d,0x32,0x94,0x6c,0xbe,0x68,0x72,0x04,0x3f,0x06,0x11,0x6f,0x3e,0x21,0xd6,0x0b,0x3e,0xf4,0xc6,0x2a,0x3f,0x2c,0x63,0x69,0x3d,0xc6,0xe4,0x66,0xbf,0x5b,0x45,0x98,0x3d,0x49,0x54,0x24,0x3e,0x20,0xef,0x41,0xbe,0xb0,0xae,0x9a,0x3f,0x61,0xf0,0x1e,0x3e,0xad,0x24,0xda,0x3d,0xa7,0xd3,0xc6,0x3d,0x22,0xb7,0x04,0x3f,0x83,0x2a,0xb0,0x3e,0x58,0xed,0x97,0x3d,0xbf,0xaf,0xe1,0xbf,0xcb,0x3e,0x0e,0x3f,0x25,0x3b,0x53,0x3e,0xf9,0xda,0x28,0xbd,0xfd,0xca,0xdc,0x3e,0x88,0xe8,0x09,0xbf,0x86,0xa7,0x2c,0x3e,0x1a,0x45,0x95,0xc0,0x49,0x9a,0x10,0x3e,0x99,0x46,0xec,0xbd,0xc2,0xdc,0xed,0x3c,0x70,0xb3,0xa2,0xbe,0xb6,0x2f,0xec,0x3e,0x8a,0x96,0x9f,0x3e,0x6c,0x1e,0x4c,0xbf,0x52,0x48,0x7e,0x3d,0x22,0xb5,0x0c,0x3e,0xe1,0xb6,0x8c,0x3d,0x7f,0xda,0xe8,0xbe,0xf9,0xb2,0x4f,0x3e,0x93,0x71,0x5a,0x3e,0x2c,0x8f,0x32,0x3e,0xc9,0x5b,0xbc,0x40,0x32,0xa9,0x9d,0x3e,0xe3,0xf2,0x1f,0xbd,0x01,0xb2,0x0c,0x3d,0xc1,0x5e,0x34,0xbd,0x3f,0xd1,0xe2,0x3e,0xc9,0x96,0x3b,0x3e,0x05,0xf0,0xf5,0xbd,0xae,0x8b,0xdc,0x3d,0x75,0xf2,0x45,0xbd,0x66,0x3e,0x86,0x3f,0xba,0x37,0xf2,0x3e,0x75,0x19,0x9b,0x3e,0xbe,0xa0,0xc1,0xbd,0xd1,0x40,0x33,0xbe,0x9b,0xa1,0x2f,0x3f,0x9e,0xe0,0x2e,0xbe,0x06,0x73,0x31,0xbe,0xed,0x62,0x1b,0xbf,0xef,0xd3,0xf1,0x3d,0xbc,0xfa,0x6c,0xbf,0x45,0xbe,0x32,0xbf,0xc6,0x1d,0x7b,0xbd,0x93,0xed,0x3a,0x3e,0x2f,0x79,0xe5,0xbe,0x30,0x08,0xe7,0xbc,0x91,0x89,0x98,0xbd,0x00,0x6b,0x89,0xbe,0xf5,0xc3,0xb4,0x3d,0x2c,0xed,0xad,0xbd,0x28,0x34,0x7b,0x3e,0xda,0xdf,0x0b,0xbf,0x26,0x58,0xb0,0xbd,0xee,0xc7,0xdb,0xbd,0xeb,0x74,0x88,0x3c,0xf8,0x8a,0xc6,0xbf,0x0a,0x93,0x5e,0xbe,0xc0,0xd3,0x08,0xbf,0xe1,0x2b,0x64,0x3e,0x89,0xe6,0x60,0x3d,0x21,0x33,0x1b,0xbe,0x5b,0x95,0xac,0x3d,0xa2,0x21,0x4e,0xbe,0x65,0x97,0x0e,0xbe,0x4c,0x3c,0x28,0xbd,0x00,0x8b,0x88,0x3d,0x76,0xbd,0xb2,0x3e,0x79,0xc2,0xe6,0x3d,0x3b,0x4d,0x52,0xbf,0xb3,0xc1,0xeb,0xbd,0xb7,0x44,0xec,0x3d,0x86,0xad,0xa8,0xbc,0x09,0xc3,0xe2,0x3c,0x49,0x35,0x52,0xbe,0xd5,0xfc,0x6e,0xbd,0x4e,0xff,0x2d,0xbe,0x52,0xa2,0xc8,0x3e,0x51,0xca,0x19,0xbe,0x6b,0x62,0x03,0xbe,0x3b,0x42,0xc5,0x3e,0x6c,0x60,0xb3,0x3e,0x37,0x89,0x80,0xbd,0x33,0x81,0xb4,0x3d,0xed,0x94,0x8e,0x3d,0x3f,0xe0,0x82,0xc0,0x7f,0x8b,0x71,0x3e,0xda,0xd8,0xb5,0x3e,0x77,0x32,0x4d,0xbf,0xa0,0x47,0x33,0x3e,0x47,0x19,0x0f,0xbf,0x18,0x86,0xaf,0x3e,0x8b,0x9e,0x61,0x3e,0x82,0x05,0xfc,0x3e,0x44,0x81,0x0d,0xbe,0xe0,0x71,0x2e,0xbe,0x76,0x5a,0x73,0x3e,0x24,0x6e,0xa1,0xbd,0x20,0x51,0x2b,0xbe,0xdb,0x9d,0xaa,0x3e,0xf8,0xf2,0x20,0xbe,0xc8,0x0c,0x56,0x3d,0x16,0xca,0xeb,0x3e,0x48,0x74,0xb4,0x3e,0x81,0x30,0x4f,0x3e,0x22,0x4b,0x2c,0x3e,0xbe,0x22,0xfe,0x3e,0x9d,0x92,0x3c,0x3c,0x91,0x9c,0x5a,0x3f,0x53,0xa2,0x1e,0x3f,0xb8,0x26,0xbd,0x3e,0x55,0x91,0xdb,0xbe,0x42,0xb4,0xa1,0x3e,0x8e,0x56,0x8a,0xba,0x49,0xb3,0x50,0xbe,0x6e,0xb7,0xd1,0xbd,0xd1,0x6e,0x40,0x3f,0xb0,0xc0,0x42,0xbe,0x6d,0x28,0x50,0xbe,0xbd,0x5e,0xb3,0x3e,0x23,0xc9,0x87,0x3e,0x7f,0xe3,0xdc,0x3e,0x61,0x09,0x61,0x3f,0x81,0x55,0x4d,0xbf,0x61,0x17,0x65,0xbc,0x7d,0x00,0xe3,0xbd,0x5c,0xd6,0xf1,0xbd,0x53,0xe2,0x8a,0x3e,0x8c,0x78,0xe2,0xbe,0xa8,0x19,0x2e,0xbf,0x56,0x8e,0x00,0x3f,0x54,0xef,0x5d,0xbe,0x5d,0xbf,0xcc,0xbd,0x19,0x82,0x84,0x3d,0x8b,0xfb,0xa1,0x3e,0x13,0x7b,0x3b,0x3e,0x28,0x8d,0xd7,0xbc,0xff,0x4e,0x25,0x3f,0xb1,0x88,0x33,0x3e,0x30,0x83,0x05,0xbf,0xae,0xb1,0xe4,0x3e,0xd8,0xe9,0x90,0x3d,0xb1,0x79,0x73,0xbf,0xa7,0x56,0x40,0xbd,0xeb,0x86,0x2d,0x3d,0x61,0x38,0x81,0x3f,0xa0,0xdb,0x91,0x3e,0x61,0xe6,0x74,0xbf,0x4c,0x8b,0x27,0x3d,0x8b,0x4e,0x3f,0xc1,0x23,0x63,0x94,0xbe,0x9a,0x9d,0x11,0xbf,0x77,0xd8,0x20,0x3f,0x19,0x1e,0x14,0xbf,0x95,0xa4,0x00,0x3f,0x2c,0x8e,0xc7,0x3d,0x53,0x98,0x0e,0x3f,0x36,0x8b,0x2a,0x3f,0xbf,0xa3,0xdf,0x3d,0xee,0x98,0xa9,0xbd,0xd2,0xc9,0x81,0xbd,0xd9,0x33,0x06,0x3f,0xd6,0x8e,0x17,0xbf,0xf8,0xcd,0x31,0x3f,0xe5,0xeb,0x81,0xbf,0xd7,0xbd,0xe0,0x3d,0x6d,0x56,0xcc,0xbd,0x1d,0x4b,0x56,0xbe,0xae,0x98,0x82,0xbd,0xcb,0x9f,0x6b,0x3f,0x65,0x0b,0x02,0x3f,0xe1,0x6a,0x74,0x3e,0xf7,0x73,0xee,0xbe,0x23,0x64,0x33,0xbf,0xab,0xad,0x0b,0x3f,0x55,0xc0,0x39,0xbd,0x41,0xfb,0x78,0xbf,0x2b,0x73,0x1f,0xbf,0xad,0xcd,0x54,0xbe,0xd8,0xb9,0x06,0x3f,0xfb,0xd4,0x8d,0xbe,0xae,0xe4,0x52,0xbd,0xcf,0x91,0x71,0xbe,0x76,0x7a,0x87,0x3e,0x61,0xf6,0xa3,0x3f,0xee,0x0f,0x48,0xbe,0x6a,0x4c,0x71,0xc0,0x2d,0x41,0xa6,0x3e,0xab,0x12,0x81,0x3d,0x17,0xe9,0x45,0x3e,0x32,0x18,0x89,0x3e,0x29,0x32,0x9d,0xbe,0x37,0xbb,0x9a,0x3c,0x0a,0x96,0x90,0x3e,0x71,0x05,0x79,0x3e,0x9e,0xec,0xd6,0x3e,0x5e,0x85,0x0f,0x3f,0x44,0x40,0x59,0xbd,0xc6,0x23,0x3b,0xbe,0x80,0x7e,0xc5,0xbd,0xda,0x06,0xaf,0xbd,0xdd,0x87,0x91,0xbf,0x35,0x70,0xb0,0xbe,0x07,0x89,0xe9,0xbb,0x31,0xb1,0x2f,0x3e,0x6a,0x1b,0x1f,0x3e,0xbe,0x28,0xb2,0xbe,0x16,0x87,0x86,0x3d,0x5a,0xac,0xb8,0xbd,0x43,0xb9,0x92,0x3e,0xa0,0xb5,0xdf,0xbe,0x3f,0xdb,0x9a,0xbe,0x10,0x60,0x8b,0xbe,0x12,0x2e,0xe3,0xc0,0x1f,0x8c,0xcd,0xbe,0x41,0x22,0x0a,0xbe,0xa4,0x14,0x45,0x3e,0x02,0x68,0x5e,0xbd,0x2f,0xf0,0x99,0xbf,0x23,0x64,0x53,0xbe,0x0d,0x67,0xe6,0x3e,0xf6,0xb8,0xe1,0x3e,0xce,0xfb,0x96,0x3c,0x9b,0x27,0xc9,0x3d,0xd1,0x07,0x8f,0xbe,0x6a,0xa2,0x87,0x3e,0x08,0xd2,0x2e,0xbe,0x90,0x80,0xfc,0x3e,0xda,0x4e,0x62,0xbf,0x11,0xd3,0xd0,0x3d,0x49,0xdf,0x4b,0x3e,0x5a,0x94,0x5f,0x3e,0xf2,0xea,0x08,0xbd,0xb2,0x89,0x00,0x3e,0x36,0xc2,0x45,0x3e,0x48,0x7f,0x3c,0xbe,0x7f,0x5b,0x3b,0x3f,0xff,0x5d,0xe6,0x3e,0x67,0x66,0x96,0x3e,0x12,0x54,0x61,0xbd,0x7c,0x49,0x4b,0xbd,0x6b,0x64,0xb1,0x3e,0x00,0x8e,0xe0,0xbe,0xb6,0x8d,0xb7,0x3e,0x61,0x43,0x8c,0xbe,0x24,0x69,0x44,0xbd,0x8f,0x4e,0x6d,0xbe,0x2b,0x30,0xc2,0x3e,0x7e,0x4a,0x0a,0xbe,0x3e,0xcb,0x2a,0xbe,0xb2,0x71,0x5e,0xbe,0xcf,0x7d,0xaa,0x3d,0x12,0xf9,0xa1,0xbd,0x03,0x48,0x17,0x3d,0x09,0xac,0x87,0x3e,0xda,0x00,0x24,0xbe,0xb6,0x65,0x34,0xbe,0x92,0x86,0xd8,0xbd,0xdf,0x45,0xd4,0x3e,0xd2,0xc7,0x95,0x3e,0x32,0xfb,0x12,0x3f,0xae,0x70,0xf0,0xbe,0xa6,0x43,0x6b,0xbe,0x8f,0x59,0x82,0xbe,0xf5,0x4c,0x3f,0x3e,0x33,0x5d,0x4c,0x3e,0x70,0xcb,0x52,0xbe,0x28,0xc7,0x89,0xbe,0xa4,0x20,0x20,0xbf,0x6c,0xbd,0x29,0x3f,0x46,0x91,0x7d,0x3e,0xe0,0x89,0xad,0x3d,0x6a,0x0f,0x52,0xbe,0x55,0x34,0x04,0x3e,0xec,0x15,0x08,0xbf,0x91,0x40,0xbe,0x3e,0x0c,0x6a,0xc7,0xbe,0xf0,0x7c,0xc4,0xc0,0x24,0x3b,0xb1,0xbe,0x1a,0x2a,0x01,0x3e,0x46,0x15,0x70,0xbf,0x7f,0xdf,0xa6,0x3c,0xef,0x54,0xb0,0xbe,0x5e,0xcb,0xf4,0xbe,0x35,0xf8,0x1b,0xbe,0xdc,0xf6,0xd5,0xbc,0x54,0xfc,0x63,0x3d,0x8b,0xff,0x4f,0xbe,0x7c,0x05,0x7b,0xbe,0xf4,0x1a,0x1c,0xbe,0x32,0xcb,0x94,0x3e,0x26,0xe5,0x05,0xbe,0x06,0x67,0x3f,0xbe,0xc3,0x0f,0x43,0xbe,0x23,0xca,0xfa,0x3d,0xa3,0xb2,0x2a,0x3d,0x9b,0x2b,0xc0,0xbd,0x94,0x05,0x9d,0x3e,0x23,0x61,0xed,0x3e,0x5c,0xf7,0x9c,0xbe,0x7c,0x4b,0x08,0x3e,0x74,0x7c,0xa2,0x3e,0xc8,0x1e,0xd3,0xbf,0x8d,0xe3,0xc8,0xbe,0x68,0xfa,0x78,0x3e,0x70,0x31,0xe6,0x3e,0xcf,0xda,0x26,0x3e,0x7d,0xe7,0x09,0xc0,0x8a,0xc3,0xdd,0x3e,0xfe,0x95,0xf9,0x3f,0xc2,0xcd,0x90,0xbd,0xa5,0xb8,0xe6,0xbe,0x7c,0x2a,0x33,0x3f,0x2f,0x39,0xea,0x3e,0x38,0x32,0xce,0x3d,0xb6,0xa1,0xc0,0xbe,0xdf,0x46,0x9a,0x3e,0x6b,0xf6,0xa0,0xbe,0x16,0xbe,0xe1,0xbe,0x6a,0xf2,0xb6,0x3d,0x4e,0x89,0x15,0xbf,0x69,0x1d,0x2c,0xbf,0x39,0x40,0xa5,0xbf,0x0b,0xf7,0x02,0xbe,0x41,0x56,0x59,0x3f,0x21,0x53,0x87,0x3e,0xda,0x7c,0x8e,0x3e,0xcd,0x5b,0x30,0xbf,0xbe,0x28,0xeb,0xbe,0x63,0x24,0xef,0x3e,0x33,0x81,0x25,0x3e,0xcb,0xdb,0xf7,0xbe,0x93,0x80,0x27,0x3f,0xcf,0xa5,0xf0,0xbe,0x49,0xea,0x93,0xbf,0x35,0x64,0xb3,0x3e,0xc0,0x37,0xa3,0x3e,0xc7,0xe8,0x24,0x3f,0xde,0xba,0x7f,0x3d,0xf4,0x3e,0x30,0xbf,0x60,0xa9,0xb3,0x3e,0x0b,0xc0,0x64,0xbf,0xe5,0x55,0x6e,0xbf,0x13,0xc7,0xc8,0xbe,0x51,0x2b,0xd4,0x3f,0xff,0xf8,0x47,0xbd,0x82,0x05,0x0a,0xbf,0x07,0xc5,0x88,0xbc,0x4f,0x55,0x9d,0x3f,0x97,0x1e,0xe7,0x3f,0xb6,0xa6,0x96,0xbd,0x16,0xa2,0xde,0xbd,0xe6,0x32,0xb7,0xbe,0xec,0xf4,0x22,0x3f,0x60,0x2b,0x3b,0xbf,0xf2,0x1d,0x6e,0x3f,0x8c,0xbf,0x43,0xbf,0x6b,0xe1,0xd6,0x3e,0xab,0x30,0x62,0xbf,0xdb,0x71,0x92,0x3e,0x03,0xc1,0x1f,0xbd,0x60,0xe7,0x6c,0x3e,0xa2,0xcd,0xa1,0xbc,0x94,0x23,0x16,0x3d,0x28,0x9b,0x34,0xbf,0xfb,0x0f,0xfb,0xbe,0xbf,0xcb,0x9c,0xbe,0x86,0x4d,0x91,0x3e,0x47,0x6c,0x84,0x3f,0xf1,0x5b,0xdb,0x3e,0xf9,0x4e,0x06,0x3f,0x05,0xd9,0x3e,0xbe,0x0b,0xb6,0x1b,0x3f,0x31,0xa3,0x5b,0x3e,0x70,0xa5,0x3c,0x3d,0x24,0x97,0xf8,0xbd,0x09,0x0d,0xcd,0x3f,0x8f,0x22,0xfe,0xbb,0xc4,0xbf,0x87,0x3f,0x7a,0x50,0x81,0x3d,0xd9,0x30,0xe5,0x3e,0xf0,0x19,0x8a,0x3e,0xc3,0x49,0xe2,0x3d,0x88,0x5e,0xb0,0x3e,0x70,0xce,0x87,0x3e,0xdf,0x1c,0xd2,0xbd,0x27,0x1a,0x7d,0xbe,0xb8,0x8f,0x7f,0x3e,0x47,0xae,0x83,0xbf,0x7c,0xd5,0xa3,0x3f,0x48,0xf9,0x72,0x3e,0xe6,0xd9,0x3e,0x3e,0xcf,0x54,0x02,0x3e,0x42,0x15,0x0e,0x3f,0xcf,0xfe,0xb4,0x3e,0x9d,0x3f,0x62,0xbc,0x9d,0x57,0x94,0x3e,0x8a,0x8a,0xfc,0xbe,0xfe,0xdc,0x25,0x3f,0xc5,0xb3,0x12,0x3e,0x31,0x26,0xa2,0x3c,0xfc,0xe8,0x1c,0x3c,0x6b,0xe9,0xe0,0x3e,0x48,0x71,0xd4,0x3e,0xa0,0x01,0x87,0x3e,0xba,0x66,0x74,0x40,0x9e,0x35,0xbe,0x3e,0xfc,0x74,0x76,0x3e,0x33,0x11,0x3a,0x3f,0xdb,0x87,0x3e,0xbf,0x14,0xac,0x03,0xbf,0xf7,0xf1,0x1d,0x3d,0x27,0x2d,0xf1,0xbd,0x26,0x79,0xa3,0xbe,0xba,0x59,0xf7,0x3e,0xab,0xdf,0x93,0x3c,0x87,0x55,0xb3,0x3c,0x4b,0xb0,0xc2,0x3e,0x46,0x3f,0xd3,0x3e,0x87,0x3d,0x8f,0x3e,0xb5,0x43,0x9e,0x3e,0xa9,0x12,0x92,0xbe,0x4a,0x3f,0x01,0xbf,0x07,0x96,0x31,0xbf,0x87,0x41,0xa2,0x3c,0xe9,0x31,0x78,0x3d,0x79,0x84,0xb3,0xbe,0x58,0x21,0x5b,0x3e,0x1c,0xe3,0x6b,0xbf,0x52,0x44,0xae,0xbc,0xb6,0x02,0x07,0x3e,0x3a,0x4f,0x57,0x3e,0x3a,0xb6,0x6d,0x3e,0x5e,0x3a,0xb9,0x3e,0x1d,0xa6,0x62,0x3f,0x3f,0x8e,0x99,0x3d,0x59,0x96,0x88,0xbe,0xe8,0xab,0x33,0x3f,0x96,0x6c,0x9a,0x3e,0x00,0x32,0x12,0x3e,0x74,0xc1,0x6e,0x3f,0x4f,0xcf,0xeb,0xc0,0x3d,0xc3,0x2c,0x3e,0xef,0xe3,0x22,0xbe,0x03,0xa4,0xe4,0x3e,0x10,0x45,0xe1,0x3e,0x44,0x54,0x00,0xbe,0xd6,0xc3,0x9b,0x3e,0xf7,0x38,0x19,0x3f,0x55,0x97,0xf7,0x3d,0x1b,0xda,0x34,0xbe,0xd9,0xb9,0x0b,0x3e,0x0c,0x3f,0xb0,0x3d,0xae,0x9a,0xa6,0xbe,0xab,0xf8,0xf2,0xbf,0x0a,0xa7,0x25,0x40,0x8a,0xfe,0x48,0xbe,0xd2,0xe1,0x89,0xbe,0xe7,0x23,0xa4,0xbe,0xbd,0x96,0xe1,0x3e,0xda,0x09,0x23,0x40,0xcc,0x90,0x00,0xbf,0x4d,0x2a,0x05,0x3f,0xf8,0xa8,0x2c,0xbe,0x9e,0x0e,0x4d,0xbf,0x1d,0x9d,0xdb,0xbe,0x5a,0x17,0xdb,0x3e,0x17,0x17,0x94,0x3e,0x52,0x83,0x62,0x40,0x89,0x86,0x51,0x40,0xc5,0xf7,0xa9,0x3c,0xdd,0x83,0xa3,0x3d,0x1e,0x45,0xe5,0xbe,0x73,0x91,0x41,0xc0,0xa8,0x05,0x4c,0xbf,0x85,0xed,0xfc,0x3b,0x8e,0xa3,0x21,0xbf,0x4f,0xe9,0x62,0xbe,0x0e,0x3d,0x3e,0x3e,0xc8,0x08,0x46,0x40,0x3a,0x2f,0xa4,0x3e,0x42,0x73,0x05,0xbd,0x53,0x15,0xcf,0x3e,0xb5,0x70,0x60,0xbe,0xab,0x73,0x18,0x3f,0x7e,0xeb,0xe7,0x40,0x62,0x55,0x83,0x3f,0x4c,0x70,0xa6,0xbf,0xde,0xcc,0x1d,0x3e,0xf0,0xe7,0xed,0xbe,0x8a,0x8f,0x10,0xbf,0x49,0x82,0xa6,0x3d,0x70,0x59,0x30,0x3f,0xef,0x7d,0x9a,0xbe,0x2a,0x47,0xc4,0x3e,0x3d,0x85,0xdf,0x3e,0x80,0xe6,0xea,0xbf,0xc5,0x4f,0x88,0x3f,0x32,0x3f,0xb5,0x3e,0xa5,0x1a,0x8d,0x3d,0x7f,0x9c,0xd4,0xbe,0xee,0xcd,0x73,0x3c,0xf0,0x35,0xb8,0x3e,0xc2,0x14,0xb3,0x3e,0xe0,0x0b,0x1e,0x3f,0x7f,0x39,0x0f,0x3e,0x8d,0xe3,0x9f,0xbf,0x6a,0x4c,0x67,0x3e,0x74,0x23,0xd6,0x3e,0xd2,0x9d,0x45,0x3f,0xaa,0x10,0x8e,0x3e,0xc2,0xfe,0x66,0xbe,0xae,0x62,0x52,0x3d,0x1e,0xa8,0xc8,0x3d,0x88,0x51,0xbe,0x3e,0xf4,0x67,0x1e,0x3e,0x25,0x2b,0x06,0x3e,0x82,0x46,0xfb,0x3d,0x62,0x4e,0x41,0x3e,0xba,0x0a,0xa9,0x3e,0xc4,0x78,0x26,0x3d,0x7c,0x85,0x81,0xbf,0xc1,0xc8,0xf1,0xbe,0x51,0xaf,0x87,0x3d,0x65,0xf2,0x1a,0x3e,0x03,0x1e,0x71,0x3d,0x48,0xd0,0xad,0xbf,0x4b,0xd2,0x18,0xbe,0x19,0x16,0x68,0x3f,0x30,0x20,0xfb,0x3e,0xf3,0xc1,0x30,0xbe,0x67,0x17,0x86,0xbf,0xb7,0x63,0x48,0x3e,0x22,0xe7,0x5c,0xc0,0x75,0x79,0xa5,0xbe,0xee,0x9b,0x39,0xbf,0x28,0xf1,0xe9,0x3f,0x2d,0x00,0x96,0xbf,0xca,0xf6,0x84,0xbf,0xc0,0xa5,0xc2,0x3b,0x65,0xf3,0x7e,0xbd,0x2b,0x06,0x4e,0xbf,0x89,0x66,0xae,0xbe,0x0b,0xd6,0x51,0x3d,0x69,0x3a,0xbd,0xbe,0xa0,0x1b,0x91,0x3e,0x73,0x23,0x87,0xbf,0x3e,0xb5,0xd0,0xbc,0x45,0x06,0xa6,0x3e,0x93,0xac,0x11,0x3f,0xac,0x92,0x9a,0xbe,0x49,0x73,0x9e,0xbe,0xce,0x6d,0xa1,0xbe,0xc0,0x12,0x54,0x3f,0xff,0x65,0x9d,0xbd,0x89,0xce,0x1e,0xbe,0x6c,0xe5,0x0e,0xbf,0x13,0x0a,0x26,0xbf,0x80,0xde,0x11,0xbe,0x08,0x2c,0xba,0xbd,0x59,0xc0,0x31,0xbd,0xa1,0xbd,0x0a,0xbe,0xc3,0xcf,0x3c,0xbe,0x74,0x90,0x63,0x3e,0x9f,0x21,0xeb,0xbd,0x30,0x08,0x4f,0x3e,0x04,0xcb,0x4f,0xbe,0x90,0x75,0xcc,0xbd,0xea,0xdb,0x45,0x3e,0x3c,0xff,0xda,0x3d,0x65,0x74,0x07,0x3e,0xe0,0xff,0xc2,0xbd,0x9b,0x7e,0x30,0x3e,0x40,0x73,0x2a,0xbd,0xe0,0x36,0xe3,0x3c,0xeb,0x22,0x28,0x3b,0x60,0xaa,0xa1,0xbd,0x10,0x95,0x76,0xbd,0xd8,0x73,0x5a,0x3e,0xfe,0x63,0x0a,0x3c,0x28,0xcd,0x20,0xbe,0x9d,0x28,0x2a,0xbc,0x9b,0xc5,0x45,0x3e,0x72,0xfe,0xd1,0xbd,0xe4,0xa9,0x03,0xbe,0xbd,0xc2,0x74,0xbc,0x10,0xd3,0x56,0x3d,0x15,0xa5,0x8f,0xbd,0xb1,0x1c,0x82,0xbe,0xb0,0xac,0xdc,0x3d,0x48,0xf0,0x52,0x3e,0x04,0x97,0xee,0x3d,0x2a,0x3d,0x0c,0x3c,0x24,0xf8,0x18,0xbe,0x96,0xa1,0xd5,0x3d,0xbc,0x15,0x3a,0xbe,0x61,0x34,0x40,0xbe,0x28,0x19,0xdc,0xbd,0x8b,0xe0,0x44,0xbe,0x70,0x15,0x2d,0x3b,0x7e,0x49,0x13,0x3c,0x93,0xc1,0xb0,0xbd,0xb0,0xb5,0x81,0xbe,0x75,0x7b,0xff,0x3d,0x88,0xee,0x54,0x3e,0xed,0xe8,0xe4,0x3d,0xf4,0x9f,0x73,0xbe,0xa5,0x57,0x22,0x3e,0x45,0x49,0xa2,0x3d,0xbd,0xc6,0x69,0xbe,0x0a,0xf3,0x49,0xbe,0x1e,0xdd,0x80,0xbe,0x91,0xbf,0xd4,0x3d,0x74,0xc5,0x34,0xbc,0x0e,0x86,0x18,0xbe,0xfb,0x5f,0x92,0xbd,0x40,0xb4,0x63,0xbe,0x86,0x6f,0xc2,0x3b,0xa2,0xda,0x55,0xbd,0xb1,0xd9,0xe4,0x3b,0x96,0x3b,0x47,0xbe,0xd0,0x54,0x4c,0xbe,0x06,0x38,0xd3,0x3e,0x92,0xb3,0x4f,0xbe,0x27,0x80,0x23,0xc0,0xf6,0x62,0xe0,0xbe,0x84,0x83,0xee,0xbe,0xb4,0xd4,0xc7,0x3e,0x63,0x4e,0x63,0xbf,0x9f,0x3e,0x9d,0xbe,0x10,0xab,0x51,0xbd,0x5d,0x45,0xef,0x3e,0xc4,0x24,0x5d,0xc0,0x27,0x61,0xa0,0x3e,0x91,0xf9,0x06,0xc2,0x7f,0x40,0xeb,0x3d,0x02,0x32,0xfb,0xbd,0x88,0x6e,0x01,0xbe,0xda,0xc9,0xf4,0xbd,0xf5,0x74,0x5a,0xbf,0xd8,0xf7,0x51,0xbd,0x9d,0xbb,0x3a,0x3d,0xca,0x96,0xd0,0x3d,0xb5,0x24,0x24,0xbe,0xe5,0xdd,0xda,0x3e,0x1e,0x1a,0x68,0xbf,0x03,0x0a,0x1e,0xbe,0xd0,0x47,0xb8,0xbd,0xea,0x6a,0x67,0x3d,0x75,0xcb,0xe5,0xbf,0xc6,0xa1,0x4b,0xbe,0xd7,0xd9,0x0b,0xbe,0xc0,0xe4,0x92,0xbe,0x34,0xb8,0x41,0x3e,0x29,0x26,0xbc,0xbe,0xf5,0x8b,0x8d,0x3e,0x00,0x86,0x0f,0x3f,0x76,0x95,0xae,0x3e,0xab,0x9e,0xad,0xbe,0xa1,0x27,0xb4,0xbe,0xdd,0x70,0xce,0x3e,0x31,0xb1,0xd2,0xc0,0x5b,0xee,0x01,0xbe,0x8a,0xa3,0x14,0xbf,0xee,0x2c,0x6f,0x3e,0xa3,0xc6,0xa1,0x3e,0xe5,0x3a,0x5d,0xbf,0x97,0xf4,0x69,0x3d,0xea,0x94,0x57,0x3d,0x49,0x1b,0xbc,0x3e,0x17,0x8d,0xb3,0xbd,0xd2,0x03,0xa9,0x3c,0xc4,0x8a,0x5b,0xbe,0xff,0x4b,0xa4,0xbd,0x40,0x2d,0x46,0xbe,0x4b,0x29,0x9c,0x3e,0x3d,0xb1,0x56,0xbf,0xc0,0x8f,0xba,0x3e,0x4e,0x78,0x37,0x3e,0x7b,0xaa,0xb5,0x3e,0x0e,0x51,0x16,0xbe,0x5d,0x57,0x70,0x3e,0x2f,0x1d,0x47,0x3e,0xac,0xbc,0xcc,0x3c,0xfd,0xaf,0x47,0x3e,0x00,0x42,0x4c,0x3e,0x89,0x47,0x9e,0x3e,0x75,0x34,0xa2,0xbd,0x35,0x61,0x87,0xbe,0xee,0xaa,0x1f,0x3e,0x7b,0x92,0x7a,0xbd,0x5c,0x75,0x7c,0xbe,0xac,0x53,0xa3,0x3c,0xd2,0x97,0x41,0x3e,0x39,0x28,0x0a,0xbd,0x36,0xd6,0x1c,0xbe,0x50,0x36,0x95,0xc0,0xef,0x05,0xc5,0x3e,0xef,0xb9,0xa4,0xbf,0xcc,0xb9,0xdc,0xbe,0x86,0xef,0xb2,0xbd,0xde,0x93,0xbb,0x3b,0xa3,0x06,0xb8,0x3d,0x84,0x30,0x64,0x3e,0xd3,0x04,0x41,0xbb,0xae,0x52,0x3f,0xbe,0xf8,0xe1,0xd8,0x3d,0xbd,0x70,0xa7,0x3d,0x0b,0xa0,0xff,0xbe,0x40,0x25,0xae,0xbe,0xfe,0x3b,0x1a,0x3e,0xcf,0x5c,0xc7,0x3e,0x24,0xc0,0xc5,0x3d,0x40,0x7a,0x5e,0x3e,0xb8,0x56,0x90,0x3e,0x6b,0x00,0xa4,0xbe,0x69,0x8b,0x11,0x3f,0x7d,0x4c,0x45,0x3e,0x7d,0x07,0x5e,0x3e,0xe0,0x97,0xe4,0x3e,0xa8,0x4e,0x83,0x3e,0x62,0xa5,0x0b,0x3c,0x22,0x86,0x83,0x3f,0x48,0xea,0xfb,0x3e,0x99,0x35,0xd5,0x3e,0xc9,0xc9,0x58,0x40,0x31,0xd1,0xb0,0x3e,0xc5,0x01,0x11,0x3f,0x60,0xe1,0xa8,0xbd,0x45,0xaa,0x19,0x3f,0xa2,0xe6,0xd0,0x3f,0x9a,0xd9,0x4e,0x3e,0x3a,0x51,0x57,0xbe,0x0f,0x36,0x51,0xbf,0x3c,0xcb,0xb7,0x3e,0x06,0xe7,0xd8,0xbd,0x75,0xff,0xcd,0x3e,0x71,0xd0,0x9d,0xbd,0x47,0x9c,0xb6,0x3e,0x2a,0xa4,0xc4,0xbe,0x87,0xc7,0x55,0x3f,0xcd,0xbd,0xf4,0x3d,0x65,0x09,0xd1,0x3e,0x57,0x0c,0xcf,0x3e,0xbf,0x5e,0x9b,0x3d,0x7c,0xbe,0x95,0xbd,0xa6,0x52,0x3b,0xbe,0x3a,0x46,0x03,0x3f,0x1a,0xab,0xf7,0x3e,0x2c,0x83,0x2c,0xbe,0xc7,0xeb,0x6e,0x3e,0xa2,0x04,0x7a,0xbe,0x1c,0x52,0x7d,0x3e,0xa1,0x85,0x27,0x3f,0xc8,0xe0,0xec,0xbe,0x53,0xc6,0xf4,0xbc,0x90,0xcd,0x4a,0xba,0x85,0x72,0xdf,0xbe,0xf8,0xb7,0xf8,0xbe,0x29,0x21,0x20,0x3e,0x7c,0xba,0x32,0xbd,0xe2,0x0b,0x10,0xbf,0x5a,0xc6,0x88,0xbd,0xea,0x5e,0xa3,0x3c,0x24,0x60,0x84,0x3e,0xee,0x04,0xc0,0x3e,0xcc,0x98,0x15,0x3e,0xc8,0xac,0x0e,0x3e,0x96,0x3e,0xdc,0xbe,0xd6,0x49,0x30,0x3e,0xf5,0xc4,0xa7,0x3e,0xaf,0x1d,0xba,0x3e,0x63,0xfc,0xb9,0x3e,0x1f,0xd9,0x6b,0xbe,0x87,0x65,0x6a,0xbe,0xb8,0xfc,0x2b,0x3e,0x8b,0xb9,0x87,0xbb,0x6f,0x07,0x32,0x3e,0xd1,0x7e,0x94,0x3e,0x17,0x6c,0xb2,0xbe,0x8a,0x35,0x1a,0xbf,0xa5,0x06,0x0a,0x3f,0x85,0xa5,0xe5,0x3d,0x89,0x07,0x90,0xbe,0x46,0xfb,0x6b,0xbe,0x06,0x6c,0xf2,0x3c,0x54,0x21,0xc5,0xbe,0x8e,0xb2,0x00,0x3f,0xbb,0x5a,0x20,0xbe,0xee,0xe8,0x54,0xc0,0x2f,0xe3,0x0e,0xbe,0x41,0x29,0xfb,0x3e,0xa9,0x97,0x69,0xbf,0x31,0x50,0xbe,0x3d,0x5f,0x68,0x5a,0xbf,0x2a,0x8f,0x36,0xbe,0x7d,0x01,0x9b,0xbe,0x54,0xb3,0x22,0xbe,0x05,0x2f,0xeb,0x3e,0xd7,0xe0,0x89,0xbd,0x95,0x2f,0x72,0xbe,0x70,0xdc,0x9a,0xbe,0x3b,0x1d,0xaa,0x3e,0x89,0x05,0x57,0xbd,0x3c,0xf7,0x03,0x3d,0x7b,0xfd,0x01,0xbe,0x5c,0xd1,0x94,0x3e,0xbe,0xd5,0xc7,0xbe,0x81,0xcc,0x99,0x3e,0x80,0x6f,0x2e,0x3e,0x02,0x25,0x16,0x3f,0x93,0x7b,0x26,0x3d,0x0d,0x07,0x8b,0x3e,0x0e,0x6c,0x15,0x3f,0xef,0x60,0x61,0xbe,0x91,0xcf,0xeb,0x3e,0x03,0x14,0x20,0xbe,0x8a,0x12,0x66,0x3d,0x1c,0x91,0x1b,0xbc,0x2d,0xf6,0xb8,0xbe,0xef,0x56,0xcb,0x3e,0xd8,0x97,0x0d,0xbc,0x65,0x0b,0x5c,0x3e,0x46,0x83,0xc5,0x3b,0xd1,0x25,0x76,0xbf,0xcf,0xf0,0x5e,0x3e,0xd0,0xca,0x9c,0xbe,0x76,0x5a,0xb0,0x3e,0x0d,0x22,0x0f,0x3e,0x22,0x97,0xbd,0xbe,0x96,0xa1,0xb8,0x3e,0x70,0x9d,0xc6,0x3d,0x0e,0xee,0x1f,0x3e,0x59,0xfd,0x29,0x3e,0x16,0x47,0x3a,0xbe,0xef,0x65,0xac,0xbe,0x46,0xe2,0x40,0xbe,0x8f,0x55,0x39,0x3e,0x6a,0x4f,0x01,0x3e,0x77,0xda,0xa1,0xbd,0x31,0x9e,0xbc,0x3e,0xb4,0x16,0xe0,0xbe,0x67,0x5f,0xb2,0x3e,0x9d,0x80,0x0f,0x3f,0x78,0x13,0xa5,0x3e,0x0a,0xe2,0x4c,0x3e,0xe4,0x9d,0x57,0x3f,0xbd,0x9f,0x0b,0xc0,0xc9,0x07,0x0c,0xbe,0xea,0xdb,0x9b,0x3e,0xb5,0xb8,0xde,0x40,0x13,0x34,0xf2,0x3e,0xb7,0x80,0x8a,0xbe,0x37,0x5e,0x3c,0x41,0x47,0xed,0x7f,0xc0,0xb4,0x73,0x26,0x3f,0x1e,0xb2,0x80,0xbd,0x92,0xa9,0x28,0xbe,0x4b,0x07,0x95,0xbf,0x4f,0x0d,0xa0,0xbf,0xdf,0xf7,0x8d,0xc0,0x12,0x7b,0xfa,0x3e,0x3e,0x63,0xf2,0x3e,0x36,0xfa,0x5b,0xbe,0xca,0x31,0x0b,0xc0,0xa0,0xa1,0x16,0xbe,0x56,0x1d,0x44,0x3f,0xbf,0x5f,0xaf,0xbf,0xed,0x60,0xf7,0x3e,0x5c,0xf3,0x11,0xbf,0x05,0x6d,0x78,0xbc,0x9e,0xb3,0x16,0x3e,0x4e,0xb5,0xe2,0x3e,0xfb,0x30,0xd4,0xbe,0x44,0xae,0x53,0x3e,0xdb,0x17,0x85,0xc0,0xfb,0xd7,0xb3,0xbd,0xe4,0x29,0x18,0x3f,0x56,0x85,0x85,0xbe,0xd8,0x21,0x06,0x3e,0xf7,0x3c,0x0d,0xbd,0x66,0xd3,0x0f,0xbc,0xcf,0x7f,0x64,0xbe,0xa4,0x3c,0x37,0x3d,0x9c,0x1e,0x82,0xbe,0x99,0x97,0xc8,0xbd,0x6d,0xdd,0x9d,0x3d,0xd8,0x7a,0x24,0x3e,0x50,0xf4,0xdd,0x3c,0x9c,0x06,0x81,0xbe,0x96,0xfb,0x24,0xbe,0x7a,0x49,0x3f,0xbd,0xaf,0x92,0xf0,0xbd,0xea,0xf6,0x28,0xbe,0xe8,0x6c,0x16,0x3e,0x1e,0x8b,0x48,0x3e,0xa9,0x0d,0x10,0x3e,0xfb,0xf0,0x44,0xbe,0x71,0x2a,0x81,0xbe,0x67,0xc4,0x08,0x3e,0xa3,0x16,0xf7,0x3d,0xca,0x6d,0x22,0x3e,0xd8,0x47,0x4d,0xbe,0x85,0xfb,0x6e,0xbe,0x30,0xd6,0x34,0xbe,0x1c,0x4a,0x7a,0xbe,0x57,0x1f,0x7f,0xbe,0x5a,0xee,0xc5,0xbd,0x98,0xc9,0x40,0x3e,0x73,0x4e,0x72,0xbd,0xb3,0xcd,0x84,0xbd,0xf1,0x70,0x81,0xbe,0xbc,0xe9,0x41,0x3d,0xd5,0x58,0x39,0x3e,0x3c,0xce,0x01,0xbd,0xd9,0x1a,0xe9,0x3d,0x38,0x65,0x81,0xbd,0xa5,0x1b,0x46,0x3c,0xf0,0xc6,0xda,0x3d,0x43,0x87,0x86,0xbd,0xba,0xf7,0x80,0x3d,0x26,0xed,0x90,0xbc,0xf3,0x52,0x0a,0x3e,0xa8,0x13,0xae,0x3d,0x7a,0x9b,0xda,0xbc,0x24,0xd7,0x74,0xbe,0x0a,0x8d,0xa1,0x3d,0xa1,0xc7,0x09,0xbe,0xad,0x4b,0x02,0xbe,0x9c,0x60,0x94,0xbe,0xbc,0x36,0x69,0xbe,0x7c,0xf7,0xc4,0x3d,0xc2,0xad,0x1c,0x3e,0xc8,0xce,0x29,0xbe,0xb0,0xfc,0x4b,0x3e,0xc3,0x85,0x28,0xbe,0x09,0x3e,0x95,0xbe,0xa7,0x7b,0x34,0xbd,0x44,0xed,0x85,0x3d,0x22,0x7a,0x94,0x3c,0x00,0x45,0x93,0x3d,0xbc,0x36,0x5b,0x3e,0x06,0x0a,0xed,0xbd,0x48,0x00,0xc8,0xbc,0xff,0x58,0xa4,0xbd,0xad,0x69,0x4c,0xbe,0xfa,0x6e,0x1d,0xbd,0x76,0x18,0xed,0x3d,0x5f,0xc8,0xa5,0x3c,0x87,0x0b,0xae,0xbc,0x46,0x72,0x28,0x3e,0x87,0xed,0x8c,0xbe,0xc8,0x51,0xe8,0x3d,0x29,0x38,0xdc,0xbd,0x16,0xc8,0x35,0xbd,0xd9,0x2f,0xa0,0xbe,0x84,0x93,0x9d,0xbd,0x3b,0x6d,0xe2,0xbc,0x4a,0xbf,0x84,0xbd,0x94,0xd0,0x41,0xbd,0x41,0x59,0x25,0xbd,0x4a,0x3c,0x59,0xbd,0x21,0xac,0x27,0x3e,0x50,0x13,0x16,0xbd,0xec,0x07,0x08,0x3e,0xd7,0x8d,0x92,0xbd,0x20,0xc1,0xbd,0xbc,0x5a,0xc3,0x08,0x3e,0xc8,0xa5,0x6d,0xbe,0x2d,0x39,0x2e,0x3e,0x83,0x38,0x0d,0xbe,0x40,0x34,0x05,0x3e,0xdb,0x8a,0x5a,0x3b,0x66,0xf5,0x24,0x3c,0x76,0x49,0x6d,0xbe,0x45,0xbb,0x88,0xbe,0xdd,0x67,0x7d,0xbe,0x8b,0x85,0x62,0xbe,0xd0,0xe5,0x11,0xbe,0x90,0x30,0x27,0x3e,0x8c,0x12,0x01,0xbd,0x43,0xe1,0xb0,0xbc,0xc0,0x23,0x40,0xbd,0xe3,0x22,0x31,0xbe,0x12,0xc2,0x80,0xbe,0x3d,0xd7,0x3f,0xbd,0x0c,0x31,0xff,0x3c,0xf0,0x63,0x75,0xbe,0xba,0xc7,0x8d,0xbe,0xe0,0x6e,0xbc,0x3a,0xf1,0x30,0x09,0x3e,0x41,0xfd,0x48,0xbd,0x6b,0xe9,0x80,0xbe,0x93,0x72,0x93,0x3d,0x4c,0xcd,0xc9,0xbd,0x4b,0xdb,0xf4,0xbd,0xcb,0x24,0xd0,0xbc,0xe2,0x87,0xf2,0x3c,0x37,0x6b,0x1a,0x3e,0x05,0xe8,0x5a,0xbe,0x90,0x23,0x8f,0xbe,0x19,0x3d,0xa8,0xbd,0x62,0xcd,0x87,0xbe,0x00,0xf6,0x87,0xbe,0x38,0x97,0xa0,0xbd,0x76,0x08,0x92,0xbe,0x5a,0xfd,0xff,0xff,0x04,0x00,0x00,0x00,0x00,0x01,0x00,0x00,0x6f,0x7d,0xa4,0x3e,0x5e,0xbe,0x2b,0xbd,0x3c,0xf0,0xd4,0x3e,0x35,0xb2,0x96,0x3e,0xea,0x92,0xab,0x3d,0x1d,0xa7,0xd5,0x3d,0x69,0x34,0x31,0x3e,0xfb,0xef,0xd8,0xbe,0x6d,0xbc,0x38,0xbf,0xca,0x93,0x95,0xbe,0x61,0x9b,0x69,0xbe,0xf2,0x73,0x7e,0x3f,0x1f,0x63,0x6c,0xbe,0xb0,0x5c,0x5c,0xbe,0x2b,0x6c,0x41,0x3e,0x79,0x25,0x1c,0x3f,0x65,0x42,0xa0,0x3e,0x34,0x26,0xc6,0xbc,0xc5,0x2b,0x1c,0x3e,0x61,0x8a,0xbb,0xbe,0x5d,0x1a,0x57,0xbe,0xfa,0x30,0x41,0xbe,0xdf,0xb2,0x60,0x3e,0x32,0x68,0x1d,0xbe,0x96,0x6b,0xaa,0x3f,0xc5,0x96,0xa5,0x3e,0xc0,0xbc,0x47,0xbe,0x04,0x9f,0x84,0x3e,0xc7,0x87,0xae,0x3e,0x54,0x1c,0x1f,0xbe,0xfe,0x2b,0xb0,0xbe,0x3d,0xda,0xaf,0x3e,0x92,0xe9,0x5a,0x3e,0x17,0x34,0x68,0x3f,0xb6,0x5e,0x06,0x3f,0x2b,0x73,0x58,0x3f,0xcf,0x1c,0xfd,0xbe,0x64,0xc9,0x93,0xbd,0x28,0xa5,0x6a,0x3f,0x8b,0x0a,0xae,0xbe,0x83,0xad,0x21,0x3f,0x47,0x61,0xae,0xbe,0x10,0xab,0xb9,0xbe,0xa4,0x0b,0xc7,0xbc,0x9b,0xa2,0x80,0x3f,0xc8,0x25,0xed,0xbf,0xf4,0x12,0x7f,0x3f,0x4e,0x48,0x19,0xbe,0xdf,0x51,0x32,0x3f,0x8d,0xba,0xae,0xbe,0x7c,0xf1,0xa5,0x3f,0x16,0x07,0x5d,0xbf,0x06,0xc0,0x89,0xbe,0x84,0xaa,0x32,0x3f,0x3b,0x66,0x0e,0x3f,0xc2,0xc2,0x21,0x3f,0xae,0x53,0x92,0xbe,0x34,0x40,0x7a,0xbe,0x8d,0x90,0x79,0xbf,0xb9,0x98,0x00,0x3f,0x3b,0x79,0xf7,0xbe,0x47,0x40,0x58,0x3f,0x24,0x3a,0xb7,0x3d,0x18,0xe6,0xac,0x3e,0x66,0xfe,0xff,0xff,0x04,0x00,0x00,0x00,0x80,0x00,0x00,0x00,0x00,0x00,0x00,0x00,0x00,0x00,0x00,0x00,0x00,0x00,0x00,0x00,0x00,0x00,0x00,0x00,0x00,0x00,0x00,0x00,0x00,0x00,0x00,0x00,0x00,0x00,0x00,0x00,0x00,0x00,0x00,0x00,0x00,0x00,0x00,0x00,0x00,0x00,0x00,0x00,0x00,0x00,0x00,0x00,0x00,0x00,0x00,0x00,0x00,0x00,0x00,0x00,0x00,0x00,0x00,0x00,0x00,0x00,0x00,0x00,0x00,0x00,0x00,0x00,0x00,0x00,0x00,0x00,0x00,0x00,0x00,0x00,0x00,0x00,0x00,0x00,0x00,0x00,0x00,0x00,0x00,0x00,0x00,0x00,0x00,0x00,0x00,0x00,0x00,0x00,0x00,0x00,0x00,0x00,0x00,0x00,0x00,0x00,0x00,0x00,0x00,0x00,0x00,0x00,0x00,0x00,0x00,0x00,0x00,0x00,0x00,0x00,0x00,0x00,0x00,0x00,0x00,0x00,0x00,0x00,0x00,0x00,0x00,0x00,0x00,0x00,0x00,0x00,0xf2,0xfe,0xff,0xff,0x04,0x00,0x00,0x00,0x00,0x01,0x00,0x00,0xaa,0x63,0x0e,0xbf,0x9c,0x24,0x11,0x3f,0x1c,0x5e,0x2d,0xbe,0xb6,0x58,0xa6,0xbe,0xb8,0x6c,0x1e,0x3f,0x23,0x5c,0xee,0xbe,0x09,0x0a,0xcc,0x3e,0x98,0xc6,0xcd,0xbe,0x6c,0xd7,0xae,0xbe,0x60,0xcf,0x5d,0xbf,0x70,0x1a,0x10,0xbf,0x56,0x1c,0x0d,0x3f,0x39,0x5e,0x45,0x3f,0x20,0xf4,0x10,0xbe,0x7a,0xef,0x63,0xbf,0xfa,0x0f,0x0e,0x3e,0x65,0xb3,0xc7,0xbe,0xb2,0x10,0x07,0xbf,0xb5,0x1e,0xde,0xbd,0xcc,0x77,0xe2,0x3d,0xdb,0x70,0x8b,0x3f,0xc2,0x82,0x2f,0xbf,0x6f,0xcb,0x25,0xbe,0xfd,0x43,0x47,0x3f,0xc1,0xdc,0x58,0x3f,0x59,0x25,0x49,0xbf,0x2f,0x69,0x88,0xbd,0xd6,0xaf,0x98,0xbd,0x9d,0xc0,0x03,0x3d,0x72,0x45,0x31,0xbf,0x46,0xc0,0x6e,0x3e,0xb1,0x92,0x07,0xbf,0x70,0x13,0x47,0xbc,0xa8,0x63,0x43,0x3c,0xf9,0xb8,0x04,0x3e,0x4c,0x67,0x4c,0xbd,0x36,0x7b,0xf0,0xbe,0xed,0x86,0x26,0xbf,0xa8,0xb1,0xf2,0xbb,0x59,0xc8,0x25,0x3c,0x35,0x67,0xae,0xbe,0xfe,0x9c,0xb2,0x3e,0x3f,0x21,0x0a,0xbe,0x8b,0x75,0xe9,0xbe,0x2b,0x33,0x34,0xbf,0xce,0x57,0x2d,0x3f,0xd4,0x4f,0x33,0x3f,0x4c,0x54,0x9c,0xbe,0xa7,0x6f,0x9a,0x3d,0xce,0x06,0x54,0x3d,0x67,0xeb,0x1a,0xbb,0x8e,0xb2,0x84,0x3b,0xdd,0xa4,0x79,0xbc,0xd6,0xc0,0x2f,0x3c,0xa3,0x37,0x02,0x3f,0x43,0x98,0x01,0xbf,0x42,0x33,0x94,0x3e,0xfc,0xc6,0x0a,0xbe,0xf6,0x4e,0x7f,0xbe,0x1b,0x47,0x01,0xbf,0xb2,0x8f,0xcd,0x3e,0x2c,0x13,0xc6,0x3e,0x9e,0x0f,0x9b,0xbe,0x76,0xd9,0xd5,0x3e,0x00,0x00,0x06,0x00,0x08,0x00,0x04,0x00,0x06,0x00,0x00,0x00,0x04,0x00,0x00,0x00,0x0c,0x00,0x00,0x00,0xff,0xff,0xff,0xff,0x02,0x00,0x00,0x00,0x20,0x00,0x00,0x00,0x38,0xf7,0xff,0xff,0x3c,0xf7,0xff,0xff,0x0f,0x00,0x00,0x00,0x4d,0x4c,0x49,0x52,0x20,0x43,0x6f,0x6e,0x76,0x65,0x72,0x74,0x65,0x64,0x2e,0x00,0x01,0x00,0x00,0x00,0x14,0x00,0x00,0x00,0x00,0x00,0x0e,0x00,0x18,0x00,0x14,0x00,0x10,0x00,0x0c,0x00,0x08,0x00,0x04,0x00,0x0e,0x00,0x00,0x00,0x14,0x00,0x00,0x00,0x1c,0x00,0x00,0x00,0xcc,0x01,0x00,0x00,0xd0,0x01,0x00,0x00,0xd4,0x01,0x00,0x00,0x04,0x00,0x00,0x00,0x6d,0x61,0x69,0x6e,0x00,0x00,0x00,0x00,0x07,0x00,0x00,0x00,0x84,0x01,0x00,0x00,0x24,0x01,0x00,0x00,0xec,0x00,0x00,0x00,0xa0,0x00,0x00,0x00,0x78,0x00,0x00,0x00,0x3c,0x00,0x00,0x00,0x04,0x00,0x00,0x00,0x02,0xff,0xff,0xff,0x14,0x00,0x00,0x00,0x00,0x00,0x00,0x08,0x10,0x00,0x00,0x00,0x14,0x00,0x00,0x00,0x04,0x00,0x00,0x00,0xc8,0xf7,0xff,0xff,0x01,0x00,0x00,0x00,0x11,0x00,0x00,0x00,0x03,0x00,0x00,0x00,0x10,0x00,0x00,0x00,0x04,0x00,0x00,0x00,0x08,0x00,0x00,0x00,0x36,0xff,0xff,0xff,0x14,0x00,0x00,0x00,0x00,0x00,0x00,0x08,0x14,0x00,0x00,0x00,0x18,0x00,0x00,0x00,0x04,0x00,0x00,0x00,0xa2,0xff,0xff,0xff,0x00,0x00,0x00,0x01,0x01,0x00,0x00,0x00,0x10,0x00,0x00,0x00,0x03,0x00,0x00,0x00,0x0f,0x00,0x00,0x00,0x05,0x00,0x00,0x00,0x07,0x00,0x00,0x00,0x9e,0xff,0xff,0xff,0x0c,0x00,0x00,0x00,0x10,0x00,0x00,0x00,0x02,0x00,0x00,0x00,0x01,0x00,0x00,0x00,0x0f,0x00,0x00,0x00,0x02,0x00,0x00,0x00,0x0e,0x00,0x00,0x00,0x09,0x00,0x00,0x00,0x92,0xff,0xff,0xff,0x1c,0x00,0x00,0x00,0x00,0x00,0x00,0x0b,0x1c,0x00,0x00,0x00,0x20,0x00,0x00,0x00,0x03,0x00,0x00,0x00,0x00,0x00,0x06,0x00,0x08,0x00,0x07,0x00,0x06,0x00,0x00,0x00,0x00,0x00,0x00,0x01,0x01,0x00,0x00,0x00,0x0e,0x00,0x00,0x00,0x02,0x00,0x00,0x00,0x0d,0x00,0x00,0x00,0x06,0x00,0x00,0x00,0x00,0x00,0x0a,0x00,0x10,0x00,0x0c,0x00,0x08,0x00,0x04,0x00,0x0a,0x00,0x00,0x00,0x0c,0x00,0x00,0x00,0x10,0x00,0x00,0x00,0x02,0x00,0x00,0x00,0x01,0x00,0x00,0x00,0x0d,0x00,0x00,0x00,0x02,0x00,0x00,0x00,0x0c,0x00,0x00,0x00,0x01,0x00,0x00,0x00,0x00,0x00,0x0e,0x00,0x1a,0x00,0x14,0x00,0x10,0x00,0x0c,0x00,0x0b,0x00,0x04,0x00,0x0e,0x00,0x00,0x00,0x20,0x00,0x00,0x00,0x00,0x00,0x00,0x01,0x28,0x00,0x00,0x00,0x2c,0x00,0x00,0x00,0x01,0x00,0x00,0x00,0x00,0x00,0x0a,0x00,0x10,0x00,0x0f,0x00,0x08,0x00,0x04,0x00,0x0a,0x00,0x00,0x00,0x01,0x00,0x00,0x00,0x01,0x00,0x00,0x00,0x00,0x00,0x00,0x01,0x01,0x00,0x00,0x00,0x0c,0x00,0x00,0x00,0x03,0x00,0x00,0x00,0x0b,0x00,0x00,0x00,0x02,0x00,0x00,0x00,0x03,0x00,0x00,0x00,0x00,0x00,0x0e,0x00,0x14,0x00,0x00,0x00,0x10,0x00,0x0c,0x00,0x0b,0x00,0x04,0x00,0x0e,0x00,0x00,0x00,0x10,0x00,0x00,0x00,0x00,0x00,0x00,0x34,0x0c,0x00,0x00,0x00,0x10,0x00,0x00,0x00,0x2c,0xf9,0xff,0xff,0x01,0x00,0x00,0x00,0x0b,0x00,0x00,0x00,0x02,0x00,0x00,0x00,0x00,0x00,0x00,0x00,0x0a,0x00,0x00,0x00,0x01,0x00,0x00,0x00,0x11,0x00,0x00,0x00,0x01,0x00,0x00,0x00,0x00,0x00,0x00,0x00,0x12,0x00,0x00,0x00,0x20,0x06,0x00,0x00,0xc8,0x05,0x00,0x00,0x68,0x05,0x00,0x00,0x14,0x05,0x00,0x00,0xd4,0x04,0x00,0x00,0x94,0x04,0x00,0x00,0x50,0x04,0x00,0x00,0x14,0x04,0x00,0x00,0xd8,0x03,0x00,0x00,0x98,0x03,0x00,0x00,0x38,0x03,0x00,0x00,0xb8,0x02,0x00,0x00,0x44,0x02,0x00,0x00,0xd0,0x01,0x00,0x00,0x50,0x01,0x00,0x00,0xf0,0x00,0x00,0x00,0x60,0x00,0x00,0x00,0x04,0x00,0x00,0x00,0x3e,0xfa,0xff,0xff,0x00,0x00,0x00,0x01,0x14,0x00,0x00,0x00,0x1c,0x00,0x00,0x00,0x1c,0x00,0x00,0x00,0x12,0x00,0x00,0x00,0x34,0x00,0x00,0x00,0x02,0x00,0x00,0x00,0xff,0xff,0xff,0xff,0x02,0x00,0x00,0x00,0xc8,0xf9,0xff,0xff,0x1b,0x00,0x00,0x00,0x53,0x74,0x61,0x74,0x65,0x66,0x75,0x6c,0x50,0x61,0x72,0x74,0x69,0x74,0x69,0x6f,0x6e,0x65,0x64,0x43,0x61,0x6c,0x6c,0x5f,0x31,0x3a,0x30,0x00,0x02,0x00,0x00,0x00,0x01,0x00,0x00,0x00,0x02,0x00,0x00,0x00,0x96,0xfa,0xff,0xff,0x00,0x00,0x00,0x01,0x14,0x00,0x00,0x00,0x1c,0x00,0x00,0x00,0x1c,0x00,0x00,0x00,0x11,0x00,0x00,0x00,0x68,0x00,0x00,0x00,0x02,0x00,0x00,0x00,0xff,0xff,0xff,0xff,0x20,0x00,0x00,0x00,0x20,0xfa,0xff,0xff,0x4e,0x00,0x00,0x00,0x73,0x65,0x71,0x75,0x65,0x6e,0x74,0x69,0x61,0x6c,0x5f,0x31,0x2f,0x64,0x65,0x6e,0x73,0x65,0x5f,0x31,0x2f,0x4d,0x61,0x74,0x4d,0x75,0x6c,0x3b,0x73,0x65,0x71,0x75,0x65,0x6e,0x74,0x69,0x61,0x6c,0x5f,0x31,0x2f,0x64,0x65,0x6e,0x73,0x65,0x5f,0x31,0x2f,0x52,0x65,0x6c,0x75,0x3b,0x73,0x65,0x71,0x75,0x65,0x6e,0x74,0x69,0x61,0x6c,0x5f,0x31,0x2f,0x64,0x65,0x6e,0x73,0x65,0x5f,0x31,0x2f,0x41,0x64,0x64,0x00,0x00,0x02,0x00,0x00,0x00,0x01,0x00,0x00,0x00,0x20,0x00,0x00,0x00,0x22,0xfb,0xff,0xff,0x00,0x00,0x00,0x01,0x14,0x00,0x00,0x00,0x1c,0x00,0x00,0x00,0x1c,0x00,0x00,0x00,0x10,0x00,0x00,0x00,0x38,0x00,0x00,0x00,0x02,0x00,0x00,0x00,0xff,0xff,0xff,0xff,0x40,0x00,0x00,0x00,0xac,0xfa,0xff,0xff,0x1e,0x00,0x00,0x00,0x73,0x65,0x71,0x75,0x65,0x6e,0x74,0x69,0x61,0x6c,0x5f,0x31,0x2f,0x66,0x6c,0x61,0x74,0x74,0x65,0x6e,0x5f,0x31,0x2f,0x52,0x65,0x73,0x68,0x61,0x70,0x65,0x00,0x00,0x02,0x00,0x00,0x00,0x01,0x00,0x00,0x00,0x40,0x00,0x00,0x00,0x7e,0xfb,0xff,0xff,0x00,0x00,0x00,0x01,0x14,0x00,0x00,0x00,0x20,0x00,0x00,0x00,0x20,0x00,0x00,0x00,0x0f,0x00,0x00,0x00,0x54,0x00,0x00,0x00,0x03,0x00,0x00,0x00,0xff,0xff,0xff,0xff,0x02,0x00,0x00,0x00,0x20,0x00,0x00,0x00,0x0c,0xfb,0xff,0xff,0x34,0x00,0x00,0x00,0x73,0x65,0x71,0x75,0x65,0x6e,0x74,0x69,0x61,0x6c,0x5f,0x31,0x2f,0x63,0x6f,0x6e,0x76,0x31,0x64,0x5f,0x31,0x2f,0x52,0x65,0x6c,0x75,0x3b,0x73,0x65,0x71,0x75,0x65,0x6e,0x74,0x69,0x61,0x6c,0x5f,0x31,0x2f,0x63,0x6f,0x6e,0x76,0x31,0x64,0x5f,0x31,0x2f,0x61,0x64,0x64,0x00,0x00,0x00,0x00,0x03,0x00,0x00,0x00,0x01,0x00,0x00,0x00,0x02,0x00,0x00,0x00,0x20,0x00,0x00,0x00,0xfa,0xfb,0xff,0xff,0x00,0x00,0x00,0x01,0x14,0x00,0x00,0x00,0x20,0x00,0x00,0x00,0x20,0x00,0x00,0x00,0x0e,0x00,0x00,0x00,0x48,0x00,0x00,0x00,0x03,0x00,0x00,0x00,0xff,0xff,0xff,0xff,0x02,0x00,0x00,0x00,0x20,0x00,0x00,0x00,0x88,0xfb,0xff,0xff,0x29,0x00,0x00,0x00,0x73,0x65,0x71,0x75,0x65,0x6e,0x74,0x69,0x61,0x6c,0x5f,0x31,0x2f,0x63,0x6f,0x6e,0x76,0x31,0x64,0x5f,0x31,0x2f,0x63,0x6f,0x6e,0x76,0x6f,0x6c,0x75,0x74,0x69,0x6f,0x6e,0x2f,0x53,0x71,0x75,0x65,0x65,0x7a,0x65,0x00,0x00,0x00,0x03,0x00,0x00,0x00,0x01,0x00,0x00,0x00,0x02,0x00,0x00,0x00,0x20,0x00,0x00,0x00,0x6a,0xfc,0xff,0xff,0x00,0x00,0x00,0x01,0x14,0x00,0x00,0x00,0x24,0x00,0x00,0x00,0x24,0x00,0x00,0x00,0x0d,0x00,0x00,0x00,0x44,0x00,0x00,0x00,0x04,0x00,0x00,0x00,0xff,0xff,0xff,0xff,0x01,0x00,0x00,0x00,0x02,0x00,0x00,0x00,0x20,0x00,0x00,0x00,0xfc,0xfb,0xff,0xff,0x21,0x00,0x00,0x00,0x73,0x65,0x71,0x75,0x65,0x6e,0x74,0x69,0x61,0x6c,0x5f,0x31,0x2f,0x63,0x6f,0x6e,0x76,0x31,0x64,0x5f,0x31,0x2f,0x63,0x6f,0x6e,0x76,0x6f,0x6c,0x75,0x74,0x69,0x6f,0x6e,0x00,0x00,0x00,0x04,0x00,0x00,0x00,0x01,0x00,0x00,0x00,0x01,0x00,0x00,0x00,0x02,0x00,0x00,0x00,0x20,0x00,0x00,0x00,0xda,0xfc,0xff,0xff,0x00,0x00,0x00,0x01,0x14,0x00,0x00,0x00,0x24,0x00,0x00,0x00,0x24,0x00,0x00,0x00,0x0c,0x00,0x00,0x00,0x50,0x00,0x00,0x00,0x04,0x00,0x00,0x00,0xff,0xff,0xff,0xff,0x01,0x00,0x00,0x00,0x03,0x00,0x00,0x00,0x01,0x00,0x00,0x00,0x6c,0xfc,0xff,0xff,0x2c,0x00,0x00,0x00,0x73,0x65,0x71,0x75,0x65,0x6e,0x74,0x69,0x61,0x6c,0x5f,0x31,0x2f,0x63,0x6f,0x6e,0x76,0x31,0x64,0x5f,0x31,0x2f,0x63,0x6f,0x6e,0x76,0x6f,0x6c,0x75,0x74,0x69,0x6f,0x6e,0x2f,0x45,0x78,0x70,0x61,0x6e,0x64,0x44,0x69,0x6d,0x73,0x00,0x00,0x00,0x00,0x04,0x00,0x00,0x00,0x01,0x00,0x00,0x00,0x01,0x00,0x00,0x00,0x03,0x00,0x00,0x00,0x01,0x00,0x00,0x00,0xaa,0xfd,0xff,0xff,0x00,0x00,0x00,0x01,0x14,0x00,0x00,0x00,0x14,0x00,0x00,0x00,0x0b,0x00,0x00,0x00,0x00,0x00,0x00,0x02,0x40,0x00,0x00,0x00,0xd4,0xfc,0xff,0xff,0x30,0x00,0x00,0x00,0x73,0x65,0x71,0x75,0x65,0x6e,0x74,0x69,0x61,0x6c,0x5f,0x31,0x2f,0x63,0x6f,0x6e,0x76,0x31,0x64,0x5f,0x31,0x2f,0x63,0x6f,0x6e,0x76,0x6f,0x6c,0x75,0x74,0x69,0x6f,0x6e,0x2f,0x45,0x78,0x70,0x61,0x6e,0x64,0x44,0x69,0x6d,0x73,0x2f,0x64,0x69,0x6d,0x00,0x00,0x00,0x00,0x00,0x00,0x00,0x00,0x06,0xfe,0xff,0xff,0x00,0x00,0x00,0x01,0x14,0x00,0x00,0x00,0x14,0x00,0x00,0x00,0x0a,0x00,0x00,0x00,0x00,0x00,0x00,0x02,0x1c,0x00,0x00,0x00,0x30,0xfd,0xff,0xff,0x0f,0x00,0x00,0x00,0x61,0x72,0x69,0x74,0x68,0x2e,0x63,0x6f,0x6e,0x73,0x74,0x61,0x6e,0x74,0x38,0x00,0x01,0x00,0x00,0x00,0x02,0x00,0x00,0x00,0x9e,0xfe,0xff,0xff,0x00,0x00,0x00,0x01,0x10,0x00,0x00,0x00,0x10,0x00,0x00,0x00,0x09,0x00,0x00,0x00,0x1c,0x00,0x00,0x00,0x68,0xfd,0xff,0xff,0x0f,0x00,0x00,0x00,0x61,0x72,0x69,0x74,0x68,0x2e,0x63,0x6f,0x6e,0x73,0x74,0x61,0x6e,0x74,0x37,0x00,0x01,0x00,0x00,0x00,0x02,0x00,0x00,0x00,0xd6,0xfe,0xff,0xff,0x00,0x00,0x00,0x01,0x10,0x00,0x00,0x00,0x10,0x00,0x00,0x00,0x08,0x00,0x00,0x00,0x1c,0x00,0x00,0x00,0xa0,0xfd,0xff,0xff,0x0f,0x00,0x00,0x00,0x61,0x72,0x69,0x74,0x68,0x2e,0x63,0x6f,0x6e,0x73,0x74,0x61,0x6e,0x74,0x36,0x00,0x01,0x00,0x00,0x00,0x20,0x00,0x00,0x00,0x0e,0xff,0xff,0xff,0x00,0x00,0x00,0x01,0x10,0x00,0x00,0x00,0x10,0x00,0x00,0x00,0x07,0x00,0x00,0x00,0x1c,0x00,0x00,0x00,0xd8,0xfd,0xff,0xff,0x0f,0x00,0x00,0x00,0x61,0x72,0x69,0x74,0x68,0x2e,0x63,0x6f,0x6e,0x73,0x74,0x61,0x6e,0x74,0x35,0x00,0x03,0x00,0x00,0x00,0x01,0x00,0x00,0x00,0x01,0x00,0x00,0x00,0x20,0x00,0x00,0x00,0x4e,0xff,0xff,0xff,0x00,0x00,0x00,0x01,0x10,0x00,0x00,0x00,0x10,0x00,0x00,0x00,0x06,0x00,0x00,0x00,0x1c,0x00,0x00,0x00,0x18,0xfe,0xff,0xff,0x0f,0x00,0x00,0x00,0x61,0x72,0x69,0x74,0x68,0x2e,0x63,0x6f,0x6e,0x73,0x74,0x61,0x6e,0x74,0x34,0x00,0x02,0x00,0x00,0x00,0x20,0x00,0x00,0x00,0x40,0x00,0x00,0x00,0x8a,0xff,0xff,0xff,0x00,0x00,0x00,0x01,0x10,0x00,0x00,0x00,0x10,0x00,0x00,0x00,0x05,0x00,0x00,0x00,0x1c,0x00,0x00,0x00,0x54,0xfe,0xff,0xff,0x0f,0x00,0x00,0x00,0x61,0x72,0x69,0x74,0x68,0x2e,0x63,0x6f,0x6e,0x73,0x74,0x61,0x6e,0x74,0x33,0x00,0x02,0x00,0x00,0x00,0x02,0x00,0x00,0x00,0x20,0x00,0x00,0x00,0xc6,0xff,0xff,0xff,0x00,0x00,0x00,0x01,0x10,0x00,0x00,0x00,0x10,0x00,0x00,0x00,0x04,0x00,0x00,0x00,0x1c,0x00,0x00,0x00,0x90,0xfe,0xff,0xff,0x0f,0x00,0x00,0x00,0x61,0x72,0x69,0x74,0x68,0x2e,0x63,0x6f,0x6e,0x73,0x74,0x61,0x6e,0x74,0x32,0x00,0x01,0x00,0x00,0x00,0x20,0x00,0x00,0x00,0x00,0x00,0x16,0x00,0x18,0x00,0x14,0x00,0x00,0x00,0x10,0x00,0x0c,0x00,0x08,0x00,0x00,0x00,0x00,0x00,0x00,0x00,0x07,0x00,0x16,0x00,0x00,0x00,0x00,0x00,0x00,0x01,0x10,0x00,0x00,0x00,0x10,0x00,0x00,0x00,0x03,0x00,0x00,0x00,0x1c,0x00,0x00,0x00,0xe0,0xfe,0xff,0xff,0x0f,0x00,0x00,0x00,0x61,0x72,0x69,0x74,0x68,0x2e,0x63,0x6f,0x6e,0x73,0x74,0x61,0x6e,0x74,0x31,0x00,0x04,0x00,0x00,0x00,0x20,0x00,0x00,0x00,0x01,0x00,0x00,0x00,0x02,0x00,0x00,0x00,0x01,0x00,0x00,0x00,0x00,0x00,0x16,0x00,0x1c,0x00,0x18,0x00,0x17,0x00,0x10,0x00,0x0c,0x00,0x08,0x00,0x00,0x00,0x00,0x00,0x00,0x00,0x07,0x00,0x16,0x00,0x00,0x00,0x00,0x00,0x00,0x01,0x14,0x00,0x00,0x00,0x14,0x00,0x00,0x00,0x02,0x00,0x00,0x00,0x00,0x00,0x00,0x02,0x1c,0x00,0x00,0x00,0x40,0xff,0xff,0xff,0x0e,0x00,0x00,0x00,0x61,0x72,0x69,0x74,0x68,0x2e,0x63,0x6f,0x6e,0x73,0x74,0x61,0x6e,0x74,0x00,0x00,0x01,0x00,0x00,0x00,0x03,0x00,0x00,0x00,0x00,0x00,0x16,0x00,0x1c,0x00,0x18,0x00,0x00,0x00,0x14,0x00,0x10,0x00,0x0c,0x00,0x00,0x00,0x00,0x00,0x08,0x00,0x07,0x00,0x16,0x00,0x00,0x00,0x00,0x00,0x00,0x01,0x14,0x00,0x00,0x00,0x20,0x00,0x00,0x00,0x20,0x00,0x00,0x00,0x01,0x00,0x00,0x00,0x3c,0x00,0x00,0x00,0x03,0x00,0x00,0x00,0xff,0xff,0xff,0xff,0x03,0x00,0x00,0x00,0x01,0x00,0x00,0x00,0xa4,0xff,0xff,0xff,0x1e,0x00,0x00,0x00,0x73,0x65,0x72,0x76,0x69,0x6e,0x67,0x5f,0x64,0x65,0x66,0x61,0x75,0x6c,0x74,0x5f,0x6b,0x65,0x72,0x61,0x73,0x5f,0x74,0x65,0x6e,0x73,0x6f,0x72,0x3a,0x30,0x00,0x00,0x03,0x00,0x00,0x00,0x01,0x00,0x00,0x00,0x03,0x00,0x00,0x00,0x01,0x00,0x00,0x00,0x05,0x00,0x00,0x00,0x4c,0x00,0x00,0x00,0x30,0x00,0x00,0x00,0x20,0x00,0x00,0x00,0x18,0x00,0x00,0x00,0x04,0x00,0x00,0x00,0xd4,0xff,0xff,0xff,0x09,0x00,0x00,0x00,0x00,0x00,0x00,0x09,0x04,0x00,0x04,0x00,0x04,0x00,0x00,0x00,0xe8,0xff,0xff,0xff,0x16,0x00,0x00,0x00,0x00,0x00,0x00,0x16,0xf4,0xff,0xff,0xff,0x03,0x00,0x00,0x00,0x00,0x00,0x00,0x03,0x0c,0x00,0x0c,0x00,0x0b,0x00,0x00,0x00,0x00,0x00,0x04,0x00,0x0c,0x00,0x00,0x00,0x46,0x00,0x00,0x00,0x00,0x00,0x00,0x46};
const int g_model_len = 12072;

const scaler_x_mean={ 5.0, 863.5037037037036, 1217.5203703703703 };
const scaler_x_scale={ 2.581988897471611, 389.86207697127537, 330.75108346712585 };
const scaler_y_mean={ 2.4166666666666665, 35.0 };
const scaler_y_scale={ 1.5920810978785667, 7.0710678118654755 };
#endif  // MODEL_H
