
#ifndef MODEL_H
#define MODEL_H

// MSE(Pos, Temp): [0.20914858 0.15554509]


const unsigned char g_model[] = {0x1c,0x00,0x00,0x00,0x54,0x46,0x4c,0x33,0x14,0x00,0x20,0x00,0x1c,0x00,0x18,0x00,0x14,0x00,0x10,0x00,0x0c,0x00,0x00,0x00,0x08,0x00,0x04,0x00,0x14,0x00,0x00,0x00,0x1c,0x00,0x00,0x00,0x8c,0x00,0x00,0x00,0xe4,0x00,0x00,0x00,0x04,0x26,0x00,0x00,0x14,0x26,0x00,0x00,0x98,0x2e,0x00,0x00,0x03,0x00,0x00,0x00,0x01,0x00,0x00,0x00,0x04,0x00,0x00,0x00,0xd6,0xd8,0xff,0xff,0x0c,0x00,0x00,0x00,0x1c,0x00,0x00,0x00,0x3c,0x00,0x00,0x00,0x0f,0x00,0x00,0x00,0x73,0x65,0x72,0x76,0x69,0x6e,0x67,0x5f,0x64,0x65,0x66,0x61,0x75,0x6c,0x74,0x00,0x01,0x00,0x00,0x00,0x04,0x00,0x00,0x00,0x90,0xff,0xff,0xff,0x11,0x00,0x00,0x00,0x04,0x00,0x00,0x00,0x08,0x00,0x00,0x00,0x6f,0x75,0x74,0x70,0x75,0x74,0x5f,0x30,0x00,0x00,0x00,0x00,0x01,0x00,0x00,0x00,0x04,0x00,0x00,0x00,0x8a,0xda,0xff,0xff,0x04,0x00,0x00,0x00,0x0c,0x00,0x00,0x00,0x6b,0x65,0x72,0x61,0x73,0x5f,0x74,0x65,0x6e,0x73,0x6f,0x72,0x00,0x00,0x00,0x00,0x02,0x00,0x00,0x00,0x34,0x00,0x00,0x00,0x04,0x00,0x00,0x00,0xdc,0xff,0xff,0xff,0x14,0x00,0x00,0x00,0x04,0x00,0x00,0x00,0x13,0x00,0x00,0x00,0x43,0x4f,0x4e,0x56,0x45,0x52,0x53,0x49,0x4f,0x4e,0x5f,0x4d,0x45,0x54,0x41,0x44,0x41,0x54,0x41,0x00,0x08,0x00,0x0c,0x00,0x08,0x00,0x04,0x00,0x08,0x00,0x00,0x00,0x13,0x00,0x00,0x00,0x04,0x00,0x00,0x00,0x13,0x00,0x00,0x00,0x6d,0x69,0x6e,0x5f,0x72,0x75,0x6e,0x74,0x69,0x6d,0x65,0x5f,0x76,0x65,0x72,0x73,0x69,0x6f,0x6e,0x00,0x15,0x00,0x00,0x00,0x1c,0x25,0x00,0x00,0x14,0x25,0x00,0x00,0xf8,0x24,0x00,0x00,0xe0,0x23,0x00,0x00,0x50,0x23,0x00,0x00,0x40,0x22,0x00,0x00,0x30,0x02,0x00,0x00,0xa0,0x01,0x00,0x00,0x10,0x01,0x00,0x00,0xf8,0x00,0x00,0x00,0xe0,0x00,0x00,0x00,0xcc,0x00,0x00,0x00,0xc4,0x00,0x00,0x00,0xbc,0x00,0x00,0x00,0xb4,0x00,0x00,0x00,0xac,0x00,0x00,0x00,0xa4,0x00,0x00,0x00,0x9c,0x00,0x00,0x00,0x94,0x00,0x00,0x00,0x74,0x00,0x00,0x00,0x04,0x00,0x00,0x00,0x5a,0xdb,0xff,0xff,0x04,0x00,0x00,0x00,0x60,0x00,0x00,0x00,0x10,0x00,0x00,0x00,0x00,0x00,0x00,0x00,0x08,0x00,0x0e,0x00,0x08,0x00,0x04,0x00,0x08,0x00,0x00,0x00,0x10,0x00,0x00,0x00,0x24,0x00,0x00,0x00,0x00,0x00,0x06,0x00,0x08,0x00,0x04,0x00,0x06,0x00,0x00,0x00,0x04,0x00,0x00,0x00,0x00,0x00,0x00,0x00,0x0c,0x00,0x18,0x00,0x14,0x00,0x10,0x00,0x0c,0x00,0x04,0x00,0x0c,0x00,0x00,0x00,0x81,0xdb,0xf2,0xa3,0xbb,0xed,0x47,0x42,0x02,0x00,0x00,0x00,0x02,0x00,0x00,0x00,0x04,0x00,0x00,0x00,0x06,0x00,0x00,0x00,0x32,0x2e,0x31,0x37,0x2e,0x30,0x00,0x00,0xc6,0xdb,0xff,0xff,0x04,0x00,0x00,0x00,0x10,0x00,0x00,0x00,0x31,0x2e,0x31,0x30,0x2e,0x30,0x00,0x00,0x00,0x00,0x00,0x00,0x00,0x00,0x00,0x00,0xfc,0xd2,0xff,0xff,0x00,0xd3,0xff,0xff,0x04,0xd3,0xff,0xff,0x08,0xd3,0xff,0xff,0x0c,0xd3,0xff,0xff,0x10,0xd3,0xff,0xff,0x14,0xd3,0xff,0xff,0xfe,0xdb,0xff,0xff,0x04,0x00,0x00,0x00,0x04,0x00,0x00,0x00,0xfd,0xff,0xff,0xff,0x0e,0xdc,0xff,0xff,0x04,0x00,0x00,0x00,0x08,0x00,0x00,0x00,0xff,0xff,0xff,0xff,0x40,0x00,0x00,0x00,0x22,0xdc,0xff,0xff,0x04,0x00,0x00,0x00,0x08,0x00,0x00,0x00,0x31,0x36,0x40,0x3d,0xd7,0xbe,0x15,0xbe,0x36,0xdc,0xff,0xff,0x04,0x00,0x00,0x00,0x80,0x00,0x00,0x00,0xfd,0xd2,0xd8,0xbd,0x1f,0x82,0x91,0x3d,0x23,0x77,0x12,0x3c,0xac,0x2a,0xf6,0xbc,0x15,0x87,0xd6,0x3d,0xbe,0x6a,0x2c,0x3e,0xae,0x73,0x7a,0xbc,0x44,0xe5,0x7d,0x3e,0xbe,0x4f,0xfa,0x3d,0xd9,0xad,0x5b,0x3e,0xe3,0xb5,0xa9,0x3c,0x3f,0xa0,0x10,0x3e,0x4f,0xbd,0xf1,0x3d,0x82,0x7b,0xba,0xbc,0x22,0xd0,0x32,0x3d,0x40,0xbc,0x1d,0xbc,0xd2,0x06,0x99,0x3d,0xe7,0x64,0x5c,0x3c,0x49,0x7f,0x88,0x3d,0x36,0x02,0xdc,0x3d,0x03,0x94,0x14,0xbd,0x27,0x87,0xb2,0xbe,0x0f,0xbc,0x50,0xbe,0x30,0x55,0x09,0xbd,0xe1,0x85,0xc8,0xbb,0x5d,0xdd,0xe8,0xbd,0x11,0xb7,0x10,0x3e,0xd8,0xb0,0x0f,0xbe,0xd8,0xaf,0x38,0x3e,0x10,0xd4,0x9d,0x3d,0x91,0x24,0xf1,0x3c,0x7f,0x16,0x8e,0x3e,0xc2,0xdc,0xff,0xff,0x04,0x00,0x00,0x00,0x80,0x00,0x00,0x00,0x79,0x45,0xc1,0xbd,0x59,0xeb,0x87,0xbe,0x0b,0xf5,0xb3,0x3e,0xea,0x40,0xb7,0xbe,0x36,0xe8,0xd7,0x3c,0x58,0xbd,0x85,0x3e,0x3f,0x98,0xcc,0xbe,0xf9,0x65,0x62,0x3e,0x4a,0xa5,0x60,0xbe,0xb6,0xee,0xa3,0xbe,0xa4,0xda,0x06,0x3e,0x97,0xe6,0x19,0x3c,0x04,0x55,0x9e,0xbc,0x6d,0xb5,0xe4,0x3d,0x53,0x57,0x86,0x3d,0x00,0x61,0xc6,0xbe,0x6a,0x9e,0x5d,0x3e,0x20,0xd1,0x4f,0x3e,0x79,0xd6,0x09,0x3e,0x0e,0xcf,0x50,0x3a,0x49,0xe7,0x4a,0x3d,0x5e,0x39,0xbe,0x3e,0xa4,0x5d,0xad,0xbd,0x3f,0x12,0x6e,0x3d,0xe8,0x0f,0x2b,0x3e,0xfb,0x8a,0x9d,0x3c,0xbd,0x96,0x13,0x3e,0x70,0x96,0xec,0xbb,0x62,0x27,0x80,0x3d,0x3a,0xb2,0x0d,0x3d,0x79,0x88,0x3b,0x3e,0x50,0xba,0x17,0x3e,0x4e,0xdd,0xff,0xff,0x04,0x00,0x00,0x00,0x00,0x20,0x00,0x00,0x98,0x85,0x44,0xbe,0x8d,0xfd,0x6a,0x3c,0xa9,0x05,0x3b,0x3e,0xeb,0xa7,0x11,0x3e,0x48,0x19,0x08,0x3e,0x6d,0x9b,0x09,0xbf,0x8c,0x56,0xa0,0xbd,0xc4,0xf5,0xba,0x3e,0xd0,0xd9,0x64,0xbe,0x6d,0xcd,0x00,0x3e,0x16,0x43,0xc5,0xbb,0x4a,0x74,0x00,0x3e,0xa9,0x0f,0x40,0x3e,0x59,0x30,0x0b,0x3f,0xa7,0xc5,0xc1,0x3e,0xc4,0x0a,0x30,0x3e,0x32,0xed,0x1e,0xbf,0x04,0x8b,0x80,0xbe,0xc9,0x7d,0xcf,0xbb,0x6f,0x3c,0x9f,0xbe,0xe0,0xf4,0x2e,0xbf,0xf2,0xde,0xb2,0x3e,0xea,0x3f,0x6a,0x3e,0xb5,0x55,0x65,0x3e,0x84,0x55,0xaf,0x3e,0x95,0x61,0xe8,0x3d,0xea,0xf1,0x79,0xbe,0x5b,0xf3,0xc3,0xbd,0xab,0x12,0x34,0xbe,0x1b,0x48,0x95,0x3e,0x2d,0x98,0x15,0xbf,0x16,0xe4,0xaf,0x3e,0xa1,0xac,0x10,0x3e,0xce,0x44,0x94,0x3c,0x8d,0x3e,0x6a,0x3e,0x52,0x7d,0x46,0x3e,0xb0,0xe1,0x6a,0x3e,0x71,0x3b,0x88,0xbe,0x83,0xed,0xbc,0x3e,0x22,0x72,0x0e,0x3d,0x49,0x99,0xb6,0x3c,0x52,0xc4,0x95,0xbd,0x5d,0x6a,0xdf,0xbd,0x19,0x27,0x18,0x3c,0x01,0x2a,0x0c,0xbe,0x56,0x7b,0xf7,0x3d,0x3f,0x03,0x45,0x3e,0xc0,0x57,0x4c,0xbe,0xaa,0xad,0x90,0xbe,0xb9,0x8f,0x71,0xbe,0x18,0x29,0x0a,0xbe,0x67,0x01,0x35,0xbe,0x41,0x0c,0x1a,0xbf,0xec,0x7c,0xad,0x3e,0x7d,0x59,0xff,0x3d,0xb0,0xa2,0x97,0x3e,0x22,0xbc,0x79,0xbc,0x38,0xcd,0xa4,0xbc,0x47,0xcf,0xa2,0x3e,0x98,0x7c,0xf5,0x3d,0x01,0x0f,0xbd,0xbb,0x60,0x90,0x89,0x3e,0x7d,0x8c,0x1a,0xbf,0xd6,0x12,0x3c,0x3b,0x77,0xda,0xfd,0xbd,0xb8,0x56,0xae,0xbd,0x98,0xf0,0x85,0xbe,0xac,0x8a,0xdb,0x3c,0xab,0xa8,0xea,0x3d,0x5a,0x2f,0x0b,0x3f,0xce,0xdc,0x03,0xbf,0x6e,0xf5,0x47,0xbe,0x15,0xbf,0x20,0x3d,0xab,0x70,0xcb,0xbe,0xce,0x73,0x38,0xbe,0x93,0x18,0xfb,0xbd,0x12,0xd0,0x2a,0x3e,0x8b,0xc5,0x84,0xbf,0xab,0x49,0x5b,0xbf,0xd6,0xa1,0xb4,0xbd,0xb6,0x21,0xb1,0x3e,0xd4,0xcf,0xba,0x3e,0xb6,0x6d,0x0c,0x3e,0xdd,0x27,0xf7,0x3e,0x39,0x36,0x2b,0x3f,0x5a,0x71,0x19,0x3e,0x8e,0x76,0xcc,0x3d,0x8e,0x0e,0x90,0xbf,0xb9,0xf2,0xd0,0xbe,0xf1,0x19,0x31,0xbe,0x81,0xff,0xbc,0xbd,0xb4,0x39,0x82,0xbe,0xfc,0x14,0x5b,0xbe,0x3a,0x90,0x8e,0xbf,0xc3,0x79,0xfd,0x3e,0x3d,0x78,0xbd,0xbd,0x9a,0xed,0x40,0x3e,0x5a,0x1b,0x82,0xbd,0x2f,0x47,0xe0,0x3d,0xaa,0x63,0x98,0xbe,0x18,0x4e,0x02,0xbd,0x75,0x72,0x1f,0xbf,0x53,0xb3,0xe1,0xbe,0x62,0xf4,0x80,0xbe,0x93,0x2f,0xfa,0xbd,0x7b,0xff,0x23,0x3d,0x61,0x2f,0x94,0xbe,0x41,0x82,0x2f,0xbd,0x50,0xb9,0x61,0x3e,0xd6,0xa7,0x44,0x3f,0xc3,0x67,0xa2,0x3f,0x50,0x09,0x35,0xbe,0x69,0xdb,0x8f,0xbe,0x9f,0xac,0xc8,0xbc,0xa8,0xe1,0x16,0x3e,0x97,0x9f,0xb1,0xbe,0x5e,0x80,0xbe,0xbf,0xb7,0x38,0x71,0x3e,0xa4,0x29,0x34,0x3e,0xcb,0x6f,0xb2,0x3f,0x9b,0xac,0x36,0x3f,0x4b,0x7e,0x8f,0x3e,0x0d,0x8e,0xde,0xbd,0xd1,0xb2,0x63,0x3e,0x0a,0x77,0x18,0xbe,0x6a,0x29,0x8b,0x3f,0x39,0xeb,0x03,0xbf,0x36,0x30,0xe7,0x3b,0x0e,0xb1,0x04,0x3e,0xfc,0x02,0xbf,0x3d,0x8d,0x6a,0xf1,0x3a,0x6d,0xb2,0x8c,0x3d,0xec,0x0f,0x23,0xbd,0x65,0xb0,0xcc,0xbd,0x98,0x29,0xbf,0x3d,0x13,0xea,0xb9,0xbd,0xee,0x77,0xce,0xbd,0x00,0x92,0x8c,0xbc,0x69,0xdf,0x25,0x3e,0x9e,0x0c,0x1e,0x3d,0x74,0x1a,0x61,0x3e,0xd2,0x53,0x81,0xbc,0x16,0x93,0x39,0x3e,0xa5,0x3a,0x89,0x3d,0xb6,0x6b,0x97,0xbc,0xec,0xbc,0x0d,0x3e,0x83,0x87,0x05,0x3d,0x3c,0x33,0xa0,0xbe,0xed,0x1c,0x3a,0x3d,0x46,0x27,0x01,0x3d,0xa7,0xe7,0xb6,0x3d,0xca,0xd9,0x15,0x3d,0xce,0x6d,0xdd,0xbd,0x69,0xa5,0x81,0xbe,0xe8,0x94,0xdb,0xbd,0xf5,0x29,0x75,0x3e,0xb6,0x11,0x81,0xbc,0x2e,0x83,0x17,0x3c,0x6d,0x6a,0x16,0x3c,0x59,0x3c,0x85,0xbd,0xf3,0xe0,0xa2,0xbe,0x9e,0x5c,0xa0,0xbb,0x42,0xb7,0x2b,0x3e,0x51,0x64,0xb0,0x3d,0x64,0xf3,0xe5,0xbd,0x84,0x5b,0x14,0x3f,0x15,0x59,0xf7,0xbe,0xb5,0x70,0xbc,0x3d,0xb5,0x0a,0x5a,0xbe,0x36,0x58,0x58,0xbe,0x48,0x6b,0x48,0x3e,0x4d,0x64,0xba,0x3c,0xe1,0xc3,0x49,0xbe,0xea,0x91,0x6c,0xbf,0x65,0xbb,0x3a,0xbf,0x14,0x46,0x2b,0x3e,0xc7,0xec,0x1a,0x3f,0x64,0x23,0x4a,0x3e,0x9f,0x3e,0x8e,0xbe,0xab,0x6d,0xd7,0x3e,0xc1,0x16,0x5d,0x3f,0xfd,0x3b,0x88,0x3e,0xcc,0x6c,0x9e,0xbd,0xed,0x50,0x85,0xbf,0xd1,0x58,0x30,0xbf,0xba,0xb1,0x44,0xbe,0x97,0x87,0x36,0xbd,0x02,0x67,0xc7,0xbc,0x97,0xea,0x0d,0x3e,0x2d,0xd4,0x7d,0xbf,0x61,0x5e,0x3c,0x3f,0x45,0xd0,0x7f,0x3d,0x03,0xf2,0x1b,0xbe,0xbe,0xd7,0x10,0xbe,0xb0,0xc4,0xeb,0x3d,0x4e,0xbd,0xb3,0x3e,0x61,0x1f,0xa9,0x3d,0xbf,0x7a,0x1b,0xbf,0xd9,0x96,0x44,0x3e,0xc4,0xbc,0x6e,0x3e,0xca,0x85,0x64,0x3e,0x3f,0x97,0xed,0x3d,0x4d,0x20,0x9d,0x3c,0x12,0x58,0x62,0xbd,0x8c,0xc3,0x4e,0x3e,0xff,0xa4,0xb9,0x3e,0x4a,0xc6,0x0f,0x3f,0xcb,0xa7,0x6d,0xbe,0x0d,0xdd,0xaf,0xbe,0xa2,0xd8,0xfb,0xbd,0x06,0x59,0x44,0x3e,0x8c,0xa9,0x21,0x3e,0x66,0x1f,0xab,0xbe,0xda,0x76,0xb7,0x3d,0x19,0x69,0xa9,0xbd,0x04,0xc7,0x1a,0x3f,0x95,0xf1,0x27,0x3e,0xab,0xbd,0x2c,0x3d,0x0c,0x60,0x8a,0xbe,0xa5,0x1a,0x3e,0x3e,0x43,0x3a,0xa3,0x3d,0x33,0x40,0x18,0x3f,0x7c,0x08,0x7d,0xbe,0xdd,0x6f,0x69,0x3e,0x7e,0x68,0xa6,0x3b,0xec,0x3a,0xd9,0x3d,0x51,0xf8,0x51,0x3e,0x69,0x75,0x7a,0x3e,0xb7,0x42,0x61,0x3e,0x44,0x2f,0xeb,0xbd,0xf5,0x9f,0xc7,0x3e,0x78,0x3d,0x0c,0xbe,0xe8,0xa5,0x5a,0x3e,0xaf,0xf1,0xd3,0x3c,0xd2,0x53,0x3f,0xbe,0xd0,0x6c,0x77,0x3e,0x77,0x60,0x9a,0x3d,0x0b,0x44,0xad,0x3e,0xeb,0x08,0x20,0x3f,0x3c,0x08,0xf8,0x3d,0x4e,0xbb,0x93,0xbe,0x72,0x0c,0x44,0x3e,0xaf,0x83,0xa1,0x3d,0x1a,0x2f,0x61,0xbe,0xda,0xfd,0xd2,0xbe,0xaf,0xe0,0x3c,0x3e,0xbf,0x23,0x8b,0x3e,0x89,0x85,0xab,0x3e,0x49,0xaf,0x5d,0x3e,0x87,0x39,0x7a,0x3e,0x15,0x96,0x78,0x3e,0x44,0x7c,0x6f,0x3e,0xcb,0xe7,0x68,0x3e,0x4f,0xe8,0x9f,0x3e,0xd1,0x7f,0x10,0xbf,0x6e,0x2a,0x9b,0xbd,0x97,0x50,0x47,0xbe,0xc2,0x2a,0x4d,0xbe,0x1a,0x64,0x30,0x3e,0x78,0x28,0xe5,0xbe,0x27,0xb6,0x90,0xbe,0x7d,0x23,0x77,0xbd,0x66,0xac,0x17,0xbf,0xa4,0xd4,0x28,0xbe,0x2f,0xc2,0xad,0xbe,0x80,0x7e,0xd3,0xbd,0x8b,0xda,0xde,0xbd,0xce,0x45,0xab,0xbd,0xcf,0xd0,0x5f,0xbd,0xea,0xc0,0x8b,0x3e,0x48,0xeb,0xc9,0x3d,0x9b,0x09,0x8f,0x3e,0x79,0x3d,0xec,0xbc,0x23,0x07,0x74,0x3e,0x61,0x76,0x8b,0x3e,0x48,0x9e,0x9b,0x3d,0xd6,0x45,0x37,0xbb,0xa7,0xd3,0xb5,0xbd,0x22,0xf5,0x4d,0xbe,0xf5,0xa4,0xbd,0x3d,0xc2,0x1c,0x7c,0x3d,0xcb,0xad,0x5b,0xbe,0xd5,0x35,0xce,0xbd,0x75,0x01,0x8e,0xbe,0x00,0x61,0xf6,0xbd,0xac,0xdd,0x93,0x3d,0xa6,0xc8,0x3e,0x3e,0x3e,0x73,0x6e,0x3e,0xe1,0x35,0xe1,0xbd,0xa5,0x56,0x9f,0xbd,0x13,0xf8,0x1a,0x3e,0x6b,0xcf,0x1a,0x3e,0xe0,0x10,0x0b,0xbe,0xdb,0xb3,0xdc,0xbe,0x03,0xdc,0xf1,0x3d,0xed,0x20,0x0d,0xbe,0x2c,0x22,0x60,0xbe,0x95,0xe8,0xd5,0xbd,0xa7,0x4f,0xf2,0x3d,0x30,0x1a,0x74,0x3e,0xc1,0x2d,0x87,0xbe,0x55,0xf9,0xb0,0x3f,0xea,0xe6,0xb7,0x3f,0x2c,0x69,0x6e,0x3e,0xad,0x72,0xd3,0xbe,0x25,0xe2,0x44,0x3d,0x13,0x1f,0x09,0xbe,0x87,0xa3,0xba,0xbe,0x0b,0xbe,0x0d,0xc0,0xe6,0x6f,0x73,0x3d,0xb6,0x62,0x0c,0x3e,0x2a,0x89,0xb8,0x3f,0xc5,0xd4,0x5b,0x3f,0x01,0x09,0x7e,0x3d,0x0e,0x7a,0xe7,0x3d,0x3f,0xf4,0x06,0x3e,0x89,0xdc,0xfa,0xbd,0xce,0x69,0xa4,0x3f,0xbe,0x80,0x5a,0xbf,0x64,0x10,0x35,0x3d,0x30,0xfe,0x4e,0xbe,0x8e,0x0c,0xb5,0xbe,0xd4,0x0f,0xc6,0x3e,0xa5,0x54,0x5c,0xbf,0x99,0xbd,0xcf,0xbd,0xd4,0xbd,0x8f,0xbc,0x45,0xe8,0x2d,0xbf,0xda,0xec,0x45,0x3e,0x99,0x68,0x8a,0xbe,0x6b,0x89,0x02,0xbf,0x24,0xdc,0xa9,0xbe,0xaa,0xcf,0x61,0x3d,0x11,0x52,0xa0,0xbd,0xd7,0xd1,0x0c,0x3d,0x4d,0x14,0x00,0x3e,0xb1,0xec,0xf2,0xbd,0xf0,0xb0,0x99,0xbc,0x97,0xc7,0xa9,0xbe,0xff,0x99,0x76,0x3e,0xd7,0xd8,0x07,0x3f,0xca,0xaa,0x13,0xbd,0xd3,0xb2,0x56,0x3e,0x9a,0x3b,0x5a,0xbe,0x76,0x5c,0x86,0x3d,0x4e,0x17,0xcd,0x3e,0x3c,0x69,0x44,0xbe,0xd5,0x6b,0x2e,0x3c,0xdb,0x56,0x21,0x3e,0x47,0x47,0x7a,0x3c,0x3b,0xa1,0x7b,0x3e,0x66,0x3a,0x8f,0xbd,0x6f,0x37,0x96,0x3e,0xa8,0x24,0x27,0xbe,0xf8,0x03,0x33,0x3d,0x5d,0x9b,0xfe,0x3e,0x0d,0xd3,0x06,0xbd,0x26,0x3e,0x2b,0x3e,0xcb,0xb3,0x89,0xbe,0x39,0x8a,0xe9,0xbd,0x3e,0x64,0x3a,0x3e,0xe8,0x96,0x1e,0x3e,0xc7,0xc8,0x52,0xbe,0x1b,0xd4,0x25,0xbe,0x1f,0x40,0x07,0x3e,0xc1,0xa7,0x76,0xbe,0x09,0xbc,0x7d,0x3f,0xb5,0x98,0x8b,0x3f,0x68,0x4f,0x70,0x3e,0xa1,0x9a,0xcc,0xbb,0x5c,0xa9,0x92,0xbe,0x0f,0x3a,0x35,0xbd,0xc5,0x8a,0x13,0xbd,0x70,0x85,0x05,0xc0,0xab,0xe0,0x55,0x3d,0x1d,0x57,0xef,0x3d,0xc3,0x1e,0x62,0x3f,0xd2,0x1c,0x1a,0x3f,0xee,0xa2,0x83,0xbd,0x27,0xe9,0xd7,0x3d,0xa2,0x94,0x22,0x3d,0x94,0x56,0x94,0x3e,0xc8,0x44,0x93,0x3f,0xe2,0xfc,0x8c,0xbe,0x10,0xbc,0x29,0x3e,0x28,0xa4,0x98,0xbd,0xec,0xe7,0x11,0xbe,0xb4,0xce,0x68,0xbe,0xa8,0x92,0x44,0xbe,0x10,0x44,0x01,0xbe,0x00,0x2d,0xca,0x3c,0xc4,0xa5,0x2d,0xbe,0x28,0x0b,0x51,0x3e,0x20,0x21,0x3c,0xbd,0x90,0xd4,0xae,0xbd,0xc0,0x73,0x1d,0xbe,0xfc,0x59,0x18,0x3e,0x9e,0x96,0x56,0xbe,0x07,0x06,0x6d,0xbd,0x74,0x8e,0x7e,0xbe,0xbf,0xfe,0x06,0x3e,0xf0,0x40,0x74,0xbd,0x58,0x91,0x72,0x3e,0xeb,0xfb,0x56,0x3e,0x13,0x00,0x58,0x3e,0xa8,0x7f,0x43,0xbe,0xcd,0x4d,0xc0,0x3d,0x60,0x91,0x90,0xbd,0x3e,0xaa,0xd8,0x3d,0xe2,0x06,0x54,0x3e,0x80,0x43,0x57,0x3c,0x60,0x6b,0x97,0x3c,0xa8,0x56,0x6b,0xbe,0x40,0x77,0xf9,0xbc,0xed,0x48,0xf1,0xbd,0x58,0x0d,0xa2,0x3d,0x72,0xcb,0xf3,0x3c,0xd5,0xe3,0x5d,0x3d,0xa3,0xbb,0x1b,0x3e,0xca,0x6a,0xc6,0xbd,0x2f,0x33,0x1d,0xbe,0x45,0xef,0x64,0xbd,0x2f,0xc2,0x14,0xbd,0x0d,0xa6,0x56,0xbd,0xf3,0xa2,0xc7,0xbd,0xac,0x76,0x64,0x3d,0xa6,0xab,0xb6,0xbd,0xb9,0xa4,0x54,0xbe,0xcc,0x56,0xc0,0xbd,0x05,0x06,0x34,0x3e,0xe5,0xeb,0x1e,0xbe,0xe0,0xaa,0x5b,0x3d,0x4e,0x49,0x5b,0xbe,0x2b,0xef,0x04,0x3d,0xa6,0x82,0x3b,0x3e,0xd5,0x2f,0xd2,0xbd,0x9f,0x63,0x38,0xbd,0x86,0xdd,0xca,0x3d,0x2f,0xa0,0x66,0xbe,0xc4,0xaa,0xa9,0xbd,0x00,0xf9,0x7a,0xbb,0xdc,0x9e,0x33,0x3e,0x3c,0xa5,0x66,0x3e,0x5a,0xc4,0x09,0xbe,0xe6,0x97,0x75,0xbe,0x96,0x27,0x6e,0xbe,0x27,0x9b,0x25,0xbe,0xb8,0x8d,0x83,0xbe,0xcb,0x1b,0x17,0xbe,0x1e,0x1a,0x4e,0xbd,0x98,0xea,0x85,0x3d,0xc2,0x64,0x93,0x3d,0xf8,0x29,0x0f,0xbe,0xec,0x36,0x18,0x3d,0xea,0x91,0xc2,0x3e,0x12,0xc6,0xc6,0x3d,0x09,0x42,0xfe,0x3d,0xce,0x35,0x9d,0xbc,0x63,0x6b,0xa8,0xbd,0xb4,0x00,0xa6,0x3e,0x50,0x95,0x35,0xbb,0xf5,0x27,0x5f,0xbe,0x44,0xb9,0x8b,0xbe,0x3e,0x25,0x79,0xbe,0x94,0x63,0xf2,0xbe,0xd0,0x9a,0xed,0x3e,0x55,0x1e,0xbe,0x3d,0xf3,0x8f,0x8b,0xbc,0xf2,0x45,0x39,0x3d,0x31,0xee,0x40,0x3e,0xce,0x84,0x26,0x3d,0xef,0x63,0x8e,0xbd,0x7f,0x89,0xbc,0xbe,0xb0,0xc1,0x38,0x3e,0xbe,0x8f,0x34,0x3e,0x5a,0x36,0xe6,0x3d,0x39,0x9b,0x8e,0x3b,0x54,0x3b,0xb2,0x3e,0x27,0x53,0x66,0xbe,0xd3,0x87,0x8f,0x3e,0xcb,0x51,0x91,0xbd,0xad,0xe5,0xf1,0x3c,0x37,0x36,0x5f,0xbd,0xce,0x3e,0x4a,0x3e,0x4a,0xd7,0x53,0xbd,0x7f,0xbb,0x82,0xbd,0x83,0x80,0xe4,0x3e,0xf4,0xe0,0xda,0xbe,0x91,0xe4,0x84,0xbd,0xc6,0xe4,0x10,0xbe,0x33,0xf7,0xb2,0xbe,0x0e,0xc8,0x43,0x3e,0x3e,0x80,0x5c,0x3d,0x34,0x27,0x5a,0x3e,0x44,0xbc,0xa9,0x3e,0x13,0x90,0x91,0x3c,0x14,0xae,0x90,0xbe,0xc7,0x4f,0xa8,0x3e,0x3f,0x05,0x87,0x3e,0x2c,0xc0,0x76,0x3c,0xe7,0xbb,0x17,0xbe,0xfe,0x9b,0xd5,0x3e,0x0b,0x51,0x4d,0x3e,0x88,0x5b,0x94,0x3a,0x03,0xff,0x7b,0x3c,0x13,0x59,0xb9,0x3e,0x21,0x4f,0x54,0xbd,0xfd,0x98,0x07,0xbe,0x7b,0xb3,0x83,0xbe,0xd1,0x07,0x77,0x3d,0xdc,0xaf,0x97,0x3e,0x03,0xfc,0x60,0x3e,0xb9,0x83,0x24,0xbe,0xbe,0x2b,0x69,0x3e,0xee,0x8d,0x08,0xbf,0xd2,0x37,0xc9,0x3c,0x3a,0xb0,0x0e,0xbf,0x9a,0xeb,0x38,0xbf,0xa1,0xe7,0x78,0x3c,0xa4,0x9d,0x1c,0xbf,0x06,0x92,0x17,0xbe,0xcc,0x6b,0x45,0x3d,0x97,0x6e,0x83,0xbe,0xb5,0x44,0x19,0xbe,0xd5,0x24,0x22,0xbf,0xce,0x5b,0x5a,0xbc,0x78,0x8a,0x11,0x3e,0x03,0x68,0xfa,0x3d,0x59,0x6e,0x51,0x3d,0x4c,0x06,0x7e,0xbd,0x3a,0x3e,0xf7,0x3e,0x91,0xb4,0x24,0x3e,0x3d,0x6d,0x2c,0x3e,0xfd,0x8d,0x36,0xbe,0x43,0x22,0x23,0xbc,0x45,0x9d,0x18,0xbf,0xa5,0xc6,0xa7,0x3c,0x6b,0xed,0x9d,0xbb,0x03,0x74,0x11,0xbf,0x47,0xe8,0x0b,0xbf,0x77,0xe1,0xc6,0x3e,0x64,0x09,0x04,0xbf,0x5d,0xb9,0x19,0x3e,0x11,0xde,0x97,0x3e,0x98,0x38,0x6b,0x3e,0xe8,0xf2,0x0f,0x3e,0xe5,0xa9,0x03,0x3f,0xab,0x0d,0x2e,0x3f,0xae,0x51,0xd4,0xbd,0x7b,0x54,0xf6,0x3e,0x56,0xcb,0xec,0xbe,0x08,0xbe,0x4f,0x3e,0x7d,0x97,0x81,0x3e,0x4b,0x8f,0x85,0x3e,0x80,0x47,0x65,0x3e,0xee,0x3e,0x53,0x3e,0x9d,0x70,0xba,0x3e,0xc9,0x9d,0x32,0x3e,0x42,0x59,0x57,0x3f,0xb3,0xe3,0x8d,0x3f,0xf3,0x03,0x40,0xbe,0x60,0x2b,0x2b,0xbe,0xbe,0xf6,0x9e,0xbd,0x22,0x38,0x73,0x3d,0x8c,0x5b,0x17,0xbe,0x25,0xd8,0x02,0xc0,0xbc,0x0e,0x6d,0x3e,0x2b,0xde,0x78,0x3e,0x11,0xcc,0x66,0x3f,0xd0,0xda,0x47,0x3f,0xcc,0xc6,0x28,0xbe,0x7c,0xc2,0x03,0x3f,0x1e,0x9c,0xeb,0xbd,0x06,0x07,0x8b,0x3d,0x98,0x3e,0x8d,0x3f,0xc4,0xa7,0x31,0xbf,0xf1,0xf2,0x28,0x3e,0x4f,0x3c,0x4c,0xbe,0xd0,0xee,0xde,0xbc,0xee,0xd9,0xa2,0x3d,0xf6,0xf1,0x6c,0xbe,0x7b,0x32,0x16,0x3e,0xb5,0xcd,0x2e,0x3f,0xa7,0x2f,0xae,0x3d,0x8e,0xdb,0xe1,0xbe,0x50,0x38,0x42,0x3e,0xf4,0x13,0x45,0xbe,0xc0,0x1c,0x5f,0x3e,0xb3,0xf8,0x0f,0x3e,0xa0,0xf6,0xc4,0xbe,0x1a,0x49,0xb9,0xbe,0x6d,0xe7,0xc3,0xbe,0xf0,0x8f,0x65,0xbf,0x13,0x0e,0x62,0x3e,0x33,0xd0,0xe2,0x3e,0x24,0x30,0xae,0x3c,0x16,0x87,0x5b,0xbe,0xfe,0xbb,0x4c,0x3f,0x50,0xea,0xb5,0x3d,0xcc,0x29,0x57,0xbe,0x13,0x94,0xd9,0xbe,0xc8,0xf6,0x2f,0x3e,0x1b,0x46,0xe4,0x3d,0x5a,0xfc,0x7c,0x3e,0x7f,0x09,0x41,0x3e,0x18,0x1a,0x24,0xbd,0xb9,0x36,0xb9,0xbe,0x97,0xa5,0x34,0x3f,0x46,0x90,0x57,0xbe,0xb5,0x45,0x19,0x3c,0x43,0x1d,0xb0,0xbe,0x4e,0xbc,0xa2,0x3d,0x9a,0xbf,0x1b,0xbf,0xef,0x76,0x42,0x3e,0xbd,0x20,0x01,0x3f,0xc7,0x26,0xbc,0xbe,0x2d,0x71,0xda,0x3d,0xac,0xc8,0xa6,0x3d,0xf1,0x5a,0xb5,0xbe,0x24,0x66,0x5b,0x3e,0x2e,0x26,0x4f,0xbe,0x7d,0x54,0x43,0xbd,0x0c,0x0d,0x00,0x3e,0xe4,0x3f,0x48,0x3e,0xc6,0xd4,0x65,0xbf,0x8a,0x66,0xe5,0x3e,0x08,0xea,0xab,0x3e,0x45,0xd3,0x08,0xbf,0x19,0xc1,0x28,0x3f,0x53,0x36,0xb3,0x3e,0x2c,0x88,0x5e,0xbe,0x0b,0xdc,0x02,0xbe,0x70,0x77,0xc0,0x3e,0x86,0x53,0x25,0xbc,0x76,0x54,0x9c,0x3b,0xd6,0x8b,0x5b,0x3d,0x11,0xf6,0x6b,0xbe,0x56,0x2a,0x0d,0xbd,0xa7,0x28,0x3f,0x3d,0xa9,0xdb,0x7a,0x3e,0x7a,0x18,0xb5,0xbe,0x95,0xaa,0x8b,0xbd,0x35,0x8e,0x2b,0xbe,0xb4,0x13,0x96,0x3d,0xcf,0x41,0xa4,0x3d,0x13,0x61,0x0e,0xbd,0xc5,0x65,0x91,0xbe,0x27,0x85,0x5b,0x3c,0x22,0x63,0x12,0x3c,0x29,0x7b,0x28,0x3e,0x73,0xde,0xfa,0x3d,0x34,0xd4,0xb7,0xbe,0x5e,0x6d,0x16,0x3e,0xca,0x13,0x96,0x3c,0xbe,0x08,0x87,0x3e,0x67,0x9a,0xc5,0x3e,0xf5,0x36,0xb4,0xbe,0xe1,0x39,0x92,0xbe,0x72,0xcd,0x4c,0x3a,0xd6,0x67,0x6b,0xbd,0x58,0x6b,0x5e,0x3e,0x10,0xa6,0x09,0xbf,0x1d,0xd3,0xb4,0xbc,0x39,0x92,0xad,0xbd,0x11,0xba,0xc8,0x3e,0x62,0xff,0x7f,0x3e,0x4e,0xc3,0x68,0xbe,0x0d,0x92,0x86,0xbe,0xa7,0xcf,0x46,0x3d,0x5c,0xab,0x91,0xbe,0xb7,0x7f,0x1f,0x3f,0x6a,0x36,0x8c,0xbc,0x4c,0x0f,0x45,0x3e,0x45,0x54,0xcc,0xbd,0x84,0x77,0x3b,0x3e,0x79,0x23,0x62,0x3e,0x04,0x10,0xfb,0x3e,0x23,0xf0,0x84,0x3e,0x78,0x6c,0xe4,0xbe,0x72,0x90,0x06,0x3f,0x47,0x84,0x82,0x3e,0xce,0x5d,0x48,0x3e,0x91,0x28,0x87,0x3e,0x80,0x7a,0xf0,0xbd,0x12,0x14,0x1a,0x3e,0x62,0x67,0x90,0xbe,0x96,0x5c,0x31,0x3f,0x1f,0x90,0x24,0x3f,0x3f,0x38,0xf9,0xbc,0xdf,0xb4,0x45,0xbe,0xb6,0x2f,0xd5,0xbd,0x78,0x3e,0x75,0x3e,0xe9,0x90,0x51,0xbe,0x80,0x79,0xfc,0xbe,0x83,0xd3,0x36,0xbe,0xe3,0x2a,0x5e,0x3e,0xdf,0xcd,0x26,0x3f,0xc1,0x8c,0xc4,0x3e,0xf5,0x9b,0x09,0xbe,0xcf,0xe6,0xf8,0x3d,0x84,0x18,0xfd,0x3d,0x2b,0x2b,0xc7,0x3d,0x20,0xc3,0x8f,0x3e,0x16,0x7e,0x1d,0xbf,0x04,0x74,0x42,0x3e,0x67,0xfd,0x14,0x3d,0x66,0x56,0x73,0x3d,0x2f,0x09,0x00,0x3e,0x0d,0x9c,0x64,0x3d,0xce,0x90,0x65,0xbd,0x7e,0x5f,0x8e,0xbc,0x4f,0x1c,0xe8,0xbd,0x98,0x4d,0x11,0xbe,0xf8,0x44,0x77,0xbd,0x99,0x19,0x8a,0xbe,0x08,0x39,0x47,0x3d,0xb5,0x25,0xba,0xbd,0xde,0x90,0x56,0x3e,0xd9,0xec,0x93,0x3d,0x10,0xbc,0xbe,0x3d,0x2b,0x5a,0x31,0x3e,0x1b,0x0e,0xbf,0x3d,0x8d,0x76,0x92,0x3c,0x01,0x8f,0x04,0x3e,0x1a,0xc3,0x35,0xbe,0xbb,0xb6,0xc0,0x3b,0xe0,0xda,0x38,0xbe,0x87,0x15,0x86,0x3e,0x0f,0x53,0x95,0xbe,0x9d,0x43,0x0f,0xbe,0xf6,0x3d,0x12,0x3e,0x98,0x62,0x49,0xbc,0x59,0x39,0x6f,0x3e,0x99,0x20,0x3e,0x3e,0x08,0x33,0xc0,0xbe,0x50,0x17,0x4f,0x3e,0x87,0x0e,0x66,0x3e,0xa1,0x38,0x35,0xbe,0x7f,0x95,0x27,0xbd,0xc9,0x24,0x8d,0x3e,0x1d,0x6c,0xbc,0xbe,0x6e,0x23,0x18,0x3e,0xa0,0x6a,0x96,0x3e,0x09,0x01,0x64,0xbe,0xc1,0x19,0x48,0x3e,0x6e,0xa6,0x04,0xbe,0xc4,0x4b,0xa4,0x3d,0x8b,0x00,0x33,0xbd,0x83,0xce,0x9e,0x3c,0xf5,0x9f,0x50,0xbd,0x5b,0x73,0x05,0xbf,0x36,0x0a,0xf3,0xbe,0xfb,0x9d,0x2a,0x3e,0xd2,0x31,0x19,0x3f,0xdb,0xcc,0xb0,0x3e,0x48,0x1e,0x8c,0xbc,0x90,0xea,0x9e,0x3e,0x9e,0x91,0x0a,0x3f,0x1a,0x04,0x5c,0x3e,0x6d,0xd6,0xf6,0x3d,0xec,0xcd,0xc7,0xbe,0x9c,0x78,0x9c,0xbe,0x18,0xfd,0xa1,0xbe,0xc7,0x86,0xea,0xbd,0xa7,0xd8,0xbf,0x3c,0xb1,0x23,0x37,0x3e,0x00,0x5e,0xe2,0xbe,0x89,0xaa,0x29,0x3f,0x0c,0x49,0x4e,0xbe,0xd8,0xf8,0x6f,0x3e,0x19,0x26,0x4e,0x3e,0x6a,0xa8,0xac,0x3e,0xbb,0xfe,0x8c,0x3d,0xaa,0x4a,0xab,0xbd,0x58,0xf7,0x67,0x3e,0x08,0x27,0xb4,0x3d,0xd1,0xf7,0x92,0xbd,0x6b,0x1d,0x9c,0xbd,0x33,0xb2,0xbb,0xbd,0x68,0x1c,0xbe,0x3d,0x92,0x8c,0x38,0x3e,0xf1,0x03,0x84,0xbe,0xdb,0x83,0x00,0x3d,0x6a,0x3c,0x57,0xb9,0x1b,0x33,0x80,0x3e,0xdb,0xe9,0x03,0xbe,0x37,0x58,0x46,0xbc,0x78,0xdb,0x88,0xbc,0xfc,0x60,0xcb,0xbe,0x1c,0x91,0xa4,0xbe,0x08,0x91,0x87,0xbd,0x68,0x32,0x5e,0xbe,0xb7,0xb8,0x8b,0xbe,0xf0,0x24,0x06,0x3e,0xfc,0x0c,0xef,0x3d,0xd6,0x1f,0x0c,0x3e,0xb7,0x27,0x60,0x3e,0x46,0xd8,0xa3,0x3e,0xd0,0xcf,0x87,0x3c,0xe1,0xe9,0x94,0xbe,0xb3,0x5f,0xb7,0x3c,0xb2,0x9f,0x80,0xbe,0xc7,0x58,0x9f,0x3c,0x1c,0xc7,0x83,0x3e,0x05,0x1d,0xe7,0xbe,0x21,0x03,0x3e,0xbe,0x11,0xe5,0x32,0x3f,0xc4,0x59,0x59,0xbe,0x48,0x23,0x0a,0x3d,0x42,0x93,0x60,0xbe,0xf1,0x9d,0x8b,0xbe,0xed,0x95,0x9d,0xbd,0x33,0x82,0xb3,0xbd,0xc1,0xc6,0x10,0x3d,0xe3,0x9a,0xc4,0xbe,0xa5,0x28,0xee,0xbe,0x1c,0xee,0xbb,0xbe,0xbb,0x16,0x9a,0x3e,0xd8,0x65,0x14,0x3e,0x5f,0xcc,0x90,0x3d,0x1f,0x68,0xb0,0x3e,0xa1,0x8d,0x12,0x3f,0x48,0x37,0x55,0xbe,0x20,0x44,0x6c,0x3c,0x94,0x79,0x12,0xbe,0xc1,0x8a,0x04,0xbe,0x31,0x81,0x4e,0xbd,0x09,0xbb,0xfb,0x3d,0x19,0x43,0x6b,0xbc,0x9f,0x8b,0x59,0xbe,0xff,0xff,0xdd,0xbd,0x18,0xc9,0x3a,0x3f,0x4c,0x9b,0x4e,0xbe,0x42,0x81,0x97,0x3d,0x99,0x86,0x74,0xbe,0xf4,0x41,0x80,0x3d,0x5e,0xa6,0xe5,0x3c,0x46,0x17,0x25,0x3e,0x2a,0x42,0x5a,0xbe,0xcf,0xa9,0x71,0xbe,0xcd,0xb5,0xd1,0xbd,0xec,0xbc,0x9a,0xbd,0xab,0x31,0x70,0x3e,0x30,0xa7,0x7f,0xbe,0x04,0x40,0xc8,0xbd,0x23,0x17,0xe4,0x3d,0x1b,0xd9,0xe6,0xbd,0x10,0xbb,0x62,0xbe,0x66,0xff,0x00,0x3e,0xfa,0xef,0x96,0xbd,0xfe,0x39,0x04,0x3e,0x47,0x30,0x26,0x3e,0x3c,0x84,0xbd,0x3b,0xaa,0x1a,0x5f,0x3d,0xc8,0x4a,0x14,0xbd,0x07,0x0e,0xf2,0xbd,0x46,0xf0,0x0b,0xbe,0x13,0x34,0xe0,0xbd,0x21,0x69,0x00,0xbb,0x7a,0x60,0x40,0xbe,0x75,0x08,0x6b,0xbc,0x6e,0x4f,0x65,0x3e,0xc7,0xe2,0x67,0x3d,0x55,0x17,0x4b,0x3e,0xaf,0x7a,0x64,0x3c,0x20,0x73,0x5b,0x3e,0x13,0xc1,0x1d,0x3e,0xea,0xa7,0x49,0x3e,0x74,0xf9,0x23,0xbe,0x99,0x82,0x4e,0x3e,0x00,0x4d,0x4e,0x3d,0x4e,0x55,0x14,0xbe,0xee,0xa1,0x81,0x3d,0x3a,0x5e,0x33,0xbe,0x2e,0xd1,0x40,0xbe,0xe3,0xf9,0xbd,0x3d,0xee,0x46,0x23,0xbd,0x58,0x6f,0xe9,0xbc,0x0e,0x5a,0xd5,0xbd,0x14,0xd2,0x0b,0xbe,0x0d,0xb8,0x55,0x3e,0x73,0xda,0xb4,0x3d,0x9c,0xc3,0xed,0x3d,0xea,0xbc,0x52,0xbd,0x9a,0x9d,0x8f,0x3c,0x7d,0xcc,0x68,0xbe,0x9f,0xad,0x59,0xbe,0x43,0xfc,0x82,0xbe,0xde,0x02,0x06,0xbe,0x91,0x13,0x53,0xbe,0x17,0xe6,0x4d,0xbe,0x03,0x5b,0xc0,0xbd,0xf8,0x40,0x01,0x3e,0x4d,0x0d,0x6c,0xbd,0x7a,0x52,0x0b,0xbe,0xd8,0x9c,0xfe,0x3d,0x8d,0x1e,0x89,0xbd,0x39,0x45,0x07,0xbe,0x71,0xb1,0x06,0xbe,0xb9,0xb5,0x8c,0x3e,0x3e,0xb8,0xa9,0xbd,0x6b,0xcb,0xfc,0x3d,0x69,0x68,0xcc,0xbc,0x28,0x30,0x80,0xbe,0x97,0x52,0x83,0xbc,0x04,0x74,0xe2,0xbc,0x4a,0x7c,0x14,0x3d,0xe4,0xc1,0xeb,0xbc,0xc2,0x6f,0xcb,0x3d,0x2b,0x17,0x65,0x3e,0x7d,0xdb,0x0c,0x3e,0x4d,0x45,0xa3,0xbe,0xfa,0xd7,0xef,0x3d,0x3e,0x10,0xd7,0x3c,0xdc,0xda,0xdf,0x3d,0x9d,0xd9,0x9b,0x3e,0x72,0x8b,0x7e,0xbd,0x31,0xf9,0xe7,0x3d,0x29,0x5f,0x88,0x3d,0xaf,0x2f,0xc0,0x3d,0x00,0x02,0x60,0x3c,0xca,0x8a,0x26,0x3c,0xf2,0xfa,0x7f,0x3d,0x29,0xc4,0x4d,0x3e,0xca,0x78,0x08,0x3e,0x1b,0x26,0x94,0x3e,0x83,0xee,0x06,0x3d,0xd7,0xb0,0xaa,0xbd,0xc5,0x97,0x13,0xbe,0x54,0xd6,0x68,0x3d,0xf9,0x33,0x96,0x3d,0xd1,0x4a,0x79,0x3d,0x17,0xc9,0x6f,0xbe,0x87,0x39,0x28,0xbe,0x32,0x48,0x14,0x3e,0xb4,0x1a,0x98,0xbe,0x17,0x82,0x73,0x3e,0x99,0xae,0x6c,0xbd,0xb3,0x6d,0xcb,0xbd,0x50,0x0c,0xe3,0x3c,0xe8,0xa8,0xbd,0xbc,0x37,0x58,0x2b,0xbe,0xa8,0x59,0x39,0xbe,0x88,0x05,0xfe,0xbe,0xc3,0xd3,0x14,0xbd,0x0f,0xc7,0x03,0x3e,0xab,0x34,0x3d,0xbd,0xe3,0x00,0xa9,0xbd,0x0f,0x98,0x63,0xbc,0x0e,0x45,0xf3,0x3e,0x04,0xb8,0x07,0xbd,0x80,0xcd,0xaa,0x3d,0x4a,0x27,0xc8,0xbe,0x82,0xd9,0x5a,0xbe,0x91,0x38,0xee,0x3a,0xd2,0x70,0xb7,0xbc,0x33,0x5e,0xef,0xbc,0xf8,0x01,0x46,0x3e,0x03,0xa3,0xa2,0xbe,0x5a,0x08,0xd3,0x3e,0x72,0x8e,0xf2,0x3d,0x50,0x18,0x30,0x3e,0xf0,0xac,0xf1,0xbd,0x60,0xee,0x43,0xbe,0xa0,0x67,0xa3,0x3d,0x04,0x81,0x2b,0xbe,0xa0,0x84,0xee,0xbd,0xc0,0x7f,0x7c,0xbd,0x46,0x61,0x95,0x3d,0x8c,0x1d,0x38,0x3e,0xa4,0x8e,0x34,0x3e,0x10,0xa6,0x07,0x3d,0x9c,0x54,0x51,0x3e,0x01,0x20,0x29,0x3e,0x3e,0x62,0x86,0x3c,0xe9,0x01,0xc7,0xbd,0xfc,0xa1,0xde,0xbb,0xe8,0xc3,0xdf,0xbd,0xe8,0x5f,0xb3,0x3d,0xe4,0x6d,0x12,0x3e,0xfc,0xd0,0x53,0xbe,0xf0,0x15,0x69,0xbe,0xbc,0x32,0x1e,0xbe,0xf8,0xa3,0x45,0xbe,0x7e,0x90,0xbb,0x3d,0x9f,0xe8,0xc1,0x3d,0x20,0x9d,0x8b,0x3d,0xb8,0x3e,0x9a,0xbd,0xb4,0xca,0x0d,0x3e,0x08,0x81,0xc8,0x3d,0xa1,0x2c,0x67,0x3e,0x80,0xa6,0x63,0x3d,0x38,0xca,0x84,0xbe,0x2e,0x57,0x6a,0xbe,0x92,0x4a,0x5a,0xbe,0xb7,0x3c,0x24,0xbe,0xfc,0x85,0x55,0x3e,0x98,0x94,0x61,0xbe,0x70,0x77,0xa5,0x3d,0x83,0x0d,0xae,0xbc,0xde,0xeb,0x12,0x3d,0xab,0x4f,0x72,0x3e,0x66,0x5a,0x30,0xbe,0x0c,0xab,0x52,0x3d,0xa6,0xe7,0x1b,0xbd,0x4a,0xe2,0x36,0xbe,0x80,0x4e,0x62,0x3d,0xfc,0x96,0x02,0xbe,0x42,0x74,0x4e,0xbe,0x07,0xef,0xdc,0xbd,0xf9,0x7e,0x55,0xbe,0x80,0x84,0x56,0xbe,0x88,0xc9,0x83,0xbe,0x83,0x6a,0xd3,0x3d,0x54,0xcc,0x7e,0xbe,0x61,0xd1,0x7b,0xbe,0xb8,0xf1,0x38,0x3e,0x40,0xc4,0x3c,0x3e,0x09,0x16,0xec,0xbd,0xa1,0xe0,0x50,0x3e,0x40,0x32,0x5f,0x3d,0xf7,0x6e,0x62,0x3e,0xd9,0xa5,0x87,0xbd,0x87,0xc4,0x57,0xbe,0xd9,0xd8,0x42,0xbd,0xac,0x00,0x21,0x3e,0xa4,0x67,0x0a,0xbe,0xba,0x1c,0xcd,0x3d,0x1f,0xa3,0xb4,0xbe,0x36,0x09,0xa5,0x3c,0xb8,0xfa,0xbf,0x3c,0x62,0xa5,0x7a,0xbe,0x60,0xea,0x2f,0x3e,0x76,0x19,0x5a,0x3e,0x58,0x46,0x42,0x3d,0xcd,0xa1,0x17,0x3e,0x10,0x34,0xf4,0x3c,0xf8,0xe5,0x19,0x3c,0x7a,0x04,0x7a,0x3e,0xb9,0x68,0xa7,0x3e,0xdc,0x89,0x89,0x3e,0x69,0x63,0xf9,0xbc,0xfb,0x97,0x48,0x3e,0xbd,0x01,0xc8,0xbd,0xad,0x98,0x01,0xbf,0xd6,0xd3,0x02,0xbf,0x1b,0xe0,0x20,0x3e,0x2a,0x7f,0xaa,0x3c,0xcd,0xc8,0xb0,0x3e,0x22,0xe3,0x02,0x3f,0xe3,0x49,0x2a,0x3d,0x1d,0xe6,0x99,0xbd,0x90,0x04,0x0a,0xbe,0x59,0x19,0xd2,0x3d,0x97,0xcc,0x06,0x3d,0x8b,0x15,0xd4,0xbe,0xfc,0xaf,0xc9,0x3d,0xc9,0x90,0x45,0xbd,0x5f,0x63,0x55,0xbe,0x14,0xdf,0xd2,0x3d,0x00,0xd5,0x9b,0xbe,0x72,0xaa,0x02,0xbe,0x2a,0x9a,0xf3,0x3e,0xbd,0xdf,0xb1,0xbe,0x1e,0x89,0xa4,0xbd,0x44,0xd7,0x8e,0xbe,0xf1,0xb7,0x95,0xbe,0xbb,0xfb,0x85,0x3e,0x6f,0xae,0xf2,0x3d,0xfb,0xca,0x1b,0x3d,0xe8,0x97,0x59,0xbf,0xfc,0xae,0x7d,0xbf,0x4f,0x74,0x00,0xbb,0x51,0x6a,0x9e,0x3e,0xb9,0xbb,0x4c,0x3e,0x7f,0x01,0x99,0xbe,0x23,0xfa,0xf5,0x3e,0x66,0x03,0x90,0x3f,0x59,0x75,0xc0,0xbd,0x88,0x3a,0x55,0xbe,0x75,0x79,0x2c,0xbf,0xf8,0x37,0xc2,0xbe,0x9d,0xaf,0x35,0x3e,0xcd,0x9f,0x19,0xbe,0x11,0x05,0xb8,0xbd,0xe6,0x4b,0x3c,0xbd,0xf5,0x27,0x51,0xbf,0x21,0x11,0x3a,0x3f,0x0a,0xb2,0x3e,0xbe,0x26,0x75,0x80,0x3d,0x8f,0xcc,0x8e,0xbc,0xba,0xf7,0x09,0x3e,0xd1,0x0d,0xfe,0xbd,0xc2,0xd1,0xaa,0x3c,0x88,0x47,0xa3,0xbe,0x54,0x61,0xc4,0xbc,0x27,0xea,0xbc,0xbd,0xb4,0xe5,0x97,0x3d,0xfc,0x9d,0x5a,0xbe,0x3c,0x83,0xa9,0x3c,0x22,0xfa,0xe2,0x3d,0x2a,0xdc,0x03,0x3e,0x0a,0x41,0x0e,0x3e,0xb7,0xd0,0x8d,0xbe,0x76,0x9f,0x33,0x3d,0x31,0xeb,0xea,0xbc,0xfe,0x93,0x5d,0x3d,0x8e,0xd5,0x8a,0x3e,0x85,0xe7,0x2e,0xbd,0x43,0x39,0xc3,0xbd,0xa3,0x67,0x73,0x3c,0xc4,0xed,0x40,0xbc,0x34,0x92,0x08,0xbe,0x15,0x22,0x40,0x3e,0x19,0x64,0x89,0x3e,0x95,0xda,0x96,0xbb,0xa3,0xe6,0xe4,0x3d,0x94,0xe8,0x87,0x3e,0xc8,0x18,0x7c,0xbe,0x79,0xb0,0x49,0xbd,0x58,0xdc,0x0b,0x3e,0x35,0xa5,0xb4,0xbd,0xcb,0x8f,0x33,0x3d,0x00,0x49,0x81,0x3e,0x3e,0xc1,0xf8,0xbe,0xe2,0xaa,0x1a,0x3d,0x8f,0x79,0x02,0x3f,0xff,0x82,0xe4,0xbd,0x2c,0x70,0xa1,0x3c,0xe8,0xb7,0x3e,0xbe,0x0f,0x7a,0x0c,0xbe,0xc3,0x9f,0xe8,0x3d,0x8f,0xd4,0x2e,0xbe,0xdf,0xee,0x09,0x3e,0x11,0x93,0x41,0xbe,0xc1,0x4b,0xcf,0xbe,0xce,0x34,0xf7,0xbd,0xa7,0x8b,0x3b,0x3e,0x55,0xf4,0x3e,0x3e,0x32,0x86,0xa8,0xbc,0xd0,0xb7,0x45,0x3e,0xf3,0x35,0xac,0x3e,0xac,0xea,0xb0,0xbc,0xd1,0xcf,0xdf,0x3d,0xa6,0x61,0x55,0xbe,0x62,0x8d,0x85,0xbe,0xf3,0xf4,0xcd,0xbd,0xc5,0xf9,0xbf,0xbd,0xd6,0xe4,0x40,0xbd,0xc0,0x36,0x2a,0x3e,0xbb,0x4b,0xbd,0xbe,0x8e,0xa2,0xab,0x3e,0x0a,0xbd,0x81,0x3e,0x50,0xfd,0x53,0x3f,0xcb,0x0f,0xcf,0xbd,0x9b,0x5a,0xa2,0xbd,0x4f,0xa7,0x3c,0x3c,0xcd,0xac,0x54,0x3e,0xf9,0x3f,0x25,0xbd,0x00,0xfc,0x16,0xba,0x3b,0xff,0x08,0x3c,0x17,0xd6,0x02,0x3e,0xeb,0xc3,0x99,0xbe,0x00,0x59,0x09,0x3e,0xad,0x78,0x1c,0xbf,0xdc,0xe2,0x74,0xbe,0xfc,0x6f,0xdc,0x3b,0x44,0x75,0x8d,0x3d,0x3b,0x8b,0x11,0xbe,0x75,0x31,0x9c,0x3e,0xe2,0x26,0x88,0xbc,0xe6,0x75,0x15,0xbe,0x9b,0x8e,0xb2,0xbe,0xa9,0xf9,0x4a,0xbe,0x31,0x88,0x4d,0x3e,0xcc,0xb3,0x79,0xbe,0x1e,0x7c,0xa5,0x39,0x8f,0x46,0x87,0xbd,0xdd,0xd5,0x63,0xbe,0xad,0xd0,0x3a,0x3e,0x2f,0xd4,0xe7,0x3d,0x67,0x81,0xfd,0x3e,0x6c,0x1a,0x8b,0x3e,0x02,0xff,0x4c,0xbe,0x74,0x27,0xa5,0x3d,0xfc,0x3d,0x44,0xbf,0x79,0xf8,0xba,0xbe,0x7b,0x5d,0xbc,0xbe,0x39,0x54,0x83,0xbe,0xae,0x17,0x6a,0xbe,0xf8,0x31,0x7f,0x3e,0x38,0x1f,0x52,0xbe,0xb3,0xab,0x9a,0x3d,0x4e,0xd4,0x52,0xbf,0x96,0x43,0x14,0xbf,0x54,0x73,0x6b,0x3e,0xf2,0x68,0x25,0xbf,0x90,0x4f,0xc0,0xbd,0x18,0x12,0x24,0xbf,0x26,0xdc,0x99,0xbe,0x1f,0x5b,0xcf,0xbe,0x09,0x3d,0xc5,0x3e,0xf7,0xb7,0xb7,0x3e,0x67,0xba,0x89,0xbd,0xc6,0xe8,0x8f,0xbd,0xee,0xf5,0x9f,0x3f,0x77,0x35,0xd5,0x3d,0x77,0xe6,0x2e,0xbf,0x2c,0x60,0x1d,0xbf,0x81,0x99,0x6d,0xbe,0x41,0x50,0x08,0xbf,0x19,0xb0,0x65,0xbe,0x70,0x39,0xbc,0xbf,0x21,0x68,0x9e,0xbc,0xaa,0xfa,0x12,0xbf,0xc9,0xb1,0xa8,0x3e,0xb4,0x8b,0xe6,0x3d,0x3f,0x3c,0x25,0x3c,0x0c,0x02,0x7d,0xbd,0x89,0xd3,0xa3,0x3e,0x25,0xc4,0x09,0xbe,0xa6,0xb5,0x5b,0xbb,0x05,0x59,0x59,0xbd,0x9a,0x8b,0x3a,0xbe,0x9d,0x3a,0x27,0x3c,0x90,0xbe,0x1c,0xbd,0x78,0x97,0x36,0x3e,0xbc,0xe4,0xcf,0x3e,0x80,0xf9,0xce,0x3d,0xfd,0x94,0x4d,0xbe,0xbd,0xe6,0x87,0xbd,0x97,0xb9,0x0d,0x3c,0x91,0xd0,0xb4,0xbd,0x9a,0xf7,0x11,0x3d,0x6c,0xc6,0x9d,0x3e,0x77,0x7f,0x1b,0x3e,0x99,0xeb,0x33,0xbd,0xf1,0x84,0xe0,0x3e,0x85,0xb9,0x3c,0xbc,0x67,0x55,0x3a,0x3d,0xa9,0xf1,0xc1,0xbe,0x87,0x93,0x3b,0xbe,0xb0,0xfa,0x93,0xbc,0x30,0x54,0xe0,0x3d,0x98,0xfc,0xd4,0xbd,0x36,0x12,0x51,0xbd,0x11,0xcc,0xa6,0xbe,0xb9,0x46,0xa0,0x3c,0x80,0x32,0x5f,0xbd,0xdc,0x71,0x1a,0x3e,0x93,0xb9,0x83,0x3d,0xad,0xc0,0x28,0x3e,0xf5,0x4d,0xa5,0xbe,0x51,0x72,0x03,0xbd,0xd5,0x91,0x06,0x3f,0x58,0xe9,0xe3,0xbd,0xcd,0x72,0x64,0xbe,0x12,0x45,0x34,0xbe,0x34,0xc8,0xbf,0x3d,0xc5,0x2e,0xc1,0x3d,0xb5,0x6f,0x8a,0xbe,0xc9,0x76,0x83,0x3e,0xe9,0x0a,0x9c,0xbe,0x3c,0x27,0x7a,0xbe,0x86,0xf9,0x17,0x3e,0xdb,0xd7,0xe6,0x3e,0x08,0xaa,0x95,0x3e,0xb2,0xad,0x82,0xbe,0x95,0x94,0x9b,0xbc,0xb4,0xd6,0x05,0x3f,0x76,0x5e,0x11,0x3e,0xcb,0x8b,0xb6,0x3c,0x3a,0x6e,0xbc,0xbe,0x35,0x25,0x5a,0xbe,0xe2,0xd1,0x0a,0x3e,0x25,0x66,0x86,0xbe,0xd4,0x01,0xdd,0x3c,0xc1,0xb4,0xb7,0xbd,0x17,0x98,0xc2,0xbe,0x20,0x62,0x42,0x3f,0x20,0xe6,0x76,0x3e,0xd2,0x5d,0x95,0x3e,0x84,0xb0,0xc4,0x3e,0x46,0x57,0x9f,0xbd,0x4e,0x2a,0x6b,0x3e,0x80,0xae,0xa1,0xbd,0x8f,0xec,0x09,0x3f,0x04,0x68,0xec,0x3e,0xe3,0x14,0xb8,0x3d,0x0b,0xe6,0xec,0xbd,0x57,0x88,0x92,0x3e,0x2f,0x7c,0x0c,0xbe,0x51,0xea,0x36,0xbe,0xf5,0x63,0x00,0x3e,0x50,0xe5,0xf0,0xbf,0x29,0x97,0xdb,0xbf,0xc8,0xd3,0xd9,0x3c,0xd1,0x64,0xeb,0x3e,0x93,0xde,0xde,0x3d,0x45,0x45,0xe1,0x3d,0x7e,0x35,0xc9,0xbd,0xdb,0x0a,0x03,0x3f,0x0a,0xd3,0xd0,0xbd,0x33,0x24,0x97,0x3e,0x7b,0xfc,0x14,0xc0,0x68,0x99,0x9e,0xbf,0x15,0x5c,0x87,0x3e,0xf8,0xba,0x34,0xbe,0xaa,0x04,0xd7,0xbc,0xa2,0x4e,0x7a,0x3e,0x79,0xfc,0x0f,0xc0,0x91,0x0d,0xc0,0x3e,0xab,0xe8,0x59,0xbd,0x90,0xe9,0x12,0xbe,0xd1,0xdf,0x25,0x3e,0x80,0x9f,0xe2,0xbd,0xee,0x18,0x8b,0x3e,0x2c,0x18,0x9c,0xbe,0x10,0x27,0x91,0xbe,0x98,0xed,0x4a,0xbe,0x75,0x21,0xf5,0xbc,0x1a,0x95,0x2d,0x3e,0xf6,0xb1,0x0f,0x3e,0xa7,0xbc,0x0f,0xbe,0x0d,0x91,0x73,0xbb,0xde,0x71,0x4a,0xbd,0x8a,0xd1,0x61,0x3e,0xb7,0x62,0xfd,0x3d,0x6a,0x64,0xe1,0xbc,0xf9,0x28,0x07,0xbf,0xa3,0x0c,0xb9,0xbe,0x85,0xf9,0x03,0xbe,0x3c,0xf2,0x26,0xbe,0x69,0x8c,0x18,0xbd,0x27,0x73,0xc2,0xbc,0x34,0x0d,0xac,0xbd,0x60,0x75,0x66,0x3e,0xb5,0x30,0x30,0xbe,0xb0,0xfd,0x10,0xbe,0x27,0x97,0x12,0x3e,0x83,0xe5,0x36,0xbb,0x62,0x15,0x9f,0xbe,0xcc,0x02,0x32,0x3d,0xcd,0x28,0xee,0x3d,0xdb,0x99,0x9a,0x3d,0xaa,0x65,0x91,0x3e,0xea,0xdb,0x08,0x3e,0xd9,0xf2,0x9f,0xbd,0xce,0xc5,0xae,0x3e,0x5e,0x15,0x8c,0xbd,0xf4,0x83,0x70,0xbf,0x61,0x5e,0x0f,0x3e,0xb8,0xc1,0x5a,0x3e,0x88,0x35,0xa3,0x3e,0x58,0x16,0x6e,0x3e,0x52,0xa6,0xc3,0xbe,0xb7,0xec,0x8c,0x3e,0xd3,0xe8,0x84,0x3e,0x37,0x15,0xc7,0x3d,0x04,0xd0,0x9f,0x3e,0x35,0xa5,0xa5,0x3e,0x35,0xbb,0x06,0xbf,0xee,0xb9,0xcb,0xbe,0x65,0x67,0xc0,0x3e,0xa9,0xf4,0x8b,0x3e,0x3e,0xdb,0x0f,0xbf,0xab,0xcd,0xbd,0xbd,0x0a,0x3f,0xf1,0xbd,0x47,0x92,0xe8,0x3e,0x26,0x05,0x76,0xbe,0xea,0xd5,0x87,0x3e,0xde,0x42,0xbf,0xbd,0xb6,0x20,0x82,0x3e,0x21,0xcc,0x8f,0xbe,0x60,0x0a,0x7f,0x3e,0xd6,0x1d,0x08,0xbf,0x8a,0x7f,0xc8,0x3e,0x5d,0x1a,0xcc,0xbb,0x7e,0xcf,0x69,0x3d,0x15,0x64,0x34,0xbe,0xca,0x08,0x1d,0x3f,0x6e,0x02,0xbb,0x3e,0x6a,0x74,0xcb,0xbe,0xc6,0x55,0x88,0x3e,0xe9,0xfe,0x0c,0xbe,0x04,0xe5,0xbc,0x3e,0x2e,0x4b,0xb0,0x3e,0x16,0x48,0x80,0x3c,0x0e,0x13,0x15,0x3e,0x77,0xa2,0x3c,0x3e,0xdf,0xb5,0x6b,0xbf,0x99,0x6c,0x50,0xbf,0x8a,0xf6,0xf6,0x3e,0xc1,0xcc,0xca,0xbe,0x01,0x43,0xe6,0x3d,0x98,0x30,0xe7,0xbc,0xd0,0x3d,0x0a,0xb9,0x20,0x58,0xde,0x3d,0x46,0x9e,0x36,0x3e,0x88,0x94,0x3e,0x3e,0x31,0xde,0x2a,0xbf,0x94,0xb2,0x57,0xbf,0x66,0x6d,0x22,0x3e,0x57,0x9c,0xda,0xba,0xb1,0x88,0x59,0x3e,0xad,0x0c,0xa7,0x3e,0x05,0x23,0x86,0xbf,0xea,0x2f,0xc9,0xbd,0xd0,0x12,0x63,0x3e,0xc9,0x59,0x30,0xbe,0x5b,0xcb,0x66,0x3e,0xbb,0x51,0x62,0xbe,0x27,0xba,0xba,0x3e,0x29,0x66,0xcc,0xbd,0x03,0x34,0x21,0xbf,0xdc,0xc7,0x62,0x3e,0x66,0x8c,0xaa,0x3e,0xd2,0x17,0x43,0xbe,0xf0,0x4f,0x59,0xbd,0xdb,0x89,0x1e,0xbe,0xa1,0x56,0x9a,0xbd,0x9e,0x55,0x73,0x3d,0x4d,0xdf,0x94,0x3e,0x9e,0xbf,0x98,0x3e,0xee,0xad,0x8c,0x3e,0x47,0xc2,0x19,0xbf,0x98,0xc3,0x8a,0x3d,0x53,0x71,0x8c,0x3d,0x50,0xb2,0x3f,0xbd,0xc9,0x09,0xd5,0xbe,0xab,0x58,0xbc,0x3e,0xb8,0x4d,0x39,0x3e,0x5d,0x4f,0x8e,0x3e,0x54,0xc3,0xac,0x3e,0x2f,0xb2,0x63,0x3e,0x3d,0x16,0x35,0xbe,0x53,0x6d,0x07,0x3e,0xba,0x55,0xdb,0x3d,0xa1,0xa2,0xde,0x3e,0xa6,0x1d,0x8a,0xbe,0x39,0x8d,0x98,0xbc,0x9f,0x5f,0x74,0xbd,0x50,0xb9,0x5d,0x3e,0xa0,0xdc,0x41,0xbd,0x69,0xfa,0x80,0x3e,0xd3,0xcd,0x41,0x3e,0x31,0x01,0xeb,0x3d,0x7d,0x67,0x08,0x3e,0xf5,0xf1,0x35,0xbe,0x31,0x18,0x72,0x3e,0xd6,0x53,0xd2,0x3e,0x42,0x37,0xf6,0x3c,0x57,0x3f,0xa1,0x3e,0x88,0x4a,0x9b,0x3e,0x2c,0x15,0xe6,0xbe,0x05,0xcd,0x9f,0xbe,0xc1,0x81,0x8d,0x3e,0xd2,0x0e,0x3b,0xbe,0x6e,0x4a,0x1c,0x3e,0x91,0xd4,0x3a,0xbd,0xc8,0x05,0xd4,0x3d,0x0b,0x1b,0x2a,0xbd,0x2e,0x17,0x8b,0xbd,0x37,0x49,0x14,0x3e,0xc4,0xd2,0x2f,0xbf,0x8b,0xb6,0xef,0xbe,0x97,0x2b,0x7a,0x3e,0x44,0xd6,0xa3,0xbd,0x67,0x77,0x8b,0xbd,0xc6,0x8c,0x02,0x3c,0xd3,0x01,0x18,0xbf,0x94,0x51,0x62,0x3e,0xb9,0x50,0xac,0x3e,0x8d,0xe6,0xa2,0x3e,0x85,0xef,0x0d,0x3e,0x36,0x8d,0x35,0xbd,0x7e,0xb1,0xa6,0x3d,0xbd,0x79,0xdb,0x3d,0x4e,0xa6,0x8d,0x3e,0x60,0x7d,0xcb,0x3c,0x9b,0x08,0x1c,0xbe,0x18,0x8d,0xb3,0x3d,0xab,0x8a,0xf5,0x3d,0xc7,0xee,0x84,0x3e,0x12,0xc8,0xfe,0x3d,0x3c,0x55,0x63,0xbd,0x92,0x9b,0xbd,0xbf,0x34,0xea,0xa5,0xbf,0x53,0x04,0x68,0x3c,0xfb,0xa4,0xa5,0x3e,0xc7,0x84,0x33,0x3d,0x37,0xac,0xde,0xbd,0x5f,0x55,0x77,0xbf,0xcb,0x0a,0x79,0x3f,0xa1,0x19,0xfd,0xbd,0x2a,0x1a,0x54,0x3d,0xf7,0x28,0xee,0xbf,0x0c,0xf5,0x75,0xbf,0xf5,0x54,0xfa,0xbd,0x17,0xb1,0x58,0x3e,0x2b,0x29,0xa2,0xbd,0x7e,0xd4,0x5a,0x3e,0x44,0x67,0xe8,0xbf,0x75,0xb1,0x57,0x3f,0x91,0x8a,0xb5,0xbe,0xab,0xf4,0x4d,0xbe,0xc2,0x61,0x82,0xbe,0x66,0xa5,0xce,0x3c,0x10,0x1b,0x4c,0x3e,0x4d,0xa7,0xc8,0x3d,0x8a,0x40,0x54,0xbe,0x91,0x90,0x7b,0xbe,0x33,0x79,0xbf,0xbd,0x40,0xa4,0x40,0xbe,0x88,0x8f,0x49,0xbe,0x73,0x68,0x52,0xbe,0xaf,0x07,0x05,0xbe,0x43,0x35,0x5a,0xbd,0x23,0x90,0x14,0x3d,0xc3,0x61,0x84,0x3e,0x42,0x8e,0x80,0xbc,0x39,0x1a,0x79,0xbe,0xb8,0x44,0xb7,0xbd,0x8f,0x9f,0x11,0xbe,0x4f,0xab,0xfe,0x3c,0x5f,0x7e,0x8a,0xbe,0x88,0xb0,0x19,0x3d,0xe7,0xfb,0x52,0x3e,0xb8,0x2b,0xdf,0x3e,0x82,0xef,0xae,0x3e,0x55,0x28,0x75,0x3d,0x90,0x52,0x38,0xbc,0x4b,0x6f,0x62,0x3e,0xb1,0xc1,0x66,0xbe,0x0d,0xd3,0xcf,0x3e,0x87,0xc1,0xcd,0x3b,0xac,0x59,0x25,0x3d,0x0d,0x47,0x03,0x3e,0x77,0xd6,0x6e,0x3d,0x5c,0xbd,0x30,0xbe,0xf9,0xb4,0x91,0x3e,0xf4,0x1f,0xcf,0xbd,0xd0,0xe5,0x93,0xbe,0x8a,0x35,0x0e,0xbe,0x17,0x78,0xa0,0x3e,0xcf,0x9e,0x08,0xbe,0x3d,0xa5,0x93,0x3c,0xee,0x11,0xd4,0x3b,0xe6,0x82,0x82,0xbd,0xcf,0x1f,0x09,0x3e,0x6f,0x50,0x61,0x3e,0xa3,0x4c,0xc2,0x3d,0xe5,0x33,0x85,0xbe,0xf9,0x17,0x25,0xbe,0x6c,0x09,0x60,0xbd,0x88,0x26,0xfe,0xbd,0x51,0x9a,0xe6,0x3b,0x7f,0x28,0x0b,0xbf,0xe0,0x93,0xbf,0x3e,0x5f,0x0e,0x05,0xbe,0x7a,0xf1,0xde,0x3d,0x38,0xf4,0x92,0x3e,0xe4,0x68,0x17,0x3e,0xd2,0xa4,0x86,0xbe,0xe8,0x3e,0xb2,0x3b,0x3b,0x43,0xfc,0xbd,0x1d,0x96,0x7c,0x3e,0x5e,0x70,0xb7,0x3d,0x98,0xbb,0xda,0xbd,0x03,0x20,0xfc,0x3c,0x8c,0xe0,0x8a,0x3e,0x2c,0xf4,0x9e,0x3d,0x80,0xa7,0x2d,0x3d,0x91,0x13,0x1b,0xbe,0xbd,0xda,0x0a,0xbf,0x01,0x88,0xfc,0x3d,0xce,0xd6,0x86,0x3e,0x5f,0xa9,0xc0,0xbd,0x0f,0xcf,0x88,0x3e,0xee,0x4c,0x0e,0xbe,0xe3,0xa9,0xf7,0x3d,0x8f,0x33,0x8b,0xbc,0x77,0x02,0x23,0x3f,0xfa,0xa5,0x17,0x3f,0x02,0x26,0x4c,0x3e,0x54,0x2a,0x13,0xbf,0x39,0x1d,0x97,0xbe,0xb0,0x99,0x8b,0xbd,0x44,0x4d,0xd3,0xbe,0x0d,0xa5,0x9e,0xbf,0x85,0x2a,0xf5,0xbd,0x63,0x69,0x7f,0x3e,0x6d,0x31,0x11,0x3f,0x86,0x0a,0xf8,0x3e,0x1d,0xe8,0xa8,0xbc,0x85,0x8a,0x69,0x3e,0x26,0x3c,0xda,0x3d,0xb1,0x5e,0x39,0xbd,0x0c,0x7b,0x53,0x3f,0x28,0x38,0x1f,0xbf,0x0b,0x74,0x84,0x3e,0x15,0xc1,0x8b,0x3e,0xb6,0x7e,0x59,0x3e,0xdc,0x23,0xf7,0x3c,0xe9,0x8e,0x04,0x3e,0x44,0xef,0xe5,0xbd,0x0a,0x27,0x27,0xbf,0x52,0xc5,0x3c,0x3e,0x95,0x5c,0x22,0x3e,0x34,0xc2,0xc0,0xbd,0xf8,0xcb,0x8e,0x3e,0xb5,0x4b,0x48,0xbe,0xc9,0x93,0x44,0xbe,0x48,0xad,0x32,0xbc,0x75,0x59,0x47,0x3e,0x05,0x25,0x9f,0x3d,0x67,0x0c,0x72,0x3e,0x26,0xc6,0x11,0xbf,0x8e,0x47,0x58,0xbd,0x28,0xd8,0x97,0x3e,0x5d,0xc9,0x64,0x3e,0x36,0xc7,0x29,0xbf,0xe1,0x3d,0xa2,0x3e,0x4c,0xb0,0xb9,0xbb,0x55,0x5c,0xa3,0x3e,0x06,0x9e,0xb9,0x3e,0x87,0x18,0x1e,0xbe,0xee,0x2b,0x3f,0xbe,0x51,0xc5,0x9b,0x3d,0xc5,0x52,0xdd,0x3d,0xdf,0x56,0x94,0x3e,0x83,0x85,0x12,0xbf,0xc2,0xe0,0xab,0x3e,0x40,0x63,0x16,0x3e,0x88,0x4c,0x9f,0x3d,0xec,0xd6,0x27,0xbe,0xa4,0xac,0xfe,0x3e,0x90,0x53,0x0e,0xbe,0x09,0x7f,0x36,0xbe,0x6c,0x51,0x4f,0x3e,0x04,0x32,0x52,0x3e,0x47,0x05,0xb2,0xbd,0xac,0x30,0x5e,0x3e,0x40,0x46,0xe8,0x3d,0x8b,0x51,0x5f,0x3e,0x92,0x59,0x2f,0xbe,0x78,0x3f,0x1e,0xbd,0xbf,0xe0,0x3a,0xbe,0xff,0x37,0xe1,0xbd,0x11,0xfd,0x81,0xbe,0xcb,0xca,0x4e,0xbe,0x55,0x6c,0xbb,0x3e,0x46,0xa6,0x86,0xbe,0x60,0x1f,0x93,0xbd,0x80,0x39,0x72,0x3e,0xa8,0x1a,0x8f,0x3e,0x99,0x9b,0x90,0x3c,0x7f,0xd2,0x41,0xbd,0x67,0x78,0x72,0x3e,0xd0,0xd4,0x8a,0x3e,0xa7,0x03,0x9e,0x3e,0xf4,0xb4,0x57,0x3e,0x90,0xd5,0x68,0xbe,0x43,0xcf,0xc2,0xbe,0x41,0x14,0x84,0x3e,0x03,0xb2,0x21,0x3e,0x4e,0x78,0x1b,0xbe,0xb6,0x05,0x51,0x3e,0x81,0x5e,0x35,0xbd,0x12,0xad,0x0d,0x3e,0xae,0x4d,0xfc,0x3e,0x7c,0xc4,0x7b,0x3e,0x62,0xd8,0x91,0xbb,0xf4,0xa4,0xf9,0xbd,0x6e,0x46,0x4e,0x3e,0x0b,0xcf,0x49,0xbd,0xa5,0x6d,0x7e,0x3e,0x9f,0x87,0x27,0xbc,0x66,0x39,0x7f,0xbf,0xd2,0x5b,0x83,0xbf,0xd2,0xf2,0xed,0xbe,0xe8,0xb9,0x0b,0x3f,0xcd,0x18,0x88,0x3e,0xde,0x56,0x94,0xbe,0x7f,0x62,0x51,0xbe,0x99,0xb3,0x19,0x3f,0xde,0x52,0x57,0xbe,0x4a,0x64,0x0d,0x3c,0x55,0x1f,0xa7,0xbf,0xfb,0x90,0x31,0xbf,0xc1,0x28,0xc6,0xbd,0x58,0xbf,0x2b,0x3e,0xa4,0x0d,0x9b,0xbc,0x41,0x98,0xbd,0x3e,0xa3,0x46,0xdd,0xbf,0xea,0x05,0x2e,0x3f,0xf6,0x17,0xd9,0x3c,0x95,0x9c,0xcf,0x3b,0xd5,0x2e,0x2d,0xbd,0x2e,0xc6,0x8f,0xbe,0x7d,0xca,0x0a,0x3d,0x31,0x2e,0x2f,0xbd,0x07,0x7f,0xbc,0xbd,0x5c,0x6b,0xab,0xbe,0xb6,0xc9,0x0f,0x3e,0x2f,0x23,0x2d,0xbd,0x22,0x3d,0x8f,0xbe,0xc4,0x65,0xc1,0xbe,0x6d,0xdb,0x03,0xbe,0x85,0xad,0xfa,0x3d,0xa9,0xfb,0xb1,0x3e,0x87,0xfb,0x56,0x3e,0xbb,0x18,0xfe,0x3d,0xbb,0xce,0x2e,0xbe,0x25,0xcf,0x03,0xbd,0xb2,0x90,0x91,0x3e,0x4f,0x63,0x0b,0x3e,0x86,0x97,0xe2,0xbe,0x57,0x8a,0xc5,0xbd,0x0c,0xd1,0xe3,0xbd,0x8e,0x14,0x26,0x3f,0x7e,0xd6,0x0d,0x3f,0x59,0x3a,0x14,0xbd,0xb8,0x9f,0x53,0x3d,0x3b,0xab,0x10,0xbd,0x27,0x36,0x02,0xbd,0x8a,0x8f,0x0f,0x3f,0x84,0xd2,0xf6,0xbd,0x09,0x78,0x89,0xbc,0x26,0x44,0x47,0x3e,0x8b,0xf6,0x8b,0xbe,0x02,0xec,0x26,0xbc,0x2d,0x05,0xae,0x3e,0x25,0x56,0x96,0xbe,0xb4,0xaa,0x2f,0xbf,0x42,0xdc,0x3f,0x3e,0xbb,0xbd,0xbb,0x3e,0xd6,0x37,0xdd,0xbd,0xe1,0xc2,0xee,0xbd,0x71,0xeb,0x93,0x3c,0x3c,0xa2,0xc8,0xbb,0x71,0x68,0xa7,0xbd,0xf4,0x23,0x80,0x3e,0xda,0x12,0x1d,0x3f,0x76,0xc1,0x8d,0x3e,0x54,0x3c,0x1a,0xbf,0xb7,0x55,0x3c,0xbe,0xe0,0xb3,0x8a,0x3d,0x74,0x0d,0xf1,0x3d,0xc0,0xc1,0x37,0xbf,0xb3,0x98,0x4a,0x3e,0xe9,0x6f,0x63,0x3e,0x76,0x9c,0x31,0x3f,0x69,0x74,0xdb,0x3e,0x88,0xfa,0x2a,0xbe,0xec,0x1b,0x11,0x3d,0x32,0x78,0x78,0xbd,0xfb,0x15,0xc2,0xbe,0x13,0x4f,0xaa,0x3e,0x8e,0x3f,0x69,0xbf,0xee,0x99,0xa3,0xbd,0x49,0x8f,0x07,0x3e,0x4e,0x1b,0xa6,0x3e,0x36,0xc2,0x3c,0x3e,0x64,0x3a,0xf0,0x3e,0x42,0x34,0x85,0x3e,0x7b,0x0b,0x27,0xbe,0x04,0x98,0x87,0x3e,0x5a,0x9a,0xb5,0x3c,0xe2,0x14,0x9c,0x3e,0xa9,0xe7,0x22,0x3e,0x29,0x82,0xfc,0x3d,0x8a,0xcc,0x5f,0x3e,0x3e,0x03,0x06,0xbd,0xd9,0x84,0x70,0xbe,0x78,0xbc,0x82,0x3d,0xaf,0x89,0x88,0xbc,0xfa,0x3f,0x55,0xbe,0x1d,0x04,0x15,0xbc,0x1b,0x5d,0xa0,0xbd,0x63,0xf4,0x5d,0xbd,0x9c,0x9d,0xaf,0xbd,0x7b,0x1a,0xc8,0x3e,0xb1,0xce,0x86,0xbd,0x92,0x54,0xa0,0x3c,0x65,0x22,0x91,0xbd,0x77,0x1a,0x0e,0x3d,0x35,0xa9,0x1e,0x3d,0x9c,0x59,0x9e,0x3d,0x05,0xd0,0x71,0x3e,0x31,0x05,0x1d,0xbe,0x1a,0x10,0x90,0xbe,0xfb,0xda,0x60,0xbd,0x9e,0x94,0x5d,0x3e,0xbb,0x11,0xc1,0x3d,0x8f,0x0d,0xad,0xbc,0xf3,0x24,0xfd,0xbd,0x3f,0xdd,0x9d,0x3e,0x42,0xf8,0x82,0x3e,0xfd,0x55,0x7c,0xbd,0x17,0xb3,0x93,0xbe,0x65,0x2f,0x59,0x3c,0xd1,0xf7,0x41,0xbe,0xff,0x09,0xc0,0x3e,0x00,0xd9,0xc5,0xbd,0x64,0x37,0x8a,0x3d,0x6c,0x96,0x34,0xbe,0x11,0x8e,0xd5,0xbe,0x59,0x2b,0xfd,0x3d,0xc4,0x27,0x9c,0x3e,0xb8,0xcc,0xa9,0x3e,0x23,0xeb,0x74,0xbe,0x41,0x2c,0x8a,0xbe,0xd9,0xb0,0x22,0x3f,0x91,0x3b,0x30,0x3e,0x12,0x5e,0xe9,0xbd,0x62,0xa8,0x73,0x3c,0x42,0x4f,0x56,0x3c,0xdc,0x41,0x28,0x3e,0x96,0x4a,0x0f,0x3e,0x7b,0x93,0x82,0xbe,0x88,0xbb,0x3e,0x3e,0x2f,0x9c,0xf2,0xbe,0x79,0x7b,0xca,0x3e,0x82,0x82,0xd4,0x3b,0x01,0x33,0x2f,0xbe,0xd3,0xda,0xfa,0x3d,0x0b,0x5e,0x48,0x3d,0x1c,0x78,0xf2,0xbe,0xf1,0x73,0x8e,0xbc,0x7b,0xcc,0x13,0x3f,0xee,0x3d,0x9e,0xbe,0xa4,0x14,0xbd,0xbd,0x17,0x4b,0x0a,0x3e,0xe1,0x01,0x1a,0xbe,0x88,0x3d,0x2e,0x3e,0xc6,0x14,0x8f,0xbe,0x7a,0xd5,0x21,0xbe,0xba,0xae,0xe7,0xbe,0xdb,0x39,0xec,0xbe,0xd4,0xb5,0x61,0xbe,0x3d,0xf6,0x58,0x3e,0x1b,0xe0,0xa4,0x3b,0x63,0xc5,0x8f,0xbc,0xb7,0xf8,0xce,0x3d,0x2c,0xe1,0x36,0x3f,0xb9,0x01,0xe5,0xbd,0x2e,0x93,0x18,0xbd,0xdf,0x68,0x9d,0xbe,0x63,0xa9,0x23,0xbe,0x20,0x39,0x9a,0x3d,0x13,0xa7,0xdc,0xbd,0xcf,0x87,0x27,0xbe,0x99,0x37,0xee,0xbc,0x30,0xb6,0xa1,0xbe,0x75,0x52,0xf3,0x3e,0xf8,0x98,0x1c,0x3d,0x0b,0x21,0x3a,0xbe,0xbc,0xd1,0x7c,0x3d,0x43,0xae,0x32,0x3e,0x03,0x36,0x13,0x3d,0x20,0x92,0x30,0x3e,0xc3,0xe8,0xe8,0x3d,0x40,0x56,0x13,0xbe,0xae,0x69,0x30,0xbe,0xf8,0xed,0x0b,0x3e,0xd8,0xc1,0xb2,0xbc,0xdf,0x30,0x8b,0x3e,0xe7,0xca,0x2d,0xbd,0xcf,0xe0,0x7b,0x3d,0x2b,0x03,0x1f,0xbe,0x5e,0x60,0x89,0xbd,0xdd,0x9a,0xd0,0x3e,0x6b,0x53,0xae,0xbd,0x2f,0xc2,0xfd,0x3d,0xc6,0x02,0x1f,0x3d,0x7c,0x3c,0x0c,0xbe,0x5a,0x80,0xf7,0x3d,0xd4,0x8e,0x36,0x3e,0x78,0x78,0x71,0x3e,0x1d,0xfa,0x75,0xbe,0x5a,0x96,0x85,0x3d,0x59,0xdf,0x78,0x3e,0xe1,0x7a,0x2a,0x3e,0x66,0x13,0x5e,0x3e,0x0d,0xec,0x3a,0x3e,0x26,0x40,0x18,0x3d,0x07,0x6e,0x59,0xbe,0xe1,0xd5,0x8c,0x3d,0x41,0xd1,0x2a,0x3e,0x74,0x60,0xa8,0xbd,0x24,0x2e,0x33,0xbb,0xd9,0xd9,0x5f,0xbe,0x08,0x44,0xfa,0x3d,0x49,0x2c,0x84,0x3e,0x25,0x77,0x46,0xbe,0xc8,0x8a,0x69,0x3e,0x92,0x33,0x8e,0xbe,0xeb,0x38,0x3d,0xbe,0x7e,0x03,0x8a,0x3e,0x7c,0xea,0x26,0xbd,0x85,0x14,0x37,0xbe,0x71,0x34,0x9f,0xbe,0x55,0x58,0xf6,0xbe,0x77,0x4e,0xc7,0x3c,0x99,0xd1,0xcb,0x3d,0x9f,0x4f,0xff,0xbc,0xa6,0xdd,0x97,0x3d,0xa2,0x2e,0x77,0x3e,0x89,0x76,0xf4,0x3e,0x29,0x0b,0x4b,0x3d,0x22,0xfb,0x8d,0xbe,0x9a,0x19,0x09,0xbf,0x9c,0x6f,0x16,0xbd,0xb6,0x7b,0x38,0xbe,0xea,0x6a,0x10,0xbc,0x81,0x24,0xda,0xba,0x38,0xdc,0x46,0xbe,0x7d,0x86,0x80,0xbe,0xa5,0x43,0x6e,0x3e,0x6a,0xd8,0x56,0xbd,0x58,0x6c,0x76,0xbc,0xd6,0xc7,0xcc,0xbe,0x78,0x33,0xe6,0x3d,0x1a,0xe9,0x16,0xbe,0x69,0x8b,0x3f,0xbe,0x22,0x81,0xee,0x3d,0xbe,0xc2,0x43,0xbe,0xe6,0x39,0x72,0x3e,0x59,0x40,0x54,0xbe,0xff,0x19,0x23,0xbe,0x48,0xee,0xf7,0xbe,0x10,0x3d,0x7a,0xbe,0xd2,0x58,0xe8,0xbd,0x4b,0x30,0x15,0x3f,0xd6,0xdd,0x8c,0x3e,0x72,0x88,0xad,0x3d,0x28,0x55,0xc9,0xbe,0x11,0x22,0xc4,0xbe,0xfb,0xf2,0x66,0x3e,0x89,0x74,0x9a,0x3e,0xd2,0xa7,0x80,0xbe,0x6e,0xd3,0xf3,0x3d,0x7f,0x37,0x81,0xbe,0x8b,0xd2,0x0d,0x3f,0x3f,0x9a,0x13,0x3e,0x3f,0x31,0xa3,0xbe,0x46,0xab,0x89,0xbe,0x34,0x74,0x8d,0x3e,0x00,0xec,0xc7,0xbe,0x9e,0x0d,0x97,0x3e,0x99,0xad,0x29,0xbe,0xc0,0xef,0xde,0x3b,0xf5,0x82,0xef,0x3d,0x63,0x5e,0x42,0x3e,0xd3,0x10,0x1c,0x3d,0xeb,0x23,0x00,0x3f,0xe8,0xce,0x67,0x3c,0x99,0x48,0x46,0xbe,0x19,0x8f,0xbe,0x3e,0x4c,0x69,0x07,0x3e,0x88,0xca,0xc1,0x3e,0x07,0x85,0x07,0x3e,0x23,0x78,0x35,0x3d,0x26,0x4e,0xa0,0x3e,0xbe,0x48,0x3b,0x3d,0xf1,0x24,0x7f,0x3f,0xf5,0x81,0x9f,0x3f,0x2a,0x23,0x09,0x3d,0x28,0xe6,0x17,0xbd,0xc0,0xb9,0x13,0xbe,0x59,0xa7,0x86,0x3d,0x7d,0x2e,0x31,0xbd,0xc6,0xf2,0xe7,0xbf,0xe0,0xfd,0x51,0x3e,0xf7,0xce,0x60,0x3e,0x40,0x20,0x49,0x3f,0x08,0x80,0x55,0x3f,0xc0,0x09,0x0f,0xbd,0x14,0x56,0xcc,0x3e,0x13,0xd6,0xc4,0x3e,0x14,0x5e,0xd6,0xbc,0xc5,0xf2,0x66,0x3f,0x16,0xb0,0x32,0xbf,0x2b,0x70,0x38,0xbe,0x68,0x70,0x70,0x3e,0x70,0x2b,0xd7,0xbc,0x7f,0xb2,0x1e,0x3e,0x3c,0x7e,0x9d,0xbd,0xfb,0x68,0xdd,0x3d,0x3b,0xd6,0xda,0x3e,0x13,0x4c,0xad,0xbe,0x22,0x71,0x18,0xbe,0x28,0x4e,0xf5,0x3d,0xf5,0xf2,0x19,0xbe,0x19,0xe9,0x66,0x3e,0xe9,0xed,0x31,0xbe,0x36,0x0a,0x81,0xbd,0x42,0xf2,0xa9,0xbd,0x09,0x21,0x51,0xbe,0x30,0x56,0xc5,0xbe,0x35,0x01,0xaf,0x3e,0x62,0x88,0xec,0x3e,0xab,0x73,0x95,0xbe,0xe1,0x3b,0x51,0xbd,0xb8,0xe2,0x18,0x3f,0x02,0xb9,0x81,0xbe,0xc6,0x4a,0x34,0xbd,0x75,0xed,0xba,0xbc,0x87,0x9a,0x74,0x3d,0xb1,0xb7,0x20,0xbd,0xed,0x09,0x79,0x3e,0x46,0x84,0x16,0x3e,0xa1,0xc1,0xd3,0x3c,0x61,0x82,0xe8,0xbd,0xa1,0x1e,0x3a,0x3f,0x7d,0xab,0xa0,0xbe,0xff,0x7f,0xc0,0x3d,0x48,0x07,0x9a,0xbe,0xb5,0xe0,0x35,0xbe,0xec,0x04,0x8e,0xbe,0xe3,0x2c,0x3a,0xbe,0x27,0xbc,0x76,0x3e,0x99,0x9e,0x22,0xbe,0x66,0xd6,0xbe,0xbd,0x92,0x6d,0xf4,0xbd,0xd6,0xca,0x1a,0xbe,0x39,0x6d,0x4b,0x3d,0x85,0x08,0xdd,0xbd,0x76,0x9e,0x30,0xbd,0x34,0x30,0x5f,0x3e,0x5d,0x41,0xe4,0x3d,0x67,0x57,0x89,0xba,0xea,0x5c,0xde,0x3e,0xa1,0xc2,0xdc,0x3d,0x36,0x60,0xab,0xbd,0xc1,0xec,0xbb,0x3c,0xba,0x28,0xef,0x3e,0x32,0x6f,0x2a,0x3e,0x79,0x42,0xa6,0x3d,0x60,0x6e,0x18,0xbd,0x02,0x15,0xbf,0x3d,0x95,0x12,0x78,0xbe,0x59,0x38,0xba,0x3c,0x79,0xf9,0x4a,0xbc,0xb8,0x52,0x38,0x3d,0x56,0xeb,0x12,0xbd,0x11,0xc6,0x4c,0x3f,0x8e,0x68,0x73,0x3e,0x5a,0xfd,0xff,0xff,0x04,0x00,0x00,0x00,0x00,0x01,0x00,0x00,0xc1,0xc2,0x70,0xbf,0xf0,0x63,0x89,0x3f,0x8d,0x70,0xdc,0xbe,0x89,0x2c,0xd3,0x3c,0x1d,0xd5,0x1e,0x3f,0x40,0x22,0xdb,0x3c,0x78,0x7b,0x33,0xbd,0xbf,0x66,0xe5,0x3e,0xca,0x27,0x46,0x3e,0x39,0x6c,0x02,0xbf,0x2d,0x1e,0x08,0x3f,0x90,0x01,0xa0,0xbe,0x70,0xed,0xaf,0xbe,0xb7,0xdf,0xcb,0x3d,0x0a,0xab,0xab,0xbe,0x6c,0x6f,0xd1,0x3e,0xdc,0xf1,0x16,0xbf,0xd3,0x8d,0xc7,0xbe,0x5d,0xaf,0xc7,0x3d,0x12,0x34,0xad,0xbe,0x82,0x7c,0x7e,0x3e,0x02,0x73,0xad,0xbe,0x1d,0x1a,0xac,0xbe,0xcb,0x63,0x17,0x3c,0xef,0xc5,0x8a,0x3f,0x34,0x9e,0x7b,0xbe,0xe4,0xbd,0x35,0x3f,0x4a,0x9e,0x5f,0x3d,0xc9,0xcd,0x71,0xbe,0xf1,0x62,0xd6,0xbe,0xee,0x89,0xb2,0x3e,0x4d,0xa2,0x03,0x3f,0xec,0xda,0x52,0x3f,0xd2,0x58,0x95,0x3f,0x0c,0x01,0x3c,0xbf,0x63,0x49,0x15,0x3f,0xaf,0xd9,0x01,0x40,0x6f,0x15,0xa3,0x3f,0xd7,0xc6,0xa1,0xbe,0x11,0x85,0x01,0xbf,0xb2,0x79,0xa3,0x3f,0x8e,0xde,0x4f,0xbf,0x79,0x93,0x3b,0x3f,0xa3,0x1c,0xe3,0xbe,0x45,0x3a,0x1d,0xbf,0x27,0x93,0xb8,0x3e,0x52,0x98,0x41,0xbe,0x8e,0x04,0xd4,0x3d,0x9b,0x9e,0xc3,0xbf,0x9e,0xd5,0x2f,0xbe,0xf2,0x7d,0x56,0xbf,0xf0,0x4c,0x05,0xbf,0x0d,0x9a,0xd5,0xbf,0xca,0xb0,0xb7,0x3f,0x43,0x9a,0x44,0x3f,0x17,0xe5,0x8a,0xbf,0xd5,0x37,0x8a,0x3f,0xb1,0xa6,0x73,0x3f,0x7c,0xfe,0x80,0xbf,0x9d,0xda,0x2c,0x3f,0xa3,0x2c,0x46,0xbf,0x44,0x4d,0x72,0xbe,0xbc,0xd0,0x04,0x40,0x8d,0x26,0x66,0xbf,0x66,0xfe,0xff,0xff,0x04,0x00,0x00,0x00,0x80,0x00,0x00,0x00,0x00,0x00,0x00,0x00,0x00,0x00,0x00,0x00,0x00,0x00,0x00,0x00,0x00,0x00,0x00,0x00,0x00,0x00,0x00,0x00,0x00,0x00,0x00,0x00,0x00,0x00,0x00,0x00,0x00,0x00,0x00,0x00,0x00,0x00,0x00,0x00,0x00,0x00,0x00,0x00,0x00,0x00,0x00,0x00,0x00,0x00,0x00,0x00,0x00,0x00,0x00,0x00,0x00,0x00,0x00,0x00,0x00,0x00,0x00,0x00,0x00,0x00,0x00,0x00,0x00,0x00,0x00,0x00,0x00,0x00,0x00,0x00,0x00,0x00,0x00,0x00,0x00,0x00,0x00,0x00,0x00,0x00,0x00,0x00,0x00,0x00,0x00,0x00,0x00,0x00,0x00,0x00,0x00,0x00,0x00,0x00,0x00,0x00,0x00,0x00,0x00,0x00,0x00,0x00,0x00,0x00,0x00,0x00,0x00,0x00,0x00,0x00,0x00,0x00,0x00,0x00,0x00,0x00,0x00,0x00,0x00,0x00,0x00,0x00,0x00,0x00,0x00,0x00,0xf2,0xfe,0xff,0xff,0x04,0x00,0x00,0x00,0x00,0x01,0x00,0x00,0x41,0x25,0x73,0xbe,0xf6,0x55,0x5f,0xbe,0x40,0x57,0xf8,0xbe,0xa2,0xe1,0xd8,0xbd,0xee,0x98,0x53,0xbe,0x2b,0xfc,0x6a,0xbe,0x2e,0xa5,0x9d,0xbe,0xa8,0x3a,0xf6,0xbd,0x53,0x06,0xd2,0xbe,0x74,0x31,0x3c,0x3e,0x87,0xa3,0xb3,0xbe,0x3f,0xb3,0xd6,0x3e,0xc7,0xcc,0x0a,0xbf,0xd9,0xd7,0x7e,0xbd,0x55,0x8e,0x85,0x3d,0x59,0xfc,0x5c,0x3e,0x7f,0xac,0xac,0xbe,0xaa,0xef,0x7c,0xbe,0x8e,0xaf,0xc0,0xbe,0x0f,0x2d,0x6a,0xbe,0x10,0x7b,0xb8,0xbe,0xe4,0x22,0x44,0x3e,0x03,0x31,0xb0,0xbe,0x49,0x8a,0x7a,0xbe,0x3b,0x9f,0x4f,0x3d,0x8a,0x4f,0x19,0x3e,0x88,0x84,0xe9,0x3e,0xfc,0x54,0xef,0xbe,0x49,0xf1,0xbc,0x3e,0x67,0xfd,0xcd,0xbe,0xf3,0x1d,0xa6,0x3e,0xa5,0x7a,0x53,0x3c,0x60,0x33,0x87,0xbe,0x63,0xb5,0x8d,0x3e,0x64,0x8e,0x89,0xbe,0x1c,0x14,0x1a,0x3e,0xa4,0x8c,0xd7,0x3e,0x8b,0x5a,0xcd,0x3c,0x71,0x42,0x5d,0xbe,0x39,0x8e,0x82,0x3e,0xe7,0x9d,0xa2,0xbe,0x06,0x8d,0xa8,0x3e,0xeb,0x2b,0x25,0x3e,0x59,0x4e,0x39,0x3e,0x53,0xf3,0x99,0xbe,0x63,0x98,0x69,0xbe,0x38,0x3e,0xec,0x3e,0xea,0x11,0xfb,0xbe,0x6e,0x2e,0xec,0x3e,0x10,0x50,0xef,0xbe,0x05,0x59,0xc4,0xbe,0x06,0x79,0xd9,0xbd,0x6b,0x9a,0xb7,0xbe,0xd2,0xdc,0x18,0xbe,0x0a,0xd6,0xf6,0x3a,0x94,0x0b,0x86,0xbe,0x0b,0x20,0xd6,0xbe,0x18,0x2c,0xa8,0x3e,0x9b,0xe3,0x8c,0x3e,0x57,0x42,0x95,0xbe,0xe7,0xb2,0xe1,0xbe,0x52,0xa5,0x0d,0x3f,0x8b,0xdb,0xd9,0x3e,0x5d,0x48,0x91,0x3e,0x00,0x00,0x06,0x00,0x08,0x00,0x04,0x00,0x06,0x00,0x00,0x00,0x04,0x00,0x00,0x00,0x0c,0x00,0x00,0x00,0xff,0xff,0xff,0xff,0x02,0x00,0x00,0x00,0x20,0x00,0x00,0x00,0x38,0xf7,0xff,0xff,0x3c,0xf7,0xff,0xff,0x0f,0x00,0x00,0x00,0x4d,0x4c,0x49,0x52,0x20,0x43,0x6f,0x6e,0x76,0x65,0x72,0x74,0x65,0x64,0x2e,0x00,0x01,0x00,0x00,0x00,0x14,0x00,0x00,0x00,0x00,0x00,0x0e,0x00,0x18,0x00,0x14,0x00,0x10,0x00,0x0c,0x00,0x08,0x00,0x04,0x00,0x0e,0x00,0x00,0x00,0x14,0x00,0x00,0x00,0x1c,0x00,0x00,0x00,0xcc,0x01,0x00,0x00,0xd0,0x01,0x00,0x00,0xd4,0x01,0x00,0x00,0x04,0x00,0x00,0x00,0x6d,0x61,0x69,0x6e,0x00,0x00,0x00,0x00,0x07,0x00,0x00,0x00,0x84,0x01,0x00,0x00,0x24,0x01,0x00,0x00,0xec,0x00,0x00,0x00,0xa0,0x00,0x00,0x00,0x78,0x00,0x00,0x00,0x3c,0x00,0x00,0x00,0x04,0x00,0x00,0x00,0x02,0xff,0xff,0xff,0x14,0x00,0x00,0x00,0x00,0x00,0x00,0x08,0x10,0x00,0x00,0x00,0x14,0x00,0x00,0x00,0x04,0x00,0x00,0x00,0xc8,0xf7,0xff,0xff,0x01,0x00,0x00,0x00,0x11,0x00,0x00,0x00,0x03,0x00,0x00,0x00,0x10,0x00,0x00,0x00,0x04,0x00,0x00,0x00,0x08,0x00,0x00,0x00,0x36,0xff,0xff,0xff,0x14,0x00,0x00,0x00,0x00,0x00,0x00,0x08,0x14,0x00,0x00,0x00,0x18,0x00,0x00,0x00,0x04,0x00,0x00,0x00,0xa2,0xff,0xff,0xff,0x00,0x00,0x00,0x01,0x01,0x00,0x00,0x00,0x10,0x00,0x00,0x00,0x03,0x00,0x00,0x00,0x0f,0x00,0x00,0x00,0x05,0x00,0x00,0x00,0x07,0x00,0x00,0x00,0x9e,0xff,0xff,0xff,0x0c,0x00,0x00,0x00,0x10,0x00,0x00,0x00,0x02,0x00,0x00,0x00,0x01,0x00,0x00,0x00,0x0f,0x00,0x00,0x00,0x02,0x00,0x00,0x00,0x0e,0x00,0x00,0x00,0x09,0x00,0x00,0x00,0x92,0xff,0xff,0xff,0x1c,0x00,0x00,0x00,0x00,0x00,0x00,0x0b,0x1c,0x00,0x00,0x00,0x20,0x00,0x00,0x00,0x03,0x00,0x00,0x00,0x00,0x00,0x06,0x00,0x08,0x00,0x07,0x00,0x06,0x00,0x00,0x00,0x00,0x00,0x00,0x01,0x01,0x00,0x00,0x00,0x0e,0x00,0x00,0x00,0x02,0x00,0x00,0x00,0x0d,0x00,0x00,0x00,0x06,0x00,0x00,0x00,0x00,0x00,0x0a,0x00,0x10,0x00,0x0c,0x00,0x08,0x00,0x04,0x00,0x0a,0x00,0x00,0x00,0x0c,0x00,0x00,0x00,0x10,0x00,0x00,0x00,0x02,0x00,0x00,0x00,0x01,0x00,0x00,0x00,0x0d,0x00,0x00,0x00,0x02,0x00,0x00,0x00,0x0c,0x00,0x00,0x00,0x01,0x00,0x00,0x00,0x00,0x00,0x0e,0x00,0x1a,0x00,0x14,0x00,0x10,0x00,0x0c,0x00,0x0b,0x00,0x04,0x00,0x0e,0x00,0x00,0x00,0x20,0x00,0x00,0x00,0x00,0x00,0x00,0x01,0x28,0x00,0x00,0x00,0x2c,0x00,0x00,0x00,0x01,0x00,0x00,0x00,0x00,0x00,0x0a,0x00,0x10,0x00,0x0f,0x00,0x08,0x00,0x04,0x00,0x0a,0x00,0x00,0x00,0x01,0x00,0x00,0x00,0x01,0x00,0x00,0x00,0x00,0x00,0x00,0x01,0x01,0x00,0x00,0x00,0x0c,0x00,0x00,0x00,0x03,0x00,0x00,0x00,0x0b,0x00,0x00,0x00,0x02,0x00,0x00,0x00,0x03,0x00,0x00,0x00,0x00,0x00,0x0e,0x00,0x14,0x00,0x00,0x00,0x10,0x00,0x0c,0x00,0x0b,0x00,0x04,0x00,0x0e,0x00,0x00,0x00,0x10,0x00,0x00,0x00,0x00,0x00,0x00,0x34,0x0c,0x00,0x00,0x00,0x10,0x00,0x00,0x00,0x2c,0xf9,0xff,0xff,0x01,0x00,0x00,0x00,0x0b,0x00,0x00,0x00,0x02,0x00,0x00,0x00,0x00,0x00,0x00,0x00,0x0a,0x00,0x00,0x00,0x01,0x00,0x00,0x00,0x11,0x00,0x00,0x00,0x01,0x00,0x00,0x00,0x00,0x00,0x00,0x00,0x12,0x00,0x00,0x00,0x20,0x06,0x00,0x00,0xc8,0x05,0x00,0x00,0x68,0x05,0x00,0x00,0x14,0x05,0x00,0x00,0xd4,0x04,0x00,0x00,0x94,0x04,0x00,0x00,0x50,0x04,0x00,0x00,0x14,0x04,0x00,0x00,0xd8,0x03,0x00,0x00,0x98,0x03,0x00,0x00,0x38,0x03,0x00,0x00,0xb8,0x02,0x00,0x00,0x44,0x02,0x00,0x00,0xd0,0x01,0x00,0x00,0x50,0x01,0x00,0x00,0xf0,0x00,0x00,0x00,0x60,0x00,0x00,0x00,0x04,0x00,0x00,0x00,0x3e,0xfa,0xff,0xff,0x00,0x00,0x00,0x01,0x14,0x00,0x00,0x00,0x1c,0x00,0x00,0x00,0x1c,0x00,0x00,0x00,0x12,0x00,0x00,0x00,0x34,0x00,0x00,0x00,0x02,0x00,0x00,0x00,0xff,0xff,0xff,0xff,0x02,0x00,0x00,0x00,0xc8,0xf9,0xff,0xff,0x1b,0x00,0x00,0x00,0x53,0x74,0x61,0x74,0x65,0x66,0x75,0x6c,0x50,0x61,0x72,0x74,0x69,0x74,0x69,0x6f,0x6e,0x65,0x64,0x43,0x61,0x6c,0x6c,0x5f,0x31,0x3a,0x30,0x00,0x02,0x00,0x00,0x00,0x01,0x00,0x00,0x00,0x02,0x00,0x00,0x00,0x96,0xfa,0xff,0xff,0x00,0x00,0x00,0x01,0x14,0x00,0x00,0x00,0x1c,0x00,0x00,0x00,0x1c,0x00,0x00,0x00,0x11,0x00,0x00,0x00,0x68,0x00,0x00,0x00,0x02,0x00,0x00,0x00,0xff,0xff,0xff,0xff,0x20,0x00,0x00,0x00,0x20,0xfa,0xff,0xff,0x4e,0x00,0x00,0x00,0x73,0x65,0x71,0x75,0x65,0x6e,0x74,0x69,0x61,0x6c,0x5f,0x31,0x2f,0x64,0x65,0x6e,0x73,0x65,0x5f,0x31,0x2f,0x4d,0x61,0x74,0x4d,0x75,0x6c,0x3b,0x73,0x65,0x71,0x75,0x65,0x6e,0x74,0x69,0x61,0x6c,0x5f,0x31,0x2f,0x64,0x65,0x6e,0x73,0x65,0x5f,0x31,0x2f,0x52,0x65,0x6c,0x75,0x3b,0x73,0x65,0x71,0x75,0x65,0x6e,0x74,0x69,0x61,0x6c,0x5f,0x31,0x2f,0x64,0x65,0x6e,0x73,0x65,0x5f,0x31,0x2f,0x41,0x64,0x64,0x00,0x00,0x02,0x00,0x00,0x00,0x01,0x00,0x00,0x00,0x20,0x00,0x00,0x00,0x22,0xfb,0xff,0xff,0x00,0x00,0x00,0x01,0x14,0x00,0x00,0x00,0x1c,0x00,0x00,0x00,0x1c,0x00,0x00,0x00,0x10,0x00,0x00,0x00,0x38,0x00,0x00,0x00,0x02,0x00,0x00,0x00,0xff,0xff,0xff,0xff,0x40,0x00,0x00,0x00,0xac,0xfa,0xff,0xff,0x1e,0x00,0x00,0x00,0x73,0x65,0x71,0x75,0x65,0x6e,0x74,0x69,0x61,0x6c,0x5f,0x31,0x2f,0x66,0x6c,0x61,0x74,0x74,0x65,0x6e,0x5f,0x31,0x2f,0x52,0x65,0x73,0x68,0x61,0x70,0x65,0x00,0x00,0x02,0x00,0x00,0x00,0x01,0x00,0x00,0x00,0x40,0x00,0x00,0x00,0x7e,0xfb,0xff,0xff,0x00,0x00,0x00,0x01,0x14,0x00,0x00,0x00,0x20,0x00,0x00,0x00,0x20,0x00,0x00,0x00,0x0f,0x00,0x00,0x00,0x54,0x00,0x00,0x00,0x03,0x00,0x00,0x00,0xff,0xff,0xff,0xff,0x02,0x00,0x00,0x00,0x20,0x00,0x00,0x00,0x0c,0xfb,0xff,0xff,0x34,0x00,0x00,0x00,0x73,0x65,0x71,0x75,0x65,0x6e,0x74,0x69,0x61,0x6c,0x5f,0x31,0x2f,0x63,0x6f,0x6e,0x76,0x31,0x64,0x5f,0x31,0x2f,0x52,0x65,0x6c,0x75,0x3b,0x73,0x65,0x71,0x75,0x65,0x6e,0x74,0x69,0x61,0x6c,0x5f,0x31,0x2f,0x63,0x6f,0x6e,0x76,0x31,0x64,0x5f,0x31,0x2f,0x61,0x64,0x64,0x00,0x00,0x00,0x00,0x03,0x00,0x00,0x00,0x01,0x00,0x00,0x00,0x02,0x00,0x00,0x00,0x20,0x00,0x00,0x00,0xfa,0xfb,0xff,0xff,0x00,0x00,0x00,0x01,0x14,0x00,0x00,0x00,0x20,0x00,0x00,0x00,0x20,0x00,0x00,0x00,0x0e,0x00,0x00,0x00,0x48,0x00,0x00,0x00,0x03,0x00,0x00,0x00,0xff,0xff,0xff,0xff,0x02,0x00,0x00,0x00,0x20,0x00,0x00,0x00,0x88,0xfb,0xff,0xff,0x29,0x00,0x00,0x00,0x73,0x65,0x71,0x75,0x65,0x6e,0x74,0x69,0x61,0x6c,0x5f,0x31,0x2f,0x63,0x6f,0x6e,0x76,0x31,0x64,0x5f,0x31,0x2f,0x63,0x6f,0x6e,0x76,0x6f,0x6c,0x75,0x74,0x69,0x6f,0x6e,0x2f,0x53,0x71,0x75,0x65,0x65,0x7a,0x65,0x00,0x00,0x00,0x03,0x00,0x00,0x00,0x01,0x00,0x00,0x00,0x02,0x00,0x00,0x00,0x20,0x00,0x00,0x00,0x6a,0xfc,0xff,0xff,0x00,0x00,0x00,0x01,0x14,0x00,0x00,0x00,0x24,0x00,0x00,0x00,0x24,0x00,0x00,0x00,0x0d,0x00,0x00,0x00,0x44,0x00,0x00,0x00,0x04,0x00,0x00,0x00,0xff,0xff,0xff,0xff,0x01,0x00,0x00,0x00,0x02,0x00,0x00,0x00,0x20,0x00,0x00,0x00,0xfc,0xfb,0xff,0xff,0x21,0x00,0x00,0x00,0x73,0x65,0x71,0x75,0x65,0x6e,0x74,0x69,0x61,0x6c,0x5f,0x31,0x2f,0x63,0x6f,0x6e,0x76,0x31,0x64,0x5f,0x31,0x2f,0x63,0x6f,0x6e,0x76,0x6f,0x6c,0x75,0x74,0x69,0x6f,0x6e,0x00,0x00,0x00,0x04,0x00,0x00,0x00,0x01,0x00,0x00,0x00,0x01,0x00,0x00,0x00,0x02,0x00,0x00,0x00,0x20,0x00,0x00,0x00,0xda,0xfc,0xff,0xff,0x00,0x00,0x00,0x01,0x14,0x00,0x00,0x00,0x24,0x00,0x00,0x00,0x24,0x00,0x00,0x00,0x0c,0x00,0x00,0x00,0x50,0x00,0x00,0x00,0x04,0x00,0x00,0x00,0xff,0xff,0xff,0xff,0x01,0x00,0x00,0x00,0x03,0x00,0x00,0x00,0x01,0x00,0x00,0x00,0x6c,0xfc,0xff,0xff,0x2c,0x00,0x00,0x00,0x73,0x65,0x71,0x75,0x65,0x6e,0x74,0x69,0x61,0x6c,0x5f,0x31,0x2f,0x63,0x6f,0x6e,0x76,0x31,0x64,0x5f,0x31,0x2f,0x63,0x6f,0x6e,0x76,0x6f,0x6c,0x75,0x74,0x69,0x6f,0x6e,0x2f,0x45,0x78,0x70,0x61,0x6e,0x64,0x44,0x69,0x6d,0x73,0x00,0x00,0x00,0x00,0x04,0x00,0x00,0x00,0x01,0x00,0x00,0x00,0x01,0x00,0x00,0x00,0x03,0x00,0x00,0x00,0x01,0x00,0x00,0x00,0xaa,0xfd,0xff,0xff,0x00,0x00,0x00,0x01,0x14,0x00,0x00,0x00,0x14,0x00,0x00,0x00,0x0b,0x00,0x00,0x00,0x00,0x00,0x00,0x02,0x40,0x00,0x00,0x00,0xd4,0xfc,0xff,0xff,0x30,0x00,0x00,0x00,0x73,0x65,0x71,0x75,0x65,0x6e,0x74,0x69,0x61,0x6c,0x5f,0x31,0x2f,0x63,0x6f,0x6e,0x76,0x31,0x64,0x5f,0x31,0x2f,0x63,0x6f,0x6e,0x76,0x6f,0x6c,0x75,0x74,0x69,0x6f,0x6e,0x2f,0x45,0x78,0x70,0x61,0x6e,0x64,0x44,0x69,0x6d,0x73,0x2f,0x64,0x69,0x6d,0x00,0x00,0x00,0x00,0x00,0x00,0x00,0x00,0x06,0xfe,0xff,0xff,0x00,0x00,0x00,0x01,0x14,0x00,0x00,0x00,0x14,0x00,0x00,0x00,0x0a,0x00,0x00,0x00,0x00,0x00,0x00,0x02,0x1c,0x00,0x00,0x00,0x30,0xfd,0xff,0xff,0x0f,0x00,0x00,0x00,0x61,0x72,0x69,0x74,0x68,0x2e,0x63,0x6f,0x6e,0x73,0x74,0x61,0x6e,0x74,0x38,0x00,0x01,0x00,0x00,0x00,0x02,0x00,0x00,0x00,0x9e,0xfe,0xff,0xff,0x00,0x00,0x00,0x01,0x10,0x00,0x00,0x00,0x10,0x00,0x00,0x00,0x09,0x00,0x00,0x00,0x1c,0x00,0x00,0x00,0x68,0xfd,0xff,0xff,0x0f,0x00,0x00,0x00,0x61,0x72,0x69,0x74,0x68,0x2e,0x63,0x6f,0x6e,0x73,0x74,0x61,0x6e,0x74,0x37,0x00,0x01,0x00,0x00,0x00,0x02,0x00,0x00,0x00,0xd6,0xfe,0xff,0xff,0x00,0x00,0x00,0x01,0x10,0x00,0x00,0x00,0x10,0x00,0x00,0x00,0x08,0x00,0x00,0x00,0x1c,0x00,0x00,0x00,0xa0,0xfd,0xff,0xff,0x0f,0x00,0x00,0x00,0x61,0x72,0x69,0x74,0x68,0x2e,0x63,0x6f,0x6e,0x73,0x74,0x61,0x6e,0x74,0x36,0x00,0x01,0x00,0x00,0x00,0x20,0x00,0x00,0x00,0x0e,0xff,0xff,0xff,0x00,0x00,0x00,0x01,0x10,0x00,0x00,0x00,0x10,0x00,0x00,0x00,0x07,0x00,0x00,0x00,0x1c,0x00,0x00,0x00,0xd8,0xfd,0xff,0xff,0x0f,0x00,0x00,0x00,0x61,0x72,0x69,0x74,0x68,0x2e,0x63,0x6f,0x6e,0x73,0x74,0x61,0x6e,0x74,0x35,0x00,0x03,0x00,0x00,0x00,0x01,0x00,0x00,0x00,0x01,0x00,0x00,0x00,0x20,0x00,0x00,0x00,0x4e,0xff,0xff,0xff,0x00,0x00,0x00,0x01,0x10,0x00,0x00,0x00,0x10,0x00,0x00,0x00,0x06,0x00,0x00,0x00,0x1c,0x00,0x00,0x00,0x18,0xfe,0xff,0xff,0x0f,0x00,0x00,0x00,0x61,0x72,0x69,0x74,0x68,0x2e,0x63,0x6f,0x6e,0x73,0x74,0x61,0x6e,0x74,0x34,0x00,0x02,0x00,0x00,0x00,0x20,0x00,0x00,0x00,0x40,0x00,0x00,0x00,0x8a,0xff,0xff,0xff,0x00,0x00,0x00,0x01,0x10,0x00,0x00,0x00,0x10,0x00,0x00,0x00,0x05,0x00,0x00,0x00,0x1c,0x00,0x00,0x00,0x54,0xfe,0xff,0xff,0x0f,0x00,0x00,0x00,0x61,0x72,0x69,0x74,0x68,0x2e,0x63,0x6f,0x6e,0x73,0x74,0x61,0x6e,0x74,0x33,0x00,0x02,0x00,0x00,0x00,0x02,0x00,0x00,0x00,0x20,0x00,0x00,0x00,0xc6,0xff,0xff,0xff,0x00,0x00,0x00,0x01,0x10,0x00,0x00,0x00,0x10,0x00,0x00,0x00,0x04,0x00,0x00,0x00,0x1c,0x00,0x00,0x00,0x90,0xfe,0xff,0xff,0x0f,0x00,0x00,0x00,0x61,0x72,0x69,0x74,0x68,0x2e,0x63,0x6f,0x6e,0x73,0x74,0x61,0x6e,0x74,0x32,0x00,0x01,0x00,0x00,0x00,0x20,0x00,0x00,0x00,0x00,0x00,0x16,0x00,0x18,0x00,0x14,0x00,0x00,0x00,0x10,0x00,0x0c,0x00,0x08,0x00,0x00,0x00,0x00,0x00,0x00,0x00,0x07,0x00,0x16,0x00,0x00,0x00,0x00,0x00,0x00,0x01,0x10,0x00,0x00,0x00,0x10,0x00,0x00,0x00,0x03,0x00,0x00,0x00,0x1c,0x00,0x00,0x00,0xe0,0xfe,0xff,0xff,0x0f,0x00,0x00,0x00,0x61,0x72,0x69,0x74,0x68,0x2e,0x63,0x6f,0x6e,0x73,0x74,0x61,0x6e,0x74,0x31,0x00,0x04,0x00,0x00,0x00,0x20,0x00,0x00,0x00,0x01,0x00,0x00,0x00,0x02,0x00,0x00,0x00,0x01,0x00,0x00,0x00,0x00,0x00,0x16,0x00,0x1c,0x00,0x18,0x00,0x17,0x00,0x10,0x00,0x0c,0x00,0x08,0x00,0x00,0x00,0x00,0x00,0x00,0x00,0x07,0x00,0x16,0x00,0x00,0x00,0x00,0x00,0x00,0x01,0x14,0x00,0x00,0x00,0x14,0x00,0x00,0x00,0x02,0x00,0x00,0x00,0x00,0x00,0x00,0x02,0x1c,0x00,0x00,0x00,0x40,0xff,0xff,0xff,0x0e,0x00,0x00,0x00,0x61,0x72,0x69,0x74,0x68,0x2e,0x63,0x6f,0x6e,0x73,0x74,0x61,0x6e,0x74,0x00,0x00,0x01,0x00,0x00,0x00,0x03,0x00,0x00,0x00,0x00,0x00,0x16,0x00,0x1c,0x00,0x18,0x00,0x00,0x00,0x14,0x00,0x10,0x00,0x0c,0x00,0x00,0x00,0x00,0x00,0x08,0x00,0x07,0x00,0x16,0x00,0x00,0x00,0x00,0x00,0x00,0x01,0x14,0x00,0x00,0x00,0x20,0x00,0x00,0x00,0x20,0x00,0x00,0x00,0x01,0x00,0x00,0x00,0x3c,0x00,0x00,0x00,0x03,0x00,0x00,0x00,0xff,0xff,0xff,0xff,0x03,0x00,0x00,0x00,0x01,0x00,0x00,0x00,0xa4,0xff,0xff,0xff,0x1e,0x00,0x00,0x00,0x73,0x65,0x72,0x76,0x69,0x6e,0x67,0x5f,0x64,0x65,0x66,0x61,0x75,0x6c,0x74,0x5f,0x6b,0x65,0x72,0x61,0x73,0x5f,0x74,0x65,0x6e,0x73,0x6f,0x72,0x3a,0x30,0x00,0x00,0x03,0x00,0x00,0x00,0x01,0x00,0x00,0x00,0x03,0x00,0x00,0x00,0x01,0x00,0x00,0x00,0x05,0x00,0x00,0x00,0x4c,0x00,0x00,0x00,0x30,0x00,0x00,0x00,0x20,0x00,0x00,0x00,0x18,0x00,0x00,0x00,0x04,0x00,0x00,0x00,0xd4,0xff,0xff,0xff,0x09,0x00,0x00,0x00,0x00,0x00,0x00,0x09,0x04,0x00,0x04,0x00,0x04,0x00,0x00,0x00,0xe8,0xff,0xff,0xff,0x16,0x00,0x00,0x00,0x00,0x00,0x00,0x16,0xf4,0xff,0xff,0xff,0x03,0x00,0x00,0x00,0x00,0x00,0x00,0x03,0x0c,0x00,0x0c,0x00,0x0b,0x00,0x00,0x00,0x00,0x00,0x04,0x00,0x0c,0x00,0x00,0x00,0x46,0x00,0x00,0x00,0x00,0x00,0x00,0x46};
const int g_model_len = 12072;

const float scaler_i_mean[] = { 2.5, 320.11108539094647, 356.497762345679 };
const float scaler_i_scale[] = { 1.2909944487358056, 175.31308851162783, 165.6017588791291 };
const float scaler_o_mean[] = { 5.458333333333333, 32.75 };
const float scaler_o_scale[] = { 3.3878356742255895, 5.261891294962297 };
#endif  // MODEL_H
