
#ifndef MODEL_H
#define MODEL_H

// MSE(Pos, Temp): [0.0059398  0.19898274]


const unsigned char g_model[] = {0x1c,0x00,0x00,0x00,0x54,0x46,0x4c,0x33,0x14,0x00,0x20,0x00,0x1c,0x00,0x18,0x00,0x14,0x00,0x10,0x00,0x0c,0x00,0x00,0x00,0x08,0x00,0x04,0x00,0x14,0x00,0x00,0x00,0x1c,0x00,0x00,0x00,0x8c,0x00,0x00,0x00,0xe4,0x00,0x00,0x00,0x04,0x26,0x00,0x00,0x14,0x26,0x00,0x00,0x98,0x2e,0x00,0x00,0x03,0x00,0x00,0x00,0x01,0x00,0x00,0x00,0x04,0x00,0x00,0x00,0xd6,0xd8,0xff,0xff,0x0c,0x00,0x00,0x00,0x1c,0x00,0x00,0x00,0x3c,0x00,0x00,0x00,0x0f,0x00,0x00,0x00,0x73,0x65,0x72,0x76,0x69,0x6e,0x67,0x5f,0x64,0x65,0x66,0x61,0x75,0x6c,0x74,0x00,0x01,0x00,0x00,0x00,0x04,0x00,0x00,0x00,0x90,0xff,0xff,0xff,0x11,0x00,0x00,0x00,0x04,0x00,0x00,0x00,0x08,0x00,0x00,0x00,0x6f,0x75,0x74,0x70,0x75,0x74,0x5f,0x30,0x00,0x00,0x00,0x00,0x01,0x00,0x00,0x00,0x04,0x00,0x00,0x00,0x8a,0xda,0xff,0xff,0x04,0x00,0x00,0x00,0x0c,0x00,0x00,0x00,0x6b,0x65,0x72,0x61,0x73,0x5f,0x74,0x65,0x6e,0x73,0x6f,0x72,0x00,0x00,0x00,0x00,0x02,0x00,0x00,0x00,0x34,0x00,0x00,0x00,0x04,0x00,0x00,0x00,0xdc,0xff,0xff,0xff,0x14,0x00,0x00,0x00,0x04,0x00,0x00,0x00,0x13,0x00,0x00,0x00,0x43,0x4f,0x4e,0x56,0x45,0x52,0x53,0x49,0x4f,0x4e,0x5f,0x4d,0x45,0x54,0x41,0x44,0x41,0x54,0x41,0x00,0x08,0x00,0x0c,0x00,0x08,0x00,0x04,0x00,0x08,0x00,0x00,0x00,0x13,0x00,0x00,0x00,0x04,0x00,0x00,0x00,0x13,0x00,0x00,0x00,0x6d,0x69,0x6e,0x5f,0x72,0x75,0x6e,0x74,0x69,0x6d,0x65,0x5f,0x76,0x65,0x72,0x73,0x69,0x6f,0x6e,0x00,0x15,0x00,0x00,0x00,0x1c,0x25,0x00,0x00,0x14,0x25,0x00,0x00,0xf8,0x24,0x00,0x00,0xe0,0x23,0x00,0x00,0x50,0x23,0x00,0x00,0x40,0x22,0x00,0x00,0x30,0x02,0x00,0x00,0xa0,0x01,0x00,0x00,0x10,0x01,0x00,0x00,0xf8,0x00,0x00,0x00,0xe0,0x00,0x00,0x00,0xcc,0x00,0x00,0x00,0xc4,0x00,0x00,0x00,0xbc,0x00,0x00,0x00,0xb4,0x00,0x00,0x00,0xac,0x00,0x00,0x00,0xa4,0x00,0x00,0x00,0x9c,0x00,0x00,0x00,0x94,0x00,0x00,0x00,0x74,0x00,0x00,0x00,0x04,0x00,0x00,0x00,0x5a,0xdb,0xff,0xff,0x04,0x00,0x00,0x00,0x60,0x00,0x00,0x00,0x10,0x00,0x00,0x00,0x00,0x00,0x00,0x00,0x08,0x00,0x0e,0x00,0x08,0x00,0x04,0x00,0x08,0x00,0x00,0x00,0x10,0x00,0x00,0x00,0x24,0x00,0x00,0x00,0x00,0x00,0x06,0x00,0x08,0x00,0x04,0x00,0x06,0x00,0x00,0x00,0x04,0x00,0x00,0x00,0x00,0x00,0x00,0x00,0x0c,0x00,0x18,0x00,0x14,0x00,0x10,0x00,0x0c,0x00,0x04,0x00,0x0c,0x00,0x00,0x00,0x81,0xdb,0xf2,0xa3,0xbb,0xed,0x47,0x42,0x02,0x00,0x00,0x00,0x02,0x00,0x00,0x00,0x04,0x00,0x00,0x00,0x06,0x00,0x00,0x00,0x32,0x2e,0x31,0x37,0x2e,0x30,0x00,0x00,0xc6,0xdb,0xff,0xff,0x04,0x00,0x00,0x00,0x10,0x00,0x00,0x00,0x31,0x2e,0x31,0x30,0x2e,0x30,0x00,0x00,0x00,0x00,0x00,0x00,0x00,0x00,0x00,0x00,0xfc,0xd2,0xff,0xff,0x00,0xd3,0xff,0xff,0x04,0xd3,0xff,0xff,0x08,0xd3,0xff,0xff,0x0c,0xd3,0xff,0xff,0x10,0xd3,0xff,0xff,0x14,0xd3,0xff,0xff,0xfe,0xdb,0xff,0xff,0x04,0x00,0x00,0x00,0x04,0x00,0x00,0x00,0xfd,0xff,0xff,0xff,0x0e,0xdc,0xff,0xff,0x04,0x00,0x00,0x00,0x08,0x00,0x00,0x00,0xff,0xff,0xff,0xff,0x40,0x00,0x00,0x00,0x22,0xdc,0xff,0xff,0x04,0x00,0x00,0x00,0x08,0x00,0x00,0x00,0x5c,0xbe,0x8c,0x3d,0xa1,0x3c,0x7d,0xbe,0x36,0xdc,0xff,0xff,0x04,0x00,0x00,0x00,0x80,0x00,0x00,0x00,0xf5,0x89,0xc6,0xbd,0xc6,0x63,0x82,0xbe,0xe4,0x0f,0x10,0x3d,0xea,0xdb,0xc2,0xbd,0xa0,0x04,0x92,0x3b,0xbd,0xe3,0xf8,0xbd,0x5b,0x2b,0x7d,0x3e,0xda,0xfa,0x89,0x3e,0xec,0x91,0x85,0x3d,0x10,0x54,0x4c,0x3e,0x7e,0x4d,0x48,0x3e,0x07,0x32,0x0a,0xbd,0xaa,0xf5,0x37,0x3e,0xac,0x87,0x8d,0xbe,0x95,0x09,0x7a,0xbd,0x55,0xf2,0x8a,0xbd,0xa9,0xad,0x9b,0xbe,0x5a,0x95,0xb4,0x3d,0x90,0x1a,0xcd,0xbd,0x1b,0x73,0x95,0x3e,0xa3,0x6d,0x8d,0xbe,0x99,0x78,0x7d,0x3e,0x35,0x67,0x22,0xbe,0x00,0x00,0x00,0x00,0x5a,0x10,0x2a,0x3e,0x5f,0xef,0x4b,0x3e,0xc3,0xf2,0x7a,0x3e,0x79,0xca,0xab,0xbd,0x5e,0x37,0xaa,0x3c,0x8c,0x01,0x24,0xbe,0xae,0xa2,0xe1,0xbc,0x9f,0x8d,0x53,0x3e,0xc2,0xdc,0xff,0xff,0x04,0x00,0x00,0x00,0x80,0x00,0x00,0x00,0xc0,0x68,0x26,0xbe,0x6c,0x11,0x0d,0xbe,0xaa,0x20,0x19,0x3e,0x29,0xf8,0x62,0x3e,0xa8,0xc7,0x28,0x3c,0x54,0xbe,0x33,0xbe,0x6d,0x33,0x60,0x3e,0xf4,0xf3,0x30,0xbe,0x8b,0x0e,0xab,0x3e,0xd5,0xc7,0x0a,0xbc,0xab,0xdf,0x86,0x3e,0x61,0x23,0xca,0x3d,0xa7,0x82,0x38,0xbe,0x50,0x08,0x5f,0x3d,0x4f,0xb7,0x55,0xbe,0xf4,0x51,0x09,0xbd,0xdb,0xaa,0xaa,0xbe,0xd6,0x35,0xa1,0xbb,0xd3,0xdc,0x59,0x3e,0x5b,0xd6,0x89,0xbe,0x73,0x49,0x1d,0x3e,0xa7,0xa2,0x42,0x3e,0xaa,0x2d,0xc0,0x3b,0xec,0x92,0x0c,0xbb,0xff,0x99,0xa2,0x3e,0x9d,0x18,0x97,0x3e,0xc1,0x54,0x8b,0x3d,0x3f,0x30,0x0f,0x3e,0x61,0x9e,0xe4,0x3e,0x27,0xfe,0xb4,0xbd,0x0f,0xff,0x57,0x3e,0x96,0xeb,0x53,0xbe,0x4e,0xdd,0xff,0xff,0x04,0x00,0x00,0x00,0x00,0x20,0x00,0x00,0xc5,0xae,0xa4,0xbe,0xe5,0x66,0x02,0x3e,0x52,0xf7,0x0e,0xbf,0xef,0xe5,0x12,0x3d,0x79,0x0c,0xa0,0xbe,0x31,0xca,0x97,0xbe,0x9c,0x37,0x3b,0xbe,0x68,0x9d,0x6a,0xbe,0xbe,0x4e,0x79,0x3e,0x9f,0xda,0xc4,0xbc,0x8c,0x41,0x35,0xbe,0x14,0x53,0x20,0xbf,0x85,0x3f,0x97,0x3e,0x15,0x79,0x0c,0xbb,0xe4,0xdd,0x1a,0xbd,0x2a,0x3a,0x00,0x3e,0xac,0xc6,0xaa,0xbe,0x73,0x91,0x71,0xbe,0x74,0xed,0xa5,0xbe,0x45,0xc4,0xa0,0x3d,0x57,0x23,0x74,0x3e,0x21,0xbb,0xe5,0x3d,0x2c,0x9e,0xd5,0x3d,0x48,0x6e,0xf1,0x3c,0xbb,0x6a,0xea,0xbd,0x33,0x10,0x83,0x3d,0xa6,0xb2,0xc6,0xbc,0xea,0x24,0xb2,0xbd,0xc0,0x7d,0x18,0xbf,0x2b,0x23,0x47,0xbe,0x2b,0xbc,0x25,0xbe,0xb0,0x2f,0xce,0xbd,0xf5,0x7a,0x4a,0x3d,0x50,0xd0,0xf7,0x3e,0x42,0x93,0x21,0x3f,0xc1,0x0a,0x4c,0x3e,0xb8,0xf0,0x96,0x3e,0xf3,0x23,0xf7,0x3a,0x34,0x43,0x37,0x3f,0xab,0x73,0x51,0x3e,0x6a,0xd7,0xcc,0xbe,0x48,0x3c,0x6d,0xbe,0x1f,0x66,0x25,0xbf,0x48,0x1e,0xd8,0x3e,0x0d,0x99,0x9f,0xbd,0x2d,0x20,0xd8,0x3d,0x31,0x98,0x5b,0x3e,0x2d,0x7a,0x74,0xbe,0x65,0x56,0x09,0x3e,0x51,0xd1,0x7a,0x3e,0x31,0x1e,0xfd,0x3d,0xee,0x71,0xee,0xbd,0x1f,0x91,0x0f,0xbc,0x18,0x9c,0x23,0xbe,0x86,0x5e,0x97,0x3e,0xa7,0x77,0x3b,0xbe,0xc9,0x04,0x50,0x3e,0xb4,0xee,0xee,0xbe,0xc9,0x55,0xaa,0x3d,0x5d,0xac,0x96,0xbe,0x86,0x0f,0x26,0x3e,0x73,0x24,0x87,0x3e,0x70,0x9e,0x9f,0x3d,0xaa,0x3a,0xef,0x3d,0xc2,0xbd,0x27,0x3e,0xdf,0xa2,0xcb,0x3e,0x86,0x4b,0xf4,0x3d,0x2d,0x1f,0x55,0xbd,0x56,0xe3,0xa0,0x3e,0x69,0xe5,0xca,0x3e,0x7f,0xe0,0xa8,0xbe,0x2d,0xa4,0x85,0x3e,0x95,0x69,0x08,0xbf,0x8a,0x46,0x44,0x3e,0xcf,0xaa,0x7f,0xbe,0xfb,0xf8,0xec,0x3d,0x68,0x3a,0xa3,0xbc,0x33,0xb8,0xcd,0x3e,0x9d,0xfd,0x27,0x3f,0x14,0xe7,0x54,0x3e,0xe4,0xff,0x43,0x3e,0x40,0xf6,0xc1,0x3e,0xba,0xcd,0x9f,0x3c,0x12,0xcf,0x03,0x3e,0x7b,0x5d,0x75,0x3e,0xea,0x88,0x7e,0x3e,0xe1,0xa2,0xff,0x3e,0x21,0xef,0x1a,0x3e,0xce,0xc1,0xc8,0xbd,0x55,0x60,0x66,0xbe,0xb3,0x1d,0x68,0xbe,0xcf,0x4b,0x87,0xbe,0x45,0x38,0xc7,0xbe,0x16,0xec,0xd4,0x3e,0xa0,0x54,0x2d,0x3e,0x05,0x58,0x76,0x3d,0xa3,0x78,0x4e,0x3e,0x6f,0xe3,0x54,0xbd,0x87,0x20,0x4e,0xbe,0xe3,0x06,0x87,0x3d,0xe0,0x95,0x0c,0x3e,0x6f,0xdc,0x20,0x3d,0x9d,0xe2,0xeb,0xbd,0xbb,0x98,0x4c,0x3e,0x3d,0x53,0x2b,0x3e,0x07,0x22,0x88,0x3c,0x64,0x0d,0x48,0x3d,0x6c,0x77,0x75,0x3e,0xb3,0xc5,0x7f,0xbc,0xc0,0x9a,0x10,0xbe,0x59,0xfc,0x03,0xbe,0xff,0xe6,0x48,0x3e,0x39,0x1a,0x1e,0x3f,0x9f,0xc8,0x37,0x3c,0xa2,0x14,0xe4,0xbe,0x03,0x8d,0xb8,0x3e,0x3c,0x98,0xaf,0xbd,0x17,0x4b,0xc6,0x39,0x49,0x26,0xb4,0x3d,0x7e,0x4c,0x4f,0x3e,0xe7,0x60,0xfa,0xbe,0xc6,0xff,0x03,0xbe,0x10,0x0c,0x21,0x3e,0x2e,0x98,0x44,0xbd,0x8b,0x7f,0x16,0xbf,0x9d,0xb2,0xb2,0x3d,0x6d,0xe1,0x22,0xbe,0xf9,0x25,0xfb,0x3e,0xa0,0x5f,0x87,0xba,0x9f,0xa6,0x2e,0xbd,0x14,0x70,0xce,0x3e,0xeb,0x11,0xd1,0xbe,0xf1,0x6e,0x4c,0xbf,0x5c,0x41,0x6b,0xbe,0x03,0xf0,0x95,0xbf,0x75,0x79,0x87,0xbe,0x0e,0x60,0xb1,0x3e,0xee,0x12,0xa2,0xbf,0x7b,0x6a,0x28,0x3e,0xf0,0xa0,0xb3,0xbd,0xaa,0xef,0x11,0xbe,0x46,0x8d,0x05,0x3e,0x95,0x35,0xf9,0xbd,0x73,0xeb,0x51,0xbd,0x11,0x53,0xda,0x3d,0x8a,0x24,0x98,0xbd,0x25,0x00,0x92,0xbe,0x43,0x2d,0x9d,0xbd,0xb7,0xf6,0xc5,0x3c,0xbb,0x30,0x15,0x3d,0xa7,0x4c,0x26,0xbf,0x9c,0x9a,0x1c,0xbf,0x2f,0xfe,0x2c,0x3e,0x4f,0x95,0x51,0x3e,0x64,0xf9,0xe9,0x3e,0xab,0x1f,0x9f,0x3d,0x1b,0xab,0x39,0x3e,0x47,0x43,0xfd,0xbd,0x71,0xc0,0xf5,0xbe,0x7d,0xdc,0x16,0x3e,0x2d,0xe3,0x89,0xbe,0x33,0x1a,0x47,0x3d,0x23,0xe8,0xb7,0xbc,0x52,0x66,0x4e,0xbf,0x9f,0xd3,0xfb,0xbd,0x76,0x05,0xee,0xbc,0x78,0xb6,0x58,0x3e,0x7a,0x75,0x94,0x3c,0xbc,0x54,0x03,0xbe,0x74,0x77,0x8b,0xbe,0x1c,0x73,0x94,0xbe,0x87,0xe3,0x44,0xbe,0xde,0xaa,0x59,0xbb,0xdd,0xf1,0xcc,0xbe,0x1c,0x5b,0xf4,0xbc,0x55,0x3e,0x89,0xbe,0xb1,0x23,0xbe,0xbe,0xd9,0xaf,0xdb,0xbf,0xe5,0x17,0x4c,0x3e,0xb2,0x23,0x88,0xbe,0xe0,0x51,0xe7,0x3f,0x50,0x25,0xed,0x3f,0xdb,0xa9,0x39,0x3e,0x9c,0x0b,0xbd,0xbc,0x60,0xa1,0x92,0x3e,0x7b,0x00,0x3d,0x3d,0xb8,0xf5,0xde,0xbe,0xdb,0xc1,0x65,0x3d,0x1f,0x24,0x89,0x3e,0x70,0x02,0x0a,0x3e,0x21,0x27,0xb7,0x3a,0x0e,0xa3,0x77,0xbc,0x49,0x6b,0xa1,0x3e,0x97,0x96,0x7a,0xbd,0xee,0x6e,0xc3,0x3e,0xa9,0x70,0xa0,0x3e,0x54,0x4a,0x45,0x3e,0xb8,0xc2,0x96,0x3d,0x4b,0xb4,0xc3,0xbc,0x2d,0xc9,0xd1,0x3e,0xba,0xa1,0x9f,0xbe,0xd1,0x34,0x2b,0x3e,0xa4,0x2a,0x15,0xbd,0x88,0x2c,0x8e,0x3e,0xf5,0xa0,0xc2,0xbd,0x87,0x42,0x98,0x3e,0xc1,0x65,0xf1,0x3e,0x1b,0xa1,0xd4,0x3d,0xdf,0x4a,0x2d,0xbe,0x0e,0x78,0x32,0x3e,0x68,0x97,0x14,0x3d,0x38,0xf1,0xaf,0x3c,0x0a,0xe5,0xd8,0x3d,0x99,0xd7,0xad,0x3e,0xaf,0x5e,0xfa,0x3d,0xd4,0xd1,0xf6,0x3d,0x1a,0x12,0x3e,0xbe,0x9f,0xd3,0xac,0xbe,0xe5,0x80,0xca,0xbd,0xc4,0xab,0xaa,0xbe,0x24,0x07,0x4d,0xbe,0xbe,0xde,0xf3,0x3c,0xde,0xb7,0xf1,0x3d,0x04,0xc8,0x77,0x3e,0x55,0xe4,0xc0,0x3e,0xdb,0xac,0x17,0x3e,0x41,0x66,0xbf,0x3e,0x11,0x73,0x0b,0x3e,0xe5,0x48,0x00,0x3e,0xff,0x4b,0xfc,0xbd,0x33,0xfc,0x8e,0x3e,0x43,0xcf,0xc1,0x3e,0x6c,0x14,0xf8,0xbe,0x77,0x6c,0x64,0xbe,0xe2,0x62,0x93,0xbd,0xeb,0xd4,0x19,0x3f,0xc4,0xee,0xb7,0x3d,0x3c,0xe5,0x64,0xbd,0xc4,0x00,0x3d,0xbc,0xb3,0xb5,0x39,0x3e,0x44,0xc4,0xf5,0x3e,0xe2,0xcc,0xbb,0x3e,0xbc,0x5d,0x2d,0x3d,0x14,0xbd,0xb6,0xbe,0x0e,0x4c,0x8c,0x3c,0x71,0x75,0x90,0x3d,0x22,0xb6,0x8a,0x3e,0xb2,0xc0,0x12,0xbe,0x58,0x18,0x7a,0x3c,0x55,0x15,0x69,0x3c,0x15,0x5b,0x02,0x3e,0x73,0x44,0xa8,0x3d,0x8b,0xf5,0xe9,0xbb,0x61,0x88,0x21,0x3e,0x1c,0x9f,0x5d,0xbe,0x0f,0xac,0xb0,0x3e,0x09,0x4e,0x99,0xbe,0x59,0x60,0x78,0x3e,0x10,0x9d,0x81,0x3d,0x9c,0x46,0xf0,0xbd,0x28,0x99,0x61,0xbe,0x3c,0xac,0xd5,0x3e,0x20,0xf5,0xef,0x3e,0x8a,0xe6,0x92,0xbe,0xe9,0x6e,0x74,0xbe,0xd9,0x9a,0x7d,0x3e,0xae,0x3b,0xc8,0xbe,0x68,0xc6,0x77,0x3d,0x95,0xd5,0xd1,0xbd,0x92,0xbf,0x9f,0x3e,0x59,0x78,0x48,0xbe,0x20,0xf8,0x38,0xbe,0x7c,0x7f,0x57,0xbe,0x15,0xaf,0xac,0x3e,0x93,0x2d,0x0f,0xbe,0xa4,0x8b,0xe8,0x3d,0x8a,0x60,0x49,0x3e,0xe6,0xdd,0x2a,0xbd,0x7c,0x20,0xc5,0xbd,0xd4,0x9e,0x3b,0x3d,0x65,0x0c,0xed,0x3e,0x18,0x23,0x33,0xbd,0xf2,0xf6,0xf8,0xbe,0x1c,0xaa,0x0b,0xbe,0x71,0x75,0x58,0x3c,0x1d,0xad,0x19,0xbe,0x64,0xed,0xe5,0x3d,0x5b,0x53,0xfa,0xbe,0xe6,0x7f,0x5a,0xbe,0x04,0x6f,0xa6,0x3e,0x57,0x6a,0xc5,0x3d,0x5c,0x41,0x9e,0x3e,0x39,0x4b,0xa9,0x3e,0xcb,0x7f,0x0c,0x3b,0x22,0x9e,0x3e,0x3e,0x77,0xa2,0x15,0x3b,0xce,0x13,0x5d,0xbd,0x9b,0x2e,0x0c,0xbe,0xe5,0x9a,0xe0,0xbe,0x7c,0xe9,0xf8,0x3e,0x1f,0x4d,0xf3,0xbc,0x7b,0xb2,0x09,0xbe,0x76,0x43,0x40,0x3e,0x89,0x01,0x90,0x3e,0x0c,0x16,0x0e,0xbf,0xef,0xce,0x2b,0x3d,0x94,0xad,0x46,0x3f,0x50,0x72,0x07,0x3e,0x9d,0x68,0xfc,0x3d,0xb2,0x08,0x53,0xbd,0xe4,0x96,0xca,0x3e,0x49,0xa9,0x93,0xbd,0x3d,0xb7,0x94,0x3c,0xf0,0xdf,0xc2,0xbe,0xc4,0x80,0x4d,0xbe,0xce,0xdd,0xc1,0xbe,0x8c,0x5c,0xc8,0x3d,0xc6,0xe1,0xf5,0x3e,0x0c,0xed,0x13,0x3f,0x47,0x51,0x94,0xbe,0xa5,0x8f,0x26,0xbc,0x1b,0x59,0xc3,0x3e,0xd2,0x00,0x75,0x3d,0x39,0xe3,0x97,0xbb,0x58,0x20,0x0a,0x3d,0x64,0x2d,0x13,0x3e,0x20,0x86,0x08,0x3f,0x16,0xc8,0xbd,0x3d,0x22,0x00,0xc8,0xbe,0xd4,0x17,0x9a,0x3e,0x89,0x15,0xb8,0xbe,0x73,0x2b,0x86,0xbc,0x90,0xd9,0xbd,0x3d,0xd0,0x7c,0x1e,0x3d,0x60,0x46,0x95,0x3d,0xaf,0x2f,0x81,0xbe,0x4b,0xd9,0xa6,0xbe,0x48,0xd5,0xa9,0xbd,0xf3,0x5d,0x47,0x3c,0x40,0x27,0xb2,0x3d,0xe5,0x4a,0x84,0x3e,0x02,0xcf,0x9e,0xbc,0x16,0xa4,0x3f,0x3e,0x38,0xc2,0x05,0x3e,0x9f,0x5a,0x30,0xbe,0xcd,0xad,0xec,0xbd,0x1a,0x53,0x2a,0xbe,0x53,0xa3,0xdd,0xbe,0xc4,0x68,0x59,0x3d,0x2a,0x2f,0x4e,0xbe,0xfc,0xef,0xc6,0x3d,0x5a,0xba,0x0a,0xbd,0xa9,0x3c,0xdd,0x3d,0x3b,0xee,0x46,0xbd,0x16,0xa4,0x8a,0x3d,0x77,0x05,0xfa,0x3d,0xfb,0x9a,0x81,0x3d,0x0d,0xfc,0xcf,0x3c,0x4d,0x8c,0x0d,0x3f,0x7e,0xfe,0x5a,0x3d,0xcf,0x65,0x39,0xbe,0xc8,0x72,0x2d,0xba,0xde,0x0b,0xa1,0xbd,0x91,0x29,0x8c,0x3e,0x1e,0xf6,0x6d,0x3d,0xbb,0x00,0x1b,0xbe,0x52,0x3c,0x52,0xbd,0x73,0x3c,0xbc,0x3c,0xcf,0x86,0x89,0xbe,0x86,0x14,0x41,0x3e,0xea,0x2d,0xdc,0x3e,0x34,0xfa,0xe4,0x3d,0xf6,0xec,0x50,0xbe,0x93,0x55,0xb3,0xbe,0x46,0x0d,0x4a,0x3e,0xd2,0x56,0x03,0xbc,0x31,0xfa,0x98,0x3e,0x73,0xaa,0x27,0xbc,0xc7,0x3e,0xa1,0xbe,0x85,0x8d,0xb5,0xbe,0xfd,0xa6,0x65,0x3e,0x47,0x11,0x4c,0x3e,0x09,0x6e,0xdc,0x3e,0xf1,0x6a,0xa9,0x3d,0x62,0x0a,0x0b,0xbe,0xd5,0x4e,0x4c,0xbe,0x12,0xdb,0x98,0x3d,0x78,0x8b,0x20,0xbe,0x94,0x6b,0x03,0xbe,0x91,0x78,0x06,0xbe,0x43,0xc7,0xaa,0x3c,0x9c,0xca,0x8d,0xbe,0x09,0x23,0xe7,0x3e,0x92,0x73,0x40,0xbe,0xae,0xd0,0xcc,0x3e,0xce,0x37,0x5d,0xbe,0xe7,0x39,0xdb,0xbd,0x75,0x7c,0xb7,0x3d,0xb1,0x86,0x89,0xbe,0x83,0x39,0x4d,0xbe,0x7d,0xc3,0x09,0x3d,0x07,0x19,0x54,0xbe,0xa0,0x90,0x3f,0xbe,0x0e,0x00,0xb0,0x3d,0x51,0x9c,0x53,0x3d,0xd6,0x41,0x9b,0xbd,0xff,0xc2,0x3c,0xbe,0xf5,0x0c,0x81,0x3d,0x68,0x33,0x4c,0x3d,0xf1,0x7d,0x57,0x3e,0x0e,0x11,0x42,0x3e,0x27,0x96,0x91,0x3e,0x4c,0xf4,0xb6,0x3e,0x47,0xa1,0x0a,0x3d,0x8e,0x2c,0x9b,0xbd,0xab,0xb6,0xe5,0xbd,0xf1,0xe3,0xd8,0xbd,0x2b,0xd2,0x96,0xbd,0x10,0xd7,0x0b,0xbe,0xd5,0xf6,0x91,0xbe,0xd0,0xf6,0x3d,0x3e,0x79,0x90,0xb7,0x3d,0x06,0xff,0x82,0xbe,0x20,0xd4,0x14,0xbe,0x5d,0x4a,0x00,0x3f,0xc9,0xab,0x73,0xbb,0x11,0xdc,0x64,0x3e,0x62,0xf0,0xf1,0xbe,0xa5,0xbd,0x0c,0x3e,0x2f,0x9c,0x4a,0xbd,0xf5,0x70,0x37,0xbe,0x0a,0x97,0x0e,0x3e,0xcf,0x3d,0x89,0xbe,0x66,0xbf,0xfb,0xbe,0xa6,0xa4,0x0f,0xbd,0x60,0x85,0xcc,0x3d,0x21,0xe3,0xc1,0x3e,0x23,0x45,0x95,0x3c,0x55,0xb5,0x2a,0x3d,0xb6,0x0e,0x71,0x3e,0x02,0x8c,0xd4,0xbc,0xeb,0xc8,0x4c,0x3e,0x4f,0x49,0x07,0xbd,0xc5,0x97,0x26,0x3e,0x44,0xb0,0xc2,0x3e,0x8b,0x58,0x2b,0x3e,0x3e,0x4d,0x83,0x3e,0x0c,0x07,0xdf,0xbe,0xc4,0xfa,0xc3,0x3d,0xf8,0x3d,0x23,0xbe,0xd7,0x1b,0x07,0x3e,0x5a,0xa1,0x9a,0xbd,0xff,0x01,0x25,0xbe,0x04,0x8b,0x2a,0xbe,0x2b,0xc9,0x23,0x3e,0x31,0x31,0x90,0xbe,0xae,0x57,0xe7,0x3e,0x8d,0x27,0xbc,0xbc,0xa7,0x84,0x89,0x3e,0xfe,0xf7,0xcc,0x3d,0xea,0x7f,0x7b,0xbe,0x7d,0xb8,0x08,0x3d,0xe5,0xa5,0xba,0xbe,0xa5,0x19,0x20,0x3d,0x11,0xe1,0x89,0xbd,0xc2,0x9d,0xe1,0xbd,0xd4,0xa5,0x76,0x3d,0x27,0x58,0x8b,0xbe,0x15,0x32,0xad,0x3d,0xd6,0x79,0xd5,0x3d,0x25,0x56,0xe5,0xbe,0xff,0x43,0x2e,0x3d,0xbe,0x37,0x87,0x3e,0xb6,0x20,0x50,0x3e,0x38,0xb8,0x90,0x3e,0x60,0x4c,0xf7,0x3c,0x4b,0xbe,0xba,0x3e,0x9f,0x77,0x0d,0xbd,0x23,0x88,0x85,0x3d,0xd1,0x45,0x98,0xbe,0xea,0xfd,0xa0,0xbe,0x33,0x51,0x02,0x3e,0x10,0xbf,0x3a,0xbe,0xe9,0x00,0x05,0x3e,0xca,0xe8,0x2f,0x3e,0x29,0x80,0x84,0x3d,0xa0,0xf1,0x61,0x3e,0xfb,0xc4,0x31,0xbe,0x0e,0xf8,0x9a,0x3c,0x76,0xad,0x89,0x3e,0xbf,0x16,0xad,0x3d,0x54,0xea,0x5f,0x3c,0x21,0x40,0x35,0x3e,0x94,0x8b,0x28,0xbc,0x5f,0xf4,0x90,0x3e,0x1a,0x15,0x48,0xbd,0x27,0x24,0xc1,0xbe,0x1b,0xf6,0x8f,0x3c,0x60,0x1a,0x9a,0x3e,0xc8,0x3c,0x45,0x3c,0x89,0x0b,0xdd,0xbd,0xdb,0xfe,0xd5,0xbd,0x29,0x67,0x96,0x3e,0x5b,0x7c,0x4c,0x3e,0xb8,0x85,0xe3,0x3e,0x62,0x8a,0x86,0x3e,0x3c,0xcb,0xfb,0xbd,0x11,0x89,0x4f,0xbd,0x38,0xca,0x9b,0x3e,0x9b,0x83,0xd6,0x3d,0xe8,0xac,0x2b,0x3c,0xdd,0xb4,0xb1,0xbe,0x2b,0x22,0x3e,0x3e,0xa7,0xd3,0xca,0xbd,0x39,0x08,0x0a,0xbf,0x39,0x86,0x26,0xbe,0x7b,0x83,0x8e,0x3e,0x43,0x28,0x00,0xbe,0x52,0x93,0xce,0xbf,0x11,0x77,0x84,0xbd,0xca,0xcd,0x2e,0x3e,0xad,0x44,0x32,0xbe,0x2b,0x02,0x09,0x3e,0x0e,0x2d,0xe4,0xbe,0x32,0x72,0x70,0x3e,0x3f,0x33,0xe5,0xbd,0xbf,0x78,0x1b,0xbd,0xad,0xd4,0x69,0xbe,0x46,0xb2,0x0e,0x3e,0x36,0x1e,0x43,0xbf,0x71,0x81,0x4d,0xbe,0x9c,0x51,0x2d,0xbe,0x0a,0x61,0xd2,0x3c,0x1b,0x1c,0x98,0x3c,0x36,0x37,0x6d,0x3e,0x59,0x20,0x44,0x3b,0x9d,0xcd,0xe9,0xbe,0xc4,0xfe,0xb0,0xbd,0xb9,0x22,0x80,0xbd,0xb2,0x18,0x5e,0x3e,0x19,0xed,0xc8,0xbe,0x9c,0xd3,0xe2,0xbd,0x4f,0xf6,0xad,0xbe,0xbf,0xb3,0x6a,0x3e,0x0e,0xa9,0x9a,0xbd,0xee,0xd0,0x6c,0x3e,0x54,0x6d,0x93,0x3d,0x2e,0x5c,0xb7,0xbc,0x44,0xaa,0x22,0xbd,0xf6,0x6b,0x22,0x3e,0xa7,0x66,0xfd,0x3e,0xde,0x6f,0x9a,0x3e,0x39,0x25,0x56,0xbe,0x80,0xf8,0x9d,0x3d,0x5a,0x9c,0x63,0xbe,0x5d,0xb1,0x1b,0x3f,0x85,0xdc,0x3d,0x3d,0x8b,0x32,0x39,0x3e,0xf2,0x99,0x4f,0xbd,0x77,0x7a,0xad,0x3d,0x15,0xd3,0xd4,0xbd,0x71,0x34,0x90,0x3e,0x7d,0x2e,0x12,0x3e,0x42,0xaf,0xf1,0xbe,0x79,0xc9,0x2a,0x3d,0x9c,0xd3,0xa4,0x3d,0x9c,0x24,0x6a,0x3e,0x26,0xcf,0x96,0xbd,0x38,0xdc,0x3d,0x3e,0x70,0x58,0x9f,0xbd,0x46,0xd7,0x5d,0xbe,0x10,0xb3,0xab,0xbe,0xec,0x82,0x18,0x3e,0x63,0xaf,0x04,0x3c,0x8b,0x1a,0x41,0xbe,0x72,0x2c,0xf7,0x3d,0x7c,0x76,0x3b,0xbe,0x7a,0x89,0x90,0xbf,0xcd,0x2e,0x80,0xbf,0x24,0xdc,0xa8,0xbe,0x97,0x26,0x07,0xbe,0x43,0x3c,0x1f,0xbf,0x0b,0xd0,0x28,0xbf,0xc8,0x54,0x33,0xbd,0x3f,0xcd,0xb5,0x3e,0xaa,0x2d,0x84,0xbc,0xc5,0x5a,0x00,0x3f,0xe8,0x92,0x13,0xbf,0x87,0x3e,0xcd,0xbd,0xca,0x37,0x2d,0x3e,0x22,0xb1,0x93,0x3d,0xab,0x39,0x95,0xbd,0x93,0x07,0x93,0x3e,0x26,0xff,0xec,0xbf,0xa9,0x46,0x9f,0xbd,0xde,0x60,0xd4,0x3d,0xda,0x4e,0xc0,0x3b,0xde,0x73,0xa3,0x3e,0x12,0xff,0xb8,0xbe,0x3d,0x3d,0x66,0x3c,0xf0,0x5e,0x0e,0xbd,0x12,0x12,0x50,0x3e,0x33,0xc7,0xc1,0x3e,0xf0,0xb2,0xc1,0x3e,0x9f,0xa9,0x71,0x3c,0x33,0x73,0xef,0xbd,0x16,0xa7,0xd0,0xbd,0x8c,0x53,0x9b,0xbd,0x8f,0x73,0x25,0xbe,0xdb,0xb9,0xd9,0x3d,0x86,0x1e,0xe1,0xbe,0x24,0x70,0x90,0xbe,0x84,0x98,0x79,0xbe,0x35,0x5f,0xa4,0xbd,0x4b,0xf1,0xa6,0xbe,0x53,0x94,0x3a,0x3d,0x69,0x4c,0x85,0xbd,0x4e,0xfa,0xb6,0x3d,0x40,0x23,0xcc,0x3d,0x9e,0x04,0xde,0xbe,0x8b,0x7b,0x2b,0xbe,0xef,0xd5,0xf4,0x3d,0x42,0xe3,0xac,0x3c,0xbb,0x31,0x0c,0xbd,0xac,0xe8,0xac,0xbe,0x52,0x24,0xbe,0xbe,0xea,0xfa,0x37,0x3e,0x52,0x26,0x45,0xbd,0x15,0xa3,0xf5,0xbd,0x5e,0xe0,0x11,0xbe,0x40,0xc6,0x61,0xbe,0xa6,0xcf,0x30,0x3d,0xc1,0x8e,0x41,0x3e,0x2f,0xaa,0xd6,0xbd,0x2a,0x32,0xed,0x3d,0xc9,0x2c,0x24,0xbe,0x48,0x4e,0xca,0x3e,0x24,0xe9,0x00,0x3e,0x4f,0xde,0xf3,0xbd,0x95,0xcb,0xa7,0xbd,0x1a,0xc8,0x98,0x3d,0x19,0xb4,0x0c,0xbf,0xd6,0xf0,0x1d,0xbf,0x0a,0xd2,0x2f,0x3d,0xb3,0x76,0x80,0xbe,0xfa,0xba,0xa0,0xbe,0x57,0x8b,0x0a,0xbf,0x65,0xea,0x9b,0xbe,0x10,0xe1,0xbc,0x3e,0x71,0x8f,0xb5,0x3d,0xe6,0x0f,0x90,0x3e,0x4a,0x70,0xa9,0xbe,0x03,0xa2,0xda,0x3d,0xa0,0xb1,0xf4,0xbd,0x42,0x5a,0xd5,0xbe,0x2d,0x17,0x35,0x3e,0xd3,0x82,0xc8,0xbd,0xee,0x7f,0xd5,0xbe,0x32,0x1f,0xfa,0xbd,0xe4,0x89,0xab,0x3c,0x8d,0x89,0x0f,0x3e,0x93,0x8b,0x84,0x3e,0x77,0x28,0xed,0xbe,0x1f,0xcf,0x9f,0xbd,0xde,0x85,0x9f,0x3d,0x27,0x5d,0x91,0x3d,0x7f,0x87,0x5a,0x3d,0x02,0xd2,0x96,0x3e,0x34,0xb2,0xf0,0xbd,0x3b,0x1c,0xf7,0x3d,0xe5,0xd7,0x5f,0xbe,0xb7,0x3b,0x36,0x3e,0x04,0x45,0x58,0x3d,0x6a,0xba,0x44,0xbe,0xa8,0xe8,0x70,0xbd,0x47,0xe7,0x86,0xbe,0x98,0xcd,0xda,0xbc,0x11,0x6f,0xb4,0x3d,0xb4,0xb6,0x75,0x3e,0xde,0x97,0xe7,0xbb,0x0d,0x0b,0x14,0x3e,0x7e,0xe3,0x45,0x3e,0x05,0x56,0x18,0xbe,0x0c,0x80,0x34,0x3e,0x43,0xca,0x68,0xbd,0xce,0x82,0xde,0xbd,0xab,0x47,0x88,0xbe,0xd6,0xd0,0x46,0xb9,0x4d,0x4b,0x53,0xbe,0x05,0xb9,0x44,0xbe,0x15,0xd3,0xac,0x3d,0xd2,0x28,0xa1,0xbc,0xc4,0x5e,0x4d,0xbe,0x86,0xe4,0x91,0x3d,0xe4,0x92,0x38,0xbe,0x28,0xfe,0xaf,0x3d,0x22,0x96,0xf8,0x3e,0xef,0xe0,0x50,0xbc,0xae,0x1f,0x48,0xbc,0xdb,0xad,0xc9,0xbd,0x71,0x56,0xad,0x3d,0x0f,0xf0,0xbc,0x3d,0x4a,0xec,0x96,0x3e,0xa2,0x36,0xcf,0xbd,0x50,0x55,0xa9,0xb9,0x17,0x4f,0x51,0xbe,0xd0,0xa9,0xc6,0xbd,0x8d,0xee,0x62,0x3d,0x5a,0x7a,0xa7,0x3e,0x77,0x80,0x1c,0x3e,0xb1,0x82,0xdf,0x3d,0x1b,0x7d,0x33,0xbe,0x78,0x4e,0x66,0x3e,0x84,0x69,0x7d,0x3d,0x78,0x34,0xda,0x3d,0x8d,0xbe,0x20,0x3c,0xc2,0x2b,0x26,0x3d,0xd8,0x5c,0x32,0xbd,0xd1,0x94,0x26,0x3e,0x58,0x2e,0x25,0xbe,0x2f,0x0f,0x4b,0xbe,0x81,0xec,0x33,0x3e,0xe0,0xb0,0xc2,0x3d,0xc5,0x61,0xba,0x3d,0x49,0x4f,0x7f,0xbd,0x9a,0xbc,0x35,0x3e,0x39,0xfb,0x9e,0x3e,0xc0,0x63,0x3b,0x3e,0xf4,0xa5,0x82,0xbd,0x01,0xc6,0x42,0xbe,0xc3,0xb7,0x2b,0x3d,0x34,0x7b,0xc6,0xbe,0xd0,0x8b,0x00,0x3e,0x8b,0x08,0x5b,0xbd,0x9a,0x98,0xc6,0x3d,0x4e,0x59,0xb6,0xbe,0xdb,0x11,0x2e,0xbe,0xd6,0xae,0xc1,0x3c,0x30,0x47,0xa7,0x3e,0x77,0x9b,0xf8,0x3d,0xc7,0x56,0x9b,0x3e,0xc0,0x21,0x87,0x3e,0xc8,0x57,0x06,0x3f,0x13,0x2c,0x76,0x3e,0x4b,0x19,0xe7,0xbe,0x7b,0xc5,0x04,0xbe,0xf6,0xb1,0xe6,0xbe,0x0d,0xe4,0xb1,0x3e,0xf0,0x44,0x21,0x3e,0x56,0xe8,0x64,0xbe,0xfc,0x42,0x45,0x3e,0x4e,0xb2,0x9b,0xbd,0x06,0x23,0xa7,0xbe,0x2b,0x67,0x2b,0x3f,0xad,0x64,0x09,0xbd,0x2e,0x18,0x29,0xbe,0x40,0x53,0xe4,0xbe,0xf4,0xe0,0xea,0xbe,0x4d,0x51,0x59,0x3e,0x7a,0x59,0x9a,0x3d,0x7f,0xdd,0x79,0x3e,0x96,0xe5,0x83,0xbd,0x93,0x09,0x2b,0x3e,0xf0,0x6e,0x98,0x3d,0x27,0x97,0xf6,0x3d,0x2c,0xdd,0xbe,0xbd,0x95,0x45,0x73,0xbc,0x4e,0x66,0xae,0xbe,0x61,0x5a,0xb7,0x3d,0x4e,0x32,0xe0,0xbe,0x26,0x5a,0x18,0xbf,0x41,0x51,0x6a,0xbf,0xfd,0x91,0xb3,0xbe,0x40,0xad,0x87,0xbd,0x6d,0xf1,0xd2,0xbe,0x88,0xf4,0x1b,0xbe,0x19,0x16,0xaf,0x3e,0xf4,0x57,0x95,0xbf,0xc0,0xb8,0xa6,0x3e,0x0a,0x56,0xe2,0xbd,0x3f,0x6f,0xcc,0xbd,0x4e,0xf7,0x91,0x3d,0x22,0x54,0x21,0xbe,0x04,0x5f,0x86,0x3d,0x69,0x8e,0xdd,0xbd,0x2d,0x12,0x66,0xbf,0x22,0x09,0x26,0x3d,0x31,0x21,0x0e,0xbe,0xe4,0xf7,0x96,0xbd,0x8f,0xdc,0x47,0xbd,0x6f,0x1c,0xac,0xbe,0xa9,0xc7,0x10,0xbf,0xbf,0x4a,0xc7,0x3e,0x35,0xd1,0x97,0x3e,0x0c,0x27,0x39,0x3d,0x84,0x0d,0x95,0x3e,0xa6,0x87,0x2b,0x3d,0x1e,0x10,0x1c,0x3d,0x8e,0x16,0x15,0xbe,0xe7,0x83,0x73,0x3d,0x2e,0x2b,0x61,0xbe,0x02,0xec,0x19,0xbe,0xad,0x55,0x50,0xbe,0xb1,0xd0,0x43,0xbf,0x41,0x17,0x57,0xbe,0x58,0xef,0x18,0xbe,0x7b,0x07,0x36,0x3e,0xe1,0xc1,0xb2,0xbe,0x1e,0x8e,0x81,0xbd,0x17,0x63,0x59,0xbe,0xcb,0xff,0xfc,0x3d,0xca,0x59,0xc4,0xbe,0x92,0x8c,0x8f,0xbe,0xb4,0xaf,0xb5,0xbd,0x30,0xd8,0xd0,0x3d,0x78,0xf6,0x92,0x3d,0x89,0x06,0xaa,0xbd,0x77,0x50,0x83,0xbf,0x2a,0x76,0xe0,0xbd,0x23,0xdd,0xe0,0x3d,0xd4,0xe5,0x61,0xbf,0x68,0x82,0x1b,0xbf,0x6e,0x1d,0xc8,0x3d,0x08,0xb3,0xcd,0xbd,0x4e,0xf2,0x94,0x3e,0x25,0x7d,0xcb,0x3c,0xfe,0xcf,0xb8,0xbe,0xef,0x40,0x7d,0xbe,0x05,0x5b,0xed,0x3e,0xcb,0xc7,0x52,0xbe,0xe2,0x10,0x28,0x3e,0x72,0x88,0xaa,0xbe,0x60,0x9c,0xb2,0x3e,0x58,0xf6,0x7f,0x3e,0xf0,0x36,0xc1,0x3e,0x5f,0xaf,0x89,0x3e,0x88,0xb2,0x7e,0x3d,0x45,0x1f,0xd0,0x3e,0x2a,0x5e,0xa5,0xbd,0xa1,0x62,0x28,0x3f,0x5c,0x2d,0xc1,0xbe,0xc5,0x5e,0x8d,0x3e,0x43,0x5b,0x26,0xbe,0x1a,0x30,0xc8,0x3c,0xb8,0x6f,0xbb,0x3e,0x0d,0x49,0xbd,0xbc,0xdc,0x4b,0x39,0x3f,0x21,0x05,0x36,0x3e,0x34,0x32,0xda,0x3e,0xe5,0x17,0xd1,0x3e,0x80,0x02,0x54,0x3e,0xb1,0xee,0x36,0x3e,0xdd,0x97,0xd2,0x3d,0x6f,0xaa,0xb0,0x3d,0x58,0x61,0x9d,0x3d,0xa4,0x15,0x09,0x3b,0x29,0xf3,0x03,0xbf,0x06,0xb9,0xc6,0xbd,0x59,0x7b,0x09,0xbd,0x1f,0x4b,0x51,0xbe,0x7e,0x1b,0xeb,0xbd,0x82,0x7a,0x49,0x3e,0x78,0xda,0xe6,0xbd,0xc2,0x6f,0x7e,0x3e,0xe8,0xd3,0xd8,0x3e,0xb9,0xcf,0x67,0x3d,0x0e,0xde,0xab,0xbe,0x3e,0xe4,0x6a,0x3e,0x5a,0x50,0x03,0xbe,0x26,0x80,0xa4,0x3d,0xdc,0xde,0x1b,0xbf,0xa7,0xe9,0x76,0x3e,0x59,0xa1,0xe4,0xbc,0xa8,0xd7,0x6d,0x3e,0xcb,0xcb,0xc7,0x3d,0xa9,0xe9,0xa1,0xbd,0x45,0x37,0x2d,0x3b,0xd2,0xca,0x5e,0x3d,0x8d,0x68,0x07,0x3e,0x43,0x6a,0xde,0x3e,0x41,0xf1,0x52,0x3f,0x6f,0x65,0xc8,0x3c,0xe5,0xe8,0x89,0xbe,0x84,0x04,0x69,0x3e,0x11,0xe6,0xb8,0x3e,0x1c,0xc6,0x96,0x3d,0xa0,0x4f,0x3f,0xbe,0xdf,0x8e,0xd5,0xbd,0x09,0x92,0x0d,0xbf,0x27,0x89,0x45,0xbe,0x36,0x5f,0xbe,0x3d,0xb9,0x0d,0xdd,0x3d,0xc1,0x2d,0x6d,0xbf,0xda,0x28,0x04,0xbe,0x2d,0x4a,0xce,0xbe,0x92,0x38,0x1f,0x3f,0x32,0x44,0x08,0xbe,0x35,0x69,0x62,0x3e,0xbf,0x24,0x44,0x3e,0x75,0xc9,0xbe,0xbd,0x22,0xd0,0x55,0x3e,0xc5,0xad,0xf5,0xbd,0x5f,0x6b,0x9f,0x3d,0xd1,0xb2,0xef,0x3d,0xa1,0xf0,0xa4,0xbd,0x2c,0x65,0x23,0x3e,0x57,0x32,0x80,0xbe,0x20,0x6c,0x48,0x3c,0x10,0x34,0x89,0x3e,0xb2,0x83,0xf3,0x3d,0x69,0x70,0xae,0x3d,0x95,0x48,0x79,0xbd,0xe0,0xff,0x87,0xbe,0x8e,0xe9,0xb9,0x3e,0xbe,0x61,0xf1,0xbc,0x65,0x04,0xbd,0x39,0x58,0x6f,0xfa,0xbd,0xe8,0x75,0x28,0x3e,0xba,0x40,0x27,0x3e,0x52,0x46,0x44,0x3e,0xc8,0xa0,0xe9,0x3c,0x1e,0x44,0xe6,0xbe,0xcb,0x40,0x6d,0xbe,0xa6,0xf4,0x33,0xbe,0xc4,0xa2,0xda,0x3d,0xdc,0xb1,0xc6,0xba,0x0b,0x64,0x93,0x3e,0x77,0xf6,0xfc,0xbb,0x90,0xe8,0xa4,0x3e,0x3e,0x9a,0x58,0x3c,0x89,0xb5,0xa5,0x3e,0xa6,0x6e,0x94,0x3d,0x51,0x3d,0x0e,0xbe,0xaf,0x58,0x09,0xbe,0x06,0xe5,0x80,0x3e,0xf0,0x5a,0x7c,0x3e,0x65,0x37,0x96,0xbe,0x48,0x6f,0x12,0x3d,0xe5,0xeb,0xe4,0xbe,0x31,0x3c,0x05,0x3f,0x92,0xb2,0x12,0xbe,0x89,0x04,0xe9,0xbc,0x3e,0x9c,0x57,0x3e,0x60,0x8f,0xe5,0x3d,0x72,0x55,0x42,0x3d,0x9a,0x35,0xfb,0x3e,0x81,0xaa,0xc4,0x3e,0xe8,0xa9,0x50,0x3d,0xb1,0xf4,0x5f,0xbe,0x74,0x9d,0xe9,0xbd,0x2a,0x19,0x77,0x3d,0x94,0x7b,0x73,0x3d,0xb2,0x0b,0x3d,0x3e,0x46,0x80,0x67,0x3d,0x91,0x4b,0x6e,0xbc,0x20,0x62,0x6b,0xbd,0x64,0x70,0x88,0xbd,0xcf,0x01,0x0a,0x3e,0xae,0x0f,0x4f,0x3e,0xd2,0xd3,0x41,0x3e,0x76,0xa6,0x67,0x3e,0xee,0x26,0x8e,0x3e,0xee,0x9c,0x55,0x3d,0xc3,0xdc,0x99,0x3d,0x04,0x04,0x79,0xbd,0x12,0x5c,0xb6,0x3e,0x6c,0xd1,0xc1,0x3e,0x1e,0x71,0x05,0xbe,0x57,0x5f,0x3d,0xbe,0xbb,0xb0,0xa2,0x3d,0x29,0x57,0xb9,0xbe,0x36,0xb4,0x3c,0x3e,0x4f,0xff,0x8f,0x3e,0xe6,0xaa,0xab,0x3e,0xe8,0x2b,0xb2,0x3e,0x10,0x2a,0x4a,0x3d,0x3c,0xda,0xb0,0x3d,0x2e,0x47,0xa3,0x3d,0x4a,0x2a,0x4d,0xbd,0x0c,0x0f,0xfd,0xbd,0xd4,0x14,0xa8,0x3d,0x76,0x36,0x43,0xbd,0xf3,0x6b,0xc9,0xbc,0xbd,0x5e,0x3b,0x3e,0x8b,0x76,0x12,0x3e,0x91,0xef,0x5d,0xbe,0x04,0x4e,0x3b,0xbe,0x48,0x04,0x10,0xbe,0x2d,0x1d,0x88,0xbc,0xea,0xca,0x91,0xbd,0xcc,0xb6,0xaa,0x3e,0xc1,0xba,0x24,0x3e,0xa4,0xab,0x0e,0x3d,0x3f,0xcd,0x2f,0x3e,0x4d,0x36,0xbd,0x3e,0x6c,0xdd,0xa7,0x3d,0x80,0xcb,0x9b,0x3e,0x0a,0x10,0xbc,0xbc,0xf1,0x83,0xaa,0x3e,0x8a,0x28,0xa1,0x3e,0x20,0xd8,0x3e,0xbf,0xc7,0xfb,0x49,0xbe,0x66,0x9a,0xfb,0xbe,0xb5,0xdd,0x11,0x3f,0xb3,0x06,0x31,0xbe,0xf8,0x4f,0x60,0x3e,0xd7,0x80,0xa6,0x3e,0xe5,0x8e,0x01,0xbe,0x3d,0xaf,0xee,0x3d,0x01,0x49,0x9f,0x3e,0xb5,0x43,0xa7,0x3e,0x0a,0xfb,0xfb,0xbd,0x8b,0x51,0x1c,0xbd,0x07,0x38,0xde,0xbd,0xd4,0xa4,0xb0,0x3e,0xee,0x22,0x68,0xbd,0x47,0x25,0x3b,0xbc,0xd6,0xce,0xb3,0xbd,0xb0,0xc3,0x5c,0xbe,0xd2,0xd4,0x95,0xbe,0xee,0x8e,0x65,0x3e,0x37,0xec,0xf1,0x3d,0x1f,0x44,0xd9,0x3e,0x42,0xca,0x74,0xbd,0xea,0xd7,0xec,0x3e,0xda,0x46,0x6f,0x3e,0x8a,0x6a,0xa1,0x3d,0x79,0x5f,0x2a,0xbe,0xdc,0x68,0x61,0x3e,0x84,0xcd,0xd3,0x3e,0xb2,0xb8,0xeb,0xbd,0xb0,0x46,0x10,0x3f,0xd7,0x11,0x00,0xbf,0x8b,0x7f,0x7d,0x3e,0x12,0xf1,0x67,0xbe,0x33,0x94,0x91,0xbc,0x5b,0x00,0x97,0x3e,0x41,0x71,0x4d,0x3d,0xe1,0x03,0xf8,0x3e,0xd8,0x75,0xad,0x3e,0xef,0xd3,0x55,0x3e,0xb5,0x82,0xf0,0x3e,0x5b,0x28,0x73,0x3e,0xac,0xa5,0x5b,0x3c,0xd6,0x97,0xcf,0xbd,0xef,0x9d,0x02,0xbe,0xa6,0x05,0xe5,0x3e,0xed,0xda,0x5d,0x3e,0xde,0xba,0x8e,0xbe,0xec,0xfb,0x9a,0xbe,0xc5,0x0d,0x8f,0xbd,0x77,0x4c,0xec,0x3c,0x0a,0x67,0xb7,0xbe,0x32,0x43,0x7e,0x3e,0x12,0x2f,0x85,0x3e,0xaa,0x59,0xdb,0x3e,0x3a,0x43,0xd4,0x3e,0x7b,0xf1,0x38,0x3e,0xc2,0x39,0xd6,0x3c,0xe1,0xb3,0x16,0x3c,0x29,0x52,0x71,0xbe,0xbc,0x65,0xd0,0x3d,0x41,0x05,0xc8,0xbe,0xd1,0xc3,0xb9,0x3e,0xc7,0x48,0x67,0xbd,0xf2,0x79,0x22,0x3e,0x68,0xf0,0xc9,0xbd,0x32,0x35,0x46,0xbd,0x69,0x27,0x51,0x3e,0x36,0xeb,0x58,0x3e,0xbd,0xf3,0x4a,0x3e,0x8c,0x64,0x63,0x3d,0xa3,0x75,0xbf,0x3e,0xc5,0x5b,0x90,0x3e,0x64,0xce,0xa2,0xbe,0xfe,0xaf,0xe4,0xbc,0xc3,0xf7,0xd7,0xbd,0x1b,0xc7,0xfc,0xbb,0x41,0x97,0x0f,0x3d,0x8c,0x89,0xea,0xbd,0x34,0xaf,0x45,0xbf,0xc5,0x9d,0x00,0xbd,0x82,0x66,0x43,0x3e,0x4b,0x88,0x75,0x3e,0xd9,0x7f,0x0a,0xbf,0xc2,0xef,0x8e,0xbd,0x6f,0x28,0x1c,0xbf,0x05,0xb8,0x2d,0x3f,0xc5,0x71,0x59,0xbe,0x12,0x1b,0xe4,0x3d,0x43,0x8d,0x75,0x3e,0x0a,0x0d,0xd3,0xbc,0x8b,0x44,0x2c,0x3d,0x6b,0xa4,0x78,0x3e,0x2a,0xee,0x37,0x3e,0x13,0x3b,0x13,0xbf,0x19,0x63,0xa5,0x3a,0xbd,0xdc,0x7d,0x3c,0x80,0x58,0x8e,0xbe,0xd2,0x06,0x9f,0xbc,0x91,0x77,0x98,0x3c,0x01,0x39,0x6e,0x3e,0xf0,0xa8,0xfa,0xbe,0x7d,0x2d,0xaf,0xbe,0x44,0x8b,0x5e,0xbe,0x13,0x92,0x7e,0x3d,0x7f,0xb0,0xb1,0xbd,0xb3,0xfb,0x2f,0x3c,0x50,0xfd,0xfb,0x3c,0xf9,0x77,0x00,0xbd,0x72,0x62,0x80,0xbd,0x3e,0xd6,0xc0,0xbd,0x70,0x66,0xb9,0x3d,0x22,0x54,0x91,0xbe,0xa3,0x12,0x81,0xbe,0xf4,0x33,0x9b,0x3d,0xe4,0x8e,0xb2,0x3e,0x22,0x6d,0x42,0xbe,0x3d,0xd8,0x1c,0x3d,0x42,0xd7,0xa5,0xbe,0x39,0x8a,0x9e,0x3d,0x85,0x88,0x5c,0x3e,0x2e,0xd3,0x04,0x3f,0xbe,0x8b,0x81,0x3e,0x1c,0x68,0xd1,0x3e,0xb7,0xdf,0x93,0x3e,0xa1,0x36,0x1d,0x3f,0x41,0x36,0xcb,0x3d,0x1f,0xd0,0x87,0xbe,0xc4,0x28,0xad,0x3d,0xa2,0x5c,0x5a,0xbe,0x75,0xea,0xeb,0x3e,0xf1,0x3e,0x4a,0x3d,0x18,0x1c,0xf9,0xbd,0xac,0x23,0x22,0xbe,0x05,0xac,0x4f,0xbe,0xf9,0x26,0x16,0xbf,0xa0,0x67,0x8d,0x3e,0x35,0x92,0x28,0x3f,0x2b,0xa7,0x65,0xbe,0xb0,0x12,0x72,0xbe,0xc1,0x11,0x33,0xbe,0xc0,0x76,0x77,0x3e,0xca,0x3f,0x41,0xbd,0x7b,0xb2,0xff,0x3e,0x7f,0x01,0xb0,0xbd,0x6f,0x51,0x9a,0xbc,0x95,0x7d,0xc8,0xbd,0x10,0xbb,0xec,0x3e,0xca,0x5d,0x80,0xbd,0xb9,0xf6,0xd5,0x3e,0xd7,0x55,0x8c,0xbe,0xd3,0x46,0x43,0x3e,0xa2,0xa5,0x3e,0xbd,0x87,0x0d,0x9b,0x3e,0x43,0xbe,0x01,0xbe,0x46,0x38,0x87,0x3e,0x3b,0x4f,0x05,0xbf,0x21,0xb7,0x94,0x3e,0x26,0x5e,0x73,0x3e,0x60,0x64,0x8b,0xbe,0x12,0x15,0xa8,0x3d,0x92,0x9b,0x81,0xbe,0x85,0x8d,0x1c,0xbc,0x1e,0x16,0xef,0xbd,0x4f,0x0a,0x80,0x3e,0x0e,0x44,0x72,0x3e,0x45,0x7d,0x5e,0x3e,0x6a,0xab,0xb5,0x3d,0xbd,0x4e,0x8a,0x3b,0x14,0x96,0x83,0x3e,0xa7,0x98,0xae,0xbd,0xb9,0x5e,0x3f,0x3e,0x10,0x4d,0x00,0xbd,0xe7,0xef,0xb0,0x3e,0x7d,0xee,0x13,0xbd,0xbb,0x1e,0x93,0xbc,0x71,0x5c,0x5e,0x3e,0xf9,0x73,0x31,0xbe,0xb7,0xc2,0x3e,0xbe,0xa0,0x6e,0x59,0x3d,0xae,0x81,0xa0,0x3e,0x43,0x50,0x91,0x3e,0x25,0x52,0x5b,0xba,0x88,0xb1,0xac,0x3e,0x8c,0x9c,0x96,0x3d,0x66,0x71,0x05,0x3f,0xc5,0x56,0xc5,0x3e,0xb0,0x4d,0x4c,0xbe,0xde,0x9b,0x09,0xbe,0x90,0xca,0xff,0x3d,0xba,0xd6,0xa6,0x3b,0x64,0xa5,0x26,0xbe,0xa1,0xe1,0x45,0xbe,0x10,0x80,0x2b,0xbd,0xd6,0xdc,0x54,0x3e,0x24,0xd8,0x95,0xbc,0xda,0x3b,0xab,0x3d,0x0d,0xc2,0xd0,0x3b,0x5b,0x05,0xac,0x3d,0x59,0xc2,0xbe,0x3e,0x67,0x27,0x6b,0x3f,0x15,0x1f,0xf6,0xbe,0xe4,0x9f,0xc3,0xbe,0xde,0xc5,0x62,0xbc,0xad,0xb4,0xa4,0x3d,0x1c,0x3c,0x67,0xbe,0x9f,0x07,0x08,0xbe,0x76,0x20,0x8c,0xbe,0xfa,0xad,0xbf,0xbd,0x55,0x9a,0xb2,0x3e,0xe8,0x8b,0x9a,0x3e,0x34,0xcb,0x81,0xbe,0xf4,0x06,0x3a,0xbe,0x8d,0x12,0xe6,0xbe,0x4f,0x0c,0xf5,0x3e,0xac,0x26,0x37,0xbd,0x6b,0x88,0x16,0x3d,0x81,0x41,0x80,0xbe,0x29,0x1b,0x87,0xbd,0x61,0x3e,0x8f,0xbe,0x9c,0xee,0xe6,0xbd,0xc3,0xc5,0x85,0xbe,0xda,0x18,0x5d,0xbe,0xeb,0x92,0xa3,0x3e,0xe5,0x33,0x22,0x3d,0x41,0x9f,0xcd,0x3e,0xf4,0x5f,0x09,0xbe,0xda,0xd6,0x6e,0xbe,0xe0,0x94,0x3f,0x3d,0xa6,0x88,0x60,0xbe,0x96,0xd8,0x31,0x3e,0x09,0x61,0xa4,0xbd,0x48,0x51,0x1e,0x3d,0xed,0x58,0x63,0x3c,0x3d,0x0f,0x8e,0xbe,0xb6,0x28,0x10,0x3d,0xd2,0xcc,0x79,0xbd,0x3a,0x37,0xbf,0x3c,0xf6,0x26,0xa7,0x3d,0x12,0x8f,0x07,0x3e,0xee,0x77,0x47,0x3e,0x75,0x98,0xcd,0x3e,0x94,0x20,0x81,0x3e,0xce,0xb8,0x4f,0x3d,0xc6,0x89,0x91,0xbe,0xc2,0x21,0xd1,0xbc,0x3b,0xef,0x85,0x3d,0x9d,0x6b,0x19,0xbe,0x30,0x36,0x96,0xbe,0x61,0x90,0x3b,0xbe,0xa1,0xc7,0x02,0xbe,0x00,0x45,0xd0,0xbd,0xe7,0x7b,0x3b,0xbe,0x29,0xb2,0x04,0xbe,0x4b,0x85,0x74,0xbe,0x36,0x6e,0x80,0x3e,0x4f,0xe1,0x75,0x3e,0x43,0x87,0x28,0x3e,0xdf,0xed,0xcd,0xbd,0xe9,0x17,0x37,0xbd,0x02,0xb2,0x57,0x3e,0x78,0x32,0xab,0x3c,0x71,0xe1,0xd7,0x3b,0x9f,0xb2,0x35,0xbe,0x6b,0xe2,0x23,0xbd,0x2d,0xd9,0x31,0x3e,0x38,0x12,0x15,0x3e,0x30,0x1b,0xf0,0xbc,0xe1,0xb6,0xa2,0x3e,0x5b,0xd4,0xc9,0xbd,0xc8,0x58,0x55,0xbe,0x7b,0x63,0x05,0x3e,0x90,0xe3,0x0e,0x3e,0x23,0x42,0xf0,0xbb,0xac,0xce,0x19,0xbe,0x24,0x78,0xbd,0x3e,0xe6,0xa9,0x89,0x3e,0xf4,0x09,0xbd,0x3e,0x39,0xec,0xe2,0xbe,0x6c,0x2b,0x03,0x3f,0xeb,0x03,0xee,0x3e,0x14,0x56,0x06,0xbd,0xf6,0xc6,0xa0,0x3d,0x6a,0xad,0x5a,0x3e,0xd7,0x5a,0x28,0x3f,0x10,0xb5,0xfe,0xbc,0x1e,0xb6,0x98,0x3e,0x93,0x62,0x17,0xbf,0x3c,0x21,0x8a,0x3e,0x42,0xba,0xc4,0xbe,0x8e,0x35,0x91,0x3e,0xe7,0x70,0x9e,0x3e,0x1f,0x38,0x8e,0x3e,0x6a,0x1d,0x37,0x3f,0x94,0x52,0xe9,0x3d,0x9d,0x8b,0x30,0x3e,0xff,0x59,0x8c,0x3e,0x2a,0x4a,0x17,0xbe,0x32,0x1f,0x57,0xbc,0x27,0x0c,0x25,0x3e,0x4b,0x4b,0x7e,0x3e,0xb7,0x80,0xa6,0x3e,0x56,0x20,0xbc,0x3e,0x26,0xe5,0xa1,0xbd,0x29,0x7a,0x40,0x3b,0x53,0x24,0x4d,0x3e,0xcd,0x13,0x33,0x3e,0x68,0x0b,0xcb,0xbe,0x4d,0xe4,0x04,0x3f,0x9d,0xdf,0x25,0xbd,0x4a,0xda,0x09,0x3e,0xa3,0xc4,0xa2,0x3e,0x84,0xf6,0x93,0xbd,0xdb,0x3a,0xae,0xbd,0x49,0x92,0xa2,0x3b,0xfd,0xc2,0x2f,0xbd,0xbd,0x8f,0xd0,0x3d,0xc6,0x53,0xa3,0xbe,0xc7,0x75,0xae,0x3d,0x94,0x6f,0x64,0xbe,0x71,0xfd,0x02,0xbe,0xee,0xd1,0xc9,0xba,0x8b,0x75,0x9b,0xba,0x88,0x28,0x3a,0x3d,0xbc,0xa5,0x0c,0x3d,0x68,0x42,0x4c,0xbd,0xcc,0xdc,0xdc,0x3d,0x5f,0x97,0x03,0x3f,0xfd,0xa7,0xd2,0x3d,0x03,0xde,0x23,0xbf,0x73,0x8f,0x7d,0x3e,0x20,0x26,0xa7,0xbc,0xc6,0x51,0xb1,0x3d,0xc1,0x2e,0xf6,0xbd,0x02,0x02,0xe7,0xbc,0x4f,0x1e,0x6c,0xbf,0xe6,0x1d,0x17,0x3e,0x35,0xbe,0x0c,0x3f,0x1d,0x8d,0x9f,0x3e,0xf2,0xbd,0x68,0xbf,0x01,0x7e,0x81,0x3e,0x9b,0xf1,0xfb,0xbe,0x20,0x7d,0x35,0x3f,0x37,0x3d,0x04,0x3e,0x42,0x05,0x15,0xbf,0x50,0x92,0xab,0xbe,0x80,0x55,0x5d,0xbd,0x1e,0x87,0xa2,0xbe,0xe3,0x46,0xd8,0xbe,0x4e,0x3d,0x12,0xbe,0x9a,0xb5,0x5f,0xbe,0x26,0xc5,0xbb,0x3e,0xb4,0xfc,0xff,0xbc,0x26,0x51,0xc7,0x3e,0x1a,0xf2,0xfc,0xbe,0x2f,0x08,0x78,0xbe,0xe8,0x14,0x70,0xbe,0x12,0x50,0x9d,0xbc,0xcb,0x36,0xa5,0x3d,0x72,0xbd,0xaa,0xbd,0x26,0x0e,0x09,0xbf,0x20,0xed,0xbf,0xbe,0x51,0xf8,0x83,0x3e,0x41,0x50,0x15,0x3e,0xef,0xe2,0x6d,0xbd,0x34,0x92,0x04,0xbf,0xd1,0x03,0x7a,0xbd,0xf8,0x49,0x45,0x3e,0xea,0x89,0x40,0x3e,0x1c,0x25,0x07,0x3e,0xe7,0xae,0x0f,0x3b,0x85,0x9c,0xf3,0xbd,0xa1,0xa4,0xdf,0x3d,0x94,0xed,0x8c,0x3d,0x12,0x6d,0x12,0xbd,0x80,0xe1,0x6c,0xbe,0xf1,0xf5,0x97,0xbd,0x7a,0x64,0x43,0xbe,0x67,0x60,0x09,0x3e,0x08,0xe6,0xe3,0x3c,0xd7,0x47,0x94,0x3d,0x42,0x21,0x8d,0x3e,0x11,0x7b,0xdc,0x3d,0x97,0x20,0xfa,0x3b,0x8b,0x79,0x22,0x3e,0x17,0x5c,0x76,0x3e,0x5b,0x1f,0x2f,0xbe,0x71,0x5f,0x14,0xbe,0xa5,0xc3,0x16,0x3e,0x94,0x92,0x2c,0xbe,0xcf,0x40,0x00,0x3e,0x7f,0xc7,0x05,0xbf,0x51,0x4f,0x29,0x3e,0x8e,0x2c,0x54,0x3e,0xeb,0x46,0x63,0xbd,0x8c,0x1c,0x9e,0x3d,0xeb,0x41,0x39,0x3c,0x60,0x54,0x7b,0x3c,0x0c,0x55,0xd0,0xbd,0xa2,0xa1,0x9c,0x3e,0xc0,0xc8,0x9d,0xbd,0x01,0x91,0x00,0xbf,0x71,0xf0,0x99,0xbe,0xbe,0x2f,0xb7,0x3e,0xe4,0xfd,0x46,0xbd,0x3c,0x9c,0xb4,0x3d,0x1f,0x63,0xf2,0xbe,0x53,0xbe,0xa1,0x3e,0x9b,0x56,0xc2,0x3d,0xbf,0xf1,0xf6,0x3e,0x24,0xbe,0xd3,0xbc,0x54,0x50,0x82,0x3e,0xf1,0x7a,0xcd,0x3e,0xaa,0xa1,0x9b,0x3e,0x01,0xab,0x03,0x3e,0x67,0xbc,0xfb,0xbe,0xac,0x0a,0xa8,0x3e,0x52,0x15,0xb2,0xbe,0xfd,0xf8,0x86,0x3e,0xf7,0xa9,0x93,0x3e,0xdb,0x4a,0xc6,0x3d,0x6a,0xf0,0x9a,0x3e,0x57,0x46,0x7a,0x3d,0xcc,0x83,0x35,0xbc,0x60,0x89,0x52,0x3e,0x10,0x8f,0x39,0xbd,0x24,0x34,0x52,0x3e,0x9b,0x1b,0xbb,0xbd,0x00,0xf5,0x51,0x3e,0x27,0xe8,0xaf,0x3e,0xb2,0x48,0x85,0xbd,0xf2,0xbf,0x80,0xbe,0x0d,0x53,0x86,0xbe,0x8a,0xd3,0xad,0xbe,0xf8,0x1f,0xd0,0xbd,0xe7,0x1e,0xac,0x3d,0xd6,0xdd,0x91,0x3e,0x64,0x9b,0x44,0x3e,0x76,0xff,0x5e,0x3e,0x01,0x6f,0xf2,0x3e,0x3b,0x4e,0x84,0x3d,0x4d,0xb5,0x71,0xbd,0x4e,0x89,0x46,0x3e,0x81,0x49,0xf0,0x3c,0xf1,0x88,0x95,0x3d,0xe9,0x7f,0x29,0x3d,0xd4,0x9b,0xd8,0x3d,0xff,0xd0,0x94,0xbe,0x2f,0x5b,0x79,0xbd,0x9b,0x0f,0xfb,0xbd,0xc7,0xa3,0x89,0xbd,0x76,0x81,0x40,0x3e,0xc1,0x32,0x74,0x3e,0x20,0x11,0xf0,0x3c,0xd8,0xa5,0x4b,0x3e,0x79,0x69,0xc8,0x3e,0x7b,0x06,0x43,0x3e,0xa2,0xf3,0xf5,0xbd,0xb1,0x50,0xfc,0x3d,0x7d,0x8d,0xe6,0xbd,0x71,0x07,0x83,0x3e,0xfb,0xed,0x6a,0x3e,0x5d,0x08,0x73,0x3d,0x47,0x2e,0xb9,0xbe,0x6f,0x1c,0x43,0x3e,0x5b,0xa6,0xa8,0x3e,0x62,0x03,0xe1,0x3e,0x3e,0xf2,0x05,0xbf,0xf4,0x16,0x05,0x3e,0xec,0x8c,0xdc,0xbe,0x5e,0x52,0xe8,0x3e,0x48,0xaa,0xd8,0xbd,0x80,0xd4,0x41,0xbd,0x18,0x13,0x5e,0xbe,0x68,0xae,0xe5,0x3d,0xe8,0x55,0x48,0xbe,0x50,0x06,0x61,0x3d,0xe0,0xf6,0xf4,0xbd,0x80,0xcc,0xe4,0xbd,0x70,0x84,0x88,0x3d,0x88,0xd3,0x9e,0xbd,0x98,0xeb,0x04,0xbe,0xbc,0x5b,0x71,0x3e,0xa0,0x28,0x9b,0xbc,0x80,0x68,0x07,0x3c,0x58,0x8c,0xc0,0xbd,0x5c,0x69,0x2b,0xbe,0x20,0xd0,0x22,0x3d,0xa0,0x79,0x7d,0xbe,0x90,0x0c,0x7a,0xbd,0x80,0xf8,0x2c,0x3c,0x78,0x11,0xb6,0x3d,0xc0,0x4f,0xaa,0x3c,0x40,0xdb,0xfc,0x3c,0xa8,0x30,0x1a,0xbe,0x14,0x67,0x2e,0x3e,0xd8,0x4f,0x91,0xbd,0x00,0x46,0x0f,0xbd,0x60,0x5f,0x43,0x3d,0xa0,0xd2,0xd0,0xbc,0x2c,0xf1,0x06,0xbe,0x7c,0x40,0x6c,0xbe,0xd8,0x45,0x73,0x3e,0xc0,0xc3,0xa7,0x3d,0xf0,0x86,0xbd,0xbd,0xf0,0x83,0x31,0xbd,0x90,0xb9,0xde,0x3d,0xc8,0xb1,0x18,0xbe,0x18,0x97,0xa8,0xbd,0xdc,0x2c,0x68,0xbe,0xbc,0x5d,0x2c,0xbe,0xa0,0xf2,0x18,0xbd,0x64,0xe7,0x33,0x3e,0x88,0xf2,0xd6,0x3d,0x10,0xfa,0x68,0xbd,0x58,0xa1,0x0a,0xbe,0x80,0x3a,0xe4,0xbc,0xf0,0x67,0x63,0xbe,0x50,0x69,0x0e,0xbd,0x90,0xbf,0xdc,0xbd,0x80,0xcc,0x65,0x3d,0x60,0xef,0x8a,0x3c,0x18,0xcc,0xce,0xbd,0x34,0x1d,0x2e,0xbe,0x20,0x21,0x4f,0x3d,0x30,0x0f,0x7b,0x3d,0xa0,0x48,0x47,0x3d,0x98,0x45,0x33,0x3e,0xd8,0x34,0xfd,0xbd,0x60,0xc0,0x5d,0xbd,0x90,0xee,0x63,0xbd,0xc4,0x98,0x68,0xbe,0xc0,0x60,0x03,0x3d,0x18,0xca,0xf4,0x3d,0xd4,0x77,0x59,0xbe,0x8c,0x72,0xb6,0xbe,0xd0,0xa8,0x10,0xbe,0x08,0x8d,0x52,0x3e,0x1e,0x80,0x17,0xbe,0x07,0x06,0x7d,0x3e,0x33,0xd6,0x0e,0x3e,0xfa,0xd0,0x1e,0x3e,0xd0,0x2a,0x96,0xbd,0x86,0x58,0x3b,0x3e,0x40,0x66,0x48,0xbe,0x62,0x2a,0x4d,0xbd,0x1e,0xe2,0x8e,0x3e,0x0d,0x5d,0xfc,0x3d,0xdd,0x65,0x80,0x3b,0x7e,0x04,0x1b,0xbe,0x8e,0xb1,0x14,0x3e,0x72,0x4a,0xb1,0xbe,0x01,0x1b,0x1b,0x3c,0xea,0x68,0x0e,0x3d,0xc4,0x51,0x8f,0xbd,0x97,0xf1,0xa4,0xbd,0x7b,0xb5,0xe9,0xbb,0x17,0xc7,0x41,0x3e,0xe2,0x77,0x3f,0x3e,0xa3,0x09,0xa8,0xbd,0xd4,0xb8,0x3c,0x3d,0x7e,0xe5,0xdf,0x3d,0xbe,0x49,0x0c,0xbe,0x3c,0x62,0xdc,0x3d,0xb4,0xb9,0x1b,0x3e,0xc8,0x51,0xa6,0x3d,0x48,0x63,0xd1,0xbd,0x2c,0x9d,0xc8,0x3d,0xd1,0x7d,0x8a,0xbe,0x76,0x43,0x3e,0xbe,0xef,0x61,0x88,0xbe,0xe4,0xc3,0xa5,0xbe,0x1e,0xf6,0x5b,0xbd,0xf7,0x7b,0x7b,0xbe,0x36,0x3f,0xa8,0xbe,0x1b,0xe9,0x00,0x3e,0xee,0xa7,0x87,0x3e,0x4b,0x68,0xc0,0x3e,0xbc,0xd5,0x9b,0xbe,0x23,0x11,0x88,0x3d,0x42,0xfb,0x15,0x3e,0x26,0x20,0x8a,0xbd,0x7a,0x5b,0x33,0x3d,0xe3,0x1b,0xf3,0xbd,0xef,0x79,0xf0,0xbd,0xbd,0x52,0x1a,0xbe,0xae,0xe9,0x30,0x3e,0x4d,0x3f,0xb9,0x3e,0x37,0x65,0xb2,0x3e,0x95,0x9a,0xc8,0x3d,0x91,0xa1,0x35,0x3d,0x3a,0x8d,0x5f,0xbd,0xa9,0x98,0xb0,0x3e,0x28,0x68,0x16,0xbe,0x53,0x26,0x4c,0x3d,0xfb,0x53,0x44,0xbd,0x22,0xbf,0x9d,0x3d,0x3f,0xc1,0x67,0x3d,0x87,0x18,0x72,0xbe,0xc1,0x9b,0xd1,0xbd,0x12,0xd6,0x00,0xbe,0x81,0x9d,0x34,0x3e,0x6a,0x1c,0x0b,0xbd,0x96,0x49,0x76,0x3e,0x21,0x6f,0x40,0xbe,0xdb,0x4e,0x3b,0x3e,0xe5,0x34,0x8c,0x3d,0x14,0xfe,0x35,0x3e,0x26,0xee,0x7f,0xbe,0xbd,0xb4,0x01,0x3d,0x45,0xfb,0x52,0xbd,0xcd,0xf8,0xd2,0xbc,0xd0,0x0f,0x67,0x3e,0xf0,0xdc,0x24,0xbe,0x5e,0x0f,0x5c,0x3e,0xd5,0xf3,0x94,0xbe,0xbe,0x5d,0x1d,0xbe,0xfb,0xe0,0x5e,0x3e,0x5d,0xb6,0x64,0xbe,0x19,0x08,0x73,0x3d,0xce,0x7e,0x12,0xbe,0x8c,0xa9,0x92,0x3b,0x48,0x27,0x5e,0xbe,0x25,0xfb,0xd1,0x3e,0x0d,0x33,0x81,0x3d,0xf2,0x8c,0x32,0x3c,0x73,0xce,0x39,0x3d,0x88,0x4d,0xc5,0x3e,0x57,0xff,0x07,0x3c,0xa7,0x2a,0x45,0xbe,0x4c,0x84,0x11,0xbe,0xaf,0x8c,0xd9,0x3d,0x22,0xc0,0xa3,0xbd,0xec,0x29,0x55,0xbe,0x2b,0xda,0xa9,0xbe,0xa7,0x37,0x49,0xbe,0x9d,0x3b,0x4b,0xbe,0xa3,0xf4,0x12,0xbf,0xc0,0x48,0xdb,0xbd,0x51,0x08,0xbb,0x3e,0xea,0x41,0x6d,0x3e,0x59,0x5a,0x3d,0x3c,0x06,0xd4,0xdb,0xbe,0xe9,0x29,0x8f,0x3e,0x21,0x1d,0xb6,0xbd,0x36,0xd9,0xf9,0xbd,0xc9,0x6a,0x7f,0xbc,0x2a,0xfb,0xd8,0xbd,0xd5,0x6a,0xcd,0xbe,0x1a,0x6d,0x9d,0xbd,0x64,0x1e,0xcb,0x3e,0x7c,0x3e,0xb8,0x3e,0x58,0x3e,0xc3,0x3e,0x76,0x91,0x19,0xbd,0x61,0xc6,0x3f,0x3e,0x79,0xd0,0x8f,0x3e,0x22,0xc4,0x8d,0xbd,0xfc,0x88,0x79,0xbe,0x7b,0x69,0x86,0x3b,0x62,0x95,0x4d,0xbe,0x5f,0x4c,0x4d,0x3d,0x9c,0xf5,0x6a,0x3d,0xe6,0xed,0xc5,0xbe,0xea,0xdc,0x31,0xbe,0x2a,0x6c,0x9c,0xbd,0x54,0xaa,0x27,0x3b,0xd0,0x2b,0xc0,0x3d,0x54,0x85,0x36,0x3d,0x4e,0x44,0xe6,0x3d,0x9d,0x5d,0x9a,0x3d,0x49,0xef,0x81,0xbc,0x50,0x50,0x36,0x3e,0x8b,0x8b,0x22,0xbe,0x53,0x8f,0x73,0x3e,0x50,0x33,0x28,0xbc,0xfc,0x93,0x04,0xbd,0xb6,0x2e,0xcf,0x3d,0x1a,0xa5,0x05,0xbd,0x3f,0x90,0xfb,0xbb,0xf5,0x64,0xab,0xb9,0x1c,0xcc,0x9a,0xbe,0x0e,0x16,0xf6,0xbd,0x6f,0x69,0xd9,0xbd,0x40,0x2e,0x12,0xbe,0xdb,0x79,0x15,0x3b,0x59,0xd3,0xa0,0xbd,0xfa,0xf3,0x70,0xbe,0xc6,0x45,0x4a,0x3e,0x31,0x5a,0x08,0x3d,0x7e,0xeb,0x88,0xbd,0x2e,0x1a,0x2b,0xbe,0x19,0x48,0x99,0x3e,0x12,0xce,0x2c,0xbe,0x05,0x9d,0xe4,0x3d,0xf9,0x54,0xb5,0xbe,0x9b,0x30,0xcf,0xbc,0xbd,0x45,0xd5,0x3d,0x40,0x0c,0x32,0xbd,0xda,0xef,0xbd,0x3d,0xf9,0x68,0xeb,0x3d,0x6e,0xc2,0x1e,0x3e,0xae,0xfd,0x87,0x3e,0x1b,0xf8,0x08,0xbe,0x1f,0xc9,0x62,0x3e,0x33,0xa9,0x58,0xbd,0x1b,0xc4,0x52,0x3e,0x51,0x21,0x90,0xbd,0x28,0x82,0x1c,0x3e,0x40,0x9a,0x64,0x3d,0x61,0x84,0xa3,0x3e,0xb6,0xd5,0x2d,0xbe,0xb8,0xcc,0x08,0xbf,0xda,0xe4,0x9d,0x3b,0x22,0xed,0xa7,0x3e,0x44,0x1f,0x3e,0x3e,0x0c,0x61,0xee,0xbd,0x00,0x97,0xde,0xbd,0xc3,0x0e,0x9d,0x3e,0xae,0x46,0xf4,0x3b,0xee,0x35,0x15,0x3f,0x18,0x79,0x14,0x3c,0x90,0xbd,0x01,0xbf,0x4c,0x04,0x2f,0xbe,0x9e,0x15,0xf9,0x3e,0x8e,0xde,0x56,0x3e,0x32,0xd7,0xbb,0x3e,0xda,0x0b,0xa9,0xbe,0x33,0x71,0xa5,0x3e,0x14,0x8a,0x5d,0x3e,0x7d,0xb1,0x41,0x3e,0xbc,0x09,0xcd,0xbc,0x92,0x63,0x8b,0xbc,0xef,0x12,0x29,0x3e,0xea,0x2a,0xfb,0x3d,0x79,0xcf,0x02,0x3e,0x50,0x5e,0x76,0xbe,0xcc,0xb3,0x2c,0x3e,0x5d,0x7e,0x07,0xbe,0x1b,0x42,0xd0,0x3e,0x15,0x31,0x80,0x3d,0x08,0x7b,0xaf,0xbd,0x90,0x88,0xfe,0x3e,0x03,0xd2,0x80,0xbe,0x69,0x9a,0x8f,0x3c,0x31,0xa4,0xe5,0x3e,0xda,0x03,0xa2,0xbd,0x9f,0x26,0xbc,0x3d,0x3c,0x97,0xc2,0x3e,0x8f,0xa3,0x88,0xbd,0x0e,0x55,0x9c,0x3e,0xec,0x3e,0xe8,0x3d,0x5d,0xc6,0x91,0x3d,0x82,0xb5,0xa0,0xbd,0xf3,0x5e,0x73,0x3c,0x10,0xdf,0xc1,0xbe,0xf4,0x73,0x10,0xbe,0x77,0xde,0x42,0x3d,0x09,0xbf,0xe0,0x3b,0xf5,0x69,0xb0,0x3e,0x19,0x27,0x28,0x3e,0x47,0x20,0x8b,0x3e,0x29,0xe4,0x74,0x3e,0xd3,0x0e,0x32,0x3e,0xd0,0x5f,0x08,0x3e,0x7d,0xab,0x90,0xbd,0x01,0x03,0x64,0x3d,0xd4,0xa6,0xd1,0x3e,0x45,0x14,0x23,0xbe,0x58,0xcc,0xeb,0xbb,0xaf,0x2e,0xa5,0xbe,0x77,0x71,0x88,0x3e,0x11,0x13,0xda,0x3d,0x42,0xcd,0xd3,0x3d,0x83,0xce,0x45,0xbd,0xdb,0xc6,0xe0,0x3b,0xd7,0xe7,0x11,0x3f,0x13,0x5a,0x2e,0x3e,0x8b,0x30,0x45,0xbd,0x68,0x39,0xfe,0xbe,0x01,0xef,0x2e,0xbe,0x21,0x15,0x64,0xbe,0x6d,0xfc,0xdf,0x3d,0x22,0xe8,0x2e,0xbe,0xbf,0xdf,0x06,0xbe,0x38,0xc5,0x2a,0xbd,0x72,0xd1,0xa0,0x3e,0xcb,0x70,0xcc,0x3e,0xc3,0x61,0x1f,0x3d,0xc7,0x05,0x53,0xbe,0x5e,0x18,0xad,0xbe,0x89,0xdb,0xc0,0x3e,0x85,0x8a,0xd4,0xbe,0x94,0x34,0x47,0x3d,0x70,0xe4,0xef,0xbd,0x68,0xd7,0x92,0x3d,0x40,0xe7,0x26,0xbc,0x34,0xa5,0x31,0x3e,0xcb,0x2a,0x97,0xbe,0x55,0x48,0xba,0xbe,0x61,0x21,0xd1,0xbb,0xd6,0x7a,0xab,0x3e,0x99,0x74,0x02,0xbe,0x2e,0x88,0xdb,0xbe,0x42,0xf8,0x9c,0x3e,0xed,0x03,0xd1,0x3d,0x2d,0x68,0xa1,0xbe,0xc3,0x05,0x0d,0xbe,0xdc,0x57,0x2d,0xbf,0x55,0xb1,0xa2,0xbe,0x34,0x24,0x49,0x3d,0xec,0xce,0x43,0x3d,0xb3,0x61,0x48,0x3e,0xcf,0xd4,0xdb,0x3d,0x23,0xfe,0x6d,0xbc,0x36,0xa2,0xe6,0xbd,0x44,0x01,0x3b,0xbe,0xb1,0x31,0x85,0xbe,0xfe,0xe9,0x8a,0xbe,0x54,0x55,0xbb,0xbd,0x24,0x3a,0x07,0xbe,0xb2,0xa9,0x35,0xbe,0xf6,0x8f,0xac,0xbd,0x27,0x76,0x27,0xbf,0x61,0x44,0x94,0x3d,0xfa,0x78,0x5f,0x3e,0x38,0xf2,0xd0,0x3e,0x09,0xeb,0xcc,0xbd,0x70,0x18,0x22,0xbc,0xaf,0x5a,0x80,0x3e,0x1c,0x19,0x38,0x3f,0xd3,0xa1,0xe8,0x3e,0x7f,0x15,0x86,0xbe,0x45,0x42,0x9e,0xbe,0x32,0x52,0xa9,0xbe,0xa8,0x1b,0xaf,0x3e,0x2b,0x6e,0x20,0xbe,0x6b,0x91,0x2c,0xbe,0xe7,0x55,0x0c,0x3e,0x75,0x43,0x00,0x3e,0x2f,0x19,0x1f,0xbe,0x7b,0xfb,0x17,0x3f,0xb1,0xf4,0xf9,0x3d,0x13,0x71,0xae,0xbe,0x1a,0xe3,0xad,0xbe,0x49,0xd6,0x8f,0xbe,0x5d,0xe4,0x93,0x3e,0xce,0xdc,0xdd,0xbd,0xc9,0x23,0x5e,0x3e,0xf2,0x90,0x6d,0xbe,0x1d,0x8c,0xfb,0x3d,0xef,0x4b,0x3b,0x3d,0x69,0xd8,0x1b,0x3f,0x59,0x64,0xbc,0x3e,0x32,0x1b,0x78,0x3e,0x42,0x46,0x9e,0xbe,0x0c,0x43,0x9e,0xbe,0xb8,0x84,0xce,0x3e,0xd9,0x59,0x7a,0x3e,0xcf,0x69,0x0e,0x3e,0x5d,0xad,0x3c,0x3d,0xee,0x1f,0x83,0x3e,0x41,0x17,0xf1,0x3e,0x07,0xb3,0x27,0xbe,0x1d,0xcb,0xa5,0xbe,0x00,0x47,0x2e,0x3e,0x4e,0x08,0x00,0xbf,0xcd,0xdd,0x3b,0x3e,0x3f,0xd6,0x91,0x3e,0x8f,0x20,0x0f,0x3e,0xd7,0x7b,0xb7,0x3b,0x27,0xca,0x6a,0xbe,0xe8,0xe5,0xb7,0xbd,0x27,0x15,0x0a,0xbb,0xc0,0x6a,0x32,0x3e,0x12,0xf8,0x5e,0x3e,0xda,0x20,0x6b,0x3e,0x9e,0xff,0x12,0x3e,0x6d,0x33,0xa7,0x3e,0x64,0x32,0x55,0x3c,0x0a,0x22,0x97,0x3d,0x70,0xf9,0xcf,0xbe,0xf0,0xb0,0xda,0xbe,0x27,0x85,0x9a,0xbd,0x1e,0x5e,0x17,0x3e,0x81,0x8c,0x0a,0xbe,0xc1,0x56,0x8a,0x3e,0x1b,0x9c,0x1d,0xbd,0x62,0x89,0x9d,0x3e,0x0a,0x65,0x68,0x3d,0x47,0x1f,0xe3,0x3e,0x31,0x8a,0x21,0x3e,0xf1,0x76,0xdb,0x3e,0x58,0x51,0x0b,0xbe,0xdc,0xf6,0x0a,0x3f,0x89,0xe3,0xb9,0x3e,0x88,0xed,0xac,0xbe,0x7a,0x69,0x15,0xbe,0x09,0xe4,0xd1,0xbe,0x06,0x8c,0xaa,0x3d,0x62,0x0d,0x28,0x3e,0x4a,0xa5,0xe0,0xbd,0xf2,0x7a,0x98,0x3e,0xd3,0x41,0x48,0xbb,0xc1,0x7e,0x06,0x3e,0x99,0xe3,0x49,0x3e,0x9d,0x89,0x13,0x3d,0xad,0x53,0x4d,0xbe,0x5d,0xb8,0x10,0xbe,0xec,0x25,0xb0,0xbe,0x5e,0xf2,0x59,0x3d,0x3f,0xe9,0x45,0xbe,0x16,0xcf,0x67,0x3e,0x20,0x45,0x4a,0xbe,0xbe,0x74,0x9d,0xbc,0x2d,0x4e,0xa6,0xbe,0x23,0x5b,0x91,0x3c,0x2f,0xec,0xe6,0x3d,0x19,0x7f,0xf2,0x3e,0x7f,0xf0,0x40,0x3e,0x09,0x8e,0x0f,0x3e,0x43,0x57,0x6a,0xbd,0x7b,0xaa,0x82,0xbe,0xf6,0xe2,0xc0,0x3b,0x35,0x5e,0xed,0xbc,0x2a,0xac,0x19,0x3e,0x16,0xa4,0x5f,0xbe,0x61,0xc5,0x25,0xbe,0xb7,0x44,0x67,0xbd,0xa2,0x67,0x19,0x3e,0x3c,0xff,0x54,0xbe,0x39,0x34,0x9e,0xbc,0x36,0x02,0xa3,0xbd,0x29,0x78,0x6f,0xbd,0x8c,0xe2,0x47,0x3e,0x76,0xca,0x5d,0x3e,0x81,0x8c,0x5c,0xbe,0xbc,0xa7,0xed,0xbc,0xa3,0x5d,0x05,0xbe,0x5f,0x5b,0xb0,0xbd,0x02,0x33,0x44,0xbd,0x0f,0xa1,0x58,0xbe,0xd9,0xff,0x62,0x3e,0xe1,0x7a,0x05,0xbe,0x65,0xb2,0x93,0x3d,0xe5,0x9a,0x0f,0xbe,0x34,0xdc,0x87,0x3d,0x40,0xf8,0x4d,0xbe,0x7e,0xe6,0x24,0x3d,0xd2,0x93,0xc9,0xbc,0x38,0x84,0x6f,0xbd,0x6f,0xae,0x3b,0xbe,0xad,0xef,0x85,0x3d,0xbc,0x60,0xef,0x3c,0x6c,0xf6,0x73,0xbe,0xf1,0xa3,0x17,0xbe,0xc7,0xb0,0x14,0xbe,0xac,0x35,0xae,0xbd,0xff,0x38,0x36,0x3e,0xf7,0xa2,0x41,0x3d,0xb8,0xc9,0x3f,0x3e,0xe1,0x7b,0x16,0xbc,0x91,0x06,0x17,0x3e,0xb0,0xfe,0x1f,0x3e,0xf6,0xaa,0x33,0x3e,0x88,0x85,0x54,0x3e,0xf5,0xff,0x12,0xbe,0x82,0x0b,0xc2,0x3d,0xca,0xd0,0x82,0xbe,0x9d,0xce,0x97,0x3d,0xb4,0x1f,0x31,0x3d,0xde,0x25,0xf1,0x3d,0xe1,0x9b,0x2d,0x3d,0x5a,0xee,0xc8,0xbd,0x00,0xa7,0x0b,0xbb,0x09,0xe7,0x86,0xbe,0x96,0xd0,0x35,0xbe,0xa3,0xfe,0x58,0xbe,0xe7,0x0c,0x59,0xbe,0xbb,0x32,0x44,0x3e,0xcc,0x54,0x6f,0xbe,0x12,0x6c,0x13,0xbe,0x59,0x1f,0xe7,0x3d,0x91,0xb2,0x6f,0xbe,0xb6,0xb6,0xfa,0xbd,0x17,0x7c,0x15,0xbe,0x4a,0xa7,0x55,0x3e,0xca,0x62,0x3d,0x3e,0xd8,0x70,0xf0,0xbd,0x61,0xa8,0xbb,0x3c,0x09,0x6c,0x37,0x3d,0xe0,0x21,0x40,0xbe,0x6d,0x80,0xa0,0x3e,0x51,0xe1,0xe8,0xbc,0x69,0xa0,0xd5,0x3e,0x05,0xc2,0x17,0x3e,0xc6,0x22,0x2d,0x3e,0x18,0xb7,0x71,0xbe,0xf7,0x70,0x60,0xbe,0xa3,0xdb,0x1d,0x3c,0x48,0x0b,0x79,0x3d,0x15,0x5c,0x0f,0xbe,0xfe,0xe3,0x20,0xbe,0x17,0x4f,0x7f,0x3c,0x09,0x79,0x95,0xbe,0x1c,0x88,0x71,0x3d,0x0c,0x3e,0xc8,0xbd,0xe1,0xe6,0x29,0xbe,0x32,0xb4,0x30,0x3e,0xfc,0xe4,0xbb,0x3e,0x5f,0x05,0x33,0x3d,0x07,0x3b,0x5c,0x3e,0x74,0xaf,0x9f,0x3e,0x8d,0x08,0x18,0x3e,0xfd,0x96,0x2f,0xbd,0xdc,0xab,0x96,0xbe,0xf0,0xa0,0x1e,0xbe,0x31,0xb2,0xa3,0xbd,0xf3,0x8d,0x08,0xbe,0x26,0x88,0x2d,0xbd,0x0c,0xa2,0x73,0x3d,0x3b,0x0c,0x19,0xbe,0x8a,0x44,0x29,0x39,0xc5,0x2d,0x14,0x3e,0xbf,0x81,0xf8,0x3e,0xff,0x84,0xa6,0xbd,0x80,0x24,0x8e,0x3e,0xec,0x56,0xb1,0xbd,0x41,0xa4,0x21,0x3d,0xde,0x4d,0x4c,0x3e,0x6a,0x8c,0xd3,0x3b,0xd3,0x4c,0x84,0x3d,0xdf,0xc5,0xd7,0xbe,0x6a,0x18,0x3a,0xbe,0xa8,0x80,0x28,0xbd,0x8b,0x0a,0xf0,0x3a,0x84,0x41,0x74,0x3e,0x73,0xfe,0x64,0x3e,0x13,0xbd,0x14,0x3d,0x30,0xee,0xa3,0xbd,0x3d,0xb4,0x74,0x3e,0x51,0x51,0xa0,0x3e,0x71,0x8e,0xd1,0xbe,0x31,0xc9,0xc8,0x3d,0xd4,0xa3,0x5d,0xbd,0xd8,0x45,0x38,0xbe,0x04,0x1e,0xc8,0x3d,0xb3,0x53,0xd1,0x3c,0x5a,0xfd,0xff,0xff,0x04,0x00,0x00,0x00,0x00,0x01,0x00,0x00,0x8d,0x8f,0x68,0x3f,0xf1,0xac,0xfe,0xbe,0x36,0x34,0xbc,0xbe,0x3d,0xe9,0xf2,0x3e,0xea,0x1a,0x0c,0xbf,0x05,0x91,0x2b,0xbe,0xed,0x5d,0xdc,0xbe,0x3e,0xf4,0xb2,0x3e,0x9f,0xeb,0x39,0x3f,0x3a,0xc9,0x39,0x3e,0x3f,0x86,0xc3,0x3d,0x5c,0xb0,0x0a,0x3f,0xdb,0x92,0xa9,0xbe,0xe8,0xa6,0x84,0xbe,0x01,0x51,0x71,0x3e,0xc8,0x23,0xf5,0xbb,0xc6,0x3f,0x22,0x3d,0xe0,0x90,0x6b,0x3e,0x23,0x49,0xf2,0xbe,0x93,0xf6,0x13,0xbe,0x73,0xfd,0xcf,0xbe,0x0c,0x29,0xb5,0x3e,0x81,0xec,0x06,0xbf,0xeb,0xdc,0x9a,0x3e,0x36,0xd9,0xa0,0xbe,0x17,0x6c,0x89,0xbe,0x8b,0xec,0xbd,0x3e,0x31,0x73,0xa7,0x3e,0x56,0xf3,0x13,0x3f,0xc8,0x71,0x88,0xbe,0xd5,0xf9,0x0b,0x3e,0xa7,0x57,0x76,0xbe,0x5d,0x3f,0x54,0x3f,0x53,0xd9,0xcb,0x3f,0xe9,0x90,0xdf,0xbf,0x94,0xbe,0x55,0x3f,0x6d,0xe0,0x4c,0x3f,0x38,0xaf,0x57,0x3f,0x60,0x40,0x18,0xbf,0x9c,0x4a,0x1b,0xbf,0x22,0xa4,0xe7,0xbe,0x5e,0x32,0x2a,0xbf,0xe9,0x54,0xac,0xbe,0x18,0x28,0x11,0x3f,0x5f,0x3f,0x86,0xbf,0xe0,0x50,0x9c,0x3f,0x96,0x61,0x10,0x3f,0x5e,0x2f,0x36,0x3f,0x0b,0x23,0xe8,0x3f,0xed,0xd5,0x7d,0x3f,0xca,0x0b,0x03,0x3f,0x4b,0x74,0x28,0xbf,0xb5,0x21,0xca,0x3f,0x5b,0x44,0x16,0xbf,0x0d,0x76,0x8e,0x3f,0xeb,0x58,0x6e,0xbe,0x96,0x0c,0xef,0xbe,0x75,0x61,0xea,0xbe,0x0d,0x41,0x17,0xbf,0xc9,0x2f,0xd7,0x3e,0x03,0xef,0x8b,0x3f,0x6b,0x97,0x7c,0x3f,0xba,0x78,0xe9,0x3c,0xeb,0xa1,0xd0,0xbe,0x66,0xfe,0xff,0xff,0x04,0x00,0x00,0x00,0x80,0x00,0x00,0x00,0x00,0x00,0x00,0x00,0x00,0x00,0x00,0x00,0x00,0x00,0x00,0x00,0x00,0x00,0x00,0x00,0x00,0x00,0x00,0x00,0x00,0x00,0x00,0x00,0x00,0x00,0x00,0x00,0x00,0x00,0x00,0x00,0x00,0x00,0x00,0x00,0x00,0x00,0x00,0x00,0x00,0x00,0x00,0x00,0x00,0x00,0x00,0x00,0x00,0x00,0x00,0x00,0x00,0x00,0x00,0x00,0x00,0x00,0x00,0x00,0x00,0x00,0x00,0x00,0x00,0x00,0x00,0x00,0x00,0x00,0x00,0x00,0x00,0x00,0x00,0x00,0x00,0x00,0x00,0x00,0x00,0x00,0x00,0x00,0x00,0x00,0x00,0x00,0x00,0x00,0x00,0x00,0x00,0x00,0x00,0x00,0x00,0x00,0x00,0x00,0x00,0x00,0x00,0x00,0x00,0x00,0x00,0x00,0x00,0x00,0x00,0x00,0x00,0x00,0x00,0x00,0x00,0x00,0x00,0x00,0x00,0x00,0x00,0x00,0x00,0x00,0x00,0x00,0xf2,0xfe,0xff,0xff,0x04,0x00,0x00,0x00,0x00,0x01,0x00,0x00,0xd9,0xc4,0xba,0xbe,0xd1,0x97,0x66,0xbe,0x4c,0x16,0xd8,0x3e,0x3c,0x92,0x47,0xbe,0x29,0xcb,0xfa,0x3e,0x82,0x23,0xa0,0xbe,0x45,0xd6,0x9d,0x3e,0x45,0xfd,0xea,0xbc,0x00,0xcb,0x4c,0x3e,0xa1,0x1e,0xcb,0xbe,0x82,0x2a,0xf4,0x3e,0x55,0x4e,0xd1,0xbd,0xce,0x1d,0xf2,0x3e,0x6c,0x2b,0xe0,0xbe,0x66,0xdd,0x77,0xbe,0x74,0xb7,0xc0,0xbe,0xcc,0xd5,0x8e,0xbe,0x63,0x1e,0xcc,0x3e,0xf3,0x8c,0xa8,0x3e,0xa5,0x9d,0x31,0x3f,0x55,0x6a,0x70,0xbe,0x52,0xbb,0x84,0x3e,0xc7,0x0f,0x9c,0x3e,0x2d,0xee,0x55,0xbe,0xad,0x26,0x93,0x3e,0x5d,0x33,0x58,0x3e,0xa7,0x6c,0xcd,0x3e,0xfc,0x90,0x39,0x3e,0x0d,0xa3,0xcb,0xbd,0xf7,0x40,0x12,0xbf,0xc2,0xc6,0xb9,0xbe,0x93,0x27,0x51,0xbe,0xd5,0xe4,0x15,0xbf,0x16,0x5d,0x16,0x3d,0x92,0x4d,0xf1,0x3e,0x04,0xaa,0x91,0xbe,0x99,0x56,0xa4,0x3e,0xb2,0xc0,0xee,0xbe,0xd1,0xb8,0x32,0x3d,0x5f,0x44,0xb6,0x3e,0xe3,0xf1,0xfd,0x3c,0x87,0x55,0xbd,0x3e,0x43,0x12,0x5f,0x3c,0xf0,0xf1,0x0a,0x3f,0x43,0xf3,0x5e,0x3e,0x64,0xd2,0xe1,0xbe,0xc7,0x5d,0x2d,0x3e,0xf4,0xef,0x65,0x3e,0x03,0x9a,0xa6,0x3e,0x4c,0x4b,0x44,0xbe,0x82,0x38,0x80,0xbe,0x03,0x8e,0x0a,0x3e,0x93,0xf6,0x07,0xbf,0xe3,0xa5,0xa6,0x3e,0xd4,0xf1,0x00,0xbf,0x7a,0x4f,0x92,0x3e,0x67,0x38,0xfa,0x3e,0x52,0x27,0xa2,0xbe,0xd1,0xee,0x26,0xbe,0xa5,0xe5,0x11,0xbf,0xef,0xa1,0x8c,0x3e,0x4a,0x8f,0x13,0xbf,0xe2,0xc4,0xa1,0xbe,0x2f,0xfd,0xe4,0xbd,0x00,0x00,0x06,0x00,0x08,0x00,0x04,0x00,0x06,0x00,0x00,0x00,0x04,0x00,0x00,0x00,0x0c,0x00,0x00,0x00,0xff,0xff,0xff,0xff,0x02,0x00,0x00,0x00,0x20,0x00,0x00,0x00,0x38,0xf7,0xff,0xff,0x3c,0xf7,0xff,0xff,0x0f,0x00,0x00,0x00,0x4d,0x4c,0x49,0x52,0x20,0x43,0x6f,0x6e,0x76,0x65,0x72,0x74,0x65,0x64,0x2e,0x00,0x01,0x00,0x00,0x00,0x14,0x00,0x00,0x00,0x00,0x00,0x0e,0x00,0x18,0x00,0x14,0x00,0x10,0x00,0x0c,0x00,0x08,0x00,0x04,0x00,0x0e,0x00,0x00,0x00,0x14,0x00,0x00,0x00,0x1c,0x00,0x00,0x00,0xcc,0x01,0x00,0x00,0xd0,0x01,0x00,0x00,0xd4,0x01,0x00,0x00,0x04,0x00,0x00,0x00,0x6d,0x61,0x69,0x6e,0x00,0x00,0x00,0x00,0x07,0x00,0x00,0x00,0x84,0x01,0x00,0x00,0x24,0x01,0x00,0x00,0xec,0x00,0x00,0x00,0xa0,0x00,0x00,0x00,0x78,0x00,0x00,0x00,0x3c,0x00,0x00,0x00,0x04,0x00,0x00,0x00,0x02,0xff,0xff,0xff,0x14,0x00,0x00,0x00,0x00,0x00,0x00,0x08,0x10,0x00,0x00,0x00,0x14,0x00,0x00,0x00,0x04,0x00,0x00,0x00,0xc8,0xf7,0xff,0xff,0x01,0x00,0x00,0x00,0x11,0x00,0x00,0x00,0x03,0x00,0x00,0x00,0x10,0x00,0x00,0x00,0x04,0x00,0x00,0x00,0x08,0x00,0x00,0x00,0x36,0xff,0xff,0xff,0x14,0x00,0x00,0x00,0x00,0x00,0x00,0x08,0x14,0x00,0x00,0x00,0x18,0x00,0x00,0x00,0x04,0x00,0x00,0x00,0xa2,0xff,0xff,0xff,0x00,0x00,0x00,0x01,0x01,0x00,0x00,0x00,0x10,0x00,0x00,0x00,0x03,0x00,0x00,0x00,0x0f,0x00,0x00,0x00,0x05,0x00,0x00,0x00,0x07,0x00,0x00,0x00,0x9e,0xff,0xff,0xff,0x0c,0x00,0x00,0x00,0x10,0x00,0x00,0x00,0x02,0x00,0x00,0x00,0x01,0x00,0x00,0x00,0x0f,0x00,0x00,0x00,0x02,0x00,0x00,0x00,0x0e,0x00,0x00,0x00,0x09,0x00,0x00,0x00,0x92,0xff,0xff,0xff,0x1c,0x00,0x00,0x00,0x00,0x00,0x00,0x0b,0x1c,0x00,0x00,0x00,0x20,0x00,0x00,0x00,0x03,0x00,0x00,0x00,0x00,0x00,0x06,0x00,0x08,0x00,0x07,0x00,0x06,0x00,0x00,0x00,0x00,0x00,0x00,0x01,0x01,0x00,0x00,0x00,0x0e,0x00,0x00,0x00,0x02,0x00,0x00,0x00,0x0d,0x00,0x00,0x00,0x06,0x00,0x00,0x00,0x00,0x00,0x0a,0x00,0x10,0x00,0x0c,0x00,0x08,0x00,0x04,0x00,0x0a,0x00,0x00,0x00,0x0c,0x00,0x00,0x00,0x10,0x00,0x00,0x00,0x02,0x00,0x00,0x00,0x01,0x00,0x00,0x00,0x0d,0x00,0x00,0x00,0x02,0x00,0x00,0x00,0x0c,0x00,0x00,0x00,0x01,0x00,0x00,0x00,0x00,0x00,0x0e,0x00,0x1a,0x00,0x14,0x00,0x10,0x00,0x0c,0x00,0x0b,0x00,0x04,0x00,0x0e,0x00,0x00,0x00,0x20,0x00,0x00,0x00,0x00,0x00,0x00,0x01,0x28,0x00,0x00,0x00,0x2c,0x00,0x00,0x00,0x01,0x00,0x00,0x00,0x00,0x00,0x0a,0x00,0x10,0x00,0x0f,0x00,0x08,0x00,0x04,0x00,0x0a,0x00,0x00,0x00,0x01,0x00,0x00,0x00,0x01,0x00,0x00,0x00,0x00,0x00,0x00,0x01,0x01,0x00,0x00,0x00,0x0c,0x00,0x00,0x00,0x03,0x00,0x00,0x00,0x0b,0x00,0x00,0x00,0x02,0x00,0x00,0x00,0x03,0x00,0x00,0x00,0x00,0x00,0x0e,0x00,0x14,0x00,0x00,0x00,0x10,0x00,0x0c,0x00,0x0b,0x00,0x04,0x00,0x0e,0x00,0x00,0x00,0x10,0x00,0x00,0x00,0x00,0x00,0x00,0x34,0x0c,0x00,0x00,0x00,0x10,0x00,0x00,0x00,0x2c,0xf9,0xff,0xff,0x01,0x00,0x00,0x00,0x0b,0x00,0x00,0x00,0x02,0x00,0x00,0x00,0x00,0x00,0x00,0x00,0x0a,0x00,0x00,0x00,0x01,0x00,0x00,0x00,0x11,0x00,0x00,0x00,0x01,0x00,0x00,0x00,0x00,0x00,0x00,0x00,0x12,0x00,0x00,0x00,0x20,0x06,0x00,0x00,0xc8,0x05,0x00,0x00,0x68,0x05,0x00,0x00,0x14,0x05,0x00,0x00,0xd4,0x04,0x00,0x00,0x94,0x04,0x00,0x00,0x50,0x04,0x00,0x00,0x14,0x04,0x00,0x00,0xd8,0x03,0x00,0x00,0x98,0x03,0x00,0x00,0x38,0x03,0x00,0x00,0xb8,0x02,0x00,0x00,0x44,0x02,0x00,0x00,0xd0,0x01,0x00,0x00,0x50,0x01,0x00,0x00,0xf0,0x00,0x00,0x00,0x60,0x00,0x00,0x00,0x04,0x00,0x00,0x00,0x3e,0xfa,0xff,0xff,0x00,0x00,0x00,0x01,0x14,0x00,0x00,0x00,0x1c,0x00,0x00,0x00,0x1c,0x00,0x00,0x00,0x12,0x00,0x00,0x00,0x34,0x00,0x00,0x00,0x02,0x00,0x00,0x00,0xff,0xff,0xff,0xff,0x02,0x00,0x00,0x00,0xc8,0xf9,0xff,0xff,0x1b,0x00,0x00,0x00,0x53,0x74,0x61,0x74,0x65,0x66,0x75,0x6c,0x50,0x61,0x72,0x74,0x69,0x74,0x69,0x6f,0x6e,0x65,0x64,0x43,0x61,0x6c,0x6c,0x5f,0x31,0x3a,0x30,0x00,0x02,0x00,0x00,0x00,0x01,0x00,0x00,0x00,0x02,0x00,0x00,0x00,0x96,0xfa,0xff,0xff,0x00,0x00,0x00,0x01,0x14,0x00,0x00,0x00,0x1c,0x00,0x00,0x00,0x1c,0x00,0x00,0x00,0x11,0x00,0x00,0x00,0x68,0x00,0x00,0x00,0x02,0x00,0x00,0x00,0xff,0xff,0xff,0xff,0x20,0x00,0x00,0x00,0x20,0xfa,0xff,0xff,0x4e,0x00,0x00,0x00,0x73,0x65,0x71,0x75,0x65,0x6e,0x74,0x69,0x61,0x6c,0x5f,0x31,0x2f,0x64,0x65,0x6e,0x73,0x65,0x5f,0x31,0x2f,0x4d,0x61,0x74,0x4d,0x75,0x6c,0x3b,0x73,0x65,0x71,0x75,0x65,0x6e,0x74,0x69,0x61,0x6c,0x5f,0x31,0x2f,0x64,0x65,0x6e,0x73,0x65,0x5f,0x31,0x2f,0x52,0x65,0x6c,0x75,0x3b,0x73,0x65,0x71,0x75,0x65,0x6e,0x74,0x69,0x61,0x6c,0x5f,0x31,0x2f,0x64,0x65,0x6e,0x73,0x65,0x5f,0x31,0x2f,0x41,0x64,0x64,0x00,0x00,0x02,0x00,0x00,0x00,0x01,0x00,0x00,0x00,0x20,0x00,0x00,0x00,0x22,0xfb,0xff,0xff,0x00,0x00,0x00,0x01,0x14,0x00,0x00,0x00,0x1c,0x00,0x00,0x00,0x1c,0x00,0x00,0x00,0x10,0x00,0x00,0x00,0x38,0x00,0x00,0x00,0x02,0x00,0x00,0x00,0xff,0xff,0xff,0xff,0x40,0x00,0x00,0x00,0xac,0xfa,0xff,0xff,0x1e,0x00,0x00,0x00,0x73,0x65,0x71,0x75,0x65,0x6e,0x74,0x69,0x61,0x6c,0x5f,0x31,0x2f,0x66,0x6c,0x61,0x74,0x74,0x65,0x6e,0x5f,0x31,0x2f,0x52,0x65,0x73,0x68,0x61,0x70,0x65,0x00,0x00,0x02,0x00,0x00,0x00,0x01,0x00,0x00,0x00,0x40,0x00,0x00,0x00,0x7e,0xfb,0xff,0xff,0x00,0x00,0x00,0x01,0x14,0x00,0x00,0x00,0x20,0x00,0x00,0x00,0x20,0x00,0x00,0x00,0x0f,0x00,0x00,0x00,0x54,0x00,0x00,0x00,0x03,0x00,0x00,0x00,0xff,0xff,0xff,0xff,0x02,0x00,0x00,0x00,0x20,0x00,0x00,0x00,0x0c,0xfb,0xff,0xff,0x34,0x00,0x00,0x00,0x73,0x65,0x71,0x75,0x65,0x6e,0x74,0x69,0x61,0x6c,0x5f,0x31,0x2f,0x63,0x6f,0x6e,0x76,0x31,0x64,0x5f,0x31,0x2f,0x52,0x65,0x6c,0x75,0x3b,0x73,0x65,0x71,0x75,0x65,0x6e,0x74,0x69,0x61,0x6c,0x5f,0x31,0x2f,0x63,0x6f,0x6e,0x76,0x31,0x64,0x5f,0x31,0x2f,0x61,0x64,0x64,0x00,0x00,0x00,0x00,0x03,0x00,0x00,0x00,0x01,0x00,0x00,0x00,0x02,0x00,0x00,0x00,0x20,0x00,0x00,0x00,0xfa,0xfb,0xff,0xff,0x00,0x00,0x00,0x01,0x14,0x00,0x00,0x00,0x20,0x00,0x00,0x00,0x20,0x00,0x00,0x00,0x0e,0x00,0x00,0x00,0x48,0x00,0x00,0x00,0x03,0x00,0x00,0x00,0xff,0xff,0xff,0xff,0x02,0x00,0x00,0x00,0x20,0x00,0x00,0x00,0x88,0xfb,0xff,0xff,0x29,0x00,0x00,0x00,0x73,0x65,0x71,0x75,0x65,0x6e,0x74,0x69,0x61,0x6c,0x5f,0x31,0x2f,0x63,0x6f,0x6e,0x76,0x31,0x64,0x5f,0x31,0x2f,0x63,0x6f,0x6e,0x76,0x6f,0x6c,0x75,0x74,0x69,0x6f,0x6e,0x2f,0x53,0x71,0x75,0x65,0x65,0x7a,0x65,0x00,0x00,0x00,0x03,0x00,0x00,0x00,0x01,0x00,0x00,0x00,0x02,0x00,0x00,0x00,0x20,0x00,0x00,0x00,0x6a,0xfc,0xff,0xff,0x00,0x00,0x00,0x01,0x14,0x00,0x00,0x00,0x24,0x00,0x00,0x00,0x24,0x00,0x00,0x00,0x0d,0x00,0x00,0x00,0x44,0x00,0x00,0x00,0x04,0x00,0x00,0x00,0xff,0xff,0xff,0xff,0x01,0x00,0x00,0x00,0x02,0x00,0x00,0x00,0x20,0x00,0x00,0x00,0xfc,0xfb,0xff,0xff,0x21,0x00,0x00,0x00,0x73,0x65,0x71,0x75,0x65,0x6e,0x74,0x69,0x61,0x6c,0x5f,0x31,0x2f,0x63,0x6f,0x6e,0x76,0x31,0x64,0x5f,0x31,0x2f,0x63,0x6f,0x6e,0x76,0x6f,0x6c,0x75,0x74,0x69,0x6f,0x6e,0x00,0x00,0x00,0x04,0x00,0x00,0x00,0x01,0x00,0x00,0x00,0x01,0x00,0x00,0x00,0x02,0x00,0x00,0x00,0x20,0x00,0x00,0x00,0xda,0xfc,0xff,0xff,0x00,0x00,0x00,0x01,0x14,0x00,0x00,0x00,0x24,0x00,0x00,0x00,0x24,0x00,0x00,0x00,0x0c,0x00,0x00,0x00,0x50,0x00,0x00,0x00,0x04,0x00,0x00,0x00,0xff,0xff,0xff,0xff,0x01,0x00,0x00,0x00,0x03,0x00,0x00,0x00,0x01,0x00,0x00,0x00,0x6c,0xfc,0xff,0xff,0x2c,0x00,0x00,0x00,0x73,0x65,0x71,0x75,0x65,0x6e,0x74,0x69,0x61,0x6c,0x5f,0x31,0x2f,0x63,0x6f,0x6e,0x76,0x31,0x64,0x5f,0x31,0x2f,0x63,0x6f,0x6e,0x76,0x6f,0x6c,0x75,0x74,0x69,0x6f,0x6e,0x2f,0x45,0x78,0x70,0x61,0x6e,0x64,0x44,0x69,0x6d,0x73,0x00,0x00,0x00,0x00,0x04,0x00,0x00,0x00,0x01,0x00,0x00,0x00,0x01,0x00,0x00,0x00,0x03,0x00,0x00,0x00,0x01,0x00,0x00,0x00,0xaa,0xfd,0xff,0xff,0x00,0x00,0x00,0x01,0x14,0x00,0x00,0x00,0x14,0x00,0x00,0x00,0x0b,0x00,0x00,0x00,0x00,0x00,0x00,0x02,0x40,0x00,0x00,0x00,0xd4,0xfc,0xff,0xff,0x30,0x00,0x00,0x00,0x73,0x65,0x71,0x75,0x65,0x6e,0x74,0x69,0x61,0x6c,0x5f,0x31,0x2f,0x63,0x6f,0x6e,0x76,0x31,0x64,0x5f,0x31,0x2f,0x63,0x6f,0x6e,0x76,0x6f,0x6c,0x75,0x74,0x69,0x6f,0x6e,0x2f,0x45,0x78,0x70,0x61,0x6e,0x64,0x44,0x69,0x6d,0x73,0x2f,0x64,0x69,0x6d,0x00,0x00,0x00,0x00,0x00,0x00,0x00,0x00,0x06,0xfe,0xff,0xff,0x00,0x00,0x00,0x01,0x14,0x00,0x00,0x00,0x14,0x00,0x00,0x00,0x0a,0x00,0x00,0x00,0x00,0x00,0x00,0x02,0x1c,0x00,0x00,0x00,0x30,0xfd,0xff,0xff,0x0f,0x00,0x00,0x00,0x61,0x72,0x69,0x74,0x68,0x2e,0x63,0x6f,0x6e,0x73,0x74,0x61,0x6e,0x74,0x38,0x00,0x01,0x00,0x00,0x00,0x02,0x00,0x00,0x00,0x9e,0xfe,0xff,0xff,0x00,0x00,0x00,0x01,0x10,0x00,0x00,0x00,0x10,0x00,0x00,0x00,0x09,0x00,0x00,0x00,0x1c,0x00,0x00,0x00,0x68,0xfd,0xff,0xff,0x0f,0x00,0x00,0x00,0x61,0x72,0x69,0x74,0x68,0x2e,0x63,0x6f,0x6e,0x73,0x74,0x61,0x6e,0x74,0x37,0x00,0x01,0x00,0x00,0x00,0x02,0x00,0x00,0x00,0xd6,0xfe,0xff,0xff,0x00,0x00,0x00,0x01,0x10,0x00,0x00,0x00,0x10,0x00,0x00,0x00,0x08,0x00,0x00,0x00,0x1c,0x00,0x00,0x00,0xa0,0xfd,0xff,0xff,0x0f,0x00,0x00,0x00,0x61,0x72,0x69,0x74,0x68,0x2e,0x63,0x6f,0x6e,0x73,0x74,0x61,0x6e,0x74,0x36,0x00,0x01,0x00,0x00,0x00,0x20,0x00,0x00,0x00,0x0e,0xff,0xff,0xff,0x00,0x00,0x00,0x01,0x10,0x00,0x00,0x00,0x10,0x00,0x00,0x00,0x07,0x00,0x00,0x00,0x1c,0x00,0x00,0x00,0xd8,0xfd,0xff,0xff,0x0f,0x00,0x00,0x00,0x61,0x72,0x69,0x74,0x68,0x2e,0x63,0x6f,0x6e,0x73,0x74,0x61,0x6e,0x74,0x35,0x00,0x03,0x00,0x00,0x00,0x01,0x00,0x00,0x00,0x01,0x00,0x00,0x00,0x20,0x00,0x00,0x00,0x4e,0xff,0xff,0xff,0x00,0x00,0x00,0x01,0x10,0x00,0x00,0x00,0x10,0x00,0x00,0x00,0x06,0x00,0x00,0x00,0x1c,0x00,0x00,0x00,0x18,0xfe,0xff,0xff,0x0f,0x00,0x00,0x00,0x61,0x72,0x69,0x74,0x68,0x2e,0x63,0x6f,0x6e,0x73,0x74,0x61,0x6e,0x74,0x34,0x00,0x02,0x00,0x00,0x00,0x20,0x00,0x00,0x00,0x40,0x00,0x00,0x00,0x8a,0xff,0xff,0xff,0x00,0x00,0x00,0x01,0x10,0x00,0x00,0x00,0x10,0x00,0x00,0x00,0x05,0x00,0x00,0x00,0x1c,0x00,0x00,0x00,0x54,0xfe,0xff,0xff,0x0f,0x00,0x00,0x00,0x61,0x72,0x69,0x74,0x68,0x2e,0x63,0x6f,0x6e,0x73,0x74,0x61,0x6e,0x74,0x33,0x00,0x02,0x00,0x00,0x00,0x02,0x00,0x00,0x00,0x20,0x00,0x00,0x00,0xc6,0xff,0xff,0xff,0x00,0x00,0x00,0x01,0x10,0x00,0x00,0x00,0x10,0x00,0x00,0x00,0x04,0x00,0x00,0x00,0x1c,0x00,0x00,0x00,0x90,0xfe,0xff,0xff,0x0f,0x00,0x00,0x00,0x61,0x72,0x69,0x74,0x68,0x2e,0x63,0x6f,0x6e,0x73,0x74,0x61,0x6e,0x74,0x32,0x00,0x01,0x00,0x00,0x00,0x20,0x00,0x00,0x00,0x00,0x00,0x16,0x00,0x18,0x00,0x14,0x00,0x00,0x00,0x10,0x00,0x0c,0x00,0x08,0x00,0x00,0x00,0x00,0x00,0x00,0x00,0x07,0x00,0x16,0x00,0x00,0x00,0x00,0x00,0x00,0x01,0x10,0x00,0x00,0x00,0x10,0x00,0x00,0x00,0x03,0x00,0x00,0x00,0x1c,0x00,0x00,0x00,0xe0,0xfe,0xff,0xff,0x0f,0x00,0x00,0x00,0x61,0x72,0x69,0x74,0x68,0x2e,0x63,0x6f,0x6e,0x73,0x74,0x61,0x6e,0x74,0x31,0x00,0x04,0x00,0x00,0x00,0x20,0x00,0x00,0x00,0x01,0x00,0x00,0x00,0x02,0x00,0x00,0x00,0x01,0x00,0x00,0x00,0x00,0x00,0x16,0x00,0x1c,0x00,0x18,0x00,0x17,0x00,0x10,0x00,0x0c,0x00,0x08,0x00,0x00,0x00,0x00,0x00,0x00,0x00,0x07,0x00,0x16,0x00,0x00,0x00,0x00,0x00,0x00,0x01,0x14,0x00,0x00,0x00,0x14,0x00,0x00,0x00,0x02,0x00,0x00,0x00,0x00,0x00,0x00,0x02,0x1c,0x00,0x00,0x00,0x40,0xff,0xff,0xff,0x0e,0x00,0x00,0x00,0x61,0x72,0x69,0x74,0x68,0x2e,0x63,0x6f,0x6e,0x73,0x74,0x61,0x6e,0x74,0x00,0x00,0x01,0x00,0x00,0x00,0x03,0x00,0x00,0x00,0x00,0x00,0x16,0x00,0x1c,0x00,0x18,0x00,0x00,0x00,0x14,0x00,0x10,0x00,0x0c,0x00,0x00,0x00,0x00,0x00,0x08,0x00,0x07,0x00,0x16,0x00,0x00,0x00,0x00,0x00,0x00,0x01,0x14,0x00,0x00,0x00,0x20,0x00,0x00,0x00,0x20,0x00,0x00,0x00,0x01,0x00,0x00,0x00,0x3c,0x00,0x00,0x00,0x03,0x00,0x00,0x00,0xff,0xff,0xff,0xff,0x03,0x00,0x00,0x00,0x01,0x00,0x00,0x00,0xa4,0xff,0xff,0xff,0x1e,0x00,0x00,0x00,0x73,0x65,0x72,0x76,0x69,0x6e,0x67,0x5f,0x64,0x65,0x66,0x61,0x75,0x6c,0x74,0x5f,0x6b,0x65,0x72,0x61,0x73,0x5f,0x74,0x65,0x6e,0x73,0x6f,0x72,0x3a,0x30,0x00,0x00,0x03,0x00,0x00,0x00,0x01,0x00,0x00,0x00,0x03,0x00,0x00,0x00,0x01,0x00,0x00,0x00,0x05,0x00,0x00,0x00,0x4c,0x00,0x00,0x00,0x30,0x00,0x00,0x00,0x20,0x00,0x00,0x00,0x18,0x00,0x00,0x00,0x04,0x00,0x00,0x00,0xd4,0xff,0xff,0xff,0x09,0x00,0x00,0x00,0x00,0x00,0x00,0x09,0x04,0x00,0x04,0x00,0x04,0x00,0x00,0x00,0xe8,0xff,0xff,0xff,0x16,0x00,0x00,0x00,0x00,0x00,0x00,0x16,0xf4,0xff,0xff,0xff,0x03,0x00,0x00,0x00,0x00,0x00,0x00,0x03,0x0c,0x00,0x0c,0x00,0x0b,0x00,0x00,0x00,0x00,0x00,0x04,0x00,0x0c,0x00,0x00,0x00,0x46,0x00,0x00,0x00,0x00,0x00,0x00,0x46};
const int g_model_len = 12072;

const float scaler_i_mean[] = { 5.0, 350.31769781144783, 496.7822320426487 };
const float scaler_i_scale[] = { 2.581988897471611, 148.34905984190482, 120.57640180027173 };
const float scaler_o_mean[] = { 2.5, 32.5 };
const float scaler_o_scale[] = { 1.5811388300841898, 5.5901699437494745 };
#endif  // MODEL_H
