
#ifndef MODEL_H
#define MODEL_H

// MSE(Pos, Temp): [0.12111692 0.20127404]


const unsigned char g_model[] = {0x1c,0x00,0x00,0x00,0x54,0x46,0x4c,0x33,0x14,0x00,0x20,0x00,0x1c,0x00,0x18,0x00,0x14,0x00,0x10,0x00,0x0c,0x00,0x00,0x00,0x08,0x00,0x04,0x00,0x14,0x00,0x00,0x00,0x1c,0x00,0x00,0x00,0x8c,0x00,0x00,0x00,0xe4,0x00,0x00,0x00,0x04,0x26,0x00,0x00,0x14,0x26,0x00,0x00,0x98,0x2e,0x00,0x00,0x03,0x00,0x00,0x00,0x01,0x00,0x00,0x00,0x04,0x00,0x00,0x00,0xd6,0xd8,0xff,0xff,0x0c,0x00,0x00,0x00,0x1c,0x00,0x00,0x00,0x3c,0x00,0x00,0x00,0x0f,0x00,0x00,0x00,0x73,0x65,0x72,0x76,0x69,0x6e,0x67,0x5f,0x64,0x65,0x66,0x61,0x75,0x6c,0x74,0x00,0x01,0x00,0x00,0x00,0x04,0x00,0x00,0x00,0x90,0xff,0xff,0xff,0x11,0x00,0x00,0x00,0x04,0x00,0x00,0x00,0x08,0x00,0x00,0x00,0x6f,0x75,0x74,0x70,0x75,0x74,0x5f,0x30,0x00,0x00,0x00,0x00,0x01,0x00,0x00,0x00,0x04,0x00,0x00,0x00,0x8a,0xda,0xff,0xff,0x04,0x00,0x00,0x00,0x0c,0x00,0x00,0x00,0x6b,0x65,0x72,0x61,0x73,0x5f,0x74,0x65,0x6e,0x73,0x6f,0x72,0x00,0x00,0x00,0x00,0x02,0x00,0x00,0x00,0x34,0x00,0x00,0x00,0x04,0x00,0x00,0x00,0xdc,0xff,0xff,0xff,0x14,0x00,0x00,0x00,0x04,0x00,0x00,0x00,0x13,0x00,0x00,0x00,0x43,0x4f,0x4e,0x56,0x45,0x52,0x53,0x49,0x4f,0x4e,0x5f,0x4d,0x45,0x54,0x41,0x44,0x41,0x54,0x41,0x00,0x08,0x00,0x0c,0x00,0x08,0x00,0x04,0x00,0x08,0x00,0x00,0x00,0x13,0x00,0x00,0x00,0x04,0x00,0x00,0x00,0x13,0x00,0x00,0x00,0x6d,0x69,0x6e,0x5f,0x72,0x75,0x6e,0x74,0x69,0x6d,0x65,0x5f,0x76,0x65,0x72,0x73,0x69,0x6f,0x6e,0x00,0x15,0x00,0x00,0x00,0x1c,0x25,0x00,0x00,0x14,0x25,0x00,0x00,0xf8,0x24,0x00,0x00,0xe0,0x23,0x00,0x00,0x50,0x23,0x00,0x00,0x40,0x22,0x00,0x00,0x30,0x02,0x00,0x00,0xa0,0x01,0x00,0x00,0x10,0x01,0x00,0x00,0xf8,0x00,0x00,0x00,0xe0,0x00,0x00,0x00,0xcc,0x00,0x00,0x00,0xc4,0x00,0x00,0x00,0xbc,0x00,0x00,0x00,0xb4,0x00,0x00,0x00,0xac,0x00,0x00,0x00,0xa4,0x00,0x00,0x00,0x9c,0x00,0x00,0x00,0x94,0x00,0x00,0x00,0x74,0x00,0x00,0x00,0x04,0x00,0x00,0x00,0x5a,0xdb,0xff,0xff,0x04,0x00,0x00,0x00,0x60,0x00,0x00,0x00,0x10,0x00,0x00,0x00,0x00,0x00,0x00,0x00,0x08,0x00,0x0e,0x00,0x08,0x00,0x04,0x00,0x08,0x00,0x00,0x00,0x10,0x00,0x00,0x00,0x24,0x00,0x00,0x00,0x00,0x00,0x06,0x00,0x08,0x00,0x04,0x00,0x06,0x00,0x00,0x00,0x04,0x00,0x00,0x00,0x00,0x00,0x00,0x00,0x0c,0x00,0x18,0x00,0x14,0x00,0x10,0x00,0x0c,0x00,0x04,0x00,0x0c,0x00,0x00,0x00,0x81,0xdb,0xf2,0xa3,0xbb,0xed,0x47,0x42,0x02,0x00,0x00,0x00,0x02,0x00,0x00,0x00,0x04,0x00,0x00,0x00,0x06,0x00,0x00,0x00,0x32,0x2e,0x31,0x37,0x2e,0x30,0x00,0x00,0xc6,0xdb,0xff,0xff,0x04,0x00,0x00,0x00,0x10,0x00,0x00,0x00,0x31,0x2e,0x31,0x30,0x2e,0x30,0x00,0x00,0x00,0x00,0x00,0x00,0x00,0x00,0x00,0x00,0xfc,0xd2,0xff,0xff,0x00,0xd3,0xff,0xff,0x04,0xd3,0xff,0xff,0x08,0xd3,0xff,0xff,0x0c,0xd3,0xff,0xff,0x10,0xd3,0xff,0xff,0x14,0xd3,0xff,0xff,0xfe,0xdb,0xff,0xff,0x04,0x00,0x00,0x00,0x04,0x00,0x00,0x00,0xfd,0xff,0xff,0xff,0x0e,0xdc,0xff,0xff,0x04,0x00,0x00,0x00,0x08,0x00,0x00,0x00,0xff,0xff,0xff,0xff,0x40,0x00,0x00,0x00,0x22,0xdc,0xff,0xff,0x04,0x00,0x00,0x00,0x08,0x00,0x00,0x00,0x39,0x7f,0x76,0x3c,0xfd,0xf5,0x3b,0xbe,0x36,0xdc,0xff,0xff,0x04,0x00,0x00,0x00,0x80,0x00,0x00,0x00,0x23,0x90,0xc1,0xbc,0xec,0xf0,0xab,0xbe,0x18,0xc1,0x89,0x3e,0xd1,0xe5,0xab,0xbd,0x38,0xae,0xee,0x3c,0x12,0xd9,0x4b,0x3e,0x1f,0x11,0x86,0x3d,0x89,0xa7,0xb4,0xbd,0xe2,0xdf,0x93,0xbd,0xa4,0x71,0x4c,0x3e,0x71,0xf1,0xd1,0xbc,0xe2,0x79,0x64,0x3c,0x9c,0x1c,0x83,0xbd,0x6d,0x88,0x4c,0xbe,0x07,0xc6,0x62,0xbd,0x8c,0x76,0x64,0x3d,0xea,0x26,0xca,0x3d,0x37,0x99,0xcc,0xbe,0xde,0xee,0x46,0x3e,0x88,0xf2,0x86,0xbc,0xdd,0x8c,0xc4,0xbb,0xd2,0x28,0x29,0x3d,0xba,0xc5,0x12,0x3d,0xd8,0x8c,0xdd,0xbd,0x00,0x00,0x00,0x00,0xcd,0xc8,0x4e,0x3e,0x30,0xad,0xd1,0xbd,0x07,0x48,0x9a,0xbc,0x6b,0xa5,0x2e,0x3e,0xa9,0x11,0x9e,0x3d,0xf5,0xe5,0x5d,0xbc,0xf7,0x15,0x6a,0xbc,0xc2,0xdc,0xff,0xff,0x04,0x00,0x00,0x00,0x80,0x00,0x00,0x00,0xe6,0x2f,0xa2,0xbc,0xab,0xab,0x0e,0x3e,0x5f,0xb4,0x9b,0x3d,0xca,0xb8,0x9a,0xbe,0xd1,0xe5,0x10,0x3e,0x04,0xd4,0xbb,0x3d,0xf6,0xa7,0xf8,0x3d,0xb1,0x5d,0x3d,0xbe,0x2b,0x8c,0x37,0x3e,0x0a,0x92,0x6f,0xbe,0xb0,0xf7,0x6b,0xbc,0xb9,0x83,0x6e,0xbd,0x99,0x65,0xce,0x3d,0x22,0xeb,0xab,0x3d,0xc5,0x02,0xed,0x3d,0x96,0x52,0x20,0x3e,0x8f,0xcf,0x84,0x3e,0xe4,0xa0,0x63,0x3e,0x10,0xa1,0x56,0xbe,0x9a,0xe5,0xf1,0xbe,0xdd,0x59,0x32,0x3e,0x3a,0xf9,0xbb,0xbc,0xc5,0x50,0x1e,0xbe,0x1d,0x97,0xe6,0x3d,0x4e,0x59,0x1f,0x3e,0x0b,0xe1,0xc7,0xbe,0x10,0xbb,0x04,0x3e,0x54,0xc9,0x9e,0x3e,0xe6,0x34,0x17,0x3e,0x3e,0x7f,0x66,0x3e,0x26,0x51,0x1e,0x3e,0x9b,0xea,0x9a,0x3d,0x4e,0xdd,0xff,0xff,0x04,0x00,0x00,0x00,0x00,0x20,0x00,0x00,0x81,0xb5,0x6a,0xbe,0xb1,0xbf,0xa4,0x3d,0x9b,0x3b,0x18,0x3e,0x34,0x92,0x58,0xbe,0x9c,0x8e,0xb8,0x3d,0x1a,0xf0,0x53,0xbc,0x11,0x38,0x8a,0x3d,0x31,0x73,0x5b,0xbe,0x97,0x92,0x21,0xbe,0x07,0x4b,0x13,0xbe,0x74,0xe3,0x72,0x3d,0x08,0x46,0x73,0xbd,0x3a,0x4c,0x99,0x3c,0xfb,0x1c,0x81,0xbe,0xc7,0xd3,0x66,0x3b,0x8e,0x41,0xfe,0xbd,0x2e,0x79,0x25,0xbe,0x79,0xec,0x10,0xbe,0x87,0x0b,0x6e,0xbe,0x3d,0xdb,0x06,0xbd,0x83,0x54,0x5a,0x3e,0x7c,0xc2,0x20,0xbe,0xb6,0x46,0x18,0xbe,0xa8,0xf6,0x59,0xbe,0xff,0xad,0x33,0x3e,0x0a,0x21,0x3c,0x3b,0x19,0x4a,0x56,0xbe,0x1b,0xbc,0x58,0x3e,0xc1,0x87,0x77,0xbe,0x5b,0x91,0x12,0x3e,0x94,0x4b,0x92,0xbc,0x4f,0x91,0x05,0xbd,0xb2,0x8a,0xfb,0xbd,0x88,0x0c,0x25,0xbe,0xd8,0x46,0x13,0x3e,0x46,0x3a,0xfd,0xbd,0xe6,0x06,0x3a,0x3e,0x73,0x17,0x2e,0x3e,0xc8,0x1e,0x40,0x3e,0x50,0x09,0x32,0xbe,0xb3,0x34,0x18,0x3e,0x28,0x34,0x2e,0xbe,0x4b,0x55,0x37,0xbe,0x38,0xdf,0xe4,0xbc,0x65,0x02,0xd1,0x3d,0x79,0xc0,0x55,0xbe,0x05,0x60,0x18,0x3e,0x70,0xb4,0x82,0xbe,0x72,0xef,0x46,0xbe,0x9b,0xfe,0xe0,0xbd,0xfb,0xfa,0x3e,0x3e,0xdf,0x9d,0x21,0xbe,0xbe,0x0a,0xe9,0x3d,0xb5,0xd2,0xdc,0x3d,0x98,0x22,0x76,0xbe,0x1d,0x93,0x2d,0x3e,0x6d,0xa3,0xd7,0xbd,0xc1,0xff,0x43,0x3e,0xe2,0xe3,0x17,0x3e,0x7e,0x9b,0x3d,0xbe,0xe1,0x2f,0x0f,0x3e,0x9b,0xd6,0x3d,0xbe,0x53,0x4e,0x8e,0xbe,0xa4,0x36,0x89,0x3d,0x3d,0xef,0x9a,0x3b,0xf2,0x49,0x5f,0xbd,0x7c,0xeb,0x1b,0xbe,0x54,0x19,0xa1,0x3e,0xf1,0x16,0xd6,0xbe,0x07,0x0f,0x9b,0xbe,0xd4,0xbb,0x14,0x3f,0x31,0x71,0xff,0x3d,0x92,0xd6,0x68,0x3d,0xb2,0x5d,0xa6,0x3e,0x0a,0x62,0x04,0x3e,0x9b,0xcc,0x0c,0x3f,0x5b,0xac,0x04,0xbe,0x79,0x2d,0x41,0x3e,0xaa,0xf1,0xcb,0xbd,0xd0,0xdc,0x8f,0x3e,0x24,0x3c,0xf8,0x3d,0x7b,0xfc,0x3f,0x3d,0xe5,0x70,0xc2,0x3e,0x60,0xe5,0xbf,0x3e,0xac,0xfa,0x3c,0x3d,0x71,0xed,0xad,0x3c,0xd8,0x56,0x8d,0x3c,0x13,0x35,0x85,0xbd,0xae,0x07,0x39,0xbe,0xca,0xb9,0xdd,0x3e,0xbe,0x8f,0x08,0x3d,0xe2,0x8a,0x8d,0xbe,0x58,0x1c,0x22,0xbe,0x13,0xac,0x5c,0x3d,0x07,0x3f,0xae,0xbe,0x32,0xd5,0xe0,0xbd,0x0d,0xa5,0x04,0xba,0xa6,0x5c,0x69,0x3d,0x4d,0xea,0x52,0xbe,0xe0,0xf2,0xf6,0xbd,0xc7,0x08,0xff,0xbd,0x3b,0xe0,0x6e,0x3e,0xd3,0xb2,0x7d,0x3c,0x29,0x9b,0xd9,0x3e,0xd1,0x35,0x01,0xbe,0x66,0x01,0xaf,0xbd,0x41,0xee,0xbf,0xbe,0x8e,0x89,0xf8,0xbe,0x56,0x9e,0x5c,0x3d,0x49,0xe2,0x9c,0x3d,0xeb,0xa1,0xad,0x3d,0x48,0xce,0xaf,0x3d,0x15,0x98,0x74,0x3c,0x3d,0xd6,0x0e,0x3e,0x1a,0xb6,0xc6,0x3e,0x65,0x7e,0x23,0x3f,0x2f,0x06,0x29,0x3e,0x79,0x8a,0xc4,0x3d,0xec,0x59,0xa6,0x3e,0x1e,0xde,0xe6,0x3e,0xd7,0x5e,0x54,0xbf,0xb8,0xe1,0xdf,0x3d,0xfc,0x97,0xd0,0x3c,0xa3,0x33,0xa6,0x3c,0x4d,0x61,0x16,0x3e,0x5b,0xa8,0x40,0xbf,0xeb,0x3a,0x8b,0x3e,0xca,0x2a,0x09,0x3e,0x0d,0x29,0xb5,0xbd,0x9d,0x07,0xaf,0x3d,0xe1,0xcb,0x4e,0x3e,0x77,0x30,0x6c,0xbe,0x2b,0x14,0xc9,0xbd,0x9a,0xdd,0x1d,0x3e,0x2c,0x5c,0x6f,0x3d,0x8e,0xda,0x2d,0x3e,0x1f,0xb7,0x09,0xbe,0x79,0x60,0x1c,0xbe,0xd2,0xd3,0x95,0xbe,0xf0,0xf3,0x5f,0xbe,0xbf,0x42,0x35,0x3d,0xfd,0x82,0xa8,0xbe,0x19,0xd4,0x32,0xbe,0xe6,0x2f,0x4c,0xbe,0xa6,0x0b,0x3b,0x3d,0xa8,0x8f,0x4b,0x3e,0xfd,0xf9,0x1d,0xbf,0x0f,0xdb,0xa0,0xbe,0x34,0x27,0x4b,0xbe,0x50,0xc9,0xc5,0xbd,0x0b,0x25,0xd7,0xbe,0xfe,0xbd,0x4b,0x3c,0x2b,0x25,0x46,0xbc,0x5d,0x5b,0xfb,0x3d,0x67,0xf3,0xe9,0x3d,0xcc,0xe3,0x03,0x3f,0xfd,0x51,0xd9,0x3d,0x66,0x17,0xb0,0x3e,0x5f,0xa1,0x49,0xbd,0x4a,0x80,0x8b,0xbe,0xd3,0x1c,0x1a,0xbd,0xd3,0xfa,0xab,0x3e,0x32,0xdd,0x17,0x3e,0x14,0x75,0xbf,0xbd,0x9d,0xb1,0xd6,0x3e,0x1a,0x4c,0x31,0xbe,0x8f,0x55,0x8e,0xbe,0xb8,0xe4,0x24,0x3d,0x7f,0xe6,0x45,0xbd,0x33,0x46,0x24,0xbe,0x14,0xa2,0xbe,0x3c,0x54,0xba,0xec,0x3e,0x25,0xba,0x27,0xbd,0x60,0xd6,0x96,0xbc,0x51,0x90,0x6c,0x3e,0x6f,0x46,0xa5,0x3d,0x55,0x65,0xd7,0xbd,0x66,0x5a,0x9f,0x3e,0xa2,0x8c,0xce,0xbe,0x34,0xce,0x87,0xbe,0x30,0xe2,0x59,0x3e,0xcb,0xa2,0xf8,0x3c,0x0c,0x4e,0xf4,0xbc,0xe4,0x4f,0x83,0xbc,0x30,0x7c,0x2a,0x3f,0x1c,0xab,0xa9,0xbd,0xa5,0x8c,0x73,0x3e,0x72,0x1e,0xd5,0x3d,0x7f,0x56,0x3e,0x3d,0x87,0x33,0x13,0x3f,0xf7,0x21,0xc6,0xbd,0x49,0xa5,0xf5,0xbc,0x75,0x64,0xf6,0xba,0xaf,0x11,0xce,0xbd,0xac,0x19,0x4f,0x3e,0xaa,0x3a,0x9c,0xbe,0x12,0xc5,0xcd,0x3e,0x9b,0x60,0xe4,0xbc,0xb0,0x14,0x8e,0x3c,0xe0,0xd6,0xc3,0x3d,0x40,0xda,0xd2,0xbd,0xa1,0xc7,0x46,0xbe,0x07,0xa9,0x81,0x3c,0x28,0x90,0xb6,0x3d,0xfe,0x0f,0x90,0x3e,0xe6,0xb8,0x93,0x3e,0x26,0x48,0x8e,0x3e,0xfc,0x77,0xaf,0xbd,0x16,0x07,0xaa,0x3e,0x23,0xc6,0xaf,0x3d,0xdc,0x5e,0x56,0x3d,0x60,0xb5,0xcf,0xbd,0xd7,0x27,0x22,0xbd,0x43,0x80,0x31,0x3e,0xa3,0x67,0xee,0xbd,0x41,0xf6,0xff,0x3b,0x98,0xda,0x14,0x3e,0xff,0xcd,0xd2,0x3d,0xa0,0x6a,0x82,0x3e,0x6c,0x97,0x2d,0xbe,0xd1,0x7f,0x16,0x3e,0xf2,0x23,0x8b,0x3e,0xd5,0x18,0x60,0xbe,0xb8,0x58,0xad,0x3d,0x5f,0xbb,0x24,0x3d,0xa2,0x83,0xa2,0xbe,0x66,0x60,0x05,0x3e,0x42,0x28,0x99,0x3d,0xb9,0xf6,0x6d,0xbe,0x81,0x85,0x80,0xbe,0x37,0xaf,0x86,0x3e,0x62,0x12,0x6e,0x3e,0x9c,0x66,0x2a,0x3d,0x64,0xdf,0xea,0xbb,0xf0,0x46,0xc3,0x3d,0x05,0xda,0x52,0xbd,0x08,0x54,0x57,0xbe,0xfa,0xa5,0xd7,0x3d,0x50,0x4d,0x6b,0xbc,0xae,0x34,0x1b,0xbe,0xea,0x0b,0xf2,0xbd,0xa5,0xa5,0x74,0xbd,0xe4,0xca,0x1b,0xbe,0xa5,0xc1,0x10,0x3f,0xfb,0x1c,0x63,0x3e,0x02,0x9a,0xcd,0x3d,0x6b,0x99,0xe7,0xbc,0xbd,0x68,0x46,0xbe,0xc1,0x5f,0x41,0xbd,0xec,0xcc,0x98,0x3e,0x12,0x9f,0x39,0x3d,0x07,0x7c,0x0f,0xbf,0xa2,0xe9,0xf1,0xbd,0x8a,0x28,0xa0,0x3d,0x30,0x46,0x96,0xbe,0x91,0xaa,0x8d,0xbe,0xc6,0x71,0x72,0x3d,0x1c,0xd0,0x85,0xbe,0x85,0xa8,0x58,0xbe,0x87,0xe3,0xa6,0x3e,0x19,0x33,0x38,0xbe,0x41,0x33,0x65,0xbd,0x9d,0x1a,0x24,0x3e,0xaf,0xa7,0x7f,0x3e,0x3a,0x29,0x01,0x3e,0xb4,0x63,0xd1,0x3d,0x81,0x71,0x98,0x3e,0xe7,0x14,0x4a,0x3e,0xe0,0xb0,0xd6,0xbd,0x16,0xa5,0xcf,0x3d,0x86,0x30,0xc7,0xbd,0x37,0xeb,0x92,0x3e,0x95,0xa8,0xff,0x3d,0x42,0x24,0x8b,0x3d,0x55,0x84,0x35,0x3e,0xb8,0x06,0x30,0xbd,0x55,0x58,0xbe,0xbd,0xe8,0x32,0x74,0x3d,0x0f,0x03,0xf8,0x3e,0x5c,0x44,0x8b,0xbe,0x4a,0x1f,0xa4,0xbc,0xb1,0xf8,0x1a,0xbd,0x84,0x4b,0x33,0xbd,0xcd,0xd8,0x8c,0xbe,0xcf,0x38,0x88,0xbe,0x67,0xd5,0x72,0xbc,0x61,0x85,0x31,0xbe,0xdc,0x0e,0xd9,0xbb,0x0c,0xe8,0x97,0x3e,0x94,0x42,0xda,0x3e,0x6c,0x36,0xa2,0x3d,0x50,0xc6,0x96,0x3e,0x78,0x45,0x7b,0x3e,0xf9,0x49,0x5b,0xbe,0x8b,0x23,0xb4,0xbe,0xdf,0x8b,0x7d,0xbe,0x4a,0x8c,0x66,0xbe,0x73,0x67,0x91,0x3e,0x84,0x34,0x50,0x3e,0x66,0x54,0xbc,0x3e,0x87,0x9f,0x3e,0x3e,0xa7,0x18,0xdf,0xba,0x7d,0x4f,0x79,0x3b,0xae,0x33,0x13,0x3e,0x8b,0x4a,0x16,0xbe,0xd4,0x83,0x52,0x3e,0x55,0x50,0x02,0x3e,0x5b,0x6c,0x76,0xbe,0xef,0xee,0xa0,0x3d,0xfe,0xb8,0x85,0xbc,0x61,0x8a,0x75,0x3d,0x15,0xb1,0xbe,0x3d,0xb9,0xaf,0x34,0xbd,0x84,0xef,0x41,0xbe,0xb5,0x80,0x3d,0x3e,0x6c,0xf9,0x8f,0x3e,0x13,0xad,0xd0,0x3d,0x02,0xac,0x05,0xbf,0x6e,0xd5,0x69,0x3e,0x08,0x17,0xe4,0x3d,0xde,0xbd,0xfc,0xbc,0x1f,0xf4,0x56,0x3e,0x64,0x66,0x25,0xbc,0x91,0x15,0x18,0x3e,0xf9,0x4d,0xe3,0x3d,0x1f,0x1a,0x8f,0x3e,0x48,0x55,0x11,0xbd,0xa2,0xf9,0x55,0x3e,0x25,0x81,0x28,0x3e,0x6a,0xe0,0x38,0x3e,0x09,0x76,0x9d,0x3c,0xa5,0x8b,0xc7,0xbd,0x26,0xd6,0x89,0xbe,0x60,0xaa,0x91,0xbe,0x4e,0x2c,0x49,0xbe,0xc1,0x6e,0xb1,0xbe,0xd3,0xba,0xfe,0xbd,0x17,0x4e,0x94,0x3e,0x40,0xff,0x07,0x3c,0x58,0x5b,0x9e,0x3d,0x12,0x52,0x90,0xbe,0x2e,0x63,0x1b,0xbc,0x24,0xcb,0xaa,0xbd,0xc5,0xfa,0x85,0x3e,0x9c,0xb3,0x47,0x3e,0x71,0xbd,0xbc,0x3c,0x84,0x3e,0x9a,0x3d,0x7d,0xa2,0xc9,0x3e,0x71,0x46,0x39,0x3c,0x9a,0x34,0x76,0xbb,0x4d,0xca,0x34,0x3e,0x29,0x22,0x52,0xbe,0xaa,0x6f,0x3e,0xbe,0x77,0xbf,0xf0,0x3e,0x5d,0x2d,0x05,0xbe,0x5e,0xcc,0x70,0x3d,0xf5,0xc2,0x05,0x3f,0xc5,0x7c,0x03,0x3d,0x25,0xb7,0xfb,0xbe,0x11,0x4a,0x67,0xbd,0xdc,0xfc,0xee,0xbe,0x39,0xe2,0xc5,0xbd,0x0e,0x48,0xbd,0xbc,0x3f,0x5f,0xb6,0x3e,0x32,0x09,0x91,0x3d,0x1d,0x85,0x86,0x3e,0x70,0x3c,0x5c,0x3e,0xb7,0x0a,0x61,0x3e,0x82,0x9f,0xe7,0x3d,0x70,0x89,0xa5,0x3b,0xd3,0xd6,0x42,0x3e,0x30,0x6e,0x2f,0xbe,0xba,0x9f,0x36,0xbd,0x11,0xf1,0x26,0x3e,0xc3,0xda,0x8f,0xbc,0x29,0x35,0x54,0x3e,0x63,0xa5,0xd3,0x3d,0x5c,0x67,0x44,0xbe,0x69,0xb7,0x83,0x3e,0xf5,0x2d,0x1d,0x3f,0xab,0x2a,0xbc,0x3e,0xdc,0x45,0xd0,0x3d,0x37,0x6d,0x7c,0x3e,0xb3,0x07,0x56,0xbd,0x42,0x1c,0xc1,0xbe,0xb9,0x19,0xfa,0xbb,0x04,0x21,0xab,0x3e,0x53,0x08,0x6f,0xbe,0x0a,0x45,0x43,0x3e,0x4a,0x91,0x87,0xbe,0xed,0x4a,0xbc,0x3e,0x18,0x2f,0x41,0xbe,0x0c,0x97,0x79,0x3d,0xd2,0x83,0xc3,0xbd,0xae,0x93,0x55,0x3e,0x45,0x0c,0xec,0x3e,0xb6,0xb1,0x87,0x3e,0x8d,0xa5,0xa1,0x3e,0x40,0xb0,0x60,0x3e,0x79,0x0f,0x11,0x3e,0x9c,0x5f,0x41,0x3e,0x4e,0x59,0x20,0xbe,0x3a,0xa0,0x76,0xbe,0x8a,0xc0,0x05,0xbf,0x85,0xf9,0xc5,0x3d,0x00,0x01,0x08,0xbe,0xc5,0x30,0x13,0xbe,0xa4,0xbc,0x4b,0xbe,0x37,0x06,0xf9,0x3e,0xc3,0x76,0x16,0xbe,0xdb,0xe3,0xc5,0x3d,0x21,0xfc,0x47,0xbc,0x02,0x4b,0x32,0xbe,0x99,0x95,0x12,0x3f,0x23,0xbb,0x88,0xbe,0x47,0x1f,0x90,0x3e,0x85,0x22,0xb3,0xbb,0x92,0x70,0xea,0xbe,0x12,0xa1,0x8a,0x3e,0x2f,0x1e,0xab,0x3c,0xe1,0x09,0xef,0xbe,0x77,0x54,0x34,0xbf,0x16,0x1d,0x0d,0x3f,0xca,0x22,0xea,0x3d,0x25,0x91,0xc9,0x3e,0x3f,0x52,0xf2,0x3d,0x69,0x45,0xd6,0x3e,0x70,0xb7,0x10,0x3f,0xd0,0x3c,0x45,0x3e,0x74,0xd8,0x12,0xbd,0xb7,0x0a,0xa3,0xbd,0x91,0x8b,0x8f,0x3e,0xfb,0x53,0xb4,0xbd,0x37,0x76,0x70,0x3e,0xe0,0xda,0x96,0xbd,0xa2,0xe3,0x75,0x3d,0xa8,0x51,0x31,0xbe,0x68,0x4e,0xbc,0x3d,0xf3,0x4c,0x7b,0xbe,0x77,0xb1,0x51,0xbf,0x8d,0x1c,0xc1,0x3e,0xde,0xaf,0x83,0x3e,0x70,0xa2,0x81,0xbe,0x14,0x80,0xb6,0xbe,0x72,0xa0,0x0e,0xbf,0x14,0x8c,0x94,0x3e,0x0f,0x82,0x80,0xbf,0x00,0x5a,0x2e,0xbe,0x06,0x3e,0x79,0x3d,0xe0,0x54,0xa6,0xb8,0x72,0x46,0xef,0x3d,0xa4,0xb4,0x93,0x3e,0xc8,0xfa,0x8b,0x3e,0xfc,0xe6,0x45,0x3c,0x17,0x26,0x02,0xbd,0xae,0xbf,0xca,0xbd,0x84,0xdb,0x55,0x3b,0x67,0x0a,0x7f,0x3e,0x79,0x53,0x82,0x3e,0xaa,0xae,0x17,0x3e,0xe9,0x39,0x94,0x3e,0x3f,0xc1,0x8a,0x3e,0x43,0x50,0x0c,0xbe,0x35,0x56,0x88,0x3e,0xef,0x52,0xc3,0xbd,0x61,0x2c,0xa6,0xbd,0x6b,0x65,0x39,0x3e,0x85,0x93,0x2c,0x3e,0x9c,0x43,0xd6,0x3d,0xa4,0xa7,0x88,0x3e,0x9d,0xdb,0x0b,0x3d,0x6f,0x0c,0x75,0xbd,0xf9,0xc9,0x22,0x3c,0x45,0x24,0xb0,0x3e,0x3f,0x06,0x71,0x3e,0xf8,0xbe,0xf5,0xbd,0x20,0xa1,0x67,0xbe,0xfa,0xc0,0x1a,0x3e,0x0f,0x27,0xbe,0xbd,0x11,0x18,0x8d,0x3e,0xe3,0xa2,0xee,0x3d,0xb5,0xbc,0xdb,0xbe,0x40,0x8a,0x06,0x3c,0x40,0x99,0xc6,0x3b,0x9f,0xb0,0xd3,0xbe,0x7a,0xc9,0x1d,0x3c,0x41,0xc6,0xbd,0x3e,0x6d,0xb0,0x40,0x3e,0x96,0xb4,0x04,0x3f,0x13,0xa5,0x7c,0xbd,0x70,0xcd,0x39,0x3d,0x78,0x1a,0x4c,0xbe,0xe3,0x93,0x21,0x3e,0x93,0xdb,0xbc,0xbd,0xac,0xf2,0x91,0xbe,0xfc,0x31,0xdb,0xbc,0x0d,0x12,0xe9,0x3d,0x5a,0x64,0x22,0x3e,0xfc,0xe5,0x37,0xbe,0x57,0x6a,0xfd,0x3e,0xeb,0x4b,0xac,0x3d,0xb2,0xc2,0x28,0xbe,0xb8,0x82,0x31,0xbe,0xa5,0x56,0x61,0xbe,0xa6,0xa8,0x8f,0xbd,0xa6,0x86,0xb8,0x3e,0xe7,0x3d,0xbb,0xbe,0xdb,0xcc,0x81,0xbe,0xfd,0x97,0xe4,0xbe,0x3d,0x7a,0x70,0xbe,0x47,0xfe,0x48,0xbe,0xf9,0x01,0xf7,0xbc,0xf4,0xe4,0x15,0xbe,0x8b,0x1c,0x80,0xbe,0x03,0xc3,0x83,0x3e,0x42,0x97,0xbb,0x3c,0x23,0xaa,0x8a,0x3e,0xee,0xac,0x49,0x3d,0xe2,0x96,0xb0,0x3e,0x8c,0x49,0xde,0x3d,0x48,0xf0,0x74,0xbd,0x64,0x37,0x92,0xbc,0x68,0x9f,0x47,0x3e,0xa5,0xa2,0xd3,0x3e,0x13,0xa2,0x2b,0x3e,0xe6,0x80,0x89,0x3e,0xb2,0x61,0xf6,0xbd,0xe9,0xd7,0xbf,0x3e,0xbd,0xc9,0x2f,0x3e,0x2e,0x8a,0x84,0xbe,0x04,0x97,0xca,0x3e,0x56,0xef,0xc2,0x3d,0x68,0x7d,0x89,0x3e,0x2f,0xf3,0x8b,0xbd,0xe7,0x31,0x6f,0x3e,0x80,0x4a,0xcc,0x3d,0xce,0x98,0x11,0x3e,0x34,0xc2,0x3a,0x3e,0x31,0x6e,0xba,0x3e,0xd2,0x1f,0xca,0x3c,0xbd,0x07,0xfa,0xbc,0x06,0xe1,0x50,0x3e,0x3b,0x63,0x00,0xbd,0xa4,0x5c,0x86,0xbc,0xd9,0x2e,0x28,0x3e,0x95,0x97,0x5a,0xbd,0x0a,0xac,0x21,0xbd,0xb9,0x2a,0xba,0x3d,0x4f,0xd2,0xb6,0xbe,0x5c,0x2c,0x06,0xbd,0xab,0xfb,0xef,0x3e,0xf0,0xa6,0xcd,0x3d,0x3b,0x07,0xcb,0x3e,0xf4,0x59,0x48,0x3e,0x9d,0x40,0x3f,0xbd,0x23,0x02,0x8f,0xbe,0x53,0xed,0x8a,0x3c,0xfe,0x36,0x04,0xbe,0xd2,0x3a,0x1f,0xbd,0x80,0xab,0x29,0x3d,0x15,0x16,0x81,0x3e,0xf7,0x4c,0x26,0x3e,0xbd,0x43,0x82,0x3c,0x16,0x14,0xbf,0x3e,0xa3,0x91,0x49,0xbe,0xa6,0xee,0x04,0xbe,0x3d,0xe4,0x99,0x3e,0x5d,0xa6,0x4e,0x3d,0x76,0x19,0x41,0xbe,0x88,0x40,0x84,0xbd,0x1a,0xa7,0x81,0xbe,0x15,0xc0,0x69,0xbe,0x2a,0xb8,0x87,0x3d,0xce,0xfa,0x8b,0xbe,0xc6,0xee,0x62,0xbe,0x90,0x02,0x5e,0x3d,0x77,0xc4,0x3c,0x3e,0x3a,0xc2,0x12,0x3e,0xb6,0xf8,0x80,0xbe,0xc6,0xb1,0x0e,0x3e,0xbf,0x4c,0x1b,0x3e,0x28,0x14,0x3d,0xbd,0x75,0x54,0x35,0xbd,0xb8,0xec,0x83,0xbe,0xfd,0x31,0x4b,0xbe,0xa0,0xfb,0xee,0xbd,0xd7,0x1c,0x86,0xbe,0x58,0x50,0xbe,0x3c,0x66,0xe0,0x8f,0x3d,0xb8,0xcb,0x12,0x3e,0x3b,0x39,0x7a,0xbe,0xec,0xe3,0x57,0x3d,0x48,0x13,0xa1,0xbd,0x88,0x40,0x66,0x3e,0xca,0xf6,0x81,0xbd,0x84,0x53,0xb9,0xbc,0xbd,0x72,0x97,0xbe,0x33,0xf9,0x4c,0xbc,0xc3,0x82,0x12,0xbd,0x94,0x59,0xcb,0x3d,0xee,0x45,0x68,0xbd,0x97,0xd6,0x3f,0x3d,0x4a,0xe7,0x3f,0x3c,0x72,0x63,0xe6,0x3e,0x94,0x9a,0x16,0x3e,0x50,0x6b,0xa5,0xbd,0x94,0x5a,0x9b,0x3c,0x41,0xa1,0xaa,0x3d,0xf8,0xef,0xe1,0x3d,0x2b,0x46,0xcd,0x3e,0x43,0x89,0x14,0x3e,0xd7,0x41,0xa5,0xbc,0x27,0x00,0xd7,0x3e,0x50,0xe1,0x01,0x3f,0xd6,0x1e,0xf7,0xbe,0x8c,0xe4,0x77,0xbe,0xac,0xd5,0xc4,0xbe,0x83,0xfa,0x29,0x3e,0xd6,0xad,0x8a,0x3e,0x11,0xab,0x3d,0x3e,0x5a,0x59,0x6e,0x3e,0x56,0x69,0x5d,0xbc,0xbd,0x36,0x22,0x3e,0xb9,0x82,0xb4,0x3d,0xf9,0xcf,0x91,0x3d,0x4e,0x50,0xd5,0xbc,0x42,0x66,0xf5,0x3d,0xab,0x1c,0x97,0xbe,0x5d,0x4e,0x23,0x3e,0x7c,0xcd,0x00,0xbe,0xad,0x5e,0x19,0xbe,0x60,0x03,0x07,0x3f,0x0a,0x93,0x95,0x3d,0x16,0x9a,0x49,0x3d,0x72,0x12,0x75,0x3e,0xa8,0x88,0x6d,0x3e,0x50,0xc4,0xc1,0x3e,0x49,0x80,0x7e,0xbd,0x82,0xff,0x1a,0x3f,0xd5,0xef,0x9f,0x3e,0x30,0x5e,0x16,0x3e,0x72,0xa2,0xd9,0x3d,0x78,0xe5,0x7f,0xbe,0x40,0x7e,0xfb,0x3d,0x3b,0x54,0xc9,0x3b,0x54,0xf9,0xb1,0xbd,0x80,0x0b,0x82,0xbe,0x67,0xcb,0x56,0xbd,0x00,0x28,0x84,0xb9,0xae,0x5e,0x5c,0x3e,0x50,0x78,0x5b,0x3d,0x62,0xc7,0x18,0xbc,0xc0,0x08,0xd9,0xbd,0xd4,0x28,0x2d,0xbe,0x80,0xbd,0xfb,0x3b,0xb8,0x64,0x43,0xbe,0xf8,0xe1,0x16,0x3e,0xb8,0xa9,0x2f,0x3e,0x18,0x2a,0x2a,0x3e,0x2e,0x4f,0x69,0xbe,0xe0,0x6e,0x51,0xbd,0xd0,0xde,0x44,0xbd,0x1c,0xd8,0x62,0xbe,0x51,0xbd,0x27,0xbe,0xf7,0x95,0xb8,0xbd,0x6a,0x1d,0xf3,0x3d,0xbc,0x94,0x2a,0x3e,0xce,0x1c,0x12,0xbc,0x7e,0x52,0x63,0xbe,0xb1,0xbf,0x8b,0xbe,0x3a,0x22,0x4b,0xbd,0x70,0x19,0x29,0x3d,0x1b,0x72,0x08,0xbe,0x20,0xc6,0x09,0xbe,0xac,0x11,0x1f,0xbe,0xf8,0x49,0x3d,0xbe,0x32,0xfd,0xff,0xbc,0xa4,0xb3,0x03,0x3e,0xd7,0x97,0x9c,0xbd,0x4f,0x42,0x99,0x3d,0xc0,0x82,0x2c,0x3e,0x92,0x36,0xc4,0xbd,0xb3,0x87,0x1b,0x3e,0x7f,0xeb,0x4a,0xbe,0xa0,0xd7,0x90,0xbd,0x50,0x91,0x25,0xbd,0xb0,0xa1,0x07,0xbe,0x00,0x57,0x18,0xbd,0x44,0x26,0x36,0xbe,0xbe,0x6a,0x72,0x3d,0x78,0x99,0x90,0xbd,0xf7,0x1a,0x47,0xbe,0xc0,0x24,0xc9,0xbc,0x98,0xe5,0x10,0xbe,0x20,0xfe,0x3b,0x3e,0x59,0xea,0x44,0xbe,0xca,0x15,0x18,0x3e,0x25,0xdc,0xba,0x3d,0xf0,0x43,0xc9,0x3d,0xb4,0x7c,0xf3,0x3c,0x84,0xa3,0x70,0xbe,0x4c,0x28,0x82,0xbe,0x72,0xa4,0x71,0xbe,0x80,0x76,0x50,0x3d,0x52,0xfa,0x87,0xbe,0x41,0x73,0x5d,0x3a,0xd7,0x19,0x3e,0x3f,0xfc,0x91,0xc5,0x3d,0xde,0x75,0x8c,0x3e,0xb3,0xcc,0x03,0xbf,0x75,0x9a,0x05,0x3e,0xb0,0x6e,0xe0,0xbe,0xfc,0x73,0x99,0x3e,0xec,0x56,0x3e,0xbe,0x0f,0x1e,0xab,0x3e,0xfb,0x6b,0x02,0x3f,0x42,0x38,0x8e,0x3e,0x1f,0x26,0xc4,0x3e,0x4e,0x69,0xa5,0x3e,0x5b,0xfc,0xd0,0x3e,0x71,0x80,0x44,0x3e,0x1f,0x4a,0xfa,0x3d,0xe6,0xc1,0xbb,0x3e,0x47,0x4f,0xa1,0xbe,0x20,0x81,0xaa,0xbd,0xf6,0xe2,0x6d,0x3e,0x8d,0xc8,0x2a,0x3e,0xc8,0x21,0x8d,0xbe,0x79,0x72,0xae,0x3e,0x45,0xc5,0x9d,0xbe,0x00,0xc7,0xaa,0xb4,0x63,0x12,0xbf,0xbe,0x75,0xda,0xa9,0xbe,0xcb,0x15,0x98,0x3e,0x36,0x7b,0xac,0x3d,0x8e,0xe7,0xfc,0x3c,0xa4,0xf3,0xb5,0x3e,0x68,0xb5,0x18,0xbf,0x83,0x47,0xf3,0x3e,0x16,0xbc,0xad,0x3c,0x84,0xc6,0x52,0xbe,0x84,0x63,0x48,0xbf,0x5a,0x79,0x2d,0x3f,0x97,0x78,0x90,0x3e,0x9b,0x53,0xb1,0x3e,0xca,0xe2,0xb7,0x3c,0xe5,0x68,0x90,0x3e,0xdd,0x48,0x41,0x3e,0xb3,0xb2,0xed,0x3c,0x6d,0x13,0x0e,0xbe,0x6e,0xf4,0x33,0x3e,0xe3,0x4e,0x9d,0x3d,0x9b,0x25,0x08,0x3e,0x1a,0x3e,0x87,0x3e,0xeb,0x3f,0x30,0x3e,0x15,0xc4,0x8b,0x3e,0x51,0xa1,0xd6,0xbd,0xcf,0x07,0x4e,0xbe,0xb1,0xf6,0x98,0x3d,0xff,0x1f,0x73,0xbf,0x9c,0x38,0x4c,0x3e,0x6a,0x29,0x52,0x3d,0x53,0xe9,0x8d,0x3d,0x63,0x23,0x08,0xbf,0x52,0xa4,0x83,0xbf,0xd7,0x14,0x4f,0x3e,0xd7,0x04,0x63,0xbf,0x00,0xf0,0x81,0x3d,0x21,0xe8,0x56,0xbe,0x0e,0x98,0x00,0x3f,0x10,0x8a,0x44,0xbf,0x7e,0x6b,0xa1,0xbe,0x9a,0xd1,0xc5,0x3e,0x76,0x83,0x3a,0x3f,0x3d,0xab,0x0e,0xbf,0xec,0x99,0x68,0x3e,0x27,0x6a,0x99,0xbe,0xfd,0x6e,0x7f,0x3e,0x28,0x93,0x3d,0xbe,0x08,0xfd,0x91,0xbf,0x6d,0x62,0x79,0x3d,0x42,0xd0,0x0b,0x3e,0xd5,0xe4,0x84,0xbc,0x99,0x7d,0xcf,0x3c,0xda,0xee,0x67,0x3d,0x29,0x03,0x3d,0xbe,0x5b,0x82,0xaa,0xbd,0x48,0x53,0x98,0x3e,0xbf,0x59,0x40,0x3e,0x09,0x73,0x7c,0xbe,0xed,0xcd,0xf9,0xbe,0x43,0xad,0x2c,0x3f,0xf6,0x9a,0xb8,0xbf,0x19,0x46,0x7a,0x3e,0x50,0xf5,0x0e,0x3d,0xb4,0x30,0xe0,0x3e,0x95,0xc3,0xee,0x3e,0xbb,0x95,0x1e,0xbf,0x77,0x45,0xcb,0x3e,0x7f,0x98,0xf8,0x3d,0x11,0x6e,0x9c,0x3d,0xe6,0xdf,0x05,0xbe,0xd3,0x00,0x21,0xbe,0x96,0xd6,0x6a,0x3e,0xdb,0x67,0xa3,0x3d,0xc0,0xfb,0xf6,0xbe,0x9b,0x0e,0xf4,0xbd,0xed,0x64,0x94,0xbe,0x56,0x57,0xd0,0x3d,0x4d,0x8a,0xda,0x3d,0xf1,0xf1,0x93,0x3e,0xff,0x86,0x2f,0x3c,0xa1,0x24,0x54,0x3e,0x89,0xda,0xc3,0x3d,0x7b,0x57,0xd3,0x3c,0xa2,0x78,0x96,0xbb,0x09,0x00,0x18,0xbe,0x7c,0x45,0x8a,0x3c,0x06,0xb7,0xcd,0xbd,0xa7,0x13,0x31,0xbe,0x7c,0xf5,0xf2,0x3d,0xac,0x42,0x25,0xbe,0x86,0xba,0x52,0xbe,0xdd,0xc4,0x57,0xbf,0xbb,0x3b,0x98,0x3e,0xf3,0xe7,0x5f,0x3e,0x5b,0x7e,0x98,0xbc,0x61,0xed,0xdb,0xbe,0x6c,0x69,0xe0,0xbe,0x72,0x03,0xb7,0xbc,0x72,0x73,0x10,0xbf,0x43,0x2b,0xb2,0xbd,0x54,0x11,0x03,0x3e,0x29,0x19,0x1f,0xbe,0x75,0x7e,0xdd,0x3d,0x56,0x8a,0xe7,0xbd,0xde,0xf7,0x8b,0x3e,0x5c,0x58,0x66,0xbe,0xcb,0x8d,0x87,0x3d,0x0c,0xed,0x68,0xbc,0xb1,0xdc,0x50,0x3e,0xb8,0x37,0x3a,0x3c,0x74,0x7d,0x87,0x3e,0x1b,0x49,0x9a,0x3e,0x77,0x67,0xa4,0x3e,0xe5,0x04,0x89,0x3e,0xb6,0x8c,0x8a,0x3e,0x9f,0x14,0x1a,0x3d,0x26,0xdd,0xcd,0x3c,0x53,0x03,0xf3,0xbc,0xc2,0x05,0xd7,0x3c,0x62,0xf8,0x46,0x3e,0xa6,0xcb,0xc7,0x3e,0x80,0x5a,0x96,0xbd,0x54,0x1f,0xcf,0x3e,0x0c,0x3f,0xda,0x3d,0xac,0x5a,0x34,0x3e,0xc1,0xaa,0x2c,0x3e,0x96,0x98,0x1a,0xbd,0xea,0xaf,0x74,0xbe,0x45,0x47,0x08,0xbe,0x66,0xfe,0x3b,0xbe,0x53,0x3b,0xcb,0xbe,0x48,0x1d,0xcc,0x3d,0xf9,0xaa,0xdc,0x3d,0x68,0x46,0x05,0xbf,0xd4,0xce,0xb5,0xbe,0x82,0x75,0x13,0xbd,0xaf,0x0f,0x0a,0xbf,0x55,0x45,0xed,0xbd,0x69,0x7d,0xb4,0x3e,0x75,0x9f,0xab,0x3e,0xe3,0x4f,0x0a,0x3f,0xe2,0xc1,0x82,0xbd,0xc6,0xeb,0xae,0xbe,0x2b,0xef,0x93,0xbd,0x9e,0x48,0xb4,0x3c,0xe7,0x12,0xe6,0xbd,0xdb,0xf7,0x43,0xbe,0x3d,0x42,0x11,0x3d,0xba,0xa0,0xe4,0xbd,0x63,0xa9,0x08,0x3e,0x2e,0x81,0x7d,0x3e,0x60,0xd0,0x08,0x3f,0xcd,0x15,0x5b,0xbc,0xaf,0x07,0x8b,0xbd,0x89,0xaf,0x8c,0x3e,0x0e,0xa4,0x01,0xbe,0x11,0xb9,0x5b,0xbd,0x7c,0xd2,0x01,0xbe,0x61,0x75,0xe5,0xbe,0xcb,0x22,0x8d,0xbd,0xa5,0x8b,0xc2,0xbe,0x65,0x89,0x51,0xbe,0x23,0x07,0x86,0xbe,0x22,0xc9,0x92,0x3d,0x83,0xbd,0x79,0xbe,0x6e,0xe7,0x4d,0xbe,0x51,0x82,0x9c,0x3e,0x15,0xeb,0xdd,0xbc,0x29,0x08,0x8f,0x3e,0xda,0x80,0x47,0xbe,0x42,0xad,0xc9,0xbe,0x54,0x90,0x43,0x3e,0x36,0x39,0x43,0xbe,0x22,0xba,0xc6,0xbd,0x6e,0x6d,0x38,0x3d,0xfa,0x30,0x9e,0x3c,0x78,0x36,0x0e,0xbe,0x76,0x86,0xaf,0xbd,0x92,0x36,0xfd,0xbb,0x50,0x29,0x3e,0x3e,0x45,0x53,0x33,0xbe,0x7c,0x71,0x5b,0x3b,0xde,0x57,0x89,0xbd,0x34,0xf0,0xd2,0x3d,0x21,0xaf,0x5e,0x3d,0x98,0x8e,0xa2,0x3e,0x5a,0x37,0xc4,0x3c,0x70,0x41,0xf3,0xbd,0x20,0x64,0x7d,0xbe,0xae,0x8c,0xf1,0x3d,0x9f,0x89,0x6c,0x3d,0x4b,0xf3,0x6d,0x3e,0xcb,0xbc,0x55,0x3d,0x23,0x9e,0x4b,0x3e,0x4a,0xd5,0xc8,0xbd,0xb8,0x3a,0xa1,0x3d,0x37,0x50,0xaa,0x3e,0x91,0x8f,0xdd,0xbe,0xb5,0xe1,0x74,0x3c,0xfe,0xce,0x59,0x3e,0xe7,0x4a,0xbd,0xbe,0xc5,0x44,0x7f,0xbe,0x17,0x76,0x27,0x3f,0xdf,0xe1,0xae,0x3c,0x0d,0xdb,0x9d,0x3e,0x20,0x35,0xa8,0x3e,0xf2,0x04,0x6e,0xbe,0x0f,0x38,0xe5,0xbd,0x66,0x8e,0x8a,0x3e,0x92,0xb6,0x1f,0x3e,0x37,0x98,0xbc,0xbd,0x78,0xb9,0x8b,0x3e,0xaa,0x13,0x36,0x3e,0x04,0x6e,0xf8,0xbc,0xba,0xd2,0x9f,0xba,0x58,0x57,0x23,0x3f,0x90,0xca,0x77,0x3d,0xcc,0x2a,0x4c,0x3e,0xc5,0x55,0x63,0xbd,0xe7,0x0b,0x3d,0xbe,0xda,0xad,0x70,0xbc,0xaa,0x05,0xdb,0x3e,0x64,0x4e,0xbd,0x3d,0x30,0xab,0x02,0xbf,0x09,0x20,0xa9,0xbe,0x18,0xca,0x7d,0x3e,0xfa,0x47,0xf4,0xbe,0xa4,0xc2,0x8e,0xbe,0xa5,0xef,0x97,0xbe,0x6a,0xd1,0x0c,0xbf,0x15,0x12,0xb2,0x3e,0x60,0x6f,0x9e,0x3d,0xb3,0x33,0xcd,0xbd,0x2a,0x11,0x06,0xbf,0xdd,0x3f,0x32,0xbd,0x00,0xda,0xf7,0xbe,0x4e,0x3f,0xfd,0x3d,0x85,0x3e,0x51,0xbe,0x3f,0xe6,0xa4,0x3e,0x99,0x7c,0x5d,0x3f,0x79,0x5d,0x30,0x3e,0x87,0xa1,0xb1,0x3d,0x6e,0xb3,0xdb,0xbd,0x68,0x35,0xb8,0x3e,0x48,0x14,0xb7,0x3e,0xd8,0xd2,0x4e,0xbe,0xa1,0xcd,0xc2,0x3e,0x48,0xdb,0x33,0xbe,0x6a,0xa4,0x20,0x3e,0x3f,0x21,0x6a,0x3d,0x4d,0xa0,0xf7,0x3e,0x18,0x6d,0x67,0xbe,0xb6,0x1a,0x37,0x3f,0x8d,0x17,0x4e,0x3e,0xdb,0x3b,0x81,0x3e,0x6e,0xb6,0x02,0xbf,0xc4,0x8b,0x14,0xbe,0x28,0xbf,0x39,0x3f,0x07,0x0e,0x9f,0xbe,0xa7,0xa3,0x29,0xbd,0x54,0xbb,0x53,0x3e,0xf9,0x11,0x27,0xbf,0x85,0x1c,0xa2,0x3e,0xa9,0x77,0xbe,0xbc,0xe8,0x7e,0x8a,0xbe,0x12,0x18,0x65,0xbf,0xdf,0x91,0x9a,0x3f,0xec,0xe1,0xc0,0x3e,0x4d,0x36,0x43,0x3f,0x8c,0x31,0x84,0x3e,0x73,0x7d,0x14,0x3a,0x4e,0x73,0x71,0x3d,0xa8,0x5b,0x80,0xbe,0xd3,0xa2,0x33,0xbd,0x1b,0x3f,0x0b,0x3e,0x7f,0xa3,0x94,0xbb,0x69,0xe9,0x9d,0x3e,0x09,0xe9,0x49,0x3e,0x5f,0x61,0x2c,0x3e,0x2a,0x97,0xdd,0x3e,0x48,0xcd,0x81,0xbe,0x22,0xdb,0x9e,0x3d,0xf7,0xa9,0x0b,0xbe,0xf5,0x25,0x2a,0xbf,0x18,0xde,0xef,0x3e,0x2c,0x44,0xbf,0x3e,0x62,0xb4,0x8e,0xbe,0x21,0x6b,0x39,0xbf,0x36,0xfa,0x89,0xbf,0xb6,0x09,0xbb,0x3e,0x2e,0x51,0x68,0xbf,0xbc,0xaa,0xa8,0xbd,0x0e,0x3b,0x64,0x3e,0x36,0x9c,0x13,0x3f,0x59,0xe7,0x73,0xbe,0x38,0xc5,0xb8,0xbd,0x9a,0xeb,0xe2,0xbd,0xa4,0xad,0x2b,0x3e,0xe7,0x10,0xdb,0x3d,0x89,0xb2,0x22,0x3e,0x73,0x99,0xe0,0x3d,0xd9,0x47,0x3a,0x3d,0x4c,0x08,0x6e,0xbe,0x77,0xe9,0x0f,0x3e,0x78,0xaa,0x36,0x3e,0x6c,0xe1,0x83,0xbe,0x0c,0x1a,0x4f,0x3e,0x6b,0xec,0x9d,0xbe,0xc1,0x76,0x23,0xbf,0x08,0x28,0x27,0x3d,0x51,0x8b,0x35,0xbe,0x72,0x30,0xbe,0x3d,0x87,0x64,0xc3,0xbe,0x3b,0x88,0xa5,0xbe,0xda,0x54,0x96,0x3d,0xff,0x51,0x87,0x3e,0x02,0xca,0x19,0x3b,0x2f,0xf7,0xf4,0x3d,0x82,0xb9,0x4c,0xbd,0x9c,0xd6,0xc7,0x3e,0x1a,0x1e,0xfc,0x3e,0x7c,0x04,0x8f,0xbe,0xf2,0x80,0xe4,0x3e,0x33,0xac,0x69,0x3e,0x61,0x28,0xf4,0xbc,0x1e,0x42,0x1d,0x3d,0xca,0xa6,0x8d,0x3e,0xa9,0x78,0x84,0x3e,0x9d,0xac,0x89,0x3e,0xff,0x80,0xfc,0xbd,0x88,0xd9,0x55,0xbf,0xe5,0xc6,0x18,0x3e,0x24,0xf5,0x48,0xbf,0xbc,0x40,0x5b,0x3e,0x32,0x14,0x9e,0x3e,0xf1,0x93,0x72,0x3d,0x7f,0xe3,0x51,0x3b,0x6f,0xa1,0x25,0x3e,0x6f,0x9d,0xea,0x3c,0xed,0xc0,0x56,0xbe,0x06,0x0d,0x17,0xbe,0x29,0x42,0x88,0x3e,0x86,0x36,0x50,0x3d,0x46,0x9c,0xf4,0xbd,0x11,0x67,0x4a,0x3e,0xea,0x0c,0x87,0xbe,0xf8,0xb8,0x38,0x3e,0x5a,0x77,0x9a,0xbe,0xee,0x4b,0xef,0x3e,0x31,0x69,0x4d,0xbe,0x99,0x97,0x9d,0x3e,0x05,0xf5,0xd3,0x3d,0xa5,0xe9,0x2a,0x3e,0x82,0x37,0x22,0xbd,0x0e,0x1e,0x61,0xbe,0x46,0x91,0x50,0x3e,0xb0,0xe8,0x96,0x3e,0x4d,0x88,0x20,0xbf,0xed,0xf3,0xa4,0xbd,0x8c,0x3c,0x86,0x3e,0x4c,0x3e,0x04,0xbe,0xe6,0xf5,0xd5,0xbd,0xf3,0x5c,0x26,0x3e,0x27,0xa6,0x1e,0x3f,0xef,0x2d,0x94,0x3d,0x2f,0xf9,0xe7,0x3e,0x4d,0x05,0x35,0x3e,0x4f,0xc8,0x8e,0x3e,0xe6,0xf0,0x86,0x3e,0x66,0x6b,0x96,0x3e,0x6b,0xc5,0x84,0xbd,0x46,0xa5,0x93,0x3d,0xaa,0xad,0x18,0x3e,0x75,0x43,0x7c,0x3d,0x78,0x27,0x2c,0x3e,0x86,0xcf,0x3d,0x3f,0x19,0x60,0xc1,0xbd,0x37,0x76,0xe7,0xbd,0x63,0xf8,0xaa,0x3d,0x72,0x0b,0x26,0xbd,0xb0,0xc8,0x9e,0xbe,0x72,0x51,0x90,0x3e,0x47,0xfa,0xa9,0xbe,0x8c,0x99,0x1a,0xbf,0x98,0xca,0xa3,0xbe,0xc7,0xeb,0xff,0xbe,0x85,0xbe,0x6a,0xbe,0xff,0x5f,0xb8,0xba,0x2f,0x44,0x49,0xbe,0x55,0xa3,0xd0,0x3e,0xc2,0x5e,0xca,0xbe,0x47,0x6f,0x14,0x3e,0xfe,0x85,0xcb,0xbc,0x1d,0xcf,0x26,0x3f,0x09,0x46,0x62,0xbe,0x21,0xf3,0xc7,0x3e,0x70,0x19,0x10,0x3e,0x36,0xf1,0x14,0x3e,0x64,0xd5,0xdd,0xbe,0x94,0xab,0x4e,0xbf,0xbe,0xec,0xe1,0x3d,0x92,0xac,0x65,0xbb,0x72,0x87,0x55,0x3e,0xfe,0xac,0xff,0xbd,0x17,0xa4,0xec,0x3c,0x75,0xb8,0xb2,0xbe,0x78,0x29,0x88,0x3e,0xad,0x11,0x2d,0x3f,0x93,0x46,0x29,0xbd,0xd2,0x27,0x65,0x3e,0xa0,0x29,0x89,0x3e,0x0d,0x99,0x2b,0x3f,0xb2,0x39,0xad,0xbf,0x79,0x47,0x4e,0x3e,0xb9,0xc5,0x5c,0x3e,0x93,0x20,0x61,0x3e,0x12,0x4a,0x33,0x3f,0x5c,0xf1,0x64,0xbf,0xcc,0x67,0x20,0x3f,0xa6,0xd3,0x25,0x3d,0x68,0xd7,0x1c,0x3e,0x2f,0xfc,0x46,0x3d,0xd7,0x3f,0x20,0x3e,0x5f,0xd3,0x4e,0xbe,0xa2,0x80,0xd9,0x3e,0x06,0x5b,0xaf,0xbe,0x9c,0x9e,0x13,0xbf,0x82,0xb8,0xd2,0xbe,0x72,0x4d,0xb9,0xbe,0xc1,0x38,0xb7,0xbe,0x42,0xba,0x62,0x3e,0x99,0x6e,0xb0,0x3e,0xe5,0xae,0x74,0x3e,0xbb,0xec,0xb6,0xbd,0x5c,0x46,0x5a,0x3e,0xa5,0x93,0x60,0xbe,0xb1,0x54,0xb1,0xbd,0x36,0x1a,0xa9,0xbd,0x38,0xbe,0x31,0xbe,0x68,0x93,0x36,0xbf,0xaf,0x4f,0x3d,0x3e,0xcf,0x8b,0x9f,0xbd,0x4f,0x23,0x1e,0x3e,0xd0,0x22,0x97,0x3d,0xbe,0xaf,0xf1,0x3e,0xe0,0x7c,0xd1,0xbe,0xed,0x06,0x95,0x3e,0x14,0xd9,0xa1,0xbc,0xec,0xfb,0x1f,0xbe,0x48,0x0e,0x86,0x3d,0x50,0x7f,0x9f,0x3b,0x45,0x2d,0x1c,0x3e,0x23,0xb4,0x39,0x3e,0x28,0xe5,0x55,0xbf,0x03,0xe7,0xc7,0x3e,0x75,0x09,0xa1,0xbd,0x3a,0xdb,0x37,0xbe,0xa3,0x77,0xb2,0xbf,0xce,0xf0,0x21,0x3f,0x8f,0x91,0xbb,0x3d,0x78,0x39,0x28,0x3f,0x58,0x4a,0xcc,0xbd,0xe9,0x49,0x06,0x3f,0xc2,0xe3,0x26,0x3f,0x43,0x08,0x20,0xbe,0xb9,0xaa,0xa1,0x3e,0xe6,0x73,0x0b,0xbd,0xcd,0xd6,0x1b,0xbe,0x89,0xff,0x84,0x3e,0xf2,0x80,0xa7,0x3d,0x16,0xd2,0x8c,0x3e,0x92,0x4e,0x79,0x3d,0x54,0xa5,0x89,0x3d,0x5d,0x89,0x54,0xbe,0xa8,0x55,0x1c,0x3d,0x63,0xd0,0xa8,0xbf,0x90,0xc7,0x2a,0x3f,0x86,0x4d,0xc0,0x3d,0xbc,0xf0,0xcc,0xbd,0xd5,0x19,0x1d,0xbe,0xbb,0xd4,0x80,0xbf,0x23,0x6a,0x2f,0x3f,0x63,0x98,0x7d,0xbf,0x17,0x2c,0x60,0x3d,0x2e,0xb5,0x83,0x3d,0x73,0x92,0x03,0xbe,0xce,0xb5,0x99,0x3e,0x9a,0xbc,0x47,0xbe,0x22,0xa0,0x81,0xbc,0xcc,0x3a,0x74,0xbe,0x17,0x0f,0x16,0x3e,0xdd,0x1a,0x61,0x3e,0xb9,0xfb,0x2a,0x3e,0xcf,0xe1,0xcd,0xbd,0xa1,0xbb,0x84,0x3e,0xd3,0xb3,0x6d,0x3d,0xb2,0xf0,0x6b,0x3e,0x6e,0xdb,0x06,0xbd,0xa0,0x5a,0xdb,0x3b,0x4a,0x84,0x60,0x3e,0xfc,0x37,0x8b,0x3e,0x9d,0x28,0x0a,0xbe,0x45,0x22,0x70,0xbe,0x3c,0x93,0xcd,0x3d,0x22,0x05,0x67,0x3e,0x73,0x83,0xcd,0xbd,0x49,0x7d,0x09,0xbe,0xa0,0x20,0x32,0x3c,0x62,0xb7,0x9a,0x3e,0x97,0x6d,0x78,0x3e,0x55,0x3b,0xbd,0x3e,0x26,0xa2,0xf7,0x3d,0x51,0x39,0xfc,0x3d,0xac,0x00,0xab,0x3d,0x53,0x6d,0xf3,0x3c,0xff,0xf3,0x3c,0xbd,0xc4,0xb5,0x19,0x3e,0x2a,0x51,0x09,0xbf,0x43,0xa8,0x4c,0x3e,0x1b,0x5e,0x32,0xbe,0xd5,0x1d,0xc9,0xbe,0x1d,0x72,0x39,0xbe,0x2f,0x25,0x3b,0x3f,0x13,0x5c,0x2f,0xbd,0xc8,0xa0,0x00,0x3f,0x30,0x07,0xce,0xba,0x5d,0x73,0x0f,0xbe,0x7c,0xb9,0x0e,0xbe,0x6c,0xd5,0xb4,0xbd,0x5d,0x51,0xe8,0xbd,0xe5,0xb1,0x86,0xbe,0x83,0xfb,0x6e,0x3e,0x61,0x6b,0x9c,0x3e,0xde,0x48,0x13,0x3e,0x97,0x94,0x8c,0xbd,0x5c,0x76,0x4e,0x3e,0xe2,0x63,0x17,0xbd,0x7a,0xc9,0x4e,0xbe,0x33,0x2c,0x04,0x3d,0x3b,0x1a,0x7c,0xbe,0x23,0x20,0x76,0x3e,0x56,0x27,0xec,0x3d,0xb7,0x9f,0x70,0xbe,0xc1,0xaf,0xe6,0xbe,0x39,0xba,0xd3,0xbe,0x70,0xc0,0x62,0x3d,0x1c,0x84,0xbe,0xbe,0xf0,0xa3,0xb7,0xbd,0xd5,0x19,0x0e,0xbd,0x24,0x33,0x22,0xbe,0x16,0x24,0xb3,0xbc,0xf8,0xfb,0x15,0x3e,0xd0,0xa3,0x10,0x3d,0x80,0x19,0x1b,0xbd,0xdb,0x1e,0x49,0x3c,0x45,0xd6,0xae,0xbd,0x57,0xed,0x52,0xbe,0xf5,0xc6,0x08,0x3e,0xd3,0x89,0x43,0x3e,0xf9,0x26,0x5c,0xbe,0xe4,0x5a,0x0b,0xbe,0x88,0x3f,0x4e,0xbe,0xb4,0xe9,0x00,0xbe,0x88,0x45,0xfc,0xbd,0x20,0x74,0xfe,0x3d,0xa0,0x55,0xe8,0x3c,0x70,0xf5,0x7b,0x3e,0x75,0x3b,0xf5,0xbd,0x40,0xf0,0xf5,0x3d,0x00,0x90,0x6a,0xbc,0x8e,0x2e,0x79,0x3e,0xe0,0xe0,0x54,0xbd,0x62,0x9e,0xd1,0xbd,0x20,0x29,0x63,0xbe,0x04,0x75,0x66,0xbe,0x9c,0xc2,0x13,0xbe,0xf8,0xc7,0x95,0xbd,0x2e,0xdb,0x5f,0xbe,0xc0,0x28,0xd0,0xbc,0xfc,0xa3,0x6e,0xbe,0xd6,0xf8,0xb1,0xbd,0x00,0x76,0x70,0x3d,0xfa,0xf2,0x6b,0x3e,0xf0,0x59,0x6a,0xbd,0x40,0x06,0xf8,0x3c,0x78,0xec,0x9c,0x3d,0xda,0x10,0x2f,0x3d,0xd3,0xb4,0xd6,0xbc,0x99,0x18,0xd3,0x3d,0x57,0x22,0xba,0x3c,0x50,0x61,0x5b,0xbe,0xc4,0xf2,0x34,0xbe,0xe0,0xde,0xec,0x3c,0x90,0xff,0xb7,0xbd,0x00,0xba,0xbb,0x3c,0x08,0x4d,0xd4,0xbd,0xd0,0x88,0x3f,0x3e,0x88,0x81,0x99,0xbd,0xf0,0x86,0xd2,0x3d,0x63,0x82,0x06,0x3e,0xb0,0x5d,0x57,0xbe,0x18,0xb4,0xe8,0xbd,0x1e,0x37,0xf8,0x3d,0xb0,0x2b,0xb4,0x3d,0xef,0x25,0x05,0xbd,0xed,0x08,0xf7,0xbd,0xc0,0xdc,0x82,0x3c,0xac,0x35,0x38,0xbe,0xc8,0x59,0x9a,0xbd,0x91,0xc3,0x86,0x3c,0x70,0xb2,0x76,0xbd,0xe0,0x22,0xb5,0x3d,0xcf,0x96,0x38,0xbe,0xc6,0xd6,0xec,0x3e,0x95,0x34,0xe1,0xbe,0xdd,0x9f,0x99,0xbe,0x3a,0xc4,0x6d,0x3e,0xc2,0x6a,0xbd,0x3e,0x18,0x26,0xd1,0xbc,0x16,0xbf,0x1b,0xbd,0xcc,0x34,0x50,0xbe,0xf5,0xbc,0xb3,0xbd,0x24,0x05,0x1a,0xbe,0xbc,0xd3,0xde,0xbe,0x58,0x0d,0x88,0xbc,0x3c,0x35,0x1e,0x3e,0x67,0x7c,0xc8,0x3c,0x3a,0xd7,0x3b,0x3e,0x17,0x8d,0xd6,0xbd,0x64,0x93,0x6b,0x3d,0x77,0x51,0x7f,0xbe,0xe6,0x0c,0xd0,0x3e,0xe5,0x81,0x41,0xbd,0x30,0x12,0x61,0xbd,0x3b,0x11,0xc3,0xbe,0x28,0x6d,0x01,0x3f,0x32,0x09,0x3e,0xbf,0x2a,0xd7,0x0b,0x3d,0x6c,0x4e,0xac,0xbd,0xa7,0xe0,0x24,0x3e,0x26,0x70,0x04,0x3f,0x3a,0xd2,0xa4,0xbd,0xb9,0xac,0xba,0x3e,0x9f,0x66,0xfd,0xbd,0xe3,0xae,0xeb,0xbc,0xe7,0x02,0x20,0x3d,0xb5,0x59,0x52,0x3e,0xba,0x94,0x5d,0xbe,0x8a,0x1c,0xfb,0x3c,0xc1,0x2b,0x45,0xbe,0x34,0x97,0x15,0xbf,0xf5,0x65,0x7a,0x3c,0x1f,0x3c,0xe6,0xbc,0xf5,0x78,0xf7,0x3b,0xcf,0xc3,0x04,0x3e,0x79,0x0b,0xb0,0x3e,0x6f,0x29,0xfb,0xbc,0x1c,0x8d,0x6c,0x3e,0xd6,0xb7,0xa8,0xbd,0x04,0x28,0x40,0xbe,0x74,0x2b,0xe9,0x3d,0xc6,0x8d,0xf6,0xbc,0x56,0x56,0xa1,0xbe,0x75,0xcb,0x8b,0xbe,0x5b,0xa4,0x97,0x3e,0x7f,0xfc,0xfa,0x3d,0x9a,0x81,0xaf,0xbd,0x3c,0x7d,0xf3,0xbe,0xb3,0x59,0x51,0x3d,0x28,0x35,0xb5,0x3e,0x7b,0x0b,0x9e,0x3e,0xd8,0x7c,0x39,0xbd,0x89,0x88,0x9b,0xbe,0x19,0x4b,0xc3,0x3e,0x14,0xcb,0x9f,0xbe,0x3c,0x29,0xa7,0x3e,0x5e,0x91,0x3a,0xbd,0x70,0xdd,0xc1,0xbe,0xfd,0x1f,0x43,0x3e,0xae,0xe2,0xbc,0xbd,0xbd,0x21,0xc8,0x3e,0xee,0xb7,0xcb,0xbe,0xb1,0xfc,0x4e,0x3e,0xa7,0x54,0xc4,0xbe,0x6b,0x05,0x86,0x3e,0x5f,0xc2,0x05,0x3d,0xc8,0x0f,0xa9,0x3e,0xf8,0x2b,0x15,0x3f,0xe8,0x47,0x8c,0xbd,0x7f,0xdc,0x79,0x3e,0xa2,0x73,0xc4,0xbd,0x0e,0xf9,0x01,0x3e,0x38,0x1b,0xae,0x3e,0x6f,0x4e,0x24,0xbd,0xce,0xed,0x2c,0xbe,0x4a,0x4d,0x7d,0xbe,0x37,0x97,0xa2,0x3d,0xec,0x77,0x90,0x3e,0x60,0xd0,0x56,0x3d,0xd0,0xf7,0xae,0xbd,0x66,0xf1,0x55,0x3f,0x1c,0xc5,0xf1,0x3d,0x8e,0x1c,0xce,0x3d,0x85,0x06,0xee,0xbe,0xb9,0x0a,0xc9,0xbe,0xd7,0xaf,0x77,0x3e,0x6d,0x72,0xbf,0xbd,0x0c,0xeb,0x5c,0x3e,0x54,0xca,0x7c,0x3e,0xd3,0x0b,0x83,0xbf,0x44,0x87,0x02,0xbd,0xbf,0xb8,0xf1,0xbd,0x6c,0x03,0xe6,0xbe,0x4e,0x71,0x8d,0xbf,0x99,0x6a,0x36,0x3f,0x43,0x2b,0x88,0x3e,0x65,0x32,0x3a,0x3f,0x2f,0x58,0x58,0x3e,0x9e,0x23,0x88,0x3e,0x1e,0xb1,0xcc,0x3c,0x6b,0xf6,0x5c,0xbc,0x16,0x11,0x23,0x3e,0x9a,0xdb,0x1e,0xbe,0xa3,0x17,0xfa,0x3d,0x76,0x4a,0xc8,0x3d,0x6c,0xeb,0x9a,0xbd,0xac,0xaf,0x2a,0xbd,0x17,0x34,0x02,0x3f,0x08,0xf2,0x13,0x3e,0x7b,0x21,0x53,0xbe,0x72,0x78,0x23,0xbe,0x82,0x6a,0x61,0xbf,0xd3,0xe2,0xf5,0x3e,0x35,0x2c,0x8f,0x3d,0xff,0xaf,0xd0,0xbe,0x82,0x6d,0xa7,0xbe,0xcb,0x07,0x95,0xbf,0xde,0x91,0x61,0x3e,0xc0,0xe9,0x82,0xbf,0xd2,0x6a,0x97,0xbe,0x4c,0xed,0x01,0x3d,0xcd,0x66,0x93,0x3c,0xb1,0x07,0x9d,0x3e,0xa4,0xc6,0x84,0x3e,0x92,0x44,0xa7,0xbd,0xad,0x0e,0xc5,0xbd,0xa6,0x9b,0x9a,0x3e,0x93,0xe4,0x88,0x3e,0x76,0x38,0xb4,0x3e,0x18,0xaa,0xcf,0xbd,0x6c,0x1a,0xeb,0x3d,0x51,0xff,0x70,0x3e,0xa1,0x24,0xc2,0xbd,0x70,0x1f,0x34,0x3d,0x7e,0x2a,0x48,0x3e,0x37,0xac,0x00,0xbe,0x5e,0xaf,0xb0,0x3d,0xa8,0xe5,0x6e,0x3e,0x13,0xca,0xf8,0x3e,0xe7,0xbb,0x1f,0x3e,0xed,0x36,0x73,0x3d,0x79,0x68,0x31,0x3e,0x05,0x98,0x40,0x3d,0xe2,0xa6,0x0b,0xbe,0x1e,0x8e,0x94,0x3d,0x26,0xee,0x8c,0xbd,0xb1,0xf7,0xa3,0xbd,0x33,0xa9,0xb5,0xbe,0x99,0xb5,0x7b,0xbe,0x28,0x28,0x1e,0x3d,0xc1,0xe6,0x68,0x3d,0x42,0xba,0x1d,0xbe,0xa0,0x15,0x9b,0xbd,0xfc,0x13,0xb3,0x3d,0xdf,0x18,0x54,0xbe,0x74,0x4c,0x42,0x3e,0xf6,0x38,0xe6,0x3d,0xb6,0xe8,0x2a,0xbe,0xed,0x6a,0xd2,0x3e,0x25,0xda,0x04,0xbb,0x64,0x5a,0xa2,0x3d,0xee,0x91,0x69,0xbd,0x86,0x06,0x88,0xbe,0x83,0x9b,0x52,0xbb,0xb2,0x52,0x47,0x3d,0xe9,0xb5,0x4d,0x3e,0x25,0x88,0x94,0xbd,0x7d,0x3a,0x4a,0x3e,0xb8,0x11,0x3d,0xbe,0x5e,0xc7,0x5c,0x3e,0x1f,0x81,0x70,0xbc,0xff,0x9c,0xb9,0x3e,0x97,0x1e,0x0e,0x3e,0x2f,0xfe,0x49,0xbe,0x1f,0x19,0xa0,0x3e,0x81,0x0a,0x05,0xbd,0x16,0xee,0x61,0xbd,0x89,0x6f,0xed,0x3d,0xac,0x2d,0x0a,0x3e,0x0c,0xda,0x2f,0x3e,0xbc,0x45,0xe0,0x3d,0x41,0xdd,0x4d,0xbc,0xa3,0x6d,0x02,0xbe,0x34,0x80,0x07,0xbe,0x34,0x83,0x2d,0x3e,0x60,0x1e,0x37,0x3e,0x78,0xac,0x54,0xbe,0x48,0xf0,0xab,0x3d,0xb0,0x8c,0x7f,0xbe,0xc0,0x86,0xcf,0xbc,0xe0,0x98,0x52,0xbe,0x68,0x54,0xb6,0xbd,0x60,0xce,0x2a,0xbe,0xa0,0xbc,0xb2,0xbd,0x44,0xf7,0x15,0xbe,0x90,0x54,0xab,0xbd,0x98,0x41,0x71,0x3e,0xa0,0x04,0x6b,0xbe,0x40,0xb5,0x4f,0xbc,0x28,0xb1,0x83,0x3d,0xe4,0xd5,0x39,0xbe,0xc0,0x32,0x8b,0xbd,0xec,0x01,0x7a,0xbe,0x6c,0x3f,0x46,0xbe,0xe0,0x75,0x29,0x3d,0x78,0x16,0x26,0xbe,0x40,0xde,0x00,0xbc,0x80,0x90,0x72,0xbe,0x94,0xef,0x45,0x3e,0xd8,0x7a,0x54,0xbe,0xe0,0xbe,0x86,0x3c,0xd8,0xf5,0x4e,0x3e,0x30,0xc0,0x40,0xbd,0x08,0x0b,0x60,0xbe,0x28,0x9d,0xb0,0xbd,0xa8,0x8d,0x9c,0xbd,0x08,0xd2,0x02,0xbe,0xe0,0x42,0xb9,0xbc,0xe0,0x56,0xa0,0x3d,0xd0,0x2b,0x54,0x3d,0xd8,0xeb,0x98,0x3d,0x80,0x2c,0x02,0xbd,0x00,0x2c,0x4b,0x3c,0x00,0x94,0x25,0xbb,0x00,0xa5,0xe4,0xbd,0x54,0xe4,0x74,0xbe,0x10,0x28,0x28,0xbe,0xc8,0xa8,0x05,0x3e,0x00,0x2b,0x29,0x3e,0x2c,0x41,0x64,0xbe,0x10,0xca,0x37,0x3d,0xc8,0xac,0xad,0xbd,0x08,0xe7,0xec,0x3d,0x50,0xdb,0x04,0x3e,0x10,0x8b,0x66,0xbe,0x40,0xc3,0x7a,0xbd,0x38,0x27,0x1a,0xbe,0xe8,0x98,0x71,0xbe,0xc4,0x12,0x42,0xbe,0xb8,0xcc,0x1c,0x3e,0x20,0xd2,0x13,0x3e,0xc4,0x53,0x27,0xbe,0x18,0xa9,0x4b,0xbe,0x08,0xbc,0xc3,0x3d,0x9c,0x7d,0x70,0xbe,0x60,0x8c,0x69,0xbd,0x40,0xde,0xfe,0x3c,0xa0,0x1d,0x4c,0x3d,0x1f,0x31,0x9b,0x3d,0x12,0x7a,0xec,0x3c,0xc3,0x6e,0xfd,0x3d,0x1d,0x77,0xb6,0x3d,0xca,0x0d,0xe6,0xbd,0xda,0x85,0xb0,0x3e,0x2a,0x36,0x2a,0x3d,0xdb,0x6e,0x4c,0xbd,0xc6,0x16,0xaa,0xbe,0x4f,0x6c,0x78,0xbd,0xc7,0x09,0x8b,0xbe,0x23,0x02,0x4a,0xbe,0x49,0x99,0x58,0x3d,0x08,0x74,0xc2,0x3d,0x2a,0x97,0xa1,0xbd,0x19,0xab,0xd5,0x3c,0xdd,0xb3,0x42,0xbe,0xf8,0xe8,0x10,0xbd,0x11,0x56,0xa4,0xbe,0x9d,0x22,0x85,0xbe,0x68,0xee,0x85,0xbe,0x74,0x06,0x1f,0x3e,0x96,0x7c,0x63,0xbe,0x1e,0x45,0x83,0x3e,0xae,0x80,0xee,0x3d,0x40,0x2d,0xf8,0x3d,0x6e,0xbb,0x5b,0x3d,0x62,0x24,0xdf,0x3e,0xee,0xe1,0xac,0x3e,0x3d,0xcd,0x78,0x3e,0x1c,0x4b,0xd1,0x3e,0xfe,0x5c,0xdb,0xbd,0x6d,0x17,0x17,0x3b,0x7a,0x62,0x48,0x3e,0x55,0x91,0x3d,0x3d,0x9a,0xa9,0xdf,0x3c,0x61,0xde,0x0c,0x3f,0x7f,0x2a,0x13,0x3e,0x82,0x08,0x1e,0xbf,0x73,0xb0,0x8e,0xbe,0x74,0x7a,0xeb,0xbe,0xad,0x27,0x74,0x3d,0x49,0x99,0x1b,0xbc,0xe3,0xc5,0xce,0x3e,0x24,0x09,0xa0,0x3d,0x01,0xbc,0x2a,0xbe,0xee,0x50,0x43,0xbe,0xda,0x55,0x74,0xbe,0xc0,0x99,0xc7,0x3d,0x15,0x40,0xa2,0x3d,0x97,0xef,0x03,0x3e,0xee,0x2f,0xa5,0xbe,0x30,0x56,0x1b,0x3d,0xb7,0xbc,0x5a,0x3e,0x07,0xa0,0xc5,0xb9,0x19,0xfe,0x4e,0x3e,0xbb,0xea,0xc3,0x3e,0x3c,0x72,0x94,0x3d,0xb7,0xcc,0x94,0x3e,0xac,0xdd,0x99,0x3e,0x99,0x96,0xb2,0x3e,0x07,0x42,0x50,0x3e,0x52,0x4b,0x85,0x3e,0x9c,0xce,0x8e,0x3e,0xb6,0x7f,0x99,0x3d,0x62,0x94,0x84,0x3d,0x4e,0x59,0xaf,0x3e,0xf4,0x89,0x0d,0x3e,0x76,0xb4,0x2f,0xbe,0x5d,0xbc,0x0b,0x3e,0xb7,0x35,0x56,0x3e,0xb0,0xe6,0x82,0x3e,0x4b,0x2d,0x97,0x3e,0x7a,0xd2,0x3e,0x3d,0x0e,0x65,0xd4,0x3e,0x2a,0x00,0x3c,0x3e,0x3f,0x4f,0x86,0x3e,0x4d,0x17,0xbb,0xbd,0x24,0x1a,0x30,0x3e,0x95,0xd1,0xfe,0x3d,0x89,0x50,0x72,0x3e,0x0c,0x83,0x00,0x3e,0x9b,0x63,0x0b,0x3f,0xe7,0x6a,0xb1,0x3d,0x28,0x71,0xdc,0x3c,0x42,0x38,0x48,0x3e,0x0e,0x6e,0xce,0x3e,0x66,0x46,0xf0,0xbd,0xff,0x97,0x9b,0x3e,0x76,0xe1,0x59,0xbd,0xb1,0xf6,0x83,0x3e,0x2d,0x33,0xaa,0xbe,0xf6,0x2e,0xc0,0xbd,0x81,0x21,0xb9,0x3d,0xca,0xe4,0xb8,0xbd,0x6e,0x8b,0x99,0xbc,0x2d,0x14,0x4f,0x3e,0xa7,0x55,0x2e,0x3d,0x45,0x5d,0x11,0x3d,0x26,0x6e,0x3d,0x3e,0x10,0xe3,0xd3,0x3d,0x3d,0xa9,0x43,0xbe,0xf0,0xa8,0xca,0x3e,0x3c,0xa2,0x5e,0xbd,0x0f,0xcc,0xd8,0x3d,0x3f,0x2d,0x18,0xbe,0x3d,0xab,0x5b,0xbe,0xc0,0xfe,0xa7,0x3d,0x92,0xb8,0xfc,0xbd,0x19,0x3b,0x2e,0xbe,0x53,0x37,0x60,0x3e,0x90,0xbd,0xba,0x3d,0xe6,0x7c,0xad,0xbd,0x1a,0x2c,0xa0,0x3d,0x2d,0xbd,0xaf,0x3e,0xa6,0x7b,0x6c,0x3e,0x55,0xd8,0xa0,0x3c,0xdd,0x51,0x02,0x3e,0x35,0x8e,0x9d,0x3e,0x26,0x3a,0x43,0x3e,0xe3,0x51,0xde,0xbb,0x34,0x78,0x41,0x3e,0xdf,0x01,0x96,0xbd,0x49,0xb6,0x28,0xbe,0xa6,0x60,0x93,0xbe,0x7c,0x06,0x81,0xbe,0xf4,0x65,0x9f,0xbe,0xaa,0x58,0x2c,0x3e,0x30,0x9c,0x33,0xbe,0x9e,0x99,0x12,0x3e,0x1b,0x24,0x4e,0x3d,0x34,0x2c,0x39,0xbe,0xd6,0xbb,0x4c,0xbe,0x28,0xe7,0x57,0xbe,0x9f,0x9a,0x2a,0x3d,0xc0,0x90,0x00,0x3d,0x65,0x53,0x33,0xbe,0x58,0xe5,0x91,0xbd,0x11,0xcd,0x45,0x3e,0xee,0x8c,0x61,0xbe,0xa4,0x6a,0x18,0xbe,0xf3,0x0e,0x3a,0xbe,0x00,0x34,0x35,0xbb,0xa6,0x97,0x1a,0xbe,0x1f,0x31,0x5e,0x3e,0x95,0xce,0x67,0xbd,0x18,0x65,0x66,0xbe,0xc6,0x6f,0xde,0x3d,0x93,0x66,0x3d,0x3e,0x22,0x89,0x80,0x3d,0x10,0x6c,0x6e,0xbd,0xde,0x58,0x24,0x3e,0x85,0xcf,0xa5,0xbc,0x60,0x71,0x43,0x3d,0xa3,0x39,0xae,0x3d,0xee,0x0f,0x2b,0xbd,0xb6,0xff,0x09,0xbe,0xd7,0x34,0xb8,0xbd,0x48,0x05,0x17,0xbe,0x67,0x3e,0x85,0xbe,0xe7,0xa1,0x89,0xbd,0x7e,0xcc,0x6f,0xbe,0x8d,0x5b,0xef,0x3d,0x60,0xa8,0x41,0xbe,0xff,0xc6,0x34,0x3e,0x3e,0x6c,0x31,0xbe,0x17,0xf4,0xc5,0xbd,0x90,0x60,0x9d,0x3d,0x06,0xe0,0x2b,0x3b,0xf9,0x17,0x20,0xbe,0x6b,0x6c,0x19,0x3d,0x9f,0x99,0x30,0xbe,0xb7,0xf5,0x2f,0xbe,0xab,0x54,0xed,0xbd,0x10,0xcd,0xc7,0xbd,0x3c,0x5d,0x2c,0x3e,0x29,0x60,0x04,0x3d,0x99,0x5b,0x93,0xbc,0x60,0x06,0xcb,0xbc,0xd6,0xac,0xdf,0x3d,0x69,0xd4,0x00,0xbe,0xec,0x03,0x1f,0x3e,0x20,0xf6,0x22,0x3d,0xb7,0xaf,0xfb,0x3d,0x40,0xb5,0x1c,0xbe,0x47,0x9f,0x65,0xbe,0xad,0x99,0xa4,0x3d,0xcf,0xc6,0x22,0xbd,0x04,0xa3,0x7d,0xbe,0x98,0x33,0x04,0x3e,0x1f,0x63,0x61,0x3e,0x90,0x68,0xbc,0xbd,0x7d,0x11,0x22,0x3e,0x46,0xef,0x1b,0xbc,0xca,0x0e,0x62,0x3e,0x5c,0x4f,0x16,0x3e,0xdf,0x45,0x89,0xbe,0x94,0x59,0x3f,0xbe,0x05,0x4e,0x09,0xbe,0x14,0x68,0x6b,0x3e,0xfc,0x17,0x3b,0xbb,0x66,0x97,0x31,0x3d,0x3b,0xed,0x01,0xbe,0xd7,0xc8,0x52,0x3e,0xfd,0xd0,0x85,0xbe,0x07,0x75,0x82,0xbd,0xd4,0x77,0x63,0xbd,0x91,0xc7,0x32,0xbd,0x7b,0x24,0x3e,0x3d,0x0e,0x30,0xcf,0x3e,0x92,0xe2,0xf4,0xbd,0x2e,0xd4,0x6f,0x3c,0xba,0x3c,0x1a,0x3e,0x75,0xb7,0x08,0x3e,0x8e,0x4e,0x32,0x3d,0x65,0x7d,0x70,0xbe,0xf0,0xc4,0x08,0x3e,0x63,0xb1,0x52,0xbe,0x02,0xd9,0x80,0xbe,0xca,0x4a,0x4b,0xbd,0xa6,0xad,0x24,0x3e,0x43,0x49,0x9f,0x3e,0xbf,0xe8,0x50,0xbe,0x17,0xbd,0x57,0xbe,0xfd,0x71,0x5c,0x3d,0x85,0x2d,0x9c,0x3e,0x2e,0xf0,0x9e,0x3e,0x7c,0x91,0x84,0xbd,0xe8,0x74,0x36,0x3f,0x40,0x1c,0x91,0x3e,0x47,0x2d,0x1f,0xbf,0x8f,0xab,0x88,0xbe,0x49,0xfa,0x12,0xbf,0x9e,0x83,0xe7,0x3d,0x21,0xa3,0x86,0xbd,0xb1,0x25,0xd5,0x3e,0xe3,0x11,0x8b,0x3e,0x82,0x24,0x19,0x3e,0x19,0x52,0x7e,0x3e,0xa6,0x0e,0x51,0xbe,0xb9,0x20,0x82,0xbe,0x1c,0x39,0x86,0x3e,0x67,0x29,0x2e,0x3d,0x90,0xe0,0x02,0xbf,0x0b,0x4b,0x7a,0x3e,0xd4,0x32,0x62,0xbe,0x5d,0x92,0x77,0x3e,0x36,0x87,0x8c,0x3e,0x65,0x1d,0x5d,0x3e,0x11,0x08,0xb2,0xbe,0x65,0xdd,0x20,0x3d,0xf2,0x55,0x2a,0x3f,0x3e,0xbb,0xc7,0x3e,0x0b,0xbb,0x0a,0xbe,0x7a,0x84,0x12,0x3f,0x37,0x4f,0x55,0x3e,0xe8,0x6f,0x67,0x3e,0xa4,0xd1,0xf1,0xbd,0x87,0xf1,0x20,0x3d,0x98,0x1b,0x6b,0x3e,0x61,0x33,0xdc,0xbd,0x59,0x57,0x35,0xbe,0x8a,0x5e,0x4a,0x3e,0xcb,0x1b,0x54,0x3d,0x40,0xaa,0x67,0x3e,0x5a,0x81,0x18,0x3e,0xb1,0x97,0x1c,0xbe,0x1f,0x7c,0x6e,0x3e,0xc3,0xe6,0x40,0xbe,0x34,0xff,0x6b,0x3e,0x1e,0x1e,0x90,0x3d,0xf9,0x0e,0x0c,0xbd,0x77,0x94,0x3c,0x3e,0xa9,0x3d,0xc7,0x3e,0x9d,0xd7,0x04,0x3e,0x6c,0xc3,0xab,0x3d,0x6d,0x57,0x44,0xbc,0x03,0x2a,0x91,0x3e,0xa7,0x95,0x0f,0x3e,0x70,0x2e,0xb2,0xbe,0x70,0xae,0x69,0x3e,0xf2,0x9c,0x5d,0xbe,0xf5,0xa2,0x9b,0xbd,0x1e,0x65,0x19,0xbe,0x8d,0x76,0x82,0xbe,0x4e,0xe2,0xb6,0x3d,0x03,0xf7,0xd4,0x3b,0x71,0x0c,0x9a,0x3d,0x76,0x85,0x8a,0x3e,0x02,0x4d,0x47,0x3e,0xb1,0x2f,0xec,0xbd,0xd2,0x06,0x04,0xbe,0xe7,0x69,0xaf,0x3e,0xcb,0x53,0x52,0x3e,0x2c,0x5f,0x0b,0xbf,0x71,0x9b,0xe9,0xbd,0x74,0x1a,0x91,0xbe,0x61,0x59,0x79,0x3e,0x86,0xcd,0xa8,0x3d,0xba,0x54,0xf6,0x3e,0xbc,0x41,0xab,0xbd,0x20,0x2a,0x37,0xbd,0xb0,0x70,0x1b,0xbe,0x56,0xbb,0x38,0xbe,0xca,0xf7,0xad,0xba,0x50,0xce,0x49,0x3e,0x59,0x70,0xae,0x3e,0xd4,0xb5,0x0a,0xbf,0xe6,0xe9,0x01,0xbd,0xfd,0xe7,0x17,0x3e,0xd4,0x5b,0x94,0xbd,0xb7,0xd6,0x11,0x3e,0x9f,0xaf,0x51,0x3d,0x4e,0xee,0xb1,0xbe,0xe9,0xa5,0x71,0x3d,0x44,0x23,0x6a,0x3e,0xd0,0x1c,0x22,0x3e,0xf7,0xd0,0x3d,0xbd,0x36,0xcd,0xe3,0x3e,0x5b,0x25,0x9a,0x3c,0x79,0xb2,0xd9,0x3c,0x1c,0x6e,0x44,0xbe,0xda,0xc6,0xf4,0x3d,0x90,0x47,0x06,0xbd,0x1c,0x8d,0x2f,0xbe,0xe8,0x6d,0xf3,0xbd,0x58,0xdf,0xef,0x3d,0x1f,0x2f,0x17,0xbe,0x2c,0x88,0x99,0xbd,0xba,0xde,0x4e,0xbe,0xda,0x23,0x6f,0xbe,0x43,0x49,0x6e,0xbe,0xd0,0x3d,0xaa,0xbd,0x86,0x76,0x21,0x3c,0x64,0x69,0x3e,0xbe,0xc9,0x8f,0x42,0xbe,0x00,0x2c,0x2d,0x3e,0xf4,0xe5,0x43,0xbe,0xc0,0xae,0x32,0x3d,0xa7,0xf0,0x4f,0xbe,0x80,0x3a,0x0e,0xbd,0xe8,0xbe,0x36,0x3e,0x93,0x06,0x62,0xbd,0x98,0x3c,0x4f,0x3e,0x53,0x6a,0x81,0xbe,0xcf,0x09,0xfe,0xbc,0x40,0xa0,0x2b,0x3e,0x60,0x6f,0xd6,0xbd,0x80,0xf2,0x06,0x3d,0x21,0xe1,0x83,0xbe,0x32,0x48,0x94,0xbd,0xf0,0xba,0x75,0xbe,0xcf,0xfa,0x1a,0xbe,0x08,0x86,0x2f,0x3e,0xa1,0x5f,0x32,0x3e,0x2c,0x61,0x34,0xbe,0x06,0x7b,0x71,0xbd,0x72,0xec,0x39,0xbd,0x96,0x58,0xb6,0xbd,0x4f,0x0e,0xa7,0xbd,0x18,0xf1,0x4f,0xbe,0x22,0xe1,0xae,0x3d,0xec,0xd7,0x7c,0x3d,0x6c,0xf0,0x2c,0x3e,0x34,0x34,0x24,0x3e,0xa0,0x01,0x52,0x3d,0x20,0xe5,0x05,0xbd,0xec,0x6a,0x7a,0xbe,0xf0,0xd5,0xc4,0xbd,0x67,0x09,0x42,0x3e,0x80,0xac,0xf3,0x3b,0x4f,0xcd,0x11,0x3e,0xd0,0x64,0x48,0x3d,0x80,0x2f,0x3f,0xbd,0xd6,0x0e,0x46,0xbe,0x4a,0x9d,0x60,0xbe,0x0b,0xac,0x58,0xbe,0x74,0xca,0x48,0x3e,0xe0,0x18,0x53,0x3e,0xc7,0xb7,0x4c,0xbd,0x39,0x0d,0xdc,0xbc,0x71,0x70,0x70,0xbd,0x8b,0x37,0x27,0x3e,0x40,0x6a,0x4b,0xbd,0xff,0x56,0x5c,0xbe,0xd0,0xdb,0x2d,0x3e,0xa7,0x88,0xa1,0xbd,0x92,0x07,0x8c,0xbd,0x31,0xf5,0x28,0xbd,0xe2,0x4f,0x9c,0xbd,0xe7,0xb6,0x09,0x3d,0x62,0x88,0x3e,0xbe,0x3d,0xb6,0xa2,0x3d,0x87,0x64,0xea,0xbd,0xd4,0x51,0x47,0xbd,0x03,0xfd,0x99,0x3d,0x2b,0x3d,0xf0,0xbd,0xb1,0xf1,0xdc,0xbd,0x85,0xe5,0x38,0x3e,0x9b,0x0c,0x59,0x3e,0x3c,0x8d,0x51,0xbe,0xb4,0xde,0xce,0xbd,0x40,0x75,0x75,0xbd,0xab,0xc5,0x54,0xbe,0x43,0x80,0xa5,0xbd,0x74,0xa6,0x35,0x3e,0xbe,0xdf,0x93,0x3d,0xf5,0xcb,0x11,0x3d,0xa1,0xdd,0x3c,0x3e,0x58,0xa4,0xe0,0xbd,0x81,0x22,0x35,0xbd,0x3d,0xa9,0x1b,0xbe,0x86,0x45,0x1b,0x3d,0xe1,0x1f,0x72,0xbe,0x19,0xf9,0x7b,0x3c,0xcf,0xf6,0x18,0xbe,0x6e,0x4b,0x4d,0x3e,0x71,0xbe,0xa8,0x3d,0xf2,0x2b,0xd0,0x3c,0x78,0x4e,0xb6,0x3d,0x8e,0xfa,0x8c,0xbc,0xa3,0x74,0x0b,0xbe,0xd5,0x3d,0x5c,0x3e,0x8d,0xc8,0x09,0x3e,0x34,0x9a,0x7d,0xbe,0x6b,0x32,0x93,0xbe,0x27,0xf4,0x15,0xbd,0x30,0x02,0xb9,0xbd,0x03,0xc8,0xeb,0x3d,0x5b,0x3c,0x2a,0x3e,0xae,0x33,0x27,0x3d,0x06,0xa4,0x71,0x3e,0x7d,0x50,0x8b,0xbb,0x5d,0x6d,0x2b,0x3e,0x79,0xa5,0x1b,0xbe,0x1e,0xe2,0xa0,0xbd,0x7a,0xf1,0x03,0xbe,0xce,0x5e,0x60,0xbd,0x63,0xac,0x0d,0xbe,0xa1,0xd0,0xdc,0x3d,0x72,0xce,0xda,0x3d,0xcf,0xa1,0xee,0xbd,0xb2,0xc6,0x7e,0xbe,0xdf,0x19,0x46,0xbe,0x8f,0xb7,0x8b,0xbd,0xcf,0xda,0x09,0xbe,0x94,0x4e,0x0d,0xbd,0x82,0x0b,0x9b,0xbd,0x5a,0xfd,0xff,0xff,0x04,0x00,0x00,0x00,0x00,0x01,0x00,0x00,0x75,0x99,0xcb,0x3e,0x6d,0x8c,0xbb,0xbe,0x8d,0x06,0xa5,0x3e,0xd5,0x3f,0x4a,0x3e,0xfd,0x62,0x05,0xbf,0x0e,0xa3,0x97,0xbe,0x44,0x3f,0x9e,0x3e,0x10,0x4b,0xdf,0xbd,0x7a,0x55,0xa8,0xbe,0x6b,0x08,0xda,0xbd,0x73,0xcd,0x87,0x3d,0xb8,0x73,0x55,0xbe,0x74,0x12,0x59,0x3f,0x6c,0x13,0x37,0xbe,0x13,0xdf,0xd6,0x3e,0x0c,0x56,0x19,0xbe,0x64,0x3a,0x51,0x3d,0x2e,0x80,0xd7,0xbc,0x4a,0x73,0xfd,0x3e,0x86,0xdb,0xfd,0x3e,0x66,0x4e,0x8f,0xbe,0xb4,0x17,0xf2,0x3e,0xf4,0xaf,0x2c,0x3f,0x36,0xb5,0xce,0xbe,0x09,0x72,0xb9,0x3e,0x4a,0x36,0x3e,0x3e,0xb2,0xfa,0x91,0xbe,0xab,0x3a,0x8a,0xbe,0xd2,0x09,0x77,0xbe,0xbf,0x09,0x76,0xbe,0x4d,0x5c,0x4e,0x3e,0x5d,0xeb,0x26,0xbd,0x9c,0x26,0x88,0x3e,0x29,0x19,0x1c,0x3f,0x86,0x70,0xe9,0xbe,0x52,0x84,0x9e,0x3e,0x8a,0x8f,0xf4,0xbd,0x73,0x21,0x67,0xbf,0x5e,0xb3,0x07,0x40,0x6d,0x5c,0x59,0x3f,0x26,0xea,0x30,0x3f,0x89,0x35,0xff,0xbe,0xc5,0xf8,0x87,0x3c,0xa2,0xd8,0xdc,0x3f,0xa2,0xe1,0x3f,0xbf,0xf4,0x82,0x3f,0x3f,0x91,0x26,0x05,0x3f,0xa2,0xa3,0x0f,0x40,0xb7,0x03,0x17,0xbf,0x52,0x1f,0x9a,0x3f,0xd9,0x64,0x05,0x40,0xff,0x25,0x29,0x3f,0x1e,0xe7,0xe2,0x3d,0xcf,0x1f,0x2f,0xbf,0x87,0xf2,0x25,0x40,0x53,0xa3,0x5b,0x3e,0xc3,0x1b,0x94,0x3e,0xb7,0xf8,0x3a,0xbf,0xbb,0xc0,0x7f,0x3e,0xa6,0x7c,0xd3,0x3c,0x74,0xc7,0x37,0xbf,0x9c,0xa0,0x35,0xbe,0xc9,0xfc,0xfc,0xbd,0x07,0x3b,0xa9,0xbe,0x66,0xfe,0xff,0xff,0x04,0x00,0x00,0x00,0x80,0x00,0x00,0x00,0x00,0x00,0x00,0x00,0x00,0x00,0x00,0x00,0x00,0x00,0x00,0x00,0x00,0x00,0x00,0x00,0x00,0x00,0x00,0x00,0x00,0x00,0x00,0x00,0x00,0x00,0x00,0x00,0x00,0x00,0x00,0x00,0x00,0x00,0x00,0x00,0x00,0x00,0x00,0x00,0x00,0x00,0x00,0x00,0x00,0x00,0x00,0x00,0x00,0x00,0x00,0x00,0x00,0x00,0x00,0x00,0x00,0x00,0x00,0x00,0x00,0x00,0x00,0x00,0x00,0x00,0x00,0x00,0x00,0x00,0x00,0x00,0x00,0x00,0x00,0x00,0x00,0x00,0x00,0x00,0x00,0x00,0x00,0x00,0x00,0x00,0x00,0x00,0x00,0x00,0x00,0x00,0x00,0x00,0x00,0x00,0x00,0x00,0x00,0x00,0x00,0x00,0x00,0x00,0x00,0x00,0x00,0x00,0x00,0x00,0x00,0x00,0x00,0x00,0x00,0x00,0x00,0x00,0x00,0x00,0x00,0x00,0x00,0x00,0x00,0x00,0x00,0x00,0xf2,0xfe,0xff,0xff,0x04,0x00,0x00,0x00,0x00,0x01,0x00,0x00,0xc8,0xae,0xcb,0xbe,0x92,0xf2,0x8e,0xbe,0x06,0x30,0xaf,0xbe,0x1e,0xaa,0xe9,0x3e,0x49,0x83,0x94,0x3e,0x89,0x27,0xe6,0xbe,0x11,0xd7,0x84,0x3e,0xe5,0xde,0xde,0xb9,0x3c,0xe2,0x61,0xbe,0x5c,0x96,0xea,0x3e,0x64,0x6f,0xa6,0xbe,0xa6,0xb3,0xa8,0x3e,0xbb,0x73,0xfe,0x3e,0x89,0xf2,0xa1,0xbe,0x6b,0x31,0x3e,0xbf,0x1f,0xdf,0x9b,0xbd,0x01,0xb1,0xe0,0x3e,0xc5,0x3d,0x6a,0xbe,0x30,0x5e,0x0b,0xbf,0x46,0x27,0x72,0xbe,0xc1,0x41,0x19,0x3e,0x6f,0x19,0xa7,0xbe,0x44,0xeb,0x81,0x3e,0x8a,0x06,0xd2,0xbe,0x3d,0xd4,0x44,0x3e,0x63,0x40,0x9b,0x3e,0xad,0x9f,0x0d,0x3f,0x89,0xf9,0x4d,0x3e,0x48,0xa0,0x07,0xbe,0x5d,0x50,0x9e,0x3e,0x2e,0x41,0x97,0x3e,0x81,0x6c,0x1a,0xbd,0x85,0xa7,0xb2,0x3e,0x19,0xc8,0x1f,0x3e,0x6e,0xda,0x8e,0xbe,0x47,0x55,0x68,0xbe,0xda,0xb2,0xb4,0x3d,0xff,0xcb,0xa5,0x3d,0x7a,0x92,0x25,0xbf,0xa6,0x4f,0xa1,0x3d,0x5c,0x08,0xbe,0x3e,0x25,0x90,0x93,0x3e,0xfc,0x32,0x07,0x3e,0x1a,0x31,0x71,0x3e,0x59,0x1d,0x2b,0x3e,0xc0,0xd9,0x11,0x3d,0xe2,0xde,0xe3,0xbe,0x0a,0x6b,0xe2,0x3e,0x7f,0x5a,0xac,0x3e,0x61,0x29,0xa8,0xbe,0x45,0x96,0xa1,0xbe,0xaf,0xbf,0xa8,0xbe,0xf5,0x15,0x7b,0xbe,0x0c,0x07,0xf5,0x3e,0x89,0xb0,0x88,0xbe,0x3f,0xff,0xf2,0x3e,0x5d,0x81,0x9f,0xbe,0xb1,0xa1,0xca,0x3e,0x29,0x97,0xba,0x3e,0x8a,0x73,0xf2,0xbe,0x0c,0xf2,0x9e,0xbe,0x03,0x40,0xbe,0x3e,0xd0,0x3a,0x90,0xbe,0xe4,0x44,0x21,0x3f,0x00,0x00,0x06,0x00,0x08,0x00,0x04,0x00,0x06,0x00,0x00,0x00,0x04,0x00,0x00,0x00,0x0c,0x00,0x00,0x00,0xff,0xff,0xff,0xff,0x02,0x00,0x00,0x00,0x20,0x00,0x00,0x00,0x38,0xf7,0xff,0xff,0x3c,0xf7,0xff,0xff,0x0f,0x00,0x00,0x00,0x4d,0x4c,0x49,0x52,0x20,0x43,0x6f,0x6e,0x76,0x65,0x72,0x74,0x65,0x64,0x2e,0x00,0x01,0x00,0x00,0x00,0x14,0x00,0x00,0x00,0x00,0x00,0x0e,0x00,0x18,0x00,0x14,0x00,0x10,0x00,0x0c,0x00,0x08,0x00,0x04,0x00,0x0e,0x00,0x00,0x00,0x14,0x00,0x00,0x00,0x1c,0x00,0x00,0x00,0xcc,0x01,0x00,0x00,0xd0,0x01,0x00,0x00,0xd4,0x01,0x00,0x00,0x04,0x00,0x00,0x00,0x6d,0x61,0x69,0x6e,0x00,0x00,0x00,0x00,0x07,0x00,0x00,0x00,0x84,0x01,0x00,0x00,0x24,0x01,0x00,0x00,0xec,0x00,0x00,0x00,0xa0,0x00,0x00,0x00,0x78,0x00,0x00,0x00,0x3c,0x00,0x00,0x00,0x04,0x00,0x00,0x00,0x02,0xff,0xff,0xff,0x14,0x00,0x00,0x00,0x00,0x00,0x00,0x08,0x10,0x00,0x00,0x00,0x14,0x00,0x00,0x00,0x04,0x00,0x00,0x00,0xc8,0xf7,0xff,0xff,0x01,0x00,0x00,0x00,0x11,0x00,0x00,0x00,0x03,0x00,0x00,0x00,0x10,0x00,0x00,0x00,0x04,0x00,0x00,0x00,0x08,0x00,0x00,0x00,0x36,0xff,0xff,0xff,0x14,0x00,0x00,0x00,0x00,0x00,0x00,0x08,0x14,0x00,0x00,0x00,0x18,0x00,0x00,0x00,0x04,0x00,0x00,0x00,0xa2,0xff,0xff,0xff,0x00,0x00,0x00,0x01,0x01,0x00,0x00,0x00,0x10,0x00,0x00,0x00,0x03,0x00,0x00,0x00,0x0f,0x00,0x00,0x00,0x05,0x00,0x00,0x00,0x07,0x00,0x00,0x00,0x9e,0xff,0xff,0xff,0x0c,0x00,0x00,0x00,0x10,0x00,0x00,0x00,0x02,0x00,0x00,0x00,0x01,0x00,0x00,0x00,0x0f,0x00,0x00,0x00,0x02,0x00,0x00,0x00,0x0e,0x00,0x00,0x00,0x09,0x00,0x00,0x00,0x92,0xff,0xff,0xff,0x1c,0x00,0x00,0x00,0x00,0x00,0x00,0x0b,0x1c,0x00,0x00,0x00,0x20,0x00,0x00,0x00,0x03,0x00,0x00,0x00,0x00,0x00,0x06,0x00,0x08,0x00,0x07,0x00,0x06,0x00,0x00,0x00,0x00,0x00,0x00,0x01,0x01,0x00,0x00,0x00,0x0e,0x00,0x00,0x00,0x02,0x00,0x00,0x00,0x0d,0x00,0x00,0x00,0x06,0x00,0x00,0x00,0x00,0x00,0x0a,0x00,0x10,0x00,0x0c,0x00,0x08,0x00,0x04,0x00,0x0a,0x00,0x00,0x00,0x0c,0x00,0x00,0x00,0x10,0x00,0x00,0x00,0x02,0x00,0x00,0x00,0x01,0x00,0x00,0x00,0x0d,0x00,0x00,0x00,0x02,0x00,0x00,0x00,0x0c,0x00,0x00,0x00,0x01,0x00,0x00,0x00,0x00,0x00,0x0e,0x00,0x1a,0x00,0x14,0x00,0x10,0x00,0x0c,0x00,0x0b,0x00,0x04,0x00,0x0e,0x00,0x00,0x00,0x20,0x00,0x00,0x00,0x00,0x00,0x00,0x01,0x28,0x00,0x00,0x00,0x2c,0x00,0x00,0x00,0x01,0x00,0x00,0x00,0x00,0x00,0x0a,0x00,0x10,0x00,0x0f,0x00,0x08,0x00,0x04,0x00,0x0a,0x00,0x00,0x00,0x01,0x00,0x00,0x00,0x01,0x00,0x00,0x00,0x00,0x00,0x00,0x01,0x01,0x00,0x00,0x00,0x0c,0x00,0x00,0x00,0x03,0x00,0x00,0x00,0x0b,0x00,0x00,0x00,0x02,0x00,0x00,0x00,0x03,0x00,0x00,0x00,0x00,0x00,0x0e,0x00,0x14,0x00,0x00,0x00,0x10,0x00,0x0c,0x00,0x0b,0x00,0x04,0x00,0x0e,0x00,0x00,0x00,0x10,0x00,0x00,0x00,0x00,0x00,0x00,0x34,0x0c,0x00,0x00,0x00,0x10,0x00,0x00,0x00,0x2c,0xf9,0xff,0xff,0x01,0x00,0x00,0x00,0x0b,0x00,0x00,0x00,0x02,0x00,0x00,0x00,0x00,0x00,0x00,0x00,0x0a,0x00,0x00,0x00,0x01,0x00,0x00,0x00,0x11,0x00,0x00,0x00,0x01,0x00,0x00,0x00,0x00,0x00,0x00,0x00,0x12,0x00,0x00,0x00,0x20,0x06,0x00,0x00,0xc8,0x05,0x00,0x00,0x68,0x05,0x00,0x00,0x14,0x05,0x00,0x00,0xd4,0x04,0x00,0x00,0x94,0x04,0x00,0x00,0x50,0x04,0x00,0x00,0x14,0x04,0x00,0x00,0xd8,0x03,0x00,0x00,0x98,0x03,0x00,0x00,0x38,0x03,0x00,0x00,0xb8,0x02,0x00,0x00,0x44,0x02,0x00,0x00,0xd0,0x01,0x00,0x00,0x50,0x01,0x00,0x00,0xf0,0x00,0x00,0x00,0x60,0x00,0x00,0x00,0x04,0x00,0x00,0x00,0x3e,0xfa,0xff,0xff,0x00,0x00,0x00,0x01,0x14,0x00,0x00,0x00,0x1c,0x00,0x00,0x00,0x1c,0x00,0x00,0x00,0x12,0x00,0x00,0x00,0x34,0x00,0x00,0x00,0x02,0x00,0x00,0x00,0xff,0xff,0xff,0xff,0x02,0x00,0x00,0x00,0xc8,0xf9,0xff,0xff,0x1b,0x00,0x00,0x00,0x53,0x74,0x61,0x74,0x65,0x66,0x75,0x6c,0x50,0x61,0x72,0x74,0x69,0x74,0x69,0x6f,0x6e,0x65,0x64,0x43,0x61,0x6c,0x6c,0x5f,0x31,0x3a,0x30,0x00,0x02,0x00,0x00,0x00,0x01,0x00,0x00,0x00,0x02,0x00,0x00,0x00,0x96,0xfa,0xff,0xff,0x00,0x00,0x00,0x01,0x14,0x00,0x00,0x00,0x1c,0x00,0x00,0x00,0x1c,0x00,0x00,0x00,0x11,0x00,0x00,0x00,0x68,0x00,0x00,0x00,0x02,0x00,0x00,0x00,0xff,0xff,0xff,0xff,0x20,0x00,0x00,0x00,0x20,0xfa,0xff,0xff,0x4e,0x00,0x00,0x00,0x73,0x65,0x71,0x75,0x65,0x6e,0x74,0x69,0x61,0x6c,0x5f,0x31,0x2f,0x64,0x65,0x6e,0x73,0x65,0x5f,0x31,0x2f,0x4d,0x61,0x74,0x4d,0x75,0x6c,0x3b,0x73,0x65,0x71,0x75,0x65,0x6e,0x74,0x69,0x61,0x6c,0x5f,0x31,0x2f,0x64,0x65,0x6e,0x73,0x65,0x5f,0x31,0x2f,0x52,0x65,0x6c,0x75,0x3b,0x73,0x65,0x71,0x75,0x65,0x6e,0x74,0x69,0x61,0x6c,0x5f,0x31,0x2f,0x64,0x65,0x6e,0x73,0x65,0x5f,0x31,0x2f,0x41,0x64,0x64,0x00,0x00,0x02,0x00,0x00,0x00,0x01,0x00,0x00,0x00,0x20,0x00,0x00,0x00,0x22,0xfb,0xff,0xff,0x00,0x00,0x00,0x01,0x14,0x00,0x00,0x00,0x1c,0x00,0x00,0x00,0x1c,0x00,0x00,0x00,0x10,0x00,0x00,0x00,0x38,0x00,0x00,0x00,0x02,0x00,0x00,0x00,0xff,0xff,0xff,0xff,0x40,0x00,0x00,0x00,0xac,0xfa,0xff,0xff,0x1e,0x00,0x00,0x00,0x73,0x65,0x71,0x75,0x65,0x6e,0x74,0x69,0x61,0x6c,0x5f,0x31,0x2f,0x66,0x6c,0x61,0x74,0x74,0x65,0x6e,0x5f,0x31,0x2f,0x52,0x65,0x73,0x68,0x61,0x70,0x65,0x00,0x00,0x02,0x00,0x00,0x00,0x01,0x00,0x00,0x00,0x40,0x00,0x00,0x00,0x7e,0xfb,0xff,0xff,0x00,0x00,0x00,0x01,0x14,0x00,0x00,0x00,0x20,0x00,0x00,0x00,0x20,0x00,0x00,0x00,0x0f,0x00,0x00,0x00,0x54,0x00,0x00,0x00,0x03,0x00,0x00,0x00,0xff,0xff,0xff,0xff,0x02,0x00,0x00,0x00,0x20,0x00,0x00,0x00,0x0c,0xfb,0xff,0xff,0x34,0x00,0x00,0x00,0x73,0x65,0x71,0x75,0x65,0x6e,0x74,0x69,0x61,0x6c,0x5f,0x31,0x2f,0x63,0x6f,0x6e,0x76,0x31,0x64,0x5f,0x31,0x2f,0x52,0x65,0x6c,0x75,0x3b,0x73,0x65,0x71,0x75,0x65,0x6e,0x74,0x69,0x61,0x6c,0x5f,0x31,0x2f,0x63,0x6f,0x6e,0x76,0x31,0x64,0x5f,0x31,0x2f,0x61,0x64,0x64,0x00,0x00,0x00,0x00,0x03,0x00,0x00,0x00,0x01,0x00,0x00,0x00,0x02,0x00,0x00,0x00,0x20,0x00,0x00,0x00,0xfa,0xfb,0xff,0xff,0x00,0x00,0x00,0x01,0x14,0x00,0x00,0x00,0x20,0x00,0x00,0x00,0x20,0x00,0x00,0x00,0x0e,0x00,0x00,0x00,0x48,0x00,0x00,0x00,0x03,0x00,0x00,0x00,0xff,0xff,0xff,0xff,0x02,0x00,0x00,0x00,0x20,0x00,0x00,0x00,0x88,0xfb,0xff,0xff,0x29,0x00,0x00,0x00,0x73,0x65,0x71,0x75,0x65,0x6e,0x74,0x69,0x61,0x6c,0x5f,0x31,0x2f,0x63,0x6f,0x6e,0x76,0x31,0x64,0x5f,0x31,0x2f,0x63,0x6f,0x6e,0x76,0x6f,0x6c,0x75,0x74,0x69,0x6f,0x6e,0x2f,0x53,0x71,0x75,0x65,0x65,0x7a,0x65,0x00,0x00,0x00,0x03,0x00,0x00,0x00,0x01,0x00,0x00,0x00,0x02,0x00,0x00,0x00,0x20,0x00,0x00,0x00,0x6a,0xfc,0xff,0xff,0x00,0x00,0x00,0x01,0x14,0x00,0x00,0x00,0x24,0x00,0x00,0x00,0x24,0x00,0x00,0x00,0x0d,0x00,0x00,0x00,0x44,0x00,0x00,0x00,0x04,0x00,0x00,0x00,0xff,0xff,0xff,0xff,0x01,0x00,0x00,0x00,0x02,0x00,0x00,0x00,0x20,0x00,0x00,0x00,0xfc,0xfb,0xff,0xff,0x21,0x00,0x00,0x00,0x73,0x65,0x71,0x75,0x65,0x6e,0x74,0x69,0x61,0x6c,0x5f,0x31,0x2f,0x63,0x6f,0x6e,0x76,0x31,0x64,0x5f,0x31,0x2f,0x63,0x6f,0x6e,0x76,0x6f,0x6c,0x75,0x74,0x69,0x6f,0x6e,0x00,0x00,0x00,0x04,0x00,0x00,0x00,0x01,0x00,0x00,0x00,0x01,0x00,0x00,0x00,0x02,0x00,0x00,0x00,0x20,0x00,0x00,0x00,0xda,0xfc,0xff,0xff,0x00,0x00,0x00,0x01,0x14,0x00,0x00,0x00,0x24,0x00,0x00,0x00,0x24,0x00,0x00,0x00,0x0c,0x00,0x00,0x00,0x50,0x00,0x00,0x00,0x04,0x00,0x00,0x00,0xff,0xff,0xff,0xff,0x01,0x00,0x00,0x00,0x03,0x00,0x00,0x00,0x01,0x00,0x00,0x00,0x6c,0xfc,0xff,0xff,0x2c,0x00,0x00,0x00,0x73,0x65,0x71,0x75,0x65,0x6e,0x74,0x69,0x61,0x6c,0x5f,0x31,0x2f,0x63,0x6f,0x6e,0x76,0x31,0x64,0x5f,0x31,0x2f,0x63,0x6f,0x6e,0x76,0x6f,0x6c,0x75,0x74,0x69,0x6f,0x6e,0x2f,0x45,0x78,0x70,0x61,0x6e,0x64,0x44,0x69,0x6d,0x73,0x00,0x00,0x00,0x00,0x04,0x00,0x00,0x00,0x01,0x00,0x00,0x00,0x01,0x00,0x00,0x00,0x03,0x00,0x00,0x00,0x01,0x00,0x00,0x00,0xaa,0xfd,0xff,0xff,0x00,0x00,0x00,0x01,0x14,0x00,0x00,0x00,0x14,0x00,0x00,0x00,0x0b,0x00,0x00,0x00,0x00,0x00,0x00,0x02,0x40,0x00,0x00,0x00,0xd4,0xfc,0xff,0xff,0x30,0x00,0x00,0x00,0x73,0x65,0x71,0x75,0x65,0x6e,0x74,0x69,0x61,0x6c,0x5f,0x31,0x2f,0x63,0x6f,0x6e,0x76,0x31,0x64,0x5f,0x31,0x2f,0x63,0x6f,0x6e,0x76,0x6f,0x6c,0x75,0x74,0x69,0x6f,0x6e,0x2f,0x45,0x78,0x70,0x61,0x6e,0x64,0x44,0x69,0x6d,0x73,0x2f,0x64,0x69,0x6d,0x00,0x00,0x00,0x00,0x00,0x00,0x00,0x00,0x06,0xfe,0xff,0xff,0x00,0x00,0x00,0x01,0x14,0x00,0x00,0x00,0x14,0x00,0x00,0x00,0x0a,0x00,0x00,0x00,0x00,0x00,0x00,0x02,0x1c,0x00,0x00,0x00,0x30,0xfd,0xff,0xff,0x0f,0x00,0x00,0x00,0x61,0x72,0x69,0x74,0x68,0x2e,0x63,0x6f,0x6e,0x73,0x74,0x61,0x6e,0x74,0x38,0x00,0x01,0x00,0x00,0x00,0x02,0x00,0x00,0x00,0x9e,0xfe,0xff,0xff,0x00,0x00,0x00,0x01,0x10,0x00,0x00,0x00,0x10,0x00,0x00,0x00,0x09,0x00,0x00,0x00,0x1c,0x00,0x00,0x00,0x68,0xfd,0xff,0xff,0x0f,0x00,0x00,0x00,0x61,0x72,0x69,0x74,0x68,0x2e,0x63,0x6f,0x6e,0x73,0x74,0x61,0x6e,0x74,0x37,0x00,0x01,0x00,0x00,0x00,0x02,0x00,0x00,0x00,0xd6,0xfe,0xff,0xff,0x00,0x00,0x00,0x01,0x10,0x00,0x00,0x00,0x10,0x00,0x00,0x00,0x08,0x00,0x00,0x00,0x1c,0x00,0x00,0x00,0xa0,0xfd,0xff,0xff,0x0f,0x00,0x00,0x00,0x61,0x72,0x69,0x74,0x68,0x2e,0x63,0x6f,0x6e,0x73,0x74,0x61,0x6e,0x74,0x36,0x00,0x01,0x00,0x00,0x00,0x20,0x00,0x00,0x00,0x0e,0xff,0xff,0xff,0x00,0x00,0x00,0x01,0x10,0x00,0x00,0x00,0x10,0x00,0x00,0x00,0x07,0x00,0x00,0x00,0x1c,0x00,0x00,0x00,0xd8,0xfd,0xff,0xff,0x0f,0x00,0x00,0x00,0x61,0x72,0x69,0x74,0x68,0x2e,0x63,0x6f,0x6e,0x73,0x74,0x61,0x6e,0x74,0x35,0x00,0x03,0x00,0x00,0x00,0x01,0x00,0x00,0x00,0x01,0x00,0x00,0x00,0x20,0x00,0x00,0x00,0x4e,0xff,0xff,0xff,0x00,0x00,0x00,0x01,0x10,0x00,0x00,0x00,0x10,0x00,0x00,0x00,0x06,0x00,0x00,0x00,0x1c,0x00,0x00,0x00,0x18,0xfe,0xff,0xff,0x0f,0x00,0x00,0x00,0x61,0x72,0x69,0x74,0x68,0x2e,0x63,0x6f,0x6e,0x73,0x74,0x61,0x6e,0x74,0x34,0x00,0x02,0x00,0x00,0x00,0x20,0x00,0x00,0x00,0x40,0x00,0x00,0x00,0x8a,0xff,0xff,0xff,0x00,0x00,0x00,0x01,0x10,0x00,0x00,0x00,0x10,0x00,0x00,0x00,0x05,0x00,0x00,0x00,0x1c,0x00,0x00,0x00,0x54,0xfe,0xff,0xff,0x0f,0x00,0x00,0x00,0x61,0x72,0x69,0x74,0x68,0x2e,0x63,0x6f,0x6e,0x73,0x74,0x61,0x6e,0x74,0x33,0x00,0x02,0x00,0x00,0x00,0x02,0x00,0x00,0x00,0x20,0x00,0x00,0x00,0xc6,0xff,0xff,0xff,0x00,0x00,0x00,0x01,0x10,0x00,0x00,0x00,0x10,0x00,0x00,0x00,0x04,0x00,0x00,0x00,0x1c,0x00,0x00,0x00,0x90,0xfe,0xff,0xff,0x0f,0x00,0x00,0x00,0x61,0x72,0x69,0x74,0x68,0x2e,0x63,0x6f,0x6e,0x73,0x74,0x61,0x6e,0x74,0x32,0x00,0x01,0x00,0x00,0x00,0x20,0x00,0x00,0x00,0x00,0x00,0x16,0x00,0x18,0x00,0x14,0x00,0x00,0x00,0x10,0x00,0x0c,0x00,0x08,0x00,0x00,0x00,0x00,0x00,0x00,0x00,0x07,0x00,0x16,0x00,0x00,0x00,0x00,0x00,0x00,0x01,0x10,0x00,0x00,0x00,0x10,0x00,0x00,0x00,0x03,0x00,0x00,0x00,0x1c,0x00,0x00,0x00,0xe0,0xfe,0xff,0xff,0x0f,0x00,0x00,0x00,0x61,0x72,0x69,0x74,0x68,0x2e,0x63,0x6f,0x6e,0x73,0x74,0x61,0x6e,0x74,0x31,0x00,0x04,0x00,0x00,0x00,0x20,0x00,0x00,0x00,0x01,0x00,0x00,0x00,0x02,0x00,0x00,0x00,0x01,0x00,0x00,0x00,0x00,0x00,0x16,0x00,0x1c,0x00,0x18,0x00,0x17,0x00,0x10,0x00,0x0c,0x00,0x08,0x00,0x00,0x00,0x00,0x00,0x00,0x00,0x07,0x00,0x16,0x00,0x00,0x00,0x00,0x00,0x00,0x01,0x14,0x00,0x00,0x00,0x14,0x00,0x00,0x00,0x02,0x00,0x00,0x00,0x00,0x00,0x00,0x02,0x1c,0x00,0x00,0x00,0x40,0xff,0xff,0xff,0x0e,0x00,0x00,0x00,0x61,0x72,0x69,0x74,0x68,0x2e,0x63,0x6f,0x6e,0x73,0x74,0x61,0x6e,0x74,0x00,0x00,0x01,0x00,0x00,0x00,0x03,0x00,0x00,0x00,0x00,0x00,0x16,0x00,0x1c,0x00,0x18,0x00,0x00,0x00,0x14,0x00,0x10,0x00,0x0c,0x00,0x00,0x00,0x00,0x00,0x08,0x00,0x07,0x00,0x16,0x00,0x00,0x00,0x00,0x00,0x00,0x01,0x14,0x00,0x00,0x00,0x20,0x00,0x00,0x00,0x20,0x00,0x00,0x00,0x01,0x00,0x00,0x00,0x3c,0x00,0x00,0x00,0x03,0x00,0x00,0x00,0xff,0xff,0xff,0xff,0x03,0x00,0x00,0x00,0x01,0x00,0x00,0x00,0xa4,0xff,0xff,0xff,0x1e,0x00,0x00,0x00,0x73,0x65,0x72,0x76,0x69,0x6e,0x67,0x5f,0x64,0x65,0x66,0x61,0x75,0x6c,0x74,0x5f,0x6b,0x65,0x72,0x61,0x73,0x5f,0x74,0x65,0x6e,0x73,0x6f,0x72,0x3a,0x30,0x00,0x00,0x03,0x00,0x00,0x00,0x01,0x00,0x00,0x00,0x03,0x00,0x00,0x00,0x01,0x00,0x00,0x00,0x05,0x00,0x00,0x00,0x4c,0x00,0x00,0x00,0x30,0x00,0x00,0x00,0x20,0x00,0x00,0x00,0x18,0x00,0x00,0x00,0x04,0x00,0x00,0x00,0xd4,0xff,0xff,0xff,0x09,0x00,0x00,0x00,0x00,0x00,0x00,0x09,0x04,0x00,0x04,0x00,0x04,0x00,0x00,0x00,0xe8,0xff,0xff,0xff,0x16,0x00,0x00,0x00,0x00,0x00,0x00,0x16,0xf4,0xff,0xff,0xff,0x03,0x00,0x00,0x00,0x00,0x00,0x00,0x03,0x0c,0x00,0x0c,0x00,0x0b,0x00,0x00,0x00,0x00,0x00,0x04,0x00,0x0c,0x00,0x00,0x00,0x46,0x00,0x00,0x00,0x00,0x00,0x00,0x46};
const int g_model_len = 12072;

const float scaler_i_mean[] = { 5.0, 275.61498842592596, 341.6061213991769 };
const float scaler_i_scale[] = { 2.581988897471611, 168.7548055423628, 150.69688872197918 };
const float scaler_o_mean[] = { 5.458333333333333, 32.75 };
const float scaler_o_scale[] = { 3.3878356742255895, 5.261891294962297 };
#endif  // MODEL_H
