
#ifndef MODEL_H
#define MODEL_H

// MSE(Pos, Temp): [0.02938742 0.29948837]


const unsigned char g_model[] = {0x1c,0x00,0x00,0x00,0x54,0x46,0x4c,0x33,0x14,0x00,0x20,0x00,0x1c,0x00,0x18,0x00,0x14,0x00,0x10,0x00,0x0c,0x00,0x00,0x00,0x08,0x00,0x04,0x00,0x14,0x00,0x00,0x00,0x1c,0x00,0x00,0x00,0x8c,0x00,0x00,0x00,0xe4,0x00,0x00,0x00,0x04,0x26,0x00,0x00,0x14,0x26,0x00,0x00,0x98,0x2e,0x00,0x00,0x03,0x00,0x00,0x00,0x01,0x00,0x00,0x00,0x04,0x00,0x00,0x00,0xd6,0xd8,0xff,0xff,0x0c,0x00,0x00,0x00,0x1c,0x00,0x00,0x00,0x3c,0x00,0x00,0x00,0x0f,0x00,0x00,0x00,0x73,0x65,0x72,0x76,0x69,0x6e,0x67,0x5f,0x64,0x65,0x66,0x61,0x75,0x6c,0x74,0x00,0x01,0x00,0x00,0x00,0x04,0x00,0x00,0x00,0x90,0xff,0xff,0xff,0x11,0x00,0x00,0x00,0x04,0x00,0x00,0x00,0x08,0x00,0x00,0x00,0x6f,0x75,0x74,0x70,0x75,0x74,0x5f,0x30,0x00,0x00,0x00,0x00,0x01,0x00,0x00,0x00,0x04,0x00,0x00,0x00,0x8a,0xda,0xff,0xff,0x04,0x00,0x00,0x00,0x0c,0x00,0x00,0x00,0x6b,0x65,0x72,0x61,0x73,0x5f,0x74,0x65,0x6e,0x73,0x6f,0x72,0x00,0x00,0x00,0x00,0x02,0x00,0x00,0x00,0x34,0x00,0x00,0x00,0x04,0x00,0x00,0x00,0xdc,0xff,0xff,0xff,0x14,0x00,0x00,0x00,0x04,0x00,0x00,0x00,0x13,0x00,0x00,0x00,0x43,0x4f,0x4e,0x56,0x45,0x52,0x53,0x49,0x4f,0x4e,0x5f,0x4d,0x45,0x54,0x41,0x44,0x41,0x54,0x41,0x00,0x08,0x00,0x0c,0x00,0x08,0x00,0x04,0x00,0x08,0x00,0x00,0x00,0x13,0x00,0x00,0x00,0x04,0x00,0x00,0x00,0x13,0x00,0x00,0x00,0x6d,0x69,0x6e,0x5f,0x72,0x75,0x6e,0x74,0x69,0x6d,0x65,0x5f,0x76,0x65,0x72,0x73,0x69,0x6f,0x6e,0x00,0x15,0x00,0x00,0x00,0x1c,0x25,0x00,0x00,0x14,0x25,0x00,0x00,0xf8,0x24,0x00,0x00,0xe0,0x23,0x00,0x00,0x50,0x23,0x00,0x00,0x40,0x22,0x00,0x00,0x30,0x02,0x00,0x00,0xa0,0x01,0x00,0x00,0x10,0x01,0x00,0x00,0xf8,0x00,0x00,0x00,0xe0,0x00,0x00,0x00,0xcc,0x00,0x00,0x00,0xc4,0x00,0x00,0x00,0xbc,0x00,0x00,0x00,0xb4,0x00,0x00,0x00,0xac,0x00,0x00,0x00,0xa4,0x00,0x00,0x00,0x9c,0x00,0x00,0x00,0x94,0x00,0x00,0x00,0x74,0x00,0x00,0x00,0x04,0x00,0x00,0x00,0x5a,0xdb,0xff,0xff,0x04,0x00,0x00,0x00,0x60,0x00,0x00,0x00,0x10,0x00,0x00,0x00,0x00,0x00,0x00,0x00,0x08,0x00,0x0e,0x00,0x08,0x00,0x04,0x00,0x08,0x00,0x00,0x00,0x10,0x00,0x00,0x00,0x24,0x00,0x00,0x00,0x00,0x00,0x06,0x00,0x08,0x00,0x04,0x00,0x06,0x00,0x00,0x00,0x04,0x00,0x00,0x00,0x00,0x00,0x00,0x00,0x0c,0x00,0x18,0x00,0x14,0x00,0x10,0x00,0x0c,0x00,0x04,0x00,0x0c,0x00,0x00,0x00,0x81,0xdb,0xf2,0xa3,0xbb,0xed,0x47,0x42,0x02,0x00,0x00,0x00,0x02,0x00,0x00,0x00,0x04,0x00,0x00,0x00,0x06,0x00,0x00,0x00,0x32,0x2e,0x31,0x37,0x2e,0x30,0x00,0x00,0xc6,0xdb,0xff,0xff,0x04,0x00,0x00,0x00,0x10,0x00,0x00,0x00,0x31,0x2e,0x31,0x30,0x2e,0x30,0x00,0x00,0x00,0x00,0x00,0x00,0x00,0x00,0x00,0x00,0xfc,0xd2,0xff,0xff,0x00,0xd3,0xff,0xff,0x04,0xd3,0xff,0xff,0x08,0xd3,0xff,0xff,0x0c,0xd3,0xff,0xff,0x10,0xd3,0xff,0xff,0x14,0xd3,0xff,0xff,0xfe,0xdb,0xff,0xff,0x04,0x00,0x00,0x00,0x04,0x00,0x00,0x00,0xfd,0xff,0xff,0xff,0x0e,0xdc,0xff,0xff,0x04,0x00,0x00,0x00,0x08,0x00,0x00,0x00,0xff,0xff,0xff,0xff,0x40,0x00,0x00,0x00,0x22,0xdc,0xff,0xff,0x04,0x00,0x00,0x00,0x08,0x00,0x00,0x00,0xef,0x3f,0x59,0xbe,0xbf,0xee,0xb9,0xbe,0x36,0xdc,0xff,0xff,0x04,0x00,0x00,0x00,0x80,0x00,0x00,0x00,0xab,0x6d,0xb0,0xbe,0x7d,0x99,0xbb,0xbe,0x40,0x10,0xb2,0x3e,0x76,0xe2,0x00,0x3d,0x19,0xce,0xc2,0xbe,0xec,0x99,0xa5,0x3d,0x42,0xe3,0x82,0xbe,0x57,0xbb,0xac,0x3e,0xb7,0xba,0xf7,0x3e,0xdd,0xdd,0x20,0x3e,0x62,0x5d,0xcf,0x3e,0x3e,0x67,0x51,0xbc,0x9a,0xa8,0xcb,0xbe,0x78,0xaf,0x02,0x3d,0xac,0xd9,0xa3,0xbd,0x75,0x08,0xb2,0x3e,0x31,0x4c,0x0b,0x3e,0x75,0x3a,0x22,0xbd,0x9d,0x9b,0x77,0xbf,0xa9,0xc7,0xcd,0x3e,0x86,0xdb,0xe0,0xbd,0x14,0x24,0x35,0x3e,0x21,0xff,0x8d,0x3e,0x74,0xd2,0x2c,0xbe,0x34,0x1b,0x5a,0x3e,0xf5,0xa4,0x50,0xbe,0x4f,0xe2,0x83,0xbe,0xc5,0x8f,0xf8,0x3e,0xaa,0x61,0x9a,0x3e,0x0d,0x31,0xe3,0x3e,0xc7,0x3c,0x98,0x3b,0x09,0x9f,0x09,0xbf,0xc2,0xdc,0xff,0xff,0x04,0x00,0x00,0x00,0x80,0x00,0x00,0x00,0x24,0x49,0x25,0xbd,0xbb,0x64,0x5a,0x3e,0x94,0xff,0x33,0xbf,0xcb,0xd2,0xfb,0xbc,0xe0,0xf6,0xd7,0x3b,0xf2,0x61,0xbd,0xbe,0x38,0x39,0x16,0xbf,0xc6,0x07,0xb5,0xbe,0x0d,0xe6,0x17,0x3e,0x6e,0x09,0x22,0xbe,0x4c,0x9b,0x22,0x3e,0xda,0xe6,0x26,0x3e,0x34,0xca,0x39,0xbe,0x42,0x10,0x85,0xbd,0xc9,0x9b,0xcb,0xbd,0x8d,0xa5,0x18,0x3d,0x64,0x96,0x3c,0x3e,0x94,0x43,0x82,0xbd,0xae,0x75,0xb5,0xbd,0xde,0x3f,0x37,0x3e,0x71,0xaf,0x1c,0xbf,0xa2,0x5a,0x4f,0x3e,0xbc,0x72,0x8f,0x3d,0x37,0x7c,0x2e,0x3e,0x97,0x86,0x31,0x3f,0x85,0xf8,0x61,0xbb,0xee,0xcd,0x94,0xbc,0x7f,0xc3,0xe6,0x3d,0xfb,0xd7,0xf2,0xbe,0xca,0x6c,0x74,0xbd,0x5e,0x24,0x7a,0xbc,0x1b,0x5a,0x11,0xbf,0x4e,0xdd,0xff,0xff,0x04,0x00,0x00,0x00,0x00,0x20,0x00,0x00,0x77,0x33,0x50,0xbe,0x34,0xcd,0xfd,0xbe,0x61,0x5d,0xf6,0xbe,0xe7,0xcb,0x52,0xbf,0x2a,0x8f,0x2a,0xbd,0x0e,0x74,0x8c,0xbd,0x9c,0xd2,0x14,0xbf,0x8d,0x77,0x92,0x3f,0x06,0x7d,0xcc,0x3e,0xd5,0x2d,0x9d,0x3f,0x46,0x12,0xe5,0x3e,0xeb,0x81,0xa7,0x3e,0xc6,0x41,0x03,0xbe,0xb0,0x56,0x50,0xbf,0x5a,0x2a,0xb0,0xbe,0x6f,0x65,0x6f,0x3e,0x47,0x43,0xba,0xbe,0x29,0x59,0xb7,0x3e,0xd5,0x7f,0xa2,0xbd,0x79,0x28,0xf6,0xbe,0xc3,0x77,0x4c,0x3d,0xf5,0x3b,0x11,0xbf,0x97,0x65,0x98,0x3e,0x51,0xbf,0x18,0xbf,0x5c,0xb8,0x7a,0x3e,0xe8,0xba,0x97,0x3e,0x9c,0xfb,0x4a,0x3e,0xf2,0x3e,0xc3,0x3d,0x2f,0x83,0xb3,0x3d,0x19,0x71,0x16,0xbe,0x61,0x2e,0x3d,0x3e,0x80,0xde,0x2c,0xbf,0x16,0xec,0xb6,0xbd,0x6f,0x8c,0x8a,0x3e,0x87,0x1a,0xcb,0xbe,0x94,0x71,0xdf,0xbd,0xa3,0x19,0x45,0xbe,0x33,0x6a,0x2a,0x3e,0x9f,0x22,0xe4,0xbd,0x3d,0xba,0xb1,0x3f,0xda,0x81,0x5d,0xbf,0xf3,0xb4,0x77,0x3e,0x17,0xe7,0xc3,0x3e,0x4c,0x11,0xd0,0xbe,0x20,0xec,0x22,0xbc,0xa5,0x1a,0x30,0x3e,0xfc,0x05,0x0a,0x3d,0xf0,0x3f,0xc1,0x3d,0x1b,0x73,0xd4,0x3e,0x32,0x1a,0x1f,0x3e,0xdd,0x13,0x5c,0xbe,0x6f,0xf5,0x8f,0x3e,0xf2,0xd6,0xcb,0xbe,0x63,0xd8,0x88,0x3e,0x9f,0x6c,0xfe,0x3e,0xf6,0xfd,0xda,0x3e,0x0b,0xd8,0x23,0x3f,0x52,0x11,0x7c,0xbf,0x90,0xa8,0x93,0xbe,0x61,0x6c,0x81,0xbe,0x22,0xe8,0xab,0xbd,0x83,0x88,0xd8,0xbe,0xf0,0x63,0xf7,0xbc,0x27,0x9f,0x9d,0xbe,0xbf,0x3b,0x3d,0x40,0xc8,0x44,0x08,0x3f,0xc4,0x6a,0x36,0xbc,0xe8,0xbc,0x89,0xbe,0xd4,0xca,0x4d,0x3f,0x51,0xeb,0x39,0x3f,0x08,0xfc,0xd2,0x3e,0x1d,0xe1,0x4a,0x3e,0xc8,0x97,0x1e,0xbf,0x2c,0x54,0x19,0xbf,0xcd,0xec,0x4a,0x3e,0x12,0xd5,0x1d,0xbf,0xb6,0x56,0xb0,0xbe,0xf6,0x58,0xa9,0xbe,0x33,0x6b,0x66,0x3d,0xa4,0xb0,0x8c,0x3f,0x53,0xf5,0x57,0x3e,0x55,0x24,0xc9,0x3e,0x05,0x67,0xec,0xbe,0xc4,0x3d,0xa6,0x3e,0x81,0xa7,0x49,0x3e,0x40,0x99,0x1a,0x3e,0xef,0x95,0xaa,0x3e,0x7a,0x91,0x01,0x3e,0xc6,0x88,0x91,0xbd,0x61,0xbf,0x32,0x3d,0xe1,0x36,0x5a,0xbf,0xfe,0x6f,0x0e,0xbe,0xe3,0x6a,0x88,0x3e,0x02,0xb1,0x6b,0xbf,0xbb,0x05,0x81,0x3e,0xc3,0x75,0x16,0x3c,0x9b,0x4c,0x10,0xc0,0x14,0x80,0x9c,0xbd,0xc4,0xc4,0x49,0x3f,0x80,0xe8,0xba,0xbf,0xfe,0x1f,0xe7,0xbe,0xe8,0xd3,0xdc,0x3d,0x09,0x4a,0xd1,0xbc,0x06,0x83,0x97,0x3d,0x30,0xc4,0xe4,0x3e,0x53,0xb0,0xdb,0x3f,0x32,0x3d,0xdc,0x3d,0x5a,0x1e,0x2e,0x3f,0x33,0x30,0x10,0xc1,0xd2,0xa5,0x8b,0xbf,0xa8,0x0c,0xbd,0x3e,0xf8,0x0c,0x36,0xc0,0x99,0x10,0x97,0x3e,0x8d,0x7c,0x38,0xbe,0xc8,0xf7,0x79,0x3f,0x1c,0xa8,0x79,0x3d,0xd7,0x26,0xf1,0x3b,0x51,0x46,0xe9,0xbc,0xe3,0x91,0x9f,0x3e,0x68,0x6e,0x9b,0xbe,0x4b,0x18,0x88,0xbc,0x8f,0x08,0x60,0xc0,0x30,0x8b,0xa3,0x3f,0x98,0xe6,0x00,0x3f,0x1f,0x56,0xb4,0x3e,0x15,0x87,0x00,0xc0,0xba,0x91,0x51,0x3c,0xf5,0x6c,0x2f,0x3f,0x82,0x6a,0x57,0x3e,0x3c,0x1a,0x18,0x3c,0xf8,0xdc,0x6b,0xbf,0x75,0xb6,0x50,0xbc,0xcc,0xc3,0x17,0x3e,0x51,0xd2,0x88,0x3e,0x94,0x53,0x66,0x3e,0x99,0x0e,0xd1,0x3d,0xfd,0x36,0x81,0xbf,0x21,0xcd,0xa0,0xbd,0x53,0x70,0xea,0x3e,0x1c,0x60,0x82,0xbf,0x65,0x96,0x40,0xbe,0x20,0x4b,0xc8,0x3e,0x9f,0x7b,0xd5,0x3d,0x95,0x94,0x70,0xbd,0x9b,0x66,0x0e,0xbe,0xbe,0xf8,0x11,0x3e,0xbe,0x56,0x1a,0xbe,0x4f,0x9e,0x2f,0x3d,0x5d,0x5d,0x06,0xbf,0xa8,0xfd,0xb5,0x3d,0x3f,0x0f,0x08,0x3d,0x56,0xc4,0x19,0xbd,0x72,0x3f,0x6a,0x3e,0xf2,0xab,0x81,0x3d,0x56,0x50,0x8f,0x3c,0x3c,0x30,0x88,0xbf,0x4a,0xba,0x8a,0xbe,0x0c,0x44,0x85,0x3c,0xc3,0x5d,0x7e,0x3d,0x00,0x99,0x3d,0xbf,0x24,0xaa,0xe0,0x3d,0xf6,0x9f,0x54,0xbe,0x27,0xe9,0x81,0xbe,0x23,0x7c,0x69,0x3e,0xff,0x95,0x39,0x3e,0x80,0x80,0x22,0x3e,0x97,0x9c,0x2e,0x3e,0x93,0x3e,0x10,0x3f,0xe6,0x5e,0x07,0x3f,0x95,0x8a,0xf9,0x3e,0x16,0x90,0x20,0x3d,0xbc,0x64,0x02,0x3f,0xa7,0x44,0xf0,0x3d,0x42,0x3a,0xa1,0x3d,0x4c,0x1a,0x44,0x3e,0xfb,0x76,0xca,0x3e,0x18,0xa6,0xc9,0x3d,0x8e,0xf6,0xa2,0x3e,0xbf,0x8a,0xf0,0x3e,0x73,0x97,0x01,0xbf,0xab,0xac,0xa7,0x3c,0xc3,0xe8,0x32,0xbe,0xd7,0x58,0x91,0x3d,0x1c,0xaa,0xb0,0xbe,0x3d,0xb9,0xad,0x3e,0x13,0x73,0x9d,0x3e,0x55,0xab,0x29,0x3e,0xaf,0xfb,0x3d,0x3e,0xfa,0x2c,0xea,0x3d,0x1f,0xd5,0x84,0x3e,0xc8,0x65,0x85,0x3e,0x8e,0xd5,0xa8,0xbe,0x0b,0x1b,0xdf,0x3d,0x8e,0x80,0x8c,0x3e,0x00,0xeb,0x04,0xbc,0x6e,0x27,0x7b,0x3d,0x53,0x7c,0xc2,0xbe,0x25,0x28,0x06,0x3b,0xef,0x14,0x04,0xbf,0x91,0x07,0x43,0xc1,0x48,0x02,0x91,0x3e,0x1c,0xbc,0x1d,0x3f,0x6f,0x55,0xad,0x3e,0x70,0x77,0x8e,0x3e,0xf7,0xab,0x61,0x3f,0xc5,0x8b,0xe3,0xbf,0x77,0x47,0x2f,0xbf,0x99,0xd1,0x07,0x3e,0xcd,0x30,0x06,0xbd,0xeb,0x26,0x4f,0xbd,0x30,0x1c,0xa6,0x3e,0x3b,0x26,0xb1,0x3d,0xec,0x94,0x4c,0xbf,0x42,0x1e,0x26,0x3e,0x6b,0x03,0x4a,0xbf,0x9c,0x1b,0x9a,0x3e,0x6e,0x86,0xa0,0x3d,0x89,0x0b,0x05,0x3e,0xdf,0xe5,0x2c,0x3c,0x0b,0xa5,0x1e,0xbb,0x0d,0x04,0xe8,0xbe,0x7c,0x39,0xeb,0xbd,0xb9,0x5f,0xfd,0xc0,0xd6,0x09,0x7c,0x3e,0x2f,0xcf,0x94,0xbd,0x8c,0x43,0xb6,0x3e,0xda,0xde,0x51,0xbc,0x34,0x6a,0x20,0xbd,0x7a,0x72,0x18,0x3b,0xd8,0xfc,0x0f,0xc0,0x3a,0xe2,0x5e,0x3e,0xd2,0x48,0x60,0x3f,0x0b,0x65,0x48,0xbf,0xd3,0x18,0x94,0xc0,0xe0,0x52,0xce,0xbc,0x3e,0x20,0x66,0xbf,0xbd,0xde,0x8d,0x3e,0xa2,0xbc,0x05,0x3f,0xb1,0x00,0x99,0xbf,0xe4,0x9c,0xe2,0xbe,0xaa,0x23,0xb7,0xbe,0xeb,0x1f,0x55,0x3f,0xdd,0x3e,0x90,0xbe,0x4a,0x06,0x91,0x3e,0xb0,0x33,0xc9,0xbe,0xe9,0x1e,0x31,0x3d,0x63,0x76,0x7d,0xbe,0x9a,0xff,0x9d,0x3e,0x1a,0x53,0x06,0x3d,0x42,0xb4,0xcb,0xbf,0xf5,0xb7,0x9a,0xbe,0x4e,0xe9,0x1e,0xbf,0x5f,0xb9,0x9b,0xbf,0x5b,0x2d,0xb8,0xbe,0xdb,0x1a,0x36,0xbe,0x9d,0x57,0x0a,0xbb,0xdc,0xb5,0x42,0x3d,0x9b,0xf8,0x4f,0xbf,0x1c,0x96,0x8a,0x3e,0xc1,0x73,0xd2,0x3e,0x48,0x02,0x62,0x3e,0xd9,0x56,0x2d,0xbe,0x29,0x96,0x42,0x3e,0x10,0xaf,0x1c,0x3f,0x5b,0xf3,0xe2,0x3d,0x2b,0xfa,0x78,0xbe,0x18,0x5e,0x07,0xbe,0x42,0x4b,0x0a,0x3e,0xab,0x33,0xfd,0x3d,0x12,0x00,0xfd,0x3e,0xe3,0xa7,0xb8,0xbd,0x70,0x5a,0x89,0xbe,0x11,0x91,0x91,0x3e,0xfe,0x0d,0xb1,0xbe,0x27,0xa0,0x04,0x3e,0x5d,0x5a,0x30,0xbf,0xba,0xb1,0x1e,0xbc,0xe8,0xa0,0x50,0xbf,0xf9,0x85,0xa7,0xbe,0xe7,0x2c,0x1a,0xbf,0x1d,0x99,0xaf,0x3d,0x98,0xc9,0xb5,0xbe,0x86,0x1b,0xc0,0xbe,0x44,0x6f,0xcc,0xbe,0x17,0xca,0xd9,0x3e,0x86,0x26,0x94,0xbe,0x6f,0xbc,0x38,0xbe,0x69,0x21,0x11,0x3f,0xc8,0x83,0xb5,0x3e,0xba,0x28,0x36,0x3c,0xfb,0xa8,0x37,0xbf,0x52,0x37,0xe4,0x3d,0x0c,0xd1,0xdd,0x3d,0x2d,0x76,0xf3,0x3e,0xbc,0x8c,0x0d,0x3e,0xa6,0xfd,0x71,0x3f,0x5d,0xf6,0x50,0xbf,0x40,0x0a,0x9b,0x3f,0xd2,0x92,0x75,0x3e,0x09,0xf1,0x75,0xbf,0x96,0x54,0x18,0x3f,0x80,0xd4,0x34,0xbd,0x7d,0x68,0x5a,0xbd,0x7c,0x18,0x83,0x3e,0x4f,0xb7,0x53,0xbe,0x2d,0x0a,0x2c,0x3d,0x63,0xb1,0xd1,0x3e,0xf6,0x4c,0xc3,0xbd,0xb6,0x9e,0x3f,0x3e,0xa2,0xd4,0xa3,0x3d,0x7d,0x72,0xa3,0x3e,0xde,0x96,0x57,0x3d,0xc5,0x22,0x05,0x3e,0x51,0x81,0xc9,0x3e,0xbc,0xbb,0x97,0x3e,0x6a,0x8c,0x97,0xbf,0xc8,0x42,0x4f,0xbe,0x49,0x79,0x64,0x3d,0xbc,0x62,0x01,0x3e,0x59,0x5b,0x41,0xbe,0xcb,0xe9,0xf1,0x3d,0x8d,0x37,0x0b,0x3d,0x06,0xf1,0x24,0xbf,0xba,0xbe,0x8e,0x3e,0x3f,0x6b,0x20,0xbe,0xf9,0x1e,0xbf,0x3e,0x6e,0xcf,0xc0,0x3c,0x75,0x1b,0xd6,0x3e,0xe2,0x61,0xb8,0xbf,0x89,0x41,0x80,0xbe,0xfc,0xef,0xb7,0x3e,0xa6,0x83,0xc4,0xbf,0x50,0x90,0x41,0x3e,0x44,0x5d,0x06,0x3e,0x7a,0x89,0xaf,0x3e,0x07,0xa5,0x58,0xbb,0x40,0x0f,0x9e,0xbe,0x6b,0x8a,0x1c,0x3f,0xc7,0x00,0x61,0x3e,0x59,0xdd,0x06,0x3d,0xda,0x8d,0xa7,0xbe,0xd3,0xb2,0x0e,0x3e,0x4b,0xd5,0x19,0x3f,0x86,0x97,0x25,0x3e,0x55,0x4c,0xc7,0x3e,0x0b,0xda,0x55,0xbe,0x28,0x13,0x92,0x3d,0x8f,0x69,0xd7,0xbf,0xd5,0x0b,0x8a,0xbd,0x65,0x95,0xea,0x3d,0x4c,0xc1,0x0b,0x3f,0x10,0xf7,0x0c,0xbf,0xd7,0x42,0xd5,0x3d,0x29,0xe8,0x5e,0xbf,0x14,0x8f,0xbb,0xbd,0xc7,0x80,0xd9,0x3e,0x08,0x73,0xce,0x3e,0x11,0x4b,0xfa,0xbc,0x56,0x20,0x76,0x3e,0xab,0xee,0x3c,0x3f,0xa4,0x52,0xb7,0xbc,0xb2,0xe4,0x0b,0x3f,0x6f,0x0d,0xae,0xbd,0x38,0x2d,0x6e,0x3e,0x18,0x8a,0x00,0x3f,0x93,0xfd,0xd8,0x3d,0xca,0x5e,0x37,0x3e,0x78,0xac,0x81,0x3e,0x49,0xad,0x89,0x3e,0x82,0x47,0xc6,0xba,0x2a,0xdb,0xcd,0x3e,0x10,0x4b,0xf1,0xbe,0x32,0xa3,0x08,0x3f,0x37,0xd7,0xf5,0xbe,0x43,0x10,0x05,0xbc,0x21,0x79,0x26,0xbf,0xd4,0x22,0x46,0x3e,0x4b,0x89,0xde,0x3e,0x06,0x9a,0xac,0x3e,0x63,0x11,0x60,0x3e,0x38,0xe5,0xf4,0x3d,0x67,0x49,0x5f,0x3d,0xfd,0xb7,0x71,0x3e,0x67,0xfc,0xd2,0x3c,0xac,0xf4,0xdb,0x3e,0x2e,0x30,0xca,0x3e,0x07,0x12,0x8d,0x3e,0x2b,0x8f,0xa4,0x3e,0x5b,0x55,0xea,0x3d,0xa6,0xc3,0x5c,0x3f,0xdd,0x05,0xfb,0x3e,0x09,0xec,0xef,0xbd,0xba,0x8f,0xd9,0xbe,0xde,0x49,0xb5,0xbc,0x78,0x28,0x1d,0x3f,0x4f,0x68,0x8a,0xbe,0xcd,0x8d,0x67,0xbd,0x3c,0x61,0xe5,0xbd,0x1e,0x77,0xcd,0x3e,0x52,0xd7,0x85,0xbe,0x76,0xb4,0x38,0xbe,0x9f,0x0b,0xac,0x3e,0x13,0xe1,0x73,0x3e,0x86,0xb4,0x12,0x3f,0x64,0x35,0x96,0x3e,0xa5,0xa3,0xa7,0x3e,0x7e,0x2b,0x79,0x3c,0x66,0x84,0xd5,0x3e,0x0a,0xc8,0x37,0xbe,0x1d,0xef,0x65,0x3e,0xdf,0x3d,0xcf,0x3e,0xd5,0x5c,0xc1,0xbc,0x1c,0x24,0xc7,0x3e,0x1a,0xd3,0x50,0x3e,0xb9,0x8a,0xe6,0x3e,0x24,0x2f,0xcb,0x3e,0x57,0x15,0x5e,0xbe,0xab,0x6f,0x9a,0x3e,0xd0,0x2b,0x63,0x3f,0x6b,0x5d,0xab,0x3d,0x50,0xbe,0x87,0xbd,0x17,0x0e,0x2d,0x3c,0x51,0x89,0x61,0x3e,0x84,0x7a,0x4e,0xbf,0x56,0x83,0x10,0xbd,0xc5,0xd1,0x3d,0xbf,0x8f,0x43,0xca,0xbd,0x71,0xd7,0x41,0x3e,0x44,0x23,0xea,0xbd,0x74,0x20,0x27,0x3e,0xe7,0xe4,0x04,0x3e,0x0b,0x08,0x60,0xbe,0x24,0x9d,0x8a,0x3e,0x94,0xb1,0x1f,0xbe,0x11,0xa8,0xde,0xbd,0xd9,0xe0,0x21,0x3e,0x67,0x2f,0x00,0x3e,0xc9,0x45,0x35,0x3e,0x53,0xb1,0x80,0x3e,0x86,0x53,0xb9,0xbc,0x64,0x6f,0x06,0xbd,0x90,0x7d,0xe6,0xbe,0xb0,0x51,0xb8,0xbc,0xcb,0x9f,0xcb,0x3e,0x1c,0xee,0x97,0x3e,0x83,0x7f,0xda,0x3c,0x90,0x01,0xb1,0xbd,0x1e,0xbe,0x40,0x3f,0x55,0x2c,0x04,0xbd,0xa0,0xdd,0x8f,0x3e,0xa4,0xbb,0x91,0xbf,0xa5,0xca,0xf1,0x3d,0x29,0xea,0x97,0x3e,0xf6,0x8b,0xb0,0xbd,0xcc,0xc0,0x86,0xbf,0xfb,0xd7,0x52,0xbe,0xfd,0xdb,0x2f,0x3f,0xbb,0x4a,0x66,0x3e,0x2b,0xe1,0x06,0x3e,0x40,0x4c,0x07,0x3f,0x10,0x55,0x9c,0x3e,0x49,0xd4,0xbe,0xbd,0x5f,0x9e,0xa0,0xbe,0x39,0x10,0x5e,0x3e,0xd0,0x11,0xfd,0xbc,0x19,0x3e,0x82,0xbe,0x7a,0x15,0xaa,0x3e,0xde,0x73,0xdc,0x3e,0xc1,0xb5,0x36,0xbf,0x70,0x7c,0x19,0x3f,0x2b,0x0e,0x22,0x3d,0xb5,0xef,0x47,0x3e,0xdf,0xbc,0x13,0x3e,0x39,0xff,0xd5,0xbd,0xbc,0x17,0xc2,0x3e,0xba,0x78,0xf6,0x3e,0x0a,0x2d,0xa8,0xbe,0x69,0xb1,0x03,0x3e,0x1a,0xb1,0xe8,0x3d,0x49,0x17,0x9f,0xbf,0x59,0xed,0x7e,0xbe,0x4a,0xac,0x33,0x3f,0x61,0x6a,0xbd,0xbf,0x4d,0x9e,0xad,0x3d,0x34,0x95,0x10,0xbe,0xc9,0x6d,0x98,0x3e,0x50,0xed,0x1b,0xbf,0x8d,0x4a,0xa0,0xbe,0x83,0x97,0x3c,0xbf,0x0e,0x93,0x44,0xbf,0x49,0x1a,0x17,0x3f,0xeb,0x2f,0x8f,0xbf,0x56,0x1e,0x9f,0xbd,0x48,0x08,0x44,0x3e,0xf3,0x96,0x82,0x3e,0x4e,0x77,0xba,0xbe,0xf7,0x7a,0x14,0xbd,0x3a,0x70,0x28,0x3f,0x0b,0x1f,0x4b,0x3d,0x19,0x26,0xda,0x3e,0xa9,0xce,0x68,0xbf,0xdf,0x87,0x9e,0x3e,0x4e,0xaf,0x03,0x3f,0x25,0x9c,0xf7,0x3e,0x78,0xc0,0x98,0x3e,0xc8,0x92,0x03,0xbf,0xff,0x1d,0xdc,0xbd,0x72,0x09,0x97,0xbe,0x2d,0x11,0x96,0xbe,0x86,0x27,0xe9,0xbc,0x4e,0xfa,0x04,0x3f,0xd3,0x9f,0x84,0xbf,0x0b,0xb0,0xf0,0x3e,0xde,0xcf,0xc8,0xbe,0x8e,0x42,0xd3,0xbf,0x27,0xe7,0x65,0xbe,0x2d,0xcf,0xfc,0x3e,0xe6,0x8b,0x01,0x3f,0x0e,0x53,0x96,0xbe,0xe8,0x8c,0x5e,0xc0,0x0d,0x40,0x56,0xbf,0x61,0x36,0xcd,0xbf,0xd0,0xa1,0x3c,0x3f,0x3d,0xb8,0x7e,0xbf,0x5a,0x9a,0xe5,0xbe,0xe4,0x80,0xcb,0xbe,0x45,0x3f,0x8d,0xbe,0x06,0xe3,0x74,0x3f,0xeb,0x3a,0x1c,0xbe,0x43,0xfd,0xb1,0x3e,0xba,0xf6,0xda,0xbe,0x42,0xc6,0x97,0xbe,0x2b,0x99,0xe0,0xbe,0x8f,0x02,0x11,0xbf,0x06,0xd9,0xb9,0x3e,0x6f,0xfb,0x03,0xbf,0xb5,0x54,0xbd,0x3e,0xa7,0x88,0x97,0x3e,0xa6,0x98,0xda,0xbe,0xa2,0xb6,0x6a,0xbf,0xea,0x90,0x16,0xbf,0x40,0xb7,0x05,0xbe,0xf4,0x72,0x9f,0x3e,0x06,0x73,0x98,0xbf,0x55,0x1e,0x96,0x3d,0x3d,0x65,0xfe,0xbe,0xc4,0x77,0x55,0xbe,0x23,0xa2,0x62,0x3e,0x9f,0x4a,0x43,0x3e,0x24,0xae,0x32,0x3e,0xb5,0x55,0xd5,0x3e,0xf1,0x4f,0x05,0x41,0xdd,0xbb,0x0a,0x3f,0x1f,0x93,0x6f,0xbf,0xda,0x01,0xa7,0x3e,0x4c,0x54,0x05,0x3f,0xd5,0xd2,0xf5,0xbe,0xba,0x17,0x19,0xc0,0xbd,0xd9,0xc1,0x3d,0xbc,0x1f,0x14,0x3f,0x5a,0x1a,0x0c,0x3e,0xa8,0xf8,0xdc,0x3e,0x93,0xfd,0x2d,0x3e,0x74,0xd0,0x56,0xbe,0x4c,0x60,0x09,0xbe,0x09,0xc6,0xb3,0xbe,0x3a,0x2f,0xa9,0x3e,0xf5,0xaa,0xc1,0xbe,0x85,0x3c,0xbd,0x3e,0x32,0xa6,0x56,0xbe,0xba,0x9c,0x78,0x3c,0x6b,0x25,0xb9,0x3e,0xe6,0xe4,0x28,0xbd,0xed,0xd5,0x0d,0x3d,0x1b,0x0c,0x62,0x3e,0x3b,0xae,0x05,0xbf,0x1e,0xcf,0x66,0xbe,0xa3,0x50,0x58,0xbe,0x54,0x2a,0x79,0xbe,0xc8,0x87,0x86,0xbd,0xe5,0x33,0x53,0x3d,0x04,0x08,0xf0,0xbe,0xa9,0x66,0x39,0xbe,0x8a,0x96,0x80,0x3e,0x3d,0xfb,0xdc,0x3d,0x6d,0xf0,0x3f,0xbe,0x53,0x4e,0x0d,0x3e,0x84,0x2a,0x00,0x3f,0x6f,0xe0,0xbe,0xbd,0xca,0x96,0x80,0x3e,0x60,0x08,0x8b,0x3e,0xc3,0xab,0xf6,0xbe,0x7a,0x57,0xd6,0x3e,0xab,0x3e,0x92,0x3c,0xd9,0x78,0xaa,0x3d,0xec,0x9c,0xc8,0xbe,0x7f,0x75,0xce,0xbe,0x90,0x1a,0x95,0x3b,0xe9,0xd9,0x1c,0xbd,0xdf,0x8c,0x79,0xbe,0x59,0xaf,0xcc,0x3e,0x3d,0x28,0xee,0x3d,0x3d,0x97,0x01,0xbe,0xfd,0xb9,0x88,0x3d,0x43,0x79,0xc3,0xbd,0x8d,0xeb,0xea,0xbd,0xd0,0x10,0x74,0xbe,0xc4,0xf2,0xba,0x3b,0x1f,0xc4,0xb1,0x3e,0x1a,0x16,0x45,0xbf,0xe1,0xfd,0x35,0xbf,0x0c,0xe2,0x82,0x3e,0xfe,0x0e,0xe8,0x3e,0xbf,0xca,0x71,0x3e,0x53,0x16,0x79,0x3e,0xb8,0x50,0x97,0x3e,0x94,0x30,0x34,0x3e,0x33,0xd8,0x8f,0x3e,0x12,0x94,0xb1,0xbe,0xc9,0x57,0x99,0x3e,0xf4,0x8b,0x5f,0x3d,0x36,0xe0,0x0b,0xbe,0xfb,0x03,0x14,0x3e,0x25,0x6a,0x5d,0x3f,0x36,0xaa,0x3a,0xbe,0xb9,0xb6,0x50,0x3e,0x2e,0xf4,0x14,0x3e,0x5b,0x3e,0x3b,0xbf,0xa8,0x30,0xae,0x3c,0x8f,0x14,0xa5,0xbe,0x87,0xb4,0x22,0x3a,0x94,0x26,0xf4,0xbe,0x9f,0x40,0xec,0xbc,0x7d,0x65,0x59,0x3f,0x5d,0x20,0x10,0x3e,0x3b,0x0d,0xc5,0xba,0xe8,0xa1,0xbd,0xbe,0x53,0xab,0x95,0x3c,0x66,0xfc,0x60,0x3e,0xeb,0x7c,0x49,0xbf,0xe2,0x2e,0x98,0xbd,0x8b,0xda,0xc3,0xbe,0xca,0xe3,0x10,0xbf,0xb7,0x09,0xa4,0xbe,0x4d,0x87,0x9f,0xbe,0xd8,0x23,0x4c,0xbf,0x1e,0x07,0xa8,0xbe,0x71,0x81,0x88,0x3e,0x22,0xb8,0xf6,0x3b,0x28,0x2b,0xef,0xbc,0xdf,0xed,0x57,0xbe,0x32,0x39,0xeb,0x3c,0x45,0xae,0x25,0xbe,0xc8,0x87,0xd5,0xbc,0x3a,0x9d,0x60,0xbd,0x96,0x4c,0x8b,0x3d,0x71,0xd8,0x0c,0x3f,0xd1,0x0a,0x27,0xbe,0x48,0xb3,0xd4,0x3c,0x7c,0xf0,0xa9,0xbe,0x53,0xd9,0x87,0xbd,0x47,0xca,0x99,0x3d,0x33,0x52,0x21,0x3e,0x12,0x5e,0x61,0xbe,0xa1,0x1e,0xd4,0x3e,0x63,0x90,0x96,0xbe,0x80,0x53,0x20,0xbc,0x4d,0xa6,0x6a,0xbd,0xf0,0x63,0x40,0x3e,0xce,0x5b,0xb2,0x3d,0x8a,0x00,0x8b,0xbe,0x84,0x6a,0x22,0xbe,0x26,0xd0,0x36,0x3d,0xbb,0x16,0xa0,0x3d,0xcd,0xa4,0x94,0xbf,0x09,0x1c,0x60,0x3e,0x4b,0x24,0x41,0x3e,0x64,0xb3,0x0c,0x3f,0xa7,0x40,0x38,0xbe,0x6d,0xa7,0x8f,0x3e,0x5d,0xb8,0x02,0xbe,0xb2,0xf5,0x4a,0x3f,0xae,0x07,0x1f,0x3f,0x4a,0x03,0xb3,0xbe,0x3c,0xa1,0x5e,0x3e,0xa1,0xbd,0x54,0xbe,0x47,0x40,0x73,0x3e,0xac,0x19,0xf0,0x3e,0xdc,0xb7,0x4d,0x3e,0x5f,0xaa,0x90,0x3e,0x60,0x6d,0x68,0x3e,0xa3,0x4b,0xb4,0x3d,0x15,0x18,0xde,0xbe,0xd0,0x1b,0x64,0x3e,0x1a,0xe8,0xd1,0x3e,0x78,0x98,0xc2,0xbd,0x30,0xdf,0xea,0x3e,0x90,0x8a,0x14,0x3f,0xb2,0x48,0x39,0x3e,0x42,0xdb,0x2e,0xbf,0x1e,0xcd,0xf3,0xbe,0xd0,0xef,0x7b,0x3e,0xb1,0xde,0xeb,0x3e,0xac,0xab,0x7a,0xbf,0xe4,0x19,0x13,0xbe,0x9d,0x62,0xb6,0x3d,0x5e,0xa2,0x46,0x3e,0x5b,0xdf,0xab,0x3d,0x2b,0x82,0x23,0xbe,0x75,0xaa,0x27,0xc0,0x44,0xa2,0x85,0x3c,0xde,0x28,0xdc,0xbd,0xae,0x2e,0xaa,0xbe,0xec,0xf6,0x27,0xbe,0x13,0x32,0x5f,0xbf,0xf9,0x03,0x98,0xbe,0x37,0xf4,0x87,0xbe,0x42,0x97,0x40,0xbe,0xe9,0x38,0x3c,0x3e,0x4d,0x7a,0x98,0x3c,0xb0,0x4a,0xc4,0x3f,0xb1,0x0b,0xf3,0xbf,0xb8,0x54,0xc1,0xbd,0x6d,0xf5,0xe3,0x3d,0x68,0xf0,0x66,0x3e,0xa3,0x6a,0xa0,0x3c,0x87,0x37,0x9a,0xbe,0xc9,0xab,0x96,0x3e,0xb9,0x10,0x83,0x3f,0x4d,0xf8,0x4a,0x3d,0xd1,0x08,0xdc,0xbe,0x18,0xc6,0x05,0xbe,0x01,0xae,0x14,0x3e,0x02,0xad,0x53,0xbc,0xac,0x5d,0x3b,0xbf,0x92,0x20,0x0e,0x3e,0x19,0xb2,0xea,0x3d,0x3f,0x37,0x17,0xbe,0x35,0x8c,0x46,0xbf,0x70,0x40,0x92,0x3e,0x08,0x25,0xc5,0x3e,0x0e,0x51,0x91,0x3d,0xbb,0xfe,0x77,0xbd,0x04,0x7b,0xa9,0x3e,0x8f,0x95,0x9f,0x3e,0xd9,0xd9,0x55,0x3f,0x3b,0xec,0x19,0xbf,0x9d,0xe4,0x68,0x3e,0x0d,0x84,0x76,0x3e,0x48,0x30,0x11,0xbe,0xe9,0xfe,0x1b,0xbf,0x7e,0xa0,0xae,0x3e,0x27,0xb6,0x81,0xbe,0x4e,0x64,0x7f,0x3e,0x83,0xd2,0xbd,0x3e,0x6d,0x77,0x09,0xbf,0x37,0xcf,0xa2,0xbd,0x08,0xa3,0x6c,0x3d,0x47,0xea,0x59,0xbf,0x8c,0x8d,0x01,0xbe,0x9e,0x54,0x90,0x3e,0x5d,0x8c,0xc4,0x3e,0xec,0x78,0x99,0x3e,0x61,0xa0,0x3d,0x3e,0x1b,0x83,0x8b,0xbe,0xcf,0x5a,0x2e,0x3e,0xc6,0x1c,0x26,0xbf,0xe4,0xb3,0x0d,0xbf,0x5c,0xca,0x4d,0x3e,0x1e,0x8c,0x9d,0x3e,0x1e,0x41,0x34,0x3f,0xec,0xb4,0x0d,0x3f,0x8a,0x0e,0x6d,0x3d,0xf3,0x59,0x60,0x3f,0xe2,0x0e,0x25,0x3f,0x05,0x4c,0x52,0xbe,0xb0,0x8c,0xc4,0x3d,0x5e,0xec,0xed,0x3e,0xdd,0xe7,0xbc,0x3e,0x8c,0xfa,0x81,0xbe,0xb5,0x55,0xb7,0x3e,0xf1,0x20,0x16,0x3f,0x42,0x2e,0x05,0x3e,0xa5,0x4d,0xa8,0x3e,0xdb,0x3b,0x0a,0xbf,0xe6,0x2b,0x52,0x3e,0x01,0x7c,0xc1,0x3e,0xf9,0xa0,0xdd,0x3e,0x8a,0xc6,0xb2,0x3e,0x4c,0x19,0x98,0x3e,0x49,0xba,0x13,0xbd,0xe4,0x65,0xb4,0x3e,0x62,0x16,0x97,0xbe,0x73,0xa9,0x14,0xbc,0x33,0x40,0x36,0x3d,0x4f,0xa9,0x29,0xbe,0x39,0x7b,0x3e,0x3e,0x55,0xac,0x2c,0x3c,0x62,0x87,0x3c,0x3d,0xed,0x8f,0x24,0x3f,0x94,0xd9,0x52,0xbe,0x5f,0x34,0x21,0x3e,0xd8,0x90,0xa8,0x3f,0x18,0x4a,0x88,0xbd,0x40,0x3c,0xe4,0x3d,0x01,0x32,0x32,0x3f,0x0e,0x85,0x47,0x3f,0x3b,0x39,0xfb,0xbe,0xa7,0xd8,0xa2,0xbf,0xcf,0xb2,0x17,0xbf,0x9f,0xf9,0x81,0x3e,0x14,0xb6,0x9c,0xbf,0xc0,0x6f,0x2b,0xbe,0xf3,0x9b,0x14,0x3c,0x75,0xc2,0x28,0x3e,0xb3,0x93,0x46,0xbc,0x42,0x9b,0x29,0xbe,0x7a,0x06,0x21,0x3d,0x3b,0xae,0x87,0x3d,0xe9,0x15,0xba,0x3d,0x92,0x5e,0x3d,0x3f,0x02,0x86,0x6a,0x3e,0xbf,0xce,0x76,0x3e,0xe3,0x19,0x95,0xbc,0x14,0xd4,0xd8,0xbe,0x29,0x3e,0xd4,0xbe,0xab,0x09,0x09,0xbd,0x9d,0xfb,0x77,0xbf,0x3b,0xa3,0x57,0x3e,0x14,0xcd,0xdd,0x3c,0x2a,0xc6,0xca,0x3e,0x20,0xb0,0x60,0x3f,0x26,0x53,0x14,0xbe,0x65,0x2d,0x36,0x3e,0x04,0x60,0x6c,0xc0,0x1a,0x1a,0x8e,0x3d,0xef,0x81,0x4c,0x3d,0xf1,0x9c,0x66,0x3e,0xf1,0xb5,0x8d,0x3f,0x11,0xdd,0x43,0x3e,0xf5,0xb7,0xe9,0xbe,0xea,0xb9,0x02,0xbf,0xfd,0xb5,0x5b,0xbd,0xe2,0x8b,0x58,0xbf,0x29,0x7a,0x6b,0xbd,0xf9,0x21,0x27,0x3d,0x78,0x6d,0x42,0xbf,0x32,0xf7,0xdb,0x3d,0xfa,0xa3,0x8e,0x3e,0x20,0xae,0x95,0xbe,0x94,0x90,0x19,0xbe,0x00,0x25,0x99,0x3e,0xc0,0xae,0x38,0xc0,0xf9,0xa8,0xda,0x3d,0xd8,0x86,0x97,0x3e,0x98,0xb8,0x83,0x3e,0x07,0x5b,0x15,0x3f,0x8c,0xa2,0xe6,0xbc,0xe9,0x53,0x15,0x3d,0x03,0x65,0x21,0xbf,0xca,0x29,0x2a,0xc0,0xbf,0xd6,0x24,0x3e,0x56,0xeb,0x46,0xbc,0xf5,0xfe,0x86,0xc0,0xc0,0x52,0x92,0x3d,0xce,0xef,0x8e,0xbe,0x26,0x42,0x8d,0x3f,0x29,0x88,0x06,0xbe,0xb4,0x02,0xe3,0x3d,0x0b,0xd9,0x0a,0xc1,0xd2,0x5c,0x13,0xbf,0x9b,0x34,0xec,0x3e,0x95,0x64,0xda,0x3e,0x03,0x1a,0x3e,0x3f,0x6b,0xe5,0xe5,0xbf,0x9d,0xf1,0x19,0x3f,0xc6,0x13,0x6f,0x3d,0xcb,0x20,0x25,0x3e,0xd1,0x37,0x41,0xbf,0x33,0x51,0x4a,0x3d,0x3d,0x9d,0x88,0xbb,0x8e,0xc2,0xd9,0xc0,0x4c,0xe6,0xc0,0x3e,0xee,0xce,0x95,0xbb,0xa2,0x26,0xa7,0x3e,0xb4,0xe7,0xa3,0x3d,0x46,0x15,0x9d,0xbf,0x24,0xac,0xa5,0x3b,0xa5,0x76,0x23,0x3f,0x2b,0x29,0xf4,0x3e,0xb1,0xe9,0x30,0x3e,0x6a,0x56,0x98,0x3e,0x93,0xa6,0x3b,0xbf,0x6f,0xa6,0x95,0x3e,0x16,0x3e,0x00,0xc0,0x8f,0x00,0x8b,0xbd,0xbb,0xb8,0xd0,0x3d,0x49,0xf4,0x0f,0x3e,0x55,0x99,0xb0,0x3c,0x1a,0xe1,0xfc,0x3d,0xa7,0xc9,0x5d,0x3e,0xda,0xa8,0xa6,0xbe,0x08,0xec,0x10,0x3e,0xc6,0xf0,0x29,0x3f,0x05,0xf9,0x2c,0x3e,0xf8,0xa7,0xca,0x3e,0xd8,0x0e,0x53,0x40,0x8e,0x60,0x00,0x3e,0x12,0x27,0x4b,0x3e,0x8b,0x25,0x22,0xbe,0x0d,0x56,0x1e,0xbe,0x01,0xc9,0x63,0x3e,0x03,0x55,0x25,0x40,0x30,0x36,0xb4,0x3f,0x0c,0x86,0x14,0xbd,0xfc,0x26,0x30,0x3e,0x71,0x7d,0x4f,0x3e,0x16,0xa7,0xb3,0x3d,0xb3,0xfe,0x6f,0xbd,0xd1,0xa9,0x06,0x3d,0x0f,0xb2,0x1c,0x3e,0x34,0x9c,0x64,0x3d,0x43,0x65,0x1b,0x3d,0xc2,0xfc,0x94,0x3e,0x64,0x8c,0x70,0x3e,0x14,0x30,0x51,0x3e,0x82,0xf3,0x34,0xbe,0xb5,0xac,0x9c,0xbc,0x6f,0x4d,0x8e,0x3e,0x34,0x86,0xd8,0x3d,0xc5,0x2c,0x3f,0x3e,0x78,0x21,0x4d,0x3e,0xd2,0x7b,0xd4,0xbd,0x36,0x45,0x01,0x3e,0x0c,0x6d,0x77,0xbe,0xa0,0x6c,0xf5,0x3e,0x7c,0xd3,0xc2,0xbf,0xff,0x83,0x3f,0x3e,0x98,0xae,0xbc,0x3d,0x63,0x6c,0xbb,0xbf,0xe6,0x39,0x59,0xbe,0x48,0x43,0x80,0xbd,0xe7,0x89,0xee,0xbe,0x87,0x97,0x02,0x3e,0x13,0xc5,0x60,0xbe,0xa2,0x88,0x87,0xbd,0x79,0xb1,0x51,0x3e,0x6b,0x1e,0x1e,0xbe,0x50,0xa3,0xcd,0x3d,0x3c,0x47,0xda,0xbd,0x89,0xca,0x23,0x3e,0x6a,0xe4,0x70,0x3d,0x8d,0x7a,0x42,0xc0,0xf7,0x4c,0x1c,0xbe,0xdd,0xcc,0x9d,0x3d,0xfa,0x86,0x5c,0xbf,0x56,0xc0,0x65,0x3d,0x7b,0x44,0x6c,0xbe,0x96,0xc1,0x1b,0xbe,0xd7,0xa9,0x85,0x3b,0xd4,0x08,0x6a,0x3e,0xa8,0x30,0x74,0x3e,0x0c,0x2a,0x0b,0xc0,0x6c,0xfe,0x26,0x3c,0x8c,0x39,0x46,0x3e,0x38,0x67,0x9b,0xbf,0x29,0x32,0x14,0xc0,0xdf,0x55,0x58,0xbd,0x93,0xae,0x24,0x3f,0x8e,0xa1,0xce,0x3e,0x15,0x17,0x9e,0x3e,0x52,0xcf,0x16,0x3f,0xeb,0x79,0xae,0x3d,0x4d,0xf9,0x46,0xbe,0xc5,0x8b,0x27,0xbe,0xbc,0xe3,0x27,0xbc,0xd3,0x2b,0x89,0xbe,0x85,0x82,0x4d,0xc0,0x8c,0x76,0x14,0x3e,0x01,0xce,0xce,0x3d,0x39,0x17,0x02,0xc0,0xbd,0xee,0xc9,0x3e,0x1e,0x16,0xb2,0xbe,0x9d,0x2c,0x2d,0x3e,0x95,0x5a,0xc0,0xbe,0xfc,0x69,0xe2,0xbd,0x0f,0x5a,0x41,0x3e,0xb5,0xc1,0x49,0x3f,0x30,0x99,0xb5,0xbf,0xd0,0x37,0x29,0x3e,0x8b,0x25,0x07,0xbf,0xdf,0xaf,0x5e,0xc0,0x36,0x1c,0x3f,0xbe,0xea,0x42,0x1f,0x3f,0x01,0x20,0xb6,0xbe,0xf5,0x2e,0x83,0xbd,0x91,0xd7,0xc1,0x3d,0x97,0x3f,0xbc,0xbf,0x97,0x97,0x5c,0xc0,0x11,0xa3,0x3d,0xbe,0x8c,0x85,0x8c,0xbe,0x6a,0x0c,0x6c,0xbf,0x29,0xc4,0x15,0x3f,0x70,0x48,0xb5,0xbe,0x9d,0x0a,0xd7,0xbe,0x08,0x37,0x82,0xbe,0x2d,0x20,0x33,0x3f,0xb6,0xd8,0x81,0xbe,0x18,0x6f,0x4e,0x3f,0xeb,0x3a,0x72,0x3e,0x92,0xaa,0xb5,0x3c,0x2d,0xe8,0x97,0x3e,0x5f,0x7c,0xc0,0xbf,0x79,0xbf,0x0c,0x3f,0x71,0x93,0x2a,0x3f,0x04,0xd8,0xed,0x3d,0x40,0x99,0x69,0xbe,0x95,0x5d,0x03,0xbf,0x2e,0x63,0x23,0xbe,0x30,0x34,0x28,0x3d,0x05,0x66,0x31,0xc0,0xf8,0x71,0xf3,0x3d,0xa0,0x7c,0x05,0x3e,0x2f,0xec,0xb6,0xc0,0x1e,0xdf,0x03,0xbe,0xb8,0xaf,0x75,0xbf,0x73,0x47,0x03,0xbf,0x33,0x18,0xb2,0xbd,0x80,0x1c,0x48,0xbe,0x38,0x74,0xe7,0xbe,0xa6,0xb2,0x17,0x3d,0xe9,0x68,0x0e,0x3f,0x26,0x86,0x7b,0x3c,0x85,0x04,0x52,0x3e,0x61,0xad,0x8f,0xbd,0x7b,0xd6,0xec,0x3e,0x58,0x15,0x81,0xbd,0xf5,0xbb,0xa1,0x3c,0xd8,0x0e,0x89,0x3e,0x7b,0xb2,0x98,0xbc,0xb2,0x40,0xdf,0x3e,0x7e,0x7e,0xd2,0xbe,0x0e,0x9b,0x0a,0x3e,0x7e,0x3c,0x41,0xbf,0x1d,0x0f,0x51,0xbe,0xe4,0x7e,0x3c,0xbf,0x6e,0x61,0x88,0x3b,0xb2,0xf3,0x2a,0xbf,0xc9,0x71,0xb8,0x3e,0x1f,0x0d,0xb6,0xbc,0x5e,0xee,0x6f,0xbe,0x27,0x2d,0x9b,0x3e,0x4c,0xa4,0x25,0x3e,0xb9,0x51,0x44,0xbd,0xac,0x46,0x84,0xbe,0x2e,0xa5,0x08,0xbf,0xd1,0x84,0x38,0x3e,0x28,0x2c,0x06,0xbe,0x51,0xb9,0x49,0xbf,0x39,0x18,0x4c,0x3d,0x71,0x0e,0x9b,0x3e,0xf3,0x27,0x8b,0x3e,0x41,0xa0,0xbb,0x3e,0x52,0x27,0x99,0x3f,0xd1,0x00,0x1a,0xbf,0x16,0xd7,0x82,0x3f,0x10,0x78,0xd6,0x3e,0xc3,0xf0,0x28,0xbf,0x21,0xb6,0xbf,0x3e,0x7f,0x3f,0x9e,0x3e,0x75,0xfe,0x8e,0x3e,0xa8,0xa1,0x18,0x3e,0xca,0xd0,0xb8,0xbd,0xda,0xdf,0x40,0x3f,0xa7,0x5c,0x0f,0x3e,0x3b,0x7b,0xa3,0xbe,0x67,0xf1,0x99,0xbe,0xcd,0xe8,0x86,0x3e,0xdd,0x3e,0x88,0x3e,0x9f,0x3f,0x88,0x3d,0x0c,0xbe,0x98,0x3e,0xd1,0xcc,0xe6,0x3e,0x2c,0x52,0x12,0x3f,0x13,0x41,0xf1,0xbe,0xf6,0x79,0xce,0xbd,0x59,0xc2,0xbb,0x3c,0x48,0x6a,0xeb,0x3e,0x14,0xef,0xb3,0xbe,0x76,0xf6,0x73,0x3e,0x5f,0x69,0x40,0xbe,0xed,0x3d,0x1d,0xbe,0x0d,0x3e,0x82,0xbe,0x72,0x30,0x0c,0x3d,0xd3,0x50,0x59,0x3f,0x5a,0x46,0x11,0x3e,0x93,0x6d,0x52,0x3d,0x2b,0xb1,0xfa,0xbe,0xc7,0xad,0x13,0x3f,0x43,0xc8,0xd0,0x3e,0x63,0x26,0xf2,0xbe,0xf8,0x49,0x5e,0x3e,0x6f,0xcc,0xb8,0xbd,0xc4,0x8d,0xf1,0xbe,0x63,0x64,0xd9,0x3e,0xe1,0x88,0x13,0xbf,0x80,0x62,0xf4,0x3d,0xa5,0x49,0xb1,0x3e,0x22,0x5f,0x3e,0xbd,0x38,0x60,0xcb,0xbe,0xe3,0x4f,0x31,0xbe,0xf2,0x17,0x85,0x3d,0x50,0x2a,0x88,0xbe,0xa3,0xc3,0x55,0xbd,0x8b,0xb5,0xb0,0x3e,0x4d,0x93,0x98,0x3e,0xc0,0x0a,0xd0,0xbe,0x9f,0x8a,0x1c,0xbf,0x49,0xa6,0x8d,0xbd,0x35,0x06,0xc6,0x3d,0x29,0xd4,0x2c,0xbf,0x0f,0x41,0x08,0x3e,0x37,0x7d,0xf2,0x3e,0x5f,0x2c,0x08,0x3f,0x24,0x3a,0xc6,0x3c,0xad,0xc7,0x5a,0xbe,0x01,0x20,0xdf,0x3e,0x6c,0x55,0xf1,0x3e,0x50,0x87,0xb3,0xbe,0x51,0x89,0xa9,0xbf,0x4f,0x3d,0x79,0xbf,0x74,0x65,0xf7,0x3e,0x20,0xce,0x95,0xbf,0xe0,0x77,0x92,0xbd,0x65,0xd9,0xc4,0x3e,0xe6,0xf2,0x56,0x3e,0x73,0x70,0xbc,0xbe,0x46,0x25,0x30,0xbe,0xef,0x14,0xcf,0x3e,0x32,0x68,0x9b,0xbe,0xaa,0x8b,0x1b,0x3f,0x96,0xa1,0xed,0x3e,0x17,0x41,0x1a,0x3f,0xa5,0x3c,0xa1,0x3e,0x73,0x58,0xb7,0x3e,0xb5,0xad,0x94,0x3e,0x2c,0xc0,0x28,0xbf,0x30,0x08,0x2a,0xbe,0xc1,0xfe,0x5b,0xbf,0xa1,0xb7,0x9e,0x3e,0x27,0x82,0x14,0x3d,0x5d,0x7d,0x28,0x3e,0x98,0x23,0xc8,0x3e,0x2c,0xf3,0x01,0x3f,0xe1,0xcf,0x6e,0x3e,0x24,0x23,0x90,0x3f,0x3d,0x27,0x92,0x3f,0xd0,0xb4,0x89,0x3e,0xbd,0xc6,0x5e,0x3f,0xc3,0x9c,0x68,0x3f,0xfc,0x54,0x26,0x3f,0x5a,0x61,0x28,0xbf,0x69,0x1b,0x9a,0x3c,0x18,0xc8,0xec,0x3e,0xac,0xf9,0x25,0xbf,0x2d,0xd6,0x5b,0x3e,0xd8,0x36,0x37,0x3f,0x89,0x52,0x47,0x3e,0x22,0xce,0xa8,0x3d,0xfc,0xbb,0x78,0xbe,0xc9,0x36,0xfd,0x3e,0x96,0x4e,0xc2,0x3e,0x8d,0xad,0x2e,0xbe,0xfd,0xba,0x31,0x3f,0xc6,0x0e,0x07,0xbe,0x36,0xee,0x9d,0x3c,0x1b,0xaa,0x0d,0xbe,0xfb,0x88,0x16,0xbf,0xe9,0x48,0x25,0x3e,0xa1,0x07,0x42,0x3e,0xcf,0xe9,0x01,0xbf,0xdd,0xc4,0x15,0x3f,0x32,0x8a,0x08,0x3f,0x39,0x6a,0x59,0x3e,0x49,0xfb,0x48,0x3f,0x45,0x81,0xc4,0xbd,0xff,0x75,0x9d,0xbe,0xdf,0xaf,0xd9,0x3f,0x42,0x3d,0x6d,0x3e,0x39,0x18,0xb8,0xbb,0x1b,0x6d,0x52,0xbe,0x60,0x19,0x2f,0x3f,0x5f,0x3d,0x89,0x3e,0x65,0xba,0x6c,0xbe,0x24,0x49,0xb7,0xbe,0x2a,0xaf,0x33,0xbf,0x0d,0xcb,0x57,0xbe,0x1d,0x1f,0xf4,0xbd,0x54,0xe4,0x37,0x3d,0x19,0xd1,0xfd,0x3d,0x82,0x1b,0xfc,0xbb,0xc8,0x56,0x68,0x3e,0xfa,0xfb,0x17,0xbe,0x0c,0x34,0xcd,0xbc,0xce,0x8d,0xf2,0xbe,0x67,0xfc,0x63,0x3f,0xc3,0xd3,0x65,0xbf,0x9a,0xf0,0x07,0xbe,0xd6,0xaf,0x25,0xbf,0xc9,0x36,0x15,0xbf,0x7b,0x5f,0x99,0x3c,0x4e,0x9b,0x1d,0xbe,0x0e,0xb3,0xa6,0xbe,0x1e,0x86,0x8e,0x3e,0x87,0xd8,0x63,0xbe,0x2e,0x39,0x9b,0xbe,0x58,0x04,0xbb,0x3f,0x28,0x69,0x84,0xbd,0x4e,0x47,0xe9,0xbd,0x03,0xae,0x56,0xbe,0xda,0x5d,0x10,0xbd,0xae,0xf2,0x9e,0xbe,0x27,0xbe,0xc0,0xbe,0xa6,0x8f,0xdb,0xbe,0x3a,0xcf,0x6f,0xbd,0x3c,0xcc,0xb5,0x3e,0x7d,0x00,0x89,0xbe,0x6b,0x4c,0xc5,0xbd,0x32,0xbc,0x2e,0x3e,0xaf,0x89,0xc6,0x3d,0xa9,0xda,0x5a,0x3e,0xce,0xb5,0x3c,0x3e,0xf3,0x39,0xb9,0x3c,0x44,0x8c,0x02,0x3f,0x3b,0x02,0x9d,0xbd,0xe0,0x40,0x38,0xbe,0x89,0xfd,0xb1,0xbe,0x17,0x25,0x4e,0xbe,0xe4,0x97,0x7e,0xbe,0xf2,0x13,0xc4,0xbd,0xb6,0x43,0x95,0xbe,0x7f,0x75,0x1d,0x3f,0x4d,0x22,0xfb,0xbd,0x00,0x75,0x20,0xbe,0xcd,0x8b,0x27,0x3e,0xdd,0x11,0xd7,0x3d,0xff,0xaa,0x88,0xbe,0x7b,0x85,0x90,0xbe,0x3f,0x94,0xd0,0xbd,0x0e,0x13,0x8b,0x3e,0xce,0x3c,0x16,0xbe,0x1c,0x68,0x8f,0xbf,0xde,0x47,0x67,0x3e,0xff,0x00,0x4a,0x3e,0xcf,0x31,0xd9,0x3e,0x96,0x96,0xd3,0x3d,0x1b,0x23,0x16,0x3f,0x00,0x81,0xd3,0xbe,0xf4,0xf2,0x31,0x3f,0x11,0xde,0x0c,0x3f,0x2a,0xce,0x0e,0xbe,0xf5,0x07,0xad,0x3d,0xa7,0xc7,0x02,0x3e,0x52,0xc8,0x46,0xbe,0x5b,0x67,0x04,0x3d,0x1f,0x6c,0x4a,0x3d,0x46,0xbe,0xc8,0x3e,0xc7,0xc7,0xd2,0x3d,0xbd,0xe0,0x73,0x3d,0x66,0x08,0x86,0xbe,0xa2,0x3e,0xe1,0xbd,0xcc,0x68,0xb3,0xbc,0x6b,0x82,0x65,0x3d,0x9b,0x14,0xc3,0x3e,0x1f,0x8a,0x09,0x3f,0x0f,0xfb,0x38,0x3e,0xc5,0x4b,0x34,0xbf,0x93,0xae,0xab,0xbd,0x06,0x59,0x1e,0x3d,0x17,0xf6,0x87,0x3e,0x90,0xe1,0x4c,0xbf,0x20,0x48,0xca,0x3d,0x35,0x88,0x1a,0x3f,0x64,0x13,0x1c,0x3e,0x2d,0x23,0x12,0x3f,0x50,0xe5,0xd6,0xbd,0xab,0xc3,0x12,0x3f,0x44,0x0b,0x92,0x3e,0xfd,0x36,0xcb,0x3e,0xd6,0x1c,0xd1,0xbe,0x98,0x66,0x5b,0x3f,0x16,0x66,0xca,0x3e,0x02,0xc2,0xbc,0xbe,0x35,0xef,0x19,0x3e,0x38,0x82,0xdb,0x3e,0x79,0x22,0x32,0xbe,0xe7,0x86,0x1d,0xbf,0x9e,0xc1,0x0a,0x3e,0x31,0x7a,0x9f,0x3e,0x9d,0x69,0x72,0xbc,0xcd,0x72,0xff,0x3e,0x9f,0x5e,0x51,0xbe,0xed,0xc5,0x04,0x3f,0x67,0x0d,0x1c,0x3e,0x31,0x87,0x65,0x3e,0xf2,0xe2,0xb0,0x3e,0xa0,0x0a,0x28,0x3f,0x25,0x6d,0x04,0xbe,0x96,0xb8,0x19,0xbd,0x7d,0xec,0xb3,0xbe,0x8e,0x98,0x40,0xbd,0x66,0x34,0xbd,0x3d,0xb6,0x77,0x59,0x3e,0x70,0x29,0x08,0xbf,0xee,0x18,0x22,0x3e,0x45,0x3b,0x89,0x3f,0x43,0x2d,0x9f,0xbd,0x67,0x82,0xb9,0xbe,0x5f,0x9e,0xf3,0xbe,0xea,0x5b,0x41,0x3e,0x2f,0xfc,0x2d,0x3e,0x6f,0xe4,0xcf,0xbe,0x40,0x68,0x86,0xbf,0x3d,0x49,0xbf,0xbe,0x1e,0x7d,0x22,0xbf,0x0f,0xc2,0x85,0xbe,0x71,0x56,0xbb,0xbc,0x77,0x7d,0x6e,0x3e,0xcd,0xa2,0x59,0xbf,0x7c,0xbf,0xf9,0x3d,0x71,0xa3,0x0a,0xbf,0xa9,0x40,0xb9,0xbe,0xc4,0xe8,0x6a,0x3e,0x16,0x01,0xb9,0x3e,0xfe,0x0f,0x2a,0xbe,0x85,0x69,0x15,0x3e,0xc7,0x03,0x20,0x3e,0xc1,0x73,0x16,0x3d,0x5a,0x2a,0x22,0xbf,0x40,0x32,0xa0,0x3c,0x52,0x1d,0x0c,0xbf,0x66,0xb0,0xf7,0x3e,0x2f,0x5e,0x4c,0xbe,0x38,0x69,0x7d,0xbe,0x11,0x3f,0x38,0x3f,0xf3,0x5b,0x7b,0x3e,0xe5,0xfe,0x30,0x3f,0xbd,0xa1,0xa5,0xbf,0x7e,0x03,0x80,0x3e,0x10,0x6c,0x9a,0x3e,0x9b,0xa0,0x05,0x3f,0x07,0xe1,0xcf,0xbe,0xc0,0x5b,0x15,0x3b,0xf6,0x1a,0x2b,0x3e,0xe2,0x67,0x0d,0x3e,0x85,0x27,0x8b,0x3e,0x01,0xdf,0x6f,0x3e,0xd3,0x2c,0x61,0x3e,0x32,0xc6,0x61,0xbe,0xc1,0xfa,0x08,0xbf,0xc5,0x33,0x96,0x3e,0xc7,0x3e,0x09,0xbf,0x3b,0x36,0x98,0x3e,0x62,0x23,0x67,0x3d,0xcc,0x5c,0x1e,0x3f,0xef,0x32,0x6f,0xbf,0xab,0x11,0xbe,0x3e,0xde,0x6a,0xf7,0x39,0xbe,0xd7,0x03,0x3f,0xc4,0x13,0xec,0xbe,0x31,0xd8,0x1a,0x3b,0xe4,0x9c,0x20,0x3d,0x23,0x3b,0xd8,0x3e,0x09,0xf1,0x4c,0xbf,0xd6,0xf1,0x31,0x3d,0xc3,0x3c,0x37,0xbe,0x81,0x0a,0x83,0xbf,0x52,0x60,0x8b,0x3d,0x3b,0xd5,0x15,0x3f,0x02,0xa8,0x31,0x3d,0x13,0x49,0xd3,0xbd,0xbe,0xd9,0x72,0x3d,0xfe,0x58,0xef,0x3e,0xb5,0xf8,0xdc,0x3d,0x8c,0x79,0xa6,0xbe,0xcc,0xbb,0xa9,0xbf,0xfd,0x5c,0x44,0xbf,0xd7,0xb1,0x3d,0x3f,0x33,0xb2,0x9f,0xbf,0xe4,0xe9,0x3c,0xbe,0xa1,0x0f,0xd4,0x3d,0x4d,0x42,0xeb,0x3e,0x61,0xa8,0xed,0xbe,0xa6,0xfd,0x66,0xbe,0xd5,0x4c,0xac,0x3e,0x4f,0x4a,0xaa,0xbe,0xf8,0xd1,0x93,0x3e,0x88,0x3a,0x49,0xbe,0xb7,0x1f,0x5c,0x3e,0x71,0xf8,0x4a,0x3f,0x35,0x03,0xd2,0x3e,0xbc,0x8c,0x5d,0xbd,0x7b,0x4e,0xc0,0xbe,0x96,0xf7,0xb2,0xbe,0x64,0x7b,0x59,0xbf,0x0a,0xf4,0x0c,0xbd,0x28,0x62,0x28,0x3e,0x7b,0x36,0x05,0x3f,0x87,0x08,0x1b,0xbe,0x2c,0x39,0x8e,0x3e,0x1e,0x0b,0x8d,0x3d,0xda,0xdc,0x6b,0xbe,0x29,0xa6,0x1c,0xbd,0x11,0x57,0x74,0x3e,0x0e,0xe0,0x10,0x3d,0xca,0x7c,0x59,0xbf,0xd1,0xd5,0xb5,0x3c,0x66,0x03,0x12,0x3f,0x56,0x3c,0x3b,0x3d,0x80,0x1a,0xf9,0x3e,0x6e,0x0c,0x1a,0x3f,0xe9,0x24,0x9c,0x3e,0x6c,0x0a,0x6c,0x3d,0xc3,0xc0,0xbc,0xbe,0xf5,0xea,0xd9,0x3e,0x95,0xdb,0x42,0xbd,0x71,0xc8,0x8b,0xbe,0x60,0xa3,0x96,0x3e,0x29,0x9a,0xaf,0x3c,0x0a,0x2b,0x25,0xbf,0x50,0x87,0xaa,0x3c,0x5c,0xc9,0x1b,0x3f,0xb5,0x0f,0x16,0x3d,0x45,0x28,0xd3,0xbe,0x69,0x08,0x5f,0x3e,0x6c,0x4f,0xdb,0x3d,0x97,0x0e,0x0b,0x3f,0xcd,0x81,0x13,0xbf,0x15,0x16,0x12,0xbd,0x03,0xa7,0xc1,0x3e,0x1d,0x57,0x72,0x3d,0xff,0xea,0x9c,0xbe,0x5a,0x3d,0x8a,0x3e,0x05,0xe0,0x66,0xbe,0x4d,0x48,0xbe,0xbd,0x7c,0x4f,0x6f,0xbe,0x4e,0xc6,0x60,0xbe,0x43,0x09,0x44,0xbf,0xed,0x80,0x18,0xbf,0xd1,0x30,0xc1,0xbf,0x7c,0x3e,0x73,0xbf,0xcc,0xe5,0x27,0xc0,0x98,0xc4,0xdc,0xbf,0xef,0x98,0xef,0xbd,0x9d,0x88,0x5d,0xbe,0x98,0xe0,0x9c,0xbe,0x0d,0xe4,0x04,0xbf,0x0f,0x45,0x81,0xc0,0x5c,0x17,0x10,0xbe,0x9f,0xd5,0xe4,0xbd,0xc1,0xd8,0x47,0x3f,0xe8,0x08,0xc1,0xbe,0x0d,0x93,0xd7,0x3e,0x18,0x02,0x8f,0xc0,0x1f,0x14,0x02,0x3f,0x83,0x62,0x8c,0xbf,0xf9,0x08,0x1c,0xbf,0x03,0x13,0x9c,0xbd,0xe3,0x04,0xa1,0xbf,0x3e,0xa9,0xc2,0xbe,0x51,0x8f,0xfd,0xbd,0x71,0xc4,0x32,0x3e,0x4b,0xa4,0x7c,0xbe,0x8b,0x88,0xd2,0x3d,0x51,0x55,0xae,0xbf,0x31,0x7c,0x3f,0x3e,0x1d,0x36,0x1a,0x3e,0x89,0x3a,0x48,0x3e,0xb2,0xb8,0x70,0xbf,0x8f,0x11,0x9c,0x3d,0xdc,0xae,0x77,0x3f,0x4f,0x11,0xb8,0x3e,0x6a,0x19,0x37,0x3e,0xc3,0xc2,0xee,0xbe,0x66,0xe4,0xe3,0x3e,0x39,0x2c,0x5c,0x3e,0x56,0x9f,0xe6,0x3e,0x75,0x63,0x6a,0x3e,0x3d,0x99,0x10,0xbf,0x45,0x13,0xd8,0x3e,0x97,0xbe,0x9e,0xbe,0xe8,0x06,0x87,0x3e,0x66,0xc8,0x84,0xbf,0x96,0xe4,0x93,0x3e,0x99,0x86,0xab,0xbf,0xca,0x95,0x98,0xbe,0x24,0x9a,0xab,0xbf,0x64,0x24,0xa2,0x3e,0x14,0x1f,0x14,0xbf,0xb4,0x69,0x4c,0x3e,0x99,0x61,0x64,0x3e,0x44,0xad,0xaf,0x3e,0xda,0xc6,0xbe,0xbd,0xf2,0x9c,0xe3,0x3c,0x4c,0xcd,0x9d,0x3e,0x55,0x89,0xa5,0x3e,0x79,0xfe,0x17,0xbf,0x72,0x1f,0x0e,0xbf,0xc8,0x7c,0xaa,0x3e,0x3a,0xb1,0xd3,0x3d,0x91,0xf0,0x5e,0x3e,0xbc,0xa0,0x2f,0xbe,0x68,0x2f,0xac,0x3f,0x3d,0x1d,0x98,0xbe,0x0d,0x56,0x8f,0x3f,0xb9,0xf4,0x2b,0x3a,0xb8,0x26,0x4f,0xbc,0x91,0xc2,0xf0,0x3e,0x2c,0x5d,0x99,0x3e,0x58,0xf1,0x5a,0x3d,0x74,0xdb,0x71,0x3e,0xec,0x26,0x50,0x3e,0x76,0xaa,0xe2,0x3d,0xb2,0x7b,0x3b,0x3e,0x11,0x21,0x18,0xbf,0xfc,0x6f,0x95,0xbd,0xed,0x33,0x24,0xbe,0x56,0xe0,0x93,0x3e,0xcb,0x15,0xad,0xbe,0x0f,0x33,0xdd,0xbd,0xc0,0x4d,0xfd,0x3e,0xb0,0x7c,0xf0,0x3e,0xc6,0x03,0x46,0xbe,0x53,0x5a,0x2e,0xbe,0x1b,0x94,0xda,0xbd,0x76,0xf1,0x86,0x3e,0x28,0x24,0x8a,0xbe,0x2e,0x24,0xe5,0xbd,0x42,0x11,0x51,0xbe,0x17,0x85,0x06,0xbe,0xcd,0xd6,0x80,0xbc,0x2d,0xb6,0xd5,0xbe,0x3e,0x16,0x31,0xbf,0x83,0xa9,0xa6,0xbe,0x55,0x48,0xb1,0x3d,0x02,0x98,0x68,0x3e,0xb7,0xdd,0x46,0xbe,0xaf,0x62,0x65,0x3e,0x5c,0x77,0xba,0x3e,0x57,0x86,0x5e,0xbd,0xe6,0x15,0xdb,0xbc,0x0c,0xfc,0x12,0x3e,0x0e,0x60,0xd7,0xbe,0x58,0x29,0xc6,0x3b,0x9b,0x6a,0x31,0xbe,0x98,0x55,0x32,0xbe,0xa5,0x56,0xe5,0xbe,0x25,0xb0,0xc0,0x3d,0x5d,0x58,0x36,0xbe,0x18,0xa2,0x34,0x3e,0x60,0x87,0xbf,0xbe,0x3c,0x41,0xc0,0x3d,0x79,0x7b,0x0f,0x3d,0xb5,0x4f,0x29,0xbd,0xeb,0x2d,0xdf,0x3c,0xed,0xad,0x09,0x3d,0x2f,0xb2,0x29,0xbe,0x28,0x74,0x36,0x3e,0x1c,0x30,0x87,0xbe,0x49,0x7c,0x38,0xbb,0x40,0xb4,0xaa,0xbe,0x8d,0x44,0x5b,0xbf,0x6f,0x4d,0xfc,0x3d,0x57,0x3b,0xa1,0x3e,0xda,0xe9,0x09,0x3f,0x14,0xa6,0x75,0x3d,0x98,0x40,0x1f,0x3f,0xc5,0xc1,0x1d,0x3e,0x06,0x9d,0x84,0x3f,0x4b,0x69,0xa5,0x3e,0x86,0xdd,0x6f,0x3e,0x5e,0xfa,0x06,0x3f,0x03,0xed,0x85,0xbe,0x48,0x41,0xb3,0x3d,0x7a,0x31,0xd4,0x3e,0x93,0x23,0x86,0x3e,0xdb,0x11,0x08,0x3f,0x67,0x2b,0x3e,0x3d,0xd1,0x0b,0xff,0xbe,0x5a,0x9a,0x06,0xbe,0x0a,0xc2,0x93,0xbe,0xfd,0xed,0xaa,0x3e,0xd1,0xba,0xfc,0xbe,0x72,0xb6,0x5a,0xbd,0x3b,0xcf,0x1b,0x3f,0x9d,0x65,0xb3,0x3e,0xe1,0x88,0x91,0xbb,0x9c,0x8b,0x6c,0xbe,0x14,0x52,0x22,0x3e,0xf4,0x63,0x21,0x3e,0xb3,0xd1,0x50,0xbf,0x89,0x32,0x30,0x3e,0x8a,0x1f,0x60,0x3f,0x37,0x05,0xcb,0x3e,0x19,0x66,0x08,0x3f,0x34,0x7a,0xb5,0x3c,0xaa,0x5b,0x08,0x3f,0xd8,0x97,0x11,0x3e,0x00,0x34,0x64,0x3d,0x48,0x2f,0x9c,0xbe,0xc9,0xbe,0x59,0xbe,0xf2,0x03,0xc9,0x3e,0x69,0x11,0xe1,0xbe,0x32,0x19,0xa7,0x3e,0xca,0x5f,0x97,0x3e,0x2a,0xfd,0x1f,0x3e,0xa7,0x2d,0xc7,0xbe,0x57,0x9b,0xa9,0x3e,0x09,0xec,0x08,0x3f,0xc9,0x39,0x80,0xbd,0x6e,0x1d,0xfa,0x3e,0x7f,0xe6,0xdb,0x3e,0x28,0x81,0xe5,0x3e,0x10,0x12,0xc5,0x3e,0x90,0x04,0x3c,0x3f,0x69,0x18,0x24,0xbe,0x09,0x4c,0x50,0xbe,0x62,0x28,0x45,0xbd,0xa7,0x26,0x91,0x3a,0x29,0x8d,0x39,0x3e,0xfa,0x3f,0x0e,0x3e,0xdd,0x30,0x0c,0x3f,0x6e,0xf9,0xdf,0x3e,0x54,0x10,0x55,0xbd,0x49,0x41,0xaf,0xbe,0x7b,0x3d,0x82,0x3f,0x15,0x06,0x46,0xbe,0x38,0x19,0xb4,0xbe,0x33,0x59,0x2c,0xbe,0xde,0xe0,0xb4,0x3d,0x9e,0x26,0xff,0xbc,0x9c,0x39,0x1c,0x3f,0x5e,0xbd,0x37,0x3d,0xb9,0x92,0x3c,0x3d,0xf4,0x49,0xa3,0x3e,0xae,0x44,0x88,0xbd,0x15,0xfc,0xdb,0xbe,0x73,0x40,0x4c,0x3d,0xfa,0xa7,0xa9,0xbe,0x69,0x15,0x0b,0x3f,0x28,0x58,0x95,0xbe,0xee,0x0f,0x0e,0x3d,0xfc,0x0b,0xae,0xbe,0xca,0x0c,0x0c,0x3f,0x05,0xc8,0xca,0xbe,0x5e,0xf5,0xf9,0xbd,0x29,0x4b,0xb5,0xbe,0xe2,0xac,0x8b,0x3e,0x4b,0xdd,0x54,0x3e,0x7a,0x0d,0x6b,0x3e,0xb2,0x56,0x33,0x3f,0xd6,0x6d,0x0e,0x3f,0xf1,0x96,0xa6,0xbd,0xcd,0xbb,0x5a,0xbd,0x5a,0xfb,0x50,0x3f,0x4f,0x77,0xc6,0x3d,0x6a,0x59,0x45,0xbf,0x5f,0x67,0x64,0xbe,0x73,0x96,0x41,0xbe,0x37,0x8e,0xa5,0xbd,0xbe,0x50,0x1b,0xbf,0x33,0xb0,0x48,0xbe,0xc0,0x03,0xe3,0x3e,0x2f,0xf1,0x33,0x3f,0xdc,0x2d,0x58,0x3f,0xdc,0xf0,0xf3,0x3d,0xd5,0x25,0x38,0x3f,0x8e,0x60,0x57,0x3e,0xce,0x40,0x79,0xbe,0x07,0x98,0x63,0xbe,0x99,0x0c,0x0e,0x3f,0x20,0x20,0xb2,0xbe,0x6d,0xbc,0xfd,0xbd,0xf5,0xdd,0x9a,0x3e,0xd8,0xa5,0x65,0xbf,0xd9,0x10,0xe0,0xbd,0xb8,0x01,0x4a,0xbf,0x10,0x0a,0x52,0x3d,0x72,0x53,0x3d,0xbf,0x1b,0x9a,0x51,0xbe,0x83,0x99,0xff,0x3e,0x7c,0xb6,0x2d,0x3e,0xaa,0x94,0x0e,0x3f,0x6a,0x66,0xf6,0xbd,0x99,0x32,0x33,0x3e,0xa0,0x92,0x80,0x3d,0xdc,0x0d,0x65,0xbe,0xa1,0xba,0x12,0xbd,0x0e,0x19,0xfe,0x3e,0xbb,0x70,0x86,0xbd,0x48,0x9f,0xac,0x3e,0x10,0x1e,0xa0,0xbd,0x43,0xbf,0x05,0x3f,0xc4,0x13,0x41,0x3e,0xca,0x04,0x88,0x3e,0xf4,0x8d,0x85,0xc0,0x9f,0xe9,0x29,0xbf,0xf1,0x62,0xa3,0x3e,0x37,0x6b,0x8b,0xc0,0xf3,0x77,0x47,0xbe,0xb6,0x91,0x65,0x3e,0x28,0xd1,0xac,0xbd,0xc2,0x89,0xee,0xbe,0x28,0x85,0x00,0xbc,0xaf,0xc3,0x86,0x3e,0xab,0x30,0x91,0xbe,0xfc,0xa7,0x0e,0x3f,0xa0,0xc5,0x29,0xbc,0x92,0x0e,0xfe,0x3e,0x29,0xc2,0xa7,0x3e,0xc6,0x93,0x8e,0x3e,0x95,0x13,0x1b,0xbe,0xac,0x26,0xc7,0xbe,0x29,0xf0,0x6a,0xbd,0xcb,0x28,0x26,0xc0,0x94,0xc9,0xb5,0xbd,0x12,0x11,0x8e,0xbc,0xd3,0x74,0xb7,0x3d,0x54,0x18,0xbb,0xbe,0x7d,0x91,0xdd,0xbc,0x25,0x23,0xc1,0xbe,0xd4,0xf6,0x15,0xbe,0x58,0x9f,0x86,0xbe,0xb0,0xc6,0x66,0xbe,0x01,0xe3,0xa4,0xbe,0xa0,0xd4,0xdf,0xbe,0xeb,0x4b,0x69,0x3e,0x03,0xf8,0x7c,0x3e,0xf8,0x53,0x79,0xbe,0x32,0x7c,0x7e,0xbe,0x61,0x6c,0x34,0x3e,0x9c,0x5b,0x17,0x3d,0x3c,0xa1,0x97,0x3e,0x60,0xf5,0xf8,0x3c,0x66,0xec,0x9d,0x3d,0x90,0x3a,0xe8,0x3e,0x7f,0xf5,0x8e,0xbe,0x09,0x49,0xcf,0xbd,0x36,0x9a,0x81,0xbe,0x14,0xc9,0xd2,0xbd,0xe8,0xda,0x43,0xbe,0x70,0x18,0xd3,0xbd,0x5d,0xc9,0x8f,0xbe,0x03,0x0f,0xa8,0x3e,0x9a,0x2f,0x1e,0xbe,0x5a,0xde,0xa4,0xbe,0x1f,0x37,0x1a,0x3e,0x21,0xd9,0x76,0xbd,0xe0,0xa4,0x8c,0xbe,0x39,0x85,0xb6,0xbd,0x50,0xf0,0x77,0xbe,0xe1,0x4b,0x2b,0x3e,0x0c,0x56,0xad,0x3e,0xa8,0x99,0x8c,0xbf,0xd6,0x76,0x5e,0x3d,0x43,0xd3,0xbc,0xba,0xf8,0xd3,0x12,0x3f,0xfd,0x52,0x7e,0x3d,0x70,0x4a,0x14,0x3f,0x81,0x8e,0x5c,0xbe,0xf2,0xff,0x16,0x3f,0x54,0xf6,0x58,0x3f,0x5b,0x74,0x1c,0xbf,0x6b,0x19,0xa2,0xbd,0xf9,0xb5,0x54,0x3e,0xe1,0x79,0x44,0x3e,0x97,0xf5,0xcd,0x3e,0x11,0xea,0xbd,0xbd,0xe2,0xf9,0x0f,0x3f,0x90,0x27,0xbc,0x3d,0xe8,0xef,0xd6,0x3e,0x87,0x5f,0xcf,0xbe,0x70,0x96,0xe1,0x3e,0x8f,0x67,0x09,0x3f,0x24,0xe6,0x15,0x3f,0xbd,0x21,0xf2,0x3e,0x32,0x71,0x05,0x3f,0x82,0x1a,0x03,0xbe,0xba,0xd8,0x3c,0xbf,0xb9,0xb1,0xab,0xbe,0x46,0xb1,0xab,0x3e,0x62,0xd1,0x2c,0x3e,0x0f,0x1c,0x6f,0xbf,0xe4,0x6e,0x6d,0xbd,0x95,0xf3,0xe0,0x3e,0x60,0x89,0xe4,0xbf,0xa2,0xe5,0xe5,0xbd,0xec,0x3c,0x0b,0x3e,0x6d,0x69,0x85,0xbe,0x6a,0x1f,0xaf,0xbf,0xbe,0x39,0x0d,0x3e,0xdc,0x28,0xf2,0xbe,0xc4,0x4c,0x3f,0x3d,0x53,0xc8,0xb0,0xbd,0xc2,0x89,0x10,0xbf,0x03,0x9a,0x80,0x3d,0x70,0x8f,0x5f,0x3e,0x3c,0x3f,0x22,0xbe,0xb8,0x73,0xa1,0x3e,0x89,0x14,0xbd,0xbb,0x4d,0x14,0x5a,0xbe,0x42,0x6a,0x1c,0xbd,0x46,0x82,0xe0,0x3e,0x95,0x51,0x85,0xbf,0xf4,0xa3,0x46,0x3e,0x22,0xbc,0x8f,0xbd,0xd8,0x9e,0xae,0x3d,0x45,0x18,0x83,0x3e,0xa1,0x91,0x2b,0x3e,0xed,0xf2,0x9b,0x3e,0x3c,0xa7,0xc1,0xbe,0xa3,0x52,0x1e,0xbf,0xf2,0x70,0x2b,0x3e,0x78,0xb7,0xa5,0x3c,0xfe,0x84,0x02,0xc0,0xa0,0xd4,0xb0,0xbe,0x4d,0xae,0x2b,0x3f,0x8a,0xe9,0xc3,0xbf,0x2d,0x9f,0xa3,0xbd,0x61,0x0a,0x95,0xbe,0x05,0xe1,0x8c,0x3e,0x42,0x27,0xd4,0xbe,0x0d,0x7d,0xb7,0xbe,0x2d,0x0b,0xa8,0xbf,0xab,0x5e,0x61,0xbf,0xe5,0x8c,0x4c,0x3f,0x6c,0x4b,0xbd,0xbf,0xfc,0x93,0x32,0xbe,0x7c,0x87,0x8a,0x3d,0xb5,0x94,0x04,0x3f,0x21,0x3e,0x11,0xbf,0x8f,0x3e,0x03,0x3f,0x68,0x41,0xdf,0x3e,0x0b,0x0d,0xc2,0xbe,0x9e,0x6c,0x08,0x3f,0xa6,0xf7,0x2b,0xbf,0x8d,0x8e,0xc5,0x3e,0x11,0xa4,0x37,0x3f,0x7d,0xca,0xbf,0x3e,0x7f,0x0a,0x66,0x3e,0xa0,0x95,0x4a,0xbf,0x1a,0xcb,0x32,0xbe,0x9d,0x37,0x00,0xbf,0x42,0x4c,0x62,0x3e,0x61,0xd3,0x8c,0xbe,0xaf,0x36,0x0a,0x3f,0x62,0x1b,0x80,0xbf,0xae,0x28,0x00,0xbf,0x22,0xfa,0xd5,0xbe,0x4a,0xa2,0xba,0xbe,0x4c,0x82,0x91,0xbd,0x95,0x0f,0xde,0xbd,0x0e,0x33,0x04,0xbf,0xe5,0xf5,0x4f,0xbd,0xf0,0x2f,0xc2,0x3d,0x4b,0x3d,0x14,0x3e,0x52,0xf4,0x23,0xbd,0x9f,0x48,0x24,0xbe,0x0f,0x86,0x1f,0x3e,0x66,0xa4,0xd5,0xbd,0x8c,0xad,0x53,0xbd,0xe4,0xa6,0x08,0x3a,0xee,0x0f,0x41,0xbd,0x9e,0xc4,0x9f,0x3e,0xf1,0x6c,0x4d,0xbe,0x40,0x73,0x24,0xbe,0x52,0xd5,0x3d,0xbe,0x49,0xb6,0xaf,0xbe,0x6e,0x89,0x11,0xbe,0xac,0x5b,0xa0,0xbe,0x67,0xff,0x9b,0xbe,0xdc,0x8e,0x97,0x3e,0x00,0x49,0xb4,0xbe,0xf9,0x04,0xa4,0xbe,0xa2,0x96,0xc8,0xbc,0x0a,0x24,0xcc,0xbc,0x27,0x39,0xc6,0x3c,0x6c,0x89,0x71,0x3d,0x7b,0x28,0xdd,0x3c,0x04,0xd2,0xe3,0x3e,0xd4,0x5c,0x14,0x3e,0x1f,0x21,0x59,0xbf,0xca,0x06,0xe9,0x3d,0x74,0xc0,0x6a,0x3e,0xd1,0xc5,0x02,0x3f,0x70,0x10,0x24,0x3e,0x5c,0x2d,0x92,0x3e,0x99,0x69,0x0d,0xbe,0x78,0x39,0x28,0x3f,0x40,0x23,0x55,0x3e,0xc8,0xd2,0x8f,0xbe,0x4d,0x1a,0x1c,0x3e,0x91,0x2f,0xd9,0x3e,0xf8,0xc8,0x6a,0x3d,0x60,0xa4,0x51,0x3e,0x82,0xe0,0x48,0x3e,0xff,0xbe,0xd6,0x3e,0x74,0xc5,0xb0,0x3e,0x3d,0x48,0x81,0xbe,0xa6,0x38,0x98,0xbe,0x83,0x9f,0x7b,0xbc,0x6a,0x9d,0xf0,0x3e,0xd8,0x08,0x7e,0x3e,0xe9,0x72,0x6b,0x3e,0xdb,0xff,0x0a,0x3f,0x42,0xea,0xe4,0x3d,0x34,0x2e,0x08,0xbf,0x49,0x92,0xad,0xbe,0x37,0x0c,0x88,0x3d,0x92,0xeb,0xc6,0x3e,0x92,0xb3,0x4b,0xbf,0x12,0x0b,0x85,0xbf,0x18,0x72,0x29,0xbc,0xb3,0x32,0x5d,0xbe,0x71,0x2c,0x52,0xbf,0xfa,0x6c,0x49,0x3f,0x56,0x63,0xba,0xbd,0x32,0x32,0x8e,0xc0,0xe4,0x0f,0xee,0xbd,0xac,0xa4,0xad,0xbe,0xb9,0xcb,0xbb,0xbe,0xa2,0xad,0x00,0x3f,0xb5,0x99,0xa6,0xbe,0x25,0x27,0xcd,0x3e,0x26,0xf3,0x75,0xbf,0x69,0x92,0xb7,0xbf,0xbc,0x36,0x56,0x3f,0x73,0x92,0xb8,0x3e,0xbb,0xc7,0xea,0xbd,0x9b,0xf2,0x43,0xc1,0x72,0xcf,0xab,0x3b,0x16,0x36,0x2f,0xc0,0x21,0x9c,0x9b,0x3e,0xc5,0xe1,0x1d,0x3d,0xe2,0x26,0xf5,0x3d,0xc7,0x07,0xf8,0xbb,0x27,0xcc,0xce,0x3f,0x59,0x13,0x71,0x40,0x46,0xbd,0x26,0xbe,0x42,0x16,0x49,0xc0,0xfb,0xd9,0x4d,0x3e,0x8a,0xbc,0xe6,0x3d,0x02,0x65,0xac,0xbe,0xda,0x0f,0x31,0xc0,0x2e,0xa5,0xcf,0xbe,0xaf,0x52,0x9b,0xbf,0xa3,0x1e,0x50,0x3f,0x88,0x1d,0x8a,0x3f,0x40,0x47,0xab,0xbf,0xad,0x9b,0x10,0xc0,0x24,0xbf,0x96,0xbd,0x74,0x68,0x12,0x3d,0xb0,0x86,0x6a,0xbe,0x40,0xb4,0x7f,0xbe,0xf1,0x69,0x82,0x3e,0x87,0x9c,0x03,0xc1,0x85,0x7d,0x1e,0x40,0xb5,0xc6,0x02,0xbe,0x07,0x32,0xc0,0x3e,0xf4,0xe6,0x4a,0xbe,0x6d,0x44,0x62,0xc0,0x84,0x30,0xef,0x3e,0xd3,0x90,0x25,0xbf,0x10,0x7f,0x6c,0x3f,0x44,0x54,0x82,0xbe,0x2e,0x78,0x38,0x3e,0x28,0x43,0x2c,0xbf,0x61,0x7f,0x7a,0x3e,0xab,0x9e,0x8d,0x3e,0xce,0x28,0x59,0x3f,0xd6,0x4c,0x43,0xbd,0x88,0x93,0x7b,0x3f,0x51,0x68,0x4c,0x3e,0xb3,0x99,0x03,0xbf,0xd5,0x1c,0xe7,0x3d,0xaa,0x30,0x39,0x3f,0xb6,0x98,0xa3,0x3e,0x6b,0x31,0x15,0x3f,0x70,0xe9,0x0f,0x3f,0x7e,0x00,0xe7,0x3e,0x2e,0x48,0xea,0x3e,0x71,0x2b,0x0d,0x3f,0xc6,0x25,0x55,0x3e,0x6d,0x96,0x0d,0xbf,0x00,0x77,0x37,0xbd,0x5e,0xb3,0x94,0x3d,0x3d,0x65,0x0e,0xbf,0x6d,0x1b,0x0d,0x3e,0xa5,0xa5,0x3d,0x3e,0xf1,0xb0,0x59,0x3d,0x7c,0xf3,0xad,0xbe,0x6c,0xaf,0x81,0x3c,0x64,0x92,0xd7,0x3d,0x98,0x16,0x92,0x3d,0x6e,0xfd,0xf6,0x3e,0x0f,0x01,0x13,0x3f,0xcb,0xe0,0x83,0x3e,0x88,0xb9,0xf1,0x3d,0x5a,0xec,0xee,0x3e,0x9c,0x04,0xb4,0xbe,0x46,0x6e,0xd8,0x3d,0x27,0xd1,0x0f,0x3d,0x15,0x57,0x1b,0xbf,0xb0,0x17,0xb2,0x3e,0x0f,0x17,0x9b,0x3e,0x9d,0xfd,0x60,0x3e,0xc0,0x21,0xc3,0x3e,0x58,0x5c,0x81,0x3e,0x60,0xac,0xce,0x3d,0x55,0x2e,0x9e,0x3f,0x49,0xf3,0x46,0x3e,0x60,0x3d,0x0d,0x3e,0x24,0xf2,0x1a,0xbf,0x3d,0x5a,0xe3,0x3e,0x22,0xbb,0x1e,0xbe,0x64,0xdc,0x41,0x3e,0x04,0xd1,0x0f,0xbf,0xa6,0xf0,0x15,0xbf,0xe3,0xf1,0x0c,0x3e,0x31,0x76,0x01,0xbe,0xbf,0xd1,0xe8,0x3c,0x71,0xce,0x7e,0x3d,0xd2,0x1d,0x2d,0xbf,0x7d,0xeb,0x0e,0x3e,0x5b,0x63,0xe9,0xbe,0x9f,0xef,0x46,0xbe,0xe9,0x4f,0xbe,0x3b,0x0c,0x56,0x27,0x3f,0xcc,0xa2,0x58,0xbc,0xae,0x96,0x0c,0xbe,0xfd,0x7b,0xf9,0xbb,0x9a,0x00,0xb8,0xbd,0x31,0x40,0x51,0xbf,0x3c,0x9e,0x9a,0xbd,0xa9,0xdc,0x73,0xbe,0xdc,0xfd,0xc5,0x3e,0x9a,0x2a,0x8d,0xbe,0x83,0x25,0xbe,0xbd,0xcd,0x77,0x91,0x3f,0x5a,0xfd,0xff,0xff,0x04,0x00,0x00,0x00,0x00,0x01,0x00,0x00,0x40,0x93,0xc0,0x3f,0x62,0x59,0x24,0x3e,0x48,0x38,0xd6,0xbe,0xcc,0x1a,0x19,0x3f,0x70,0x59,0x1a,0xbe,0x6d,0xc5,0x11,0xbf,0xdd,0xdc,0x0b,0x3d,0x6d,0x43,0xbb,0x3e,0x4e,0x15,0xb3,0x3e,0xfe,0x0b,0x7b,0xbf,0xd9,0x61,0xe4,0xbe,0x35,0xb3,0x49,0xbf,0x41,0x41,0x00,0x3f,0xd2,0xad,0x57,0x3e,0x0a,0xe7,0x8b,0xbe,0x3b,0x50,0x48,0x3f,0xd3,0xfb,0x1c,0xbe,0x61,0x90,0xc7,0x3e,0x18,0xa3,0xc3,0x3f,0x88,0x83,0x1f,0xbf,0x52,0x56,0x89,0xbf,0x86,0xcf,0x75,0x3e,0x94,0xd7,0x7d,0x3f,0xd0,0x7a,0xee,0x3e,0xcb,0x72,0x4e,0xbf,0xb1,0xff,0xab,0x3e,0x18,0xd0,0xb5,0x3f,0x85,0x0e,0xea,0x3d,0x0c,0xf2,0x0a,0x3f,0x56,0x7d,0x6a,0xbe,0x9a,0x5c,0xfd,0xbd,0x93,0x1f,0xb5,0x3e,0xa2,0x52,0x32,0xbe,0x66,0xc3,0x2b,0x3f,0x6d,0x95,0x47,0xbf,0x8d,0x15,0x76,0xbf,0x91,0x17,0xd0,0xbf,0x78,0x09,0xaa,0xbf,0xd0,0x41,0x23,0x3f,0xcb,0xb4,0x88,0x3f,0x2f,0x3f,0xd9,0xbf,0xf0,0xd1,0x83,0xbe,0x6e,0x56,0xbe,0xbf,0xb6,0xec,0x8e,0xbf,0xb8,0xce,0xf8,0x3f,0xad,0x7e,0x22,0xbf,0xe4,0xe2,0xc3,0x3e,0x98,0xa2,0x43,0x3f,0x01,0x82,0x96,0xbf,0x1d,0x91,0xc2,0x3f,0x13,0x49,0x01,0x41,0x2f,0x3d,0x7c,0xbf,0x74,0x87,0xc4,0x3e,0x43,0x84,0xc2,0x3f,0xfc,0x8a,0xcd,0x3f,0x33,0xb9,0xaf,0xbf,0xe0,0x2f,0x51,0xbf,0x7a,0xac,0xa8,0x3f,0x83,0x64,0x33,0x40,0x78,0x48,0x65,0xbf,0x9a,0x9b,0x9d,0x40,0xf6,0x7a,0x8c,0xbf,0x40,0x15,0xf0,0x3f,0x31,0xba,0x20,0x40,0x66,0xfe,0xff,0xff,0x04,0x00,0x00,0x00,0x80,0x00,0x00,0x00,0x00,0x00,0x00,0x00,0x00,0x00,0x00,0x00,0x00,0x00,0x00,0x00,0x00,0x00,0x00,0x00,0x00,0x00,0x00,0x00,0x00,0x00,0x00,0x00,0x00,0x00,0x00,0x00,0x00,0x00,0x00,0x00,0x00,0x00,0x00,0x00,0x00,0x00,0x00,0x00,0x00,0x00,0x00,0x00,0x00,0x00,0x00,0x00,0x00,0x00,0x00,0x00,0x00,0x00,0x00,0x00,0x00,0x00,0x00,0x00,0x00,0x00,0x00,0x00,0x00,0x00,0x00,0x00,0x00,0x00,0x00,0x00,0x00,0x00,0x00,0x00,0x00,0x00,0x00,0x00,0x00,0x00,0x00,0x00,0x00,0x00,0x00,0x00,0x00,0x00,0x00,0x00,0x00,0x00,0x00,0x00,0x00,0x00,0x00,0x00,0x00,0x00,0x00,0x00,0x00,0x00,0x00,0x00,0x00,0x00,0x00,0x00,0x00,0x00,0x00,0x00,0x00,0x00,0x00,0x00,0x00,0x00,0x00,0x00,0x00,0x00,0x00,0x00,0xf2,0xfe,0xff,0xff,0x04,0x00,0x00,0x00,0x00,0x01,0x00,0x00,0xbe,0x5b,0xd1,0x3d,0x69,0x4d,0x39,0x3e,0x87,0xf0,0x18,0x3f,0x0f,0xe2,0xd7,0xbe,0x8f,0xdb,0x32,0xbf,0x69,0x23,0xbb,0xbd,0x44,0x7f,0x2f,0x3f,0xe0,0xa2,0xb5,0xbd,0x74,0xe4,0x14,0xbd,0xdc,0xef,0x4c,0x3e,0xf8,0x34,0xd3,0x3e,0x10,0xa5,0xa1,0xbf,0x0a,0xa7,0x71,0xbe,0xc1,0x3e,0x18,0xbf,0xd8,0x77,0xf6,0x3d,0xd4,0x42,0xc5,0x3e,0x51,0x26,0xfd,0xbe,0x50,0x64,0xf3,0x3e,0x23,0x62,0x5e,0xbe,0x67,0xd3,0x0c,0x3f,0x54,0x54,0x4d,0x3f,0x45,0x9f,0x89,0xbf,0x76,0x24,0x0b,0xbf,0x1a,0xc0,0x05,0x3f,0xb5,0x10,0x4a,0xbb,0xc9,0x17,0x11,0x3f,0x4f,0xb7,0xc4,0x3e,0x14,0xd8,0x44,0xbe,0x01,0x34,0xa3,0xbe,0x91,0x81,0xa0,0xbe,0xce,0xb1,0x6c,0xbe,0xb0,0x79,0xe2,0x3e,0x29,0x25,0x02,0xbf,0xb3,0x68,0x30,0x3e,0xdd,0x9a,0xfc,0x3e,0x3a,0x8f,0x6b,0xbf,0x9f,0x36,0x93,0xbd,0xe9,0x98,0xf4,0x3e,0xad,0x68,0x00,0x3f,0x74,0x78,0xb5,0xbe,0xa5,0x7f,0x06,0xbf,0x4d,0x12,0x95,0xbe,0x37,0x0d,0xd2,0x3e,0x38,0x95,0x89,0xbe,0xfe,0xe2,0x05,0x3f,0xad,0x3d,0x5e,0xbf,0x31,0x0d,0xd0,0x3e,0x51,0x0f,0x88,0xbe,0xb1,0x10,0x94,0xbe,0xc1,0xdd,0x6f,0xbe,0x1c,0xa2,0x97,0xbe,0x55,0x9e,0xff,0x3e,0x88,0xa3,0xc3,0xbd,0xf7,0x98,0x8f,0x3e,0x7c,0x7c,0xd8,0xbe,0x58,0xf5,0xca,0x3e,0xf0,0xcf,0x27,0xbf,0x4d,0x21,0x09,0xbe,0xb5,0x73,0xa5,0xbd,0x79,0x13,0xb8,0x3d,0xcd,0x55,0xd1,0x3e,0xe4,0x9c,0x6d,0xbf,0x17,0xb6,0x1f,0xbf,0x7b,0x12,0x00,0xbe,0x00,0x00,0x06,0x00,0x08,0x00,0x04,0x00,0x06,0x00,0x00,0x00,0x04,0x00,0x00,0x00,0x0c,0x00,0x00,0x00,0xff,0xff,0xff,0xff,0x02,0x00,0x00,0x00,0x20,0x00,0x00,0x00,0x38,0xf7,0xff,0xff,0x3c,0xf7,0xff,0xff,0x0f,0x00,0x00,0x00,0x4d,0x4c,0x49,0x52,0x20,0x43,0x6f,0x6e,0x76,0x65,0x72,0x74,0x65,0x64,0x2e,0x00,0x01,0x00,0x00,0x00,0x14,0x00,0x00,0x00,0x00,0x00,0x0e,0x00,0x18,0x00,0x14,0x00,0x10,0x00,0x0c,0x00,0x08,0x00,0x04,0x00,0x0e,0x00,0x00,0x00,0x14,0x00,0x00,0x00,0x1c,0x00,0x00,0x00,0xcc,0x01,0x00,0x00,0xd0,0x01,0x00,0x00,0xd4,0x01,0x00,0x00,0x04,0x00,0x00,0x00,0x6d,0x61,0x69,0x6e,0x00,0x00,0x00,0x00,0x07,0x00,0x00,0x00,0x84,0x01,0x00,0x00,0x24,0x01,0x00,0x00,0xec,0x00,0x00,0x00,0xa0,0x00,0x00,0x00,0x78,0x00,0x00,0x00,0x3c,0x00,0x00,0x00,0x04,0x00,0x00,0x00,0x02,0xff,0xff,0xff,0x14,0x00,0x00,0x00,0x00,0x00,0x00,0x08,0x10,0x00,0x00,0x00,0x14,0x00,0x00,0x00,0x04,0x00,0x00,0x00,0xc8,0xf7,0xff,0xff,0x01,0x00,0x00,0x00,0x11,0x00,0x00,0x00,0x03,0x00,0x00,0x00,0x10,0x00,0x00,0x00,0x04,0x00,0x00,0x00,0x08,0x00,0x00,0x00,0x36,0xff,0xff,0xff,0x14,0x00,0x00,0x00,0x00,0x00,0x00,0x08,0x14,0x00,0x00,0x00,0x18,0x00,0x00,0x00,0x04,0x00,0x00,0x00,0xa2,0xff,0xff,0xff,0x00,0x00,0x00,0x01,0x01,0x00,0x00,0x00,0x10,0x00,0x00,0x00,0x03,0x00,0x00,0x00,0x0f,0x00,0x00,0x00,0x05,0x00,0x00,0x00,0x07,0x00,0x00,0x00,0x9e,0xff,0xff,0xff,0x0c,0x00,0x00,0x00,0x10,0x00,0x00,0x00,0x02,0x00,0x00,0x00,0x01,0x00,0x00,0x00,0x0f,0x00,0x00,0x00,0x02,0x00,0x00,0x00,0x0e,0x00,0x00,0x00,0x09,0x00,0x00,0x00,0x92,0xff,0xff,0xff,0x1c,0x00,0x00,0x00,0x00,0x00,0x00,0x0b,0x1c,0x00,0x00,0x00,0x20,0x00,0x00,0x00,0x03,0x00,0x00,0x00,0x00,0x00,0x06,0x00,0x08,0x00,0x07,0x00,0x06,0x00,0x00,0x00,0x00,0x00,0x00,0x01,0x01,0x00,0x00,0x00,0x0e,0x00,0x00,0x00,0x02,0x00,0x00,0x00,0x0d,0x00,0x00,0x00,0x06,0x00,0x00,0x00,0x00,0x00,0x0a,0x00,0x10,0x00,0x0c,0x00,0x08,0x00,0x04,0x00,0x0a,0x00,0x00,0x00,0x0c,0x00,0x00,0x00,0x10,0x00,0x00,0x00,0x02,0x00,0x00,0x00,0x01,0x00,0x00,0x00,0x0d,0x00,0x00,0x00,0x02,0x00,0x00,0x00,0x0c,0x00,0x00,0x00,0x01,0x00,0x00,0x00,0x00,0x00,0x0e,0x00,0x1a,0x00,0x14,0x00,0x10,0x00,0x0c,0x00,0x0b,0x00,0x04,0x00,0x0e,0x00,0x00,0x00,0x20,0x00,0x00,0x00,0x00,0x00,0x00,0x01,0x28,0x00,0x00,0x00,0x2c,0x00,0x00,0x00,0x01,0x00,0x00,0x00,0x00,0x00,0x0a,0x00,0x10,0x00,0x0f,0x00,0x08,0x00,0x04,0x00,0x0a,0x00,0x00,0x00,0x01,0x00,0x00,0x00,0x01,0x00,0x00,0x00,0x00,0x00,0x00,0x01,0x01,0x00,0x00,0x00,0x0c,0x00,0x00,0x00,0x03,0x00,0x00,0x00,0x0b,0x00,0x00,0x00,0x02,0x00,0x00,0x00,0x03,0x00,0x00,0x00,0x00,0x00,0x0e,0x00,0x14,0x00,0x00,0x00,0x10,0x00,0x0c,0x00,0x0b,0x00,0x04,0x00,0x0e,0x00,0x00,0x00,0x10,0x00,0x00,0x00,0x00,0x00,0x00,0x34,0x0c,0x00,0x00,0x00,0x10,0x00,0x00,0x00,0x2c,0xf9,0xff,0xff,0x01,0x00,0x00,0x00,0x0b,0x00,0x00,0x00,0x02,0x00,0x00,0x00,0x00,0x00,0x00,0x00,0x0a,0x00,0x00,0x00,0x01,0x00,0x00,0x00,0x11,0x00,0x00,0x00,0x01,0x00,0x00,0x00,0x00,0x00,0x00,0x00,0x12,0x00,0x00,0x00,0x20,0x06,0x00,0x00,0xc8,0x05,0x00,0x00,0x68,0x05,0x00,0x00,0x14,0x05,0x00,0x00,0xd4,0x04,0x00,0x00,0x94,0x04,0x00,0x00,0x50,0x04,0x00,0x00,0x14,0x04,0x00,0x00,0xd8,0x03,0x00,0x00,0x98,0x03,0x00,0x00,0x38,0x03,0x00,0x00,0xb8,0x02,0x00,0x00,0x44,0x02,0x00,0x00,0xd0,0x01,0x00,0x00,0x50,0x01,0x00,0x00,0xf0,0x00,0x00,0x00,0x60,0x00,0x00,0x00,0x04,0x00,0x00,0x00,0x3e,0xfa,0xff,0xff,0x00,0x00,0x00,0x01,0x14,0x00,0x00,0x00,0x1c,0x00,0x00,0x00,0x1c,0x00,0x00,0x00,0x12,0x00,0x00,0x00,0x34,0x00,0x00,0x00,0x02,0x00,0x00,0x00,0xff,0xff,0xff,0xff,0x02,0x00,0x00,0x00,0xc8,0xf9,0xff,0xff,0x1b,0x00,0x00,0x00,0x53,0x74,0x61,0x74,0x65,0x66,0x75,0x6c,0x50,0x61,0x72,0x74,0x69,0x74,0x69,0x6f,0x6e,0x65,0x64,0x43,0x61,0x6c,0x6c,0x5f,0x31,0x3a,0x30,0x00,0x02,0x00,0x00,0x00,0x01,0x00,0x00,0x00,0x02,0x00,0x00,0x00,0x96,0xfa,0xff,0xff,0x00,0x00,0x00,0x01,0x14,0x00,0x00,0x00,0x1c,0x00,0x00,0x00,0x1c,0x00,0x00,0x00,0x11,0x00,0x00,0x00,0x68,0x00,0x00,0x00,0x02,0x00,0x00,0x00,0xff,0xff,0xff,0xff,0x20,0x00,0x00,0x00,0x20,0xfa,0xff,0xff,0x4e,0x00,0x00,0x00,0x73,0x65,0x71,0x75,0x65,0x6e,0x74,0x69,0x61,0x6c,0x5f,0x31,0x2f,0x64,0x65,0x6e,0x73,0x65,0x5f,0x31,0x2f,0x4d,0x61,0x74,0x4d,0x75,0x6c,0x3b,0x73,0x65,0x71,0x75,0x65,0x6e,0x74,0x69,0x61,0x6c,0x5f,0x31,0x2f,0x64,0x65,0x6e,0x73,0x65,0x5f,0x31,0x2f,0x52,0x65,0x6c,0x75,0x3b,0x73,0x65,0x71,0x75,0x65,0x6e,0x74,0x69,0x61,0x6c,0x5f,0x31,0x2f,0x64,0x65,0x6e,0x73,0x65,0x5f,0x31,0x2f,0x41,0x64,0x64,0x00,0x00,0x02,0x00,0x00,0x00,0x01,0x00,0x00,0x00,0x20,0x00,0x00,0x00,0x22,0xfb,0xff,0xff,0x00,0x00,0x00,0x01,0x14,0x00,0x00,0x00,0x1c,0x00,0x00,0x00,0x1c,0x00,0x00,0x00,0x10,0x00,0x00,0x00,0x38,0x00,0x00,0x00,0x02,0x00,0x00,0x00,0xff,0xff,0xff,0xff,0x40,0x00,0x00,0x00,0xac,0xfa,0xff,0xff,0x1e,0x00,0x00,0x00,0x73,0x65,0x71,0x75,0x65,0x6e,0x74,0x69,0x61,0x6c,0x5f,0x31,0x2f,0x66,0x6c,0x61,0x74,0x74,0x65,0x6e,0x5f,0x31,0x2f,0x52,0x65,0x73,0x68,0x61,0x70,0x65,0x00,0x00,0x02,0x00,0x00,0x00,0x01,0x00,0x00,0x00,0x40,0x00,0x00,0x00,0x7e,0xfb,0xff,0xff,0x00,0x00,0x00,0x01,0x14,0x00,0x00,0x00,0x20,0x00,0x00,0x00,0x20,0x00,0x00,0x00,0x0f,0x00,0x00,0x00,0x54,0x00,0x00,0x00,0x03,0x00,0x00,0x00,0xff,0xff,0xff,0xff,0x02,0x00,0x00,0x00,0x20,0x00,0x00,0x00,0x0c,0xfb,0xff,0xff,0x34,0x00,0x00,0x00,0x73,0x65,0x71,0x75,0x65,0x6e,0x74,0x69,0x61,0x6c,0x5f,0x31,0x2f,0x63,0x6f,0x6e,0x76,0x31,0x64,0x5f,0x31,0x2f,0x52,0x65,0x6c,0x75,0x3b,0x73,0x65,0x71,0x75,0x65,0x6e,0x74,0x69,0x61,0x6c,0x5f,0x31,0x2f,0x63,0x6f,0x6e,0x76,0x31,0x64,0x5f,0x31,0x2f,0x61,0x64,0x64,0x00,0x00,0x00,0x00,0x03,0x00,0x00,0x00,0x01,0x00,0x00,0x00,0x02,0x00,0x00,0x00,0x20,0x00,0x00,0x00,0xfa,0xfb,0xff,0xff,0x00,0x00,0x00,0x01,0x14,0x00,0x00,0x00,0x20,0x00,0x00,0x00,0x20,0x00,0x00,0x00,0x0e,0x00,0x00,0x00,0x48,0x00,0x00,0x00,0x03,0x00,0x00,0x00,0xff,0xff,0xff,0xff,0x02,0x00,0x00,0x00,0x20,0x00,0x00,0x00,0x88,0xfb,0xff,0xff,0x29,0x00,0x00,0x00,0x73,0x65,0x71,0x75,0x65,0x6e,0x74,0x69,0x61,0x6c,0x5f,0x31,0x2f,0x63,0x6f,0x6e,0x76,0x31,0x64,0x5f,0x31,0x2f,0x63,0x6f,0x6e,0x76,0x6f,0x6c,0x75,0x74,0x69,0x6f,0x6e,0x2f,0x53,0x71,0x75,0x65,0x65,0x7a,0x65,0x00,0x00,0x00,0x03,0x00,0x00,0x00,0x01,0x00,0x00,0x00,0x02,0x00,0x00,0x00,0x20,0x00,0x00,0x00,0x6a,0xfc,0xff,0xff,0x00,0x00,0x00,0x01,0x14,0x00,0x00,0x00,0x24,0x00,0x00,0x00,0x24,0x00,0x00,0x00,0x0d,0x00,0x00,0x00,0x44,0x00,0x00,0x00,0x04,0x00,0x00,0x00,0xff,0xff,0xff,0xff,0x01,0x00,0x00,0x00,0x02,0x00,0x00,0x00,0x20,0x00,0x00,0x00,0xfc,0xfb,0xff,0xff,0x21,0x00,0x00,0x00,0x73,0x65,0x71,0x75,0x65,0x6e,0x74,0x69,0x61,0x6c,0x5f,0x31,0x2f,0x63,0x6f,0x6e,0x76,0x31,0x64,0x5f,0x31,0x2f,0x63,0x6f,0x6e,0x76,0x6f,0x6c,0x75,0x74,0x69,0x6f,0x6e,0x00,0x00,0x00,0x04,0x00,0x00,0x00,0x01,0x00,0x00,0x00,0x01,0x00,0x00,0x00,0x02,0x00,0x00,0x00,0x20,0x00,0x00,0x00,0xda,0xfc,0xff,0xff,0x00,0x00,0x00,0x01,0x14,0x00,0x00,0x00,0x24,0x00,0x00,0x00,0x24,0x00,0x00,0x00,0x0c,0x00,0x00,0x00,0x50,0x00,0x00,0x00,0x04,0x00,0x00,0x00,0xff,0xff,0xff,0xff,0x01,0x00,0x00,0x00,0x03,0x00,0x00,0x00,0x01,0x00,0x00,0x00,0x6c,0xfc,0xff,0xff,0x2c,0x00,0x00,0x00,0x73,0x65,0x71,0x75,0x65,0x6e,0x74,0x69,0x61,0x6c,0x5f,0x31,0x2f,0x63,0x6f,0x6e,0x76,0x31,0x64,0x5f,0x31,0x2f,0x63,0x6f,0x6e,0x76,0x6f,0x6c,0x75,0x74,0x69,0x6f,0x6e,0x2f,0x45,0x78,0x70,0x61,0x6e,0x64,0x44,0x69,0x6d,0x73,0x00,0x00,0x00,0x00,0x04,0x00,0x00,0x00,0x01,0x00,0x00,0x00,0x01,0x00,0x00,0x00,0x03,0x00,0x00,0x00,0x01,0x00,0x00,0x00,0xaa,0xfd,0xff,0xff,0x00,0x00,0x00,0x01,0x14,0x00,0x00,0x00,0x14,0x00,0x00,0x00,0x0b,0x00,0x00,0x00,0x00,0x00,0x00,0x02,0x40,0x00,0x00,0x00,0xd4,0xfc,0xff,0xff,0x30,0x00,0x00,0x00,0x73,0x65,0x71,0x75,0x65,0x6e,0x74,0x69,0x61,0x6c,0x5f,0x31,0x2f,0x63,0x6f,0x6e,0x76,0x31,0x64,0x5f,0x31,0x2f,0x63,0x6f,0x6e,0x76,0x6f,0x6c,0x75,0x74,0x69,0x6f,0x6e,0x2f,0x45,0x78,0x70,0x61,0x6e,0x64,0x44,0x69,0x6d,0x73,0x2f,0x64,0x69,0x6d,0x00,0x00,0x00,0x00,0x00,0x00,0x00,0x00,0x06,0xfe,0xff,0xff,0x00,0x00,0x00,0x01,0x14,0x00,0x00,0x00,0x14,0x00,0x00,0x00,0x0a,0x00,0x00,0x00,0x00,0x00,0x00,0x02,0x1c,0x00,0x00,0x00,0x30,0xfd,0xff,0xff,0x0f,0x00,0x00,0x00,0x61,0x72,0x69,0x74,0x68,0x2e,0x63,0x6f,0x6e,0x73,0x74,0x61,0x6e,0x74,0x38,0x00,0x01,0x00,0x00,0x00,0x02,0x00,0x00,0x00,0x9e,0xfe,0xff,0xff,0x00,0x00,0x00,0x01,0x10,0x00,0x00,0x00,0x10,0x00,0x00,0x00,0x09,0x00,0x00,0x00,0x1c,0x00,0x00,0x00,0x68,0xfd,0xff,0xff,0x0f,0x00,0x00,0x00,0x61,0x72,0x69,0x74,0x68,0x2e,0x63,0x6f,0x6e,0x73,0x74,0x61,0x6e,0x74,0x37,0x00,0x01,0x00,0x00,0x00,0x02,0x00,0x00,0x00,0xd6,0xfe,0xff,0xff,0x00,0x00,0x00,0x01,0x10,0x00,0x00,0x00,0x10,0x00,0x00,0x00,0x08,0x00,0x00,0x00,0x1c,0x00,0x00,0x00,0xa0,0xfd,0xff,0xff,0x0f,0x00,0x00,0x00,0x61,0x72,0x69,0x74,0x68,0x2e,0x63,0x6f,0x6e,0x73,0x74,0x61,0x6e,0x74,0x36,0x00,0x01,0x00,0x00,0x00,0x20,0x00,0x00,0x00,0x0e,0xff,0xff,0xff,0x00,0x00,0x00,0x01,0x10,0x00,0x00,0x00,0x10,0x00,0x00,0x00,0x07,0x00,0x00,0x00,0x1c,0x00,0x00,0x00,0xd8,0xfd,0xff,0xff,0x0f,0x00,0x00,0x00,0x61,0x72,0x69,0x74,0x68,0x2e,0x63,0x6f,0x6e,0x73,0x74,0x61,0x6e,0x74,0x35,0x00,0x03,0x00,0x00,0x00,0x01,0x00,0x00,0x00,0x01,0x00,0x00,0x00,0x20,0x00,0x00,0x00,0x4e,0xff,0xff,0xff,0x00,0x00,0x00,0x01,0x10,0x00,0x00,0x00,0x10,0x00,0x00,0x00,0x06,0x00,0x00,0x00,0x1c,0x00,0x00,0x00,0x18,0xfe,0xff,0xff,0x0f,0x00,0x00,0x00,0x61,0x72,0x69,0x74,0x68,0x2e,0x63,0x6f,0x6e,0x73,0x74,0x61,0x6e,0x74,0x34,0x00,0x02,0x00,0x00,0x00,0x20,0x00,0x00,0x00,0x40,0x00,0x00,0x00,0x8a,0xff,0xff,0xff,0x00,0x00,0x00,0x01,0x10,0x00,0x00,0x00,0x10,0x00,0x00,0x00,0x05,0x00,0x00,0x00,0x1c,0x00,0x00,0x00,0x54,0xfe,0xff,0xff,0x0f,0x00,0x00,0x00,0x61,0x72,0x69,0x74,0x68,0x2e,0x63,0x6f,0x6e,0x73,0x74,0x61,0x6e,0x74,0x33,0x00,0x02,0x00,0x00,0x00,0x02,0x00,0x00,0x00,0x20,0x00,0x00,0x00,0xc6,0xff,0xff,0xff,0x00,0x00,0x00,0x01,0x10,0x00,0x00,0x00,0x10,0x00,0x00,0x00,0x04,0x00,0x00,0x00,0x1c,0x00,0x00,0x00,0x90,0xfe,0xff,0xff,0x0f,0x00,0x00,0x00,0x61,0x72,0x69,0x74,0x68,0x2e,0x63,0x6f,0x6e,0x73,0x74,0x61,0x6e,0x74,0x32,0x00,0x01,0x00,0x00,0x00,0x20,0x00,0x00,0x00,0x00,0x00,0x16,0x00,0x18,0x00,0x14,0x00,0x00,0x00,0x10,0x00,0x0c,0x00,0x08,0x00,0x00,0x00,0x00,0x00,0x00,0x00,0x07,0x00,0x16,0x00,0x00,0x00,0x00,0x00,0x00,0x01,0x10,0x00,0x00,0x00,0x10,0x00,0x00,0x00,0x03,0x00,0x00,0x00,0x1c,0x00,0x00,0x00,0xe0,0xfe,0xff,0xff,0x0f,0x00,0x00,0x00,0x61,0x72,0x69,0x74,0x68,0x2e,0x63,0x6f,0x6e,0x73,0x74,0x61,0x6e,0x74,0x31,0x00,0x04,0x00,0x00,0x00,0x20,0x00,0x00,0x00,0x01,0x00,0x00,0x00,0x02,0x00,0x00,0x00,0x01,0x00,0x00,0x00,0x00,0x00,0x16,0x00,0x1c,0x00,0x18,0x00,0x17,0x00,0x10,0x00,0x0c,0x00,0x08,0x00,0x00,0x00,0x00,0x00,0x00,0x00,0x07,0x00,0x16,0x00,0x00,0x00,0x00,0x00,0x00,0x01,0x14,0x00,0x00,0x00,0x14,0x00,0x00,0x00,0x02,0x00,0x00,0x00,0x00,0x00,0x00,0x02,0x1c,0x00,0x00,0x00,0x40,0xff,0xff,0xff,0x0e,0x00,0x00,0x00,0x61,0x72,0x69,0x74,0x68,0x2e,0x63,0x6f,0x6e,0x73,0x74,0x61,0x6e,0x74,0x00,0x00,0x01,0x00,0x00,0x00,0x03,0x00,0x00,0x00,0x00,0x00,0x16,0x00,0x1c,0x00,0x18,0x00,0x00,0x00,0x14,0x00,0x10,0x00,0x0c,0x00,0x00,0x00,0x00,0x00,0x08,0x00,0x07,0x00,0x16,0x00,0x00,0x00,0x00,0x00,0x00,0x01,0x14,0x00,0x00,0x00,0x20,0x00,0x00,0x00,0x20,0x00,0x00,0x00,0x01,0x00,0x00,0x00,0x3c,0x00,0x00,0x00,0x03,0x00,0x00,0x00,0xff,0xff,0xff,0xff,0x03,0x00,0x00,0x00,0x01,0x00,0x00,0x00,0xa4,0xff,0xff,0xff,0x1e,0x00,0x00,0x00,0x73,0x65,0x72,0x76,0x69,0x6e,0x67,0x5f,0x64,0x65,0x66,0x61,0x75,0x6c,0x74,0x5f,0x6b,0x65,0x72,0x61,0x73,0x5f,0x74,0x65,0x6e,0x73,0x6f,0x72,0x3a,0x30,0x00,0x00,0x03,0x00,0x00,0x00,0x01,0x00,0x00,0x00,0x03,0x00,0x00,0x00,0x01,0x00,0x00,0x00,0x05,0x00,0x00,0x00,0x4c,0x00,0x00,0x00,0x30,0x00,0x00,0x00,0x20,0x00,0x00,0x00,0x18,0x00,0x00,0x00,0x04,0x00,0x00,0x00,0xd4,0xff,0xff,0xff,0x09,0x00,0x00,0x00,0x00,0x00,0x00,0x09,0x04,0x00,0x04,0x00,0x04,0x00,0x00,0x00,0xe8,0xff,0xff,0xff,0x16,0x00,0x00,0x00,0x00,0x00,0x00,0x16,0xf4,0xff,0xff,0xff,0x03,0x00,0x00,0x00,0x00,0x00,0x00,0x03,0x0c,0x00,0x0c,0x00,0x0b,0x00,0x00,0x00,0x00,0x00,0x04,0x00,0x0c,0x00,0x00,0x00,0x46,0x00,0x00,0x00,0x00,0x00,0x00,0x46};
const int g_model_len = 12072;

const scaler_i_mean={ 5.0, 1026.182962962963, 1479.318703703704 };
const scaler_i_scale={ 2.581988897471611, 630.4384104789858, 516.6681678044368 };
const scaler_o_mean={ 2.5, 35.0 };
const scaler_o_scale={ 1.707825127659933, 7.0710678118654755 };
#endif  // MODEL_H
