
#ifndef MODEL_H
#define MODEL_H

// MSE(Pos, Temp): [0.01228337 0.19005732]


const unsigned char g_model[] = {0x1c,0x00,0x00,0x00,0x54,0x46,0x4c,0x33,0x14,0x00,0x20,0x00,0x1c,0x00,0x18,0x00,0x14,0x00,0x10,0x00,0x0c,0x00,0x00,0x00,0x08,0x00,0x04,0x00,0x14,0x00,0x00,0x00,0x1c,0x00,0x00,0x00,0x8c,0x00,0x00,0x00,0xe4,0x00,0x00,0x00,0x04,0x26,0x00,0x00,0x14,0x26,0x00,0x00,0x98,0x2e,0x00,0x00,0x03,0x00,0x00,0x00,0x01,0x00,0x00,0x00,0x04,0x00,0x00,0x00,0xd6,0xd8,0xff,0xff,0x0c,0x00,0x00,0x00,0x1c,0x00,0x00,0x00,0x3c,0x00,0x00,0x00,0x0f,0x00,0x00,0x00,0x73,0x65,0x72,0x76,0x69,0x6e,0x67,0x5f,0x64,0x65,0x66,0x61,0x75,0x6c,0x74,0x00,0x01,0x00,0x00,0x00,0x04,0x00,0x00,0x00,0x90,0xff,0xff,0xff,0x11,0x00,0x00,0x00,0x04,0x00,0x00,0x00,0x08,0x00,0x00,0x00,0x6f,0x75,0x74,0x70,0x75,0x74,0x5f,0x30,0x00,0x00,0x00,0x00,0x01,0x00,0x00,0x00,0x04,0x00,0x00,0x00,0x8a,0xda,0xff,0xff,0x04,0x00,0x00,0x00,0x0c,0x00,0x00,0x00,0x6b,0x65,0x72,0x61,0x73,0x5f,0x74,0x65,0x6e,0x73,0x6f,0x72,0x00,0x00,0x00,0x00,0x02,0x00,0x00,0x00,0x34,0x00,0x00,0x00,0x04,0x00,0x00,0x00,0xdc,0xff,0xff,0xff,0x14,0x00,0x00,0x00,0x04,0x00,0x00,0x00,0x13,0x00,0x00,0x00,0x43,0x4f,0x4e,0x56,0x45,0x52,0x53,0x49,0x4f,0x4e,0x5f,0x4d,0x45,0x54,0x41,0x44,0x41,0x54,0x41,0x00,0x08,0x00,0x0c,0x00,0x08,0x00,0x04,0x00,0x08,0x00,0x00,0x00,0x13,0x00,0x00,0x00,0x04,0x00,0x00,0x00,0x13,0x00,0x00,0x00,0x6d,0x69,0x6e,0x5f,0x72,0x75,0x6e,0x74,0x69,0x6d,0x65,0x5f,0x76,0x65,0x72,0x73,0x69,0x6f,0x6e,0x00,0x15,0x00,0x00,0x00,0x1c,0x25,0x00,0x00,0x14,0x25,0x00,0x00,0xf8,0x24,0x00,0x00,0xe0,0x23,0x00,0x00,0x50,0x23,0x00,0x00,0x40,0x22,0x00,0x00,0x30,0x02,0x00,0x00,0xa0,0x01,0x00,0x00,0x10,0x01,0x00,0x00,0xf8,0x00,0x00,0x00,0xe0,0x00,0x00,0x00,0xcc,0x00,0x00,0x00,0xc4,0x00,0x00,0x00,0xbc,0x00,0x00,0x00,0xb4,0x00,0x00,0x00,0xac,0x00,0x00,0x00,0xa4,0x00,0x00,0x00,0x9c,0x00,0x00,0x00,0x94,0x00,0x00,0x00,0x74,0x00,0x00,0x00,0x04,0x00,0x00,0x00,0x5a,0xdb,0xff,0xff,0x04,0x00,0x00,0x00,0x60,0x00,0x00,0x00,0x10,0x00,0x00,0x00,0x00,0x00,0x00,0x00,0x08,0x00,0x0e,0x00,0x08,0x00,0x04,0x00,0x08,0x00,0x00,0x00,0x10,0x00,0x00,0x00,0x24,0x00,0x00,0x00,0x00,0x00,0x06,0x00,0x08,0x00,0x04,0x00,0x06,0x00,0x00,0x00,0x04,0x00,0x00,0x00,0x00,0x00,0x00,0x00,0x0c,0x00,0x18,0x00,0x14,0x00,0x10,0x00,0x0c,0x00,0x04,0x00,0x0c,0x00,0x00,0x00,0x81,0xdb,0xf2,0xa3,0xbb,0xed,0x47,0x42,0x02,0x00,0x00,0x00,0x02,0x00,0x00,0x00,0x04,0x00,0x00,0x00,0x06,0x00,0x00,0x00,0x32,0x2e,0x31,0x37,0x2e,0x30,0x00,0x00,0xc6,0xdb,0xff,0xff,0x04,0x00,0x00,0x00,0x10,0x00,0x00,0x00,0x31,0x2e,0x31,0x30,0x2e,0x30,0x00,0x00,0x00,0x00,0x00,0x00,0x00,0x00,0x00,0x00,0xfc,0xd2,0xff,0xff,0x00,0xd3,0xff,0xff,0x04,0xd3,0xff,0xff,0x08,0xd3,0xff,0xff,0x0c,0xd3,0xff,0xff,0x10,0xd3,0xff,0xff,0x14,0xd3,0xff,0xff,0xfe,0xdb,0xff,0xff,0x04,0x00,0x00,0x00,0x04,0x00,0x00,0x00,0xfd,0xff,0xff,0xff,0x0e,0xdc,0xff,0xff,0x04,0x00,0x00,0x00,0x08,0x00,0x00,0x00,0xff,0xff,0xff,0xff,0x40,0x00,0x00,0x00,0x22,0xdc,0xff,0xff,0x04,0x00,0x00,0x00,0x08,0x00,0x00,0x00,0xe9,0x2b,0x90,0x3b,0xdc,0xd8,0xf4,0xbd,0x36,0xdc,0xff,0xff,0x04,0x00,0x00,0x00,0x80,0x00,0x00,0x00,0x60,0x19,0xf9,0x3d,0x6c,0xe1,0x38,0x3e,0x6f,0x3d,0x9a,0x3c,0xe6,0x39,0x8f,0xbd,0x52,0x65,0xdd,0xbd,0xc2,0xe4,0xfc,0xbd,0x76,0x9e,0x39,0xbd,0x15,0xbf,0x1e,0x3e,0x9f,0xae,0x07,0xbe,0x30,0xc5,0xf1,0x3d,0xdc,0x03,0x48,0x3e,0xde,0x1d,0xb6,0x3c,0x3d,0x30,0x31,0x3e,0x53,0xa0,0x29,0x3e,0x43,0xf6,0x7d,0xbe,0x8c,0x68,0xf8,0xbc,0x35,0x8a,0x50,0xbe,0xe7,0x74,0x99,0xbd,0x56,0x42,0xe1,0x3d,0x51,0x08,0x5e,0xbd,0x00,0x00,0x00,0x00,0x35,0x79,0x48,0x3d,0x2d,0x44,0xe2,0x3c,0x00,0x00,0x00,0x00,0x87,0x37,0xb4,0xbd,0xdc,0x4c,0x25,0x3e,0xd3,0x0b,0x2b,0x3d,0x76,0xc2,0x86,0xbc,0x14,0xe9,0x52,0x3e,0x45,0xa4,0x8c,0xbd,0x5a,0x63,0x06,0x3e,0x74,0x1f,0x03,0xbe,0xc2,0xdc,0xff,0xff,0x04,0x00,0x00,0x00,0x80,0x00,0x00,0x00,0xb3,0x6b,0x86,0x3e,0x52,0x5d,0x14,0x3e,0x62,0x03,0x0a,0x3d,0x42,0x6c,0xf1,0x3c,0x29,0xd0,0xaa,0xbd,0x3a,0xc2,0x7f,0x3d,0xc4,0x1e,0x0b,0xbe,0xb0,0xcb,0x47,0xbe,0x82,0xb9,0xab,0x3e,0x3b,0x6e,0xdc,0x3d,0xed,0xda,0x1f,0x3d,0xc8,0x55,0xd9,0x3d,0x6c,0xfe,0x2b,0x3e,0x81,0xbc,0x27,0x3e,0xea,0xfc,0x4a,0x3d,0x20,0xa8,0x72,0x3d,0xd3,0x5f,0x91,0x3e,0xd9,0x23,0x91,0xbe,0x0a,0xf0,0x10,0x3e,0xc9,0xaa,0x59,0x3e,0x7a,0xa1,0x5c,0x3d,0x4d,0x1b,0x82,0xbd,0x8a,0x2e,0x4c,0xbd,0xd0,0xe6,0x4b,0x3e,0x30,0xde,0x44,0x3e,0xc7,0xd8,0x01,0xbe,0xec,0x6e,0x08,0xbd,0x53,0x1a,0xc5,0x3d,0x65,0x44,0x51,0xbe,0x59,0xec,0x69,0xbe,0x96,0x2e,0x98,0xbe,0x88,0x8d,0x43,0x3c,0x4e,0xdd,0xff,0xff,0x04,0x00,0x00,0x00,0x00,0x20,0x00,0x00,0xca,0xbf,0x55,0x3e,0x9a,0xc3,0x55,0x3e,0xf6,0x0b,0x2c,0x3e,0x8a,0x6f,0x1b,0x3d,0x3b,0x00,0xae,0x3d,0x5e,0x3c,0x96,0x3e,0xab,0x8d,0x05,0x3d,0x5f,0x2d,0xf2,0xbe,0xc7,0xd4,0xb5,0xbe,0xec,0x78,0x34,0xbf,0x20,0x9b,0x46,0xbd,0xfa,0x7a,0x94,0x3e,0x86,0xaf,0x2f,0xbf,0x7d,0x72,0xa3,0xbd,0xa0,0x3a,0x24,0xbf,0xc2,0x17,0x01,0xbf,0xe1,0x01,0xfa,0x3e,0x2f,0xb1,0x09,0xbe,0x2a,0x6a,0x3d,0xbf,0xef,0x11,0x8a,0x3e,0x7a,0x21,0x39,0xbe,0xeb,0xce,0x10,0xbe,0xdc,0x97,0x64,0x3d,0x22,0xb2,0x2f,0xbf,0x62,0x57,0xaa,0x3e,0x2f,0xc0,0xf8,0xbd,0x42,0xe9,0xa4,0xbe,0x85,0x36,0x6c,0xbe,0xb0,0xcb,0x70,0xbe,0x7e,0xbe,0x8e,0xbd,0xe7,0x07,0x1c,0x3c,0xce,0xc6,0x3b,0xbd,0x60,0xec,0x9f,0x3d,0x27,0x16,0x28,0x3e,0xbb,0x44,0x1c,0x3e,0xe8,0x99,0x3d,0xbe,0x13,0x44,0x61,0x3d,0x32,0xcc,0x02,0x3d,0x8c,0xce,0x0f,0x3d,0xd7,0x86,0xe8,0xbd,0xda,0x39,0x3a,0x3e,0x3e,0x67,0x89,0xbe,0xa7,0x86,0x7c,0x3e,0x3b,0xd6,0x1b,0x3c,0xb9,0xfe,0x8c,0x3e,0x0b,0x14,0x3a,0xbe,0x14,0xea,0xf4,0x3b,0xd8,0x62,0x21,0x3e,0x01,0x66,0xde,0x3d,0x13,0x9a,0x9f,0xbf,0x8b,0xf1,0x91,0xbe,0x14,0x57,0x84,0x3e,0xe3,0x04,0x85,0x3e,0x2b,0xb0,0x28,0xbe,0x80,0x9c,0x6e,0xbe,0x04,0x62,0xda,0x3e,0xe0,0x50,0x04,0x3e,0x59,0x12,0x78,0xbd,0xdc,0xd6,0x57,0x3e,0xde,0xe3,0x60,0x3c,0x22,0xfb,0x48,0xbf,0x37,0xfc,0x88,0x3d,0x09,0xc9,0x0a,0xbf,0xd5,0x42,0x39,0xbd,0xb6,0xec,0x21,0x3d,0x94,0xb7,0xe0,0x3d,0x2e,0xe2,0x92,0x3d,0x5d,0xa2,0xbd,0xbd,0x99,0x46,0x07,0xbc,0x3d,0x70,0x36,0x3f,0xe0,0x4c,0x89,0xbd,0xc1,0x4c,0xcd,0xbd,0xd3,0x6e,0xb3,0x3d,0x0c,0x33,0x8e,0xbe,0xc7,0x73,0x37,0x3d,0x94,0x73,0x34,0x3e,0x4f,0x01,0xbf,0xbd,0x80,0x35,0x8b,0x3c,0x7c,0xaa,0xf6,0x3c,0x9e,0x9e,0xa8,0xbd,0x97,0x87,0x4c,0x3e,0x51,0x8d,0x9a,0xbd,0x40,0x12,0x03,0x3d,0x80,0x2e,0x9e,0x3d,0x5a,0xe8,0xa7,0x3d,0xe2,0x21,0x73,0x3d,0x0d,0x9b,0x07,0xbd,0x5a,0x42,0xed,0xbd,0xa9,0x89,0x26,0xbd,0xad,0x5b,0x8a,0x3d,0x1b,0xd2,0x71,0xbe,0xf9,0xec,0xb8,0xbd,0x34,0x15,0xef,0xbb,0x4b,0x58,0x9a,0x3d,0xa0,0x3e,0x9d,0xbd,0xd0,0x5a,0x7b,0xbd,0xfd,0xa5,0x62,0x3d,0x39,0x71,0x42,0xbe,0xd3,0x0b,0x0b,0x3e,0x6d,0x5d,0x53,0x3e,0x51,0x09,0xbf,0xbc,0x67,0xca,0xc2,0xbe,0x52,0x2b,0x61,0x3e,0x68,0x84,0x3b,0xbe,0x84,0x79,0x3b,0x3e,0xb5,0xd1,0x3b,0xbe,0x80,0x72,0x57,0xbe,0xda,0x3e,0xbe,0xbd,0xd2,0x07,0x59,0x3e,0xd1,0x64,0x01,0x3d,0xfb,0x54,0xb8,0x3e,0x14,0x53,0x19,0x3e,0x6e,0xf6,0x43,0x3e,0x40,0x90,0x98,0xbf,0xdb,0xc4,0x87,0x3e,0x8a,0x0c,0x27,0x3e,0x7e,0x57,0x81,0xbc,0xe9,0xfd,0xa0,0x3c,0x54,0x5b,0x56,0xbc,0x07,0x83,0xbd,0x3e,0x44,0xf9,0xe8,0x3d,0x1b,0x2c,0x8c,0x3b,0xd4,0x7c,0xe3,0x3d,0x2c,0xcd,0x1b,0x3e,0xf0,0x51,0x90,0xbf,0x65,0x41,0x98,0xbe,0x87,0x74,0xd2,0xbe,0x8f,0x78,0x39,0xbe,0x1f,0x6e,0xc5,0x3c,0xda,0xf7,0x9d,0xbc,0x15,0x28,0x89,0x3e,0xcb,0x2d,0x61,0x3e,0xf3,0xcd,0x48,0x3e,0x6e,0xc0,0x95,0xbe,0x7d,0x19,0x1f,0x3e,0x0f,0x1e,0x37,0xbd,0x74,0x99,0x60,0x3c,0x0f,0x8b,0x6c,0xbd,0xa1,0x73,0x36,0xbb,0x53,0x21,0x5f,0xbe,0x2f,0xec,0xa1,0x3e,0xbb,0xb6,0x66,0x3e,0x16,0xd5,0xc0,0x3d,0x49,0xf9,0x2e,0x3f,0x30,0x07,0x16,0x3d,0xa5,0xe1,0x1c,0xbf,0xaa,0x75,0x9d,0x3e,0x93,0x27,0x0d,0xbd,0x86,0xe0,0x66,0x3e,0x87,0xa9,0x52,0x3e,0xb2,0x61,0x7a,0xbe,0x9d,0x22,0xde,0x3e,0xe3,0x0c,0xc7,0xbe,0x8b,0xe5,0x65,0x3c,0x7a,0x21,0xe0,0xbd,0x2b,0x4e,0x1b,0x3e,0x64,0xa6,0x4f,0xbf,0x0d,0xe1,0x64,0xbe,0x83,0xb8,0x27,0xbf,0x92,0xc1,0x3c,0xbe,0x4e,0x82,0xc8,0xbd,0x79,0x0d,0x18,0x3e,0x57,0x53,0x9b,0xbe,0x14,0x66,0x5f,0x3e,0x3d,0x64,0x20,0xbe,0xf4,0x27,0x8a,0xbf,0xe8,0x17,0x31,0xbe,0xfa,0xef,0xed,0x3d,0xab,0x2d,0xfd,0xbd,0xee,0xa2,0xef,0x3e,0x84,0x03,0x2e,0x3d,0xf8,0x85,0x5f,0xbe,0x62,0x06,0x56,0x3f,0xd3,0x3d,0x0b,0xbe,0x24,0x20,0x12,0x3f,0x91,0xc6,0x90,0x3f,0x74,0xd6,0xae,0xbd,0x3a,0x5e,0x5a,0x3f,0x45,0x63,0x1d,0x3f,0xcf,0x24,0xed,0xbe,0x0b,0xde,0xab,0x3d,0xa4,0x31,0x60,0x3d,0x65,0xbb,0xeb,0x3d,0x2b,0xa0,0x2d,0x3f,0xec,0x10,0x32,0x3d,0x29,0xef,0x28,0xbd,0x20,0x3d,0x73,0xbe,0x68,0x55,0x3b,0x3e,0x48,0x52,0xe2,0x3e,0x96,0x30,0xd6,0x3e,0xd7,0x40,0x46,0x3e,0x3b,0xd8,0x27,0xbe,0x65,0x02,0xc4,0xbe,0x03,0x48,0x53,0x3d,0xa9,0x8c,0x93,0xbd,0x18,0xd6,0x50,0x3e,0x2f,0x4c,0x18,0x3e,0x0b,0x9c,0xd4,0xbe,0xc6,0xed,0x35,0xbc,0x81,0x48,0x87,0x3e,0xc1,0x2b,0x97,0x3e,0x5d,0x53,0x7d,0x3d,0xb7,0x49,0x8e,0x3d,0xa5,0x98,0x1b,0xbe,0xb8,0x65,0x50,0x3d,0x6b,0x58,0x21,0xbe,0xa9,0xe7,0x8c,0x3e,0x9b,0xc8,0xf5,0x3e,0x55,0x8a,0x21,0xbe,0xc0,0xe2,0xfa,0xbd,0xe6,0x3f,0x8f,0x3e,0xae,0x26,0x03,0x3d,0x6e,0x9a,0xd3,0xbd,0xf4,0xe9,0x3c,0x3e,0x30,0x65,0xa9,0xbe,0xa2,0xf8,0x2f,0x3e,0xc6,0x2b,0x11,0x3d,0x0a,0xa8,0xd9,0x3d,0x7f,0x75,0xcd,0x3c,0xc0,0xdb,0x98,0x3d,0xf5,0xc7,0x84,0xbd,0xc2,0xb3,0xd9,0x3d,0x5d,0x57,0x36,0x3c,0x04,0x4d,0x90,0x3e,0xbc,0x96,0xb9,0xbe,0x2f,0x49,0xb9,0xbd,0xd8,0xf9,0xaf,0xbe,0x62,0x5c,0xa6,0x3e,0xcd,0xab,0x26,0x3e,0xcc,0xde,0xca,0xbd,0xb8,0xdf,0x22,0x3e,0x34,0x8e,0x04,0x3e,0xec,0x99,0xdb,0xbd,0x05,0x97,0x8e,0x3e,0xc5,0xfa,0x07,0x3e,0xfa,0x4a,0x6e,0x3e,0x3f,0x7b,0x1c,0x3d,0xf4,0xa6,0x8b,0xbd,0x17,0xb0,0x26,0x3f,0x86,0xbb,0xc2,0x3e,0xb7,0x8a,0xdb,0xbd,0xea,0x34,0x8d,0x3f,0x12,0xac,0x15,0x3f,0xa1,0x63,0x92,0xbe,0xb0,0xcf,0x53,0xbc,0x48,0xe8,0x72,0x3b,0xe2,0xe4,0x9f,0x3e,0x0f,0x32,0x08,0x3e,0xfc,0x02,0xd2,0x3d,0x64,0x0e,0x4f,0xbd,0x27,0xc1,0x80,0xbe,0x43,0x40,0x81,0xbd,0x6e,0xea,0x8d,0x3f,0xd6,0x98,0x82,0x3c,0xd3,0xa3,0xea,0x3e,0xe2,0x9b,0x01,0xbd,0xb2,0x89,0x8c,0xbe,0x8f,0xca,0x40,0x3e,0xbc,0xe1,0x10,0x3e,0x86,0x03,0x0e,0x3e,0xdd,0x04,0xd1,0xbd,0x82,0x27,0xde,0xbd,0xdc,0x44,0x8f,0x3e,0x57,0xba,0xf7,0x3d,0x11,0xf4,0x8c,0x3e,0x65,0xc4,0xb9,0x3e,0x7e,0x6e,0x0a,0xbd,0xfd,0x68,0x54,0xbd,0xe7,0x07,0xd0,0x3e,0x6d,0xd8,0x1c,0xbe,0x4f,0x6b,0xd9,0x3d,0x3d,0x04,0x28,0x3e,0x73,0xda,0x5e,0xbe,0xa7,0xdb,0x2e,0xbc,0xe2,0x8a,0x53,0x3e,0xa8,0x92,0x70,0xbe,0x04,0x96,0x88,0x3d,0xe3,0xd1,0xa4,0xba,0xf8,0x58,0xf3,0xbc,0x02,0x45,0xc2,0x3e,0x8b,0xea,0x9e,0xbd,0x90,0xff,0x50,0x3d,0x26,0xaa,0xa3,0xbd,0x2b,0x52,0xad,0x3e,0x65,0x8d,0x14,0xbd,0xe4,0x39,0x51,0x3d,0xca,0x32,0x5d,0x3e,0x6c,0x4b,0x24,0xbd,0xd0,0xc6,0x6a,0xbd,0x51,0xac,0xd8,0xbd,0x63,0x2d,0x70,0xbe,0xb1,0xbc,0x8b,0x3e,0xb6,0xf8,0x72,0xbe,0xea,0x6f,0x34,0xbe,0xe8,0xc7,0x1b,0x3e,0xa3,0x99,0x47,0x3e,0xab,0x9f,0x3c,0xbe,0x9b,0xd4,0xe4,0x3e,0x97,0xd9,0x7f,0x3d,0xd9,0x1b,0x7b,0x3e,0xf1,0x50,0xab,0x3d,0x57,0xaf,0xae,0xbe,0x36,0x23,0x23,0x3f,0x06,0xaf,0x2f,0x3e,0x09,0x6b,0x3f,0xbd,0xca,0x4d,0x86,0x3f,0x66,0x7f,0xea,0x3e,0x10,0x5d,0x1e,0xbe,0xc9,0x0b,0x48,0xbe,0x91,0xcb,0x35,0x3e,0x4c,0x9f,0xcb,0xbc,0x0d,0x26,0x59,0xbd,0x97,0x0e,0x2e,0xbe,0x51,0x28,0x4f,0x3e,0xd5,0x88,0x1a,0xbd,0xd4,0x2b,0xfe,0x3d,0x34,0x2e,0x8b,0x3f,0x21,0xc2,0xe3,0x3d,0x94,0xc9,0xfd,0x3e,0xc8,0x07,0x17,0xbd,0x6c,0x88,0xc2,0xbe,0x3a,0x99,0xd7,0x3d,0x0a,0xe9,0x63,0xbe,0x13,0x7f,0x78,0x3e,0x8e,0xc9,0x79,0x3d,0x04,0x49,0x7f,0xbe,0x76,0x6c,0x33,0x3e,0x90,0xa3,0x07,0x3f,0xc7,0xba,0x40,0x3e,0x70,0x79,0x34,0x3e,0xe0,0x6e,0xe3,0xbd,0xba,0xc6,0x90,0x3d,0xc2,0x77,0x89,0x3e,0x4d,0xfd,0x8f,0xbd,0xac,0x7f,0xd7,0x3e,0xd5,0x1a,0x96,0x3e,0xef,0x73,0xf7,0xbe,0x35,0x89,0x3d,0xbe,0x1b,0x8c,0xba,0x3e,0xec,0x19,0xc8,0xbc,0x79,0x22,0xe0,0x3b,0x9e,0x3c,0x90,0x3e,0xc6,0x76,0x69,0x3e,0xfb,0xbb,0xa5,0x3e,0xdb,0x85,0x15,0x3e,0xa6,0x48,0x5b,0xbe,0x15,0x27,0x3b,0x3e,0xaa,0xca,0xdb,0x3d,0x80,0x36,0x55,0x3e,0x62,0x1d,0x29,0x3d,0x6f,0x32,0x34,0xbc,0x30,0x77,0x93,0x3e,0x6b,0x23,0x06,0xbe,0x40,0xaf,0x78,0x3e,0x44,0x0f,0x24,0x3e,0x02,0x20,0x47,0xbe,0x8a,0xda,0x89,0xbd,0x3c,0xef,0x0a,0x3e,0x0c,0x61,0xa6,0x3d,0x28,0xc8,0xae,0x3e,0x53,0x58,0xcc,0x3d,0x94,0x1d,0x5f,0x3d,0x0d,0x87,0x12,0xbd,0x9f,0x70,0xed,0x3c,0x39,0x67,0x15,0xbe,0xbb,0x17,0x9f,0xbc,0x75,0xe0,0xef,0xbd,0xa2,0x82,0xd4,0x3d,0xf7,0x06,0x3c,0xbe,0xf0,0x3b,0x62,0x3f,0x09,0x82,0x2d,0x3c,0x8e,0xcc,0xfe,0x3c,0xb1,0x0d,0xce,0x3c,0xdc,0x3e,0x85,0xb8,0x18,0xde,0x8d,0xbe,0x30,0xae,0x94,0xbe,0xd4,0x86,0x89,0x3e,0x81,0xa4,0x0a,0xbe,0xbe,0xf2,0x5c,0x3e,0x06,0xc7,0x3f,0xbd,0x7e,0x23,0x34,0x3f,0x3f,0x7d,0x8e,0x3e,0xc7,0xd1,0x31,0x3e,0x07,0x79,0xd9,0x3d,0x85,0xc6,0xbc,0xbe,0x11,0x92,0x0a,0x3d,0x60,0x8e,0x9f,0x3b,0x3b,0x4d,0x14,0x3e,0xae,0x54,0xf1,0x3d,0xb3,0xb0,0xef,0xbe,0x6c,0x6d,0xfc,0x3c,0xbf,0x11,0xdc,0x3e,0x37,0xf5,0x18,0x3d,0x16,0x0e,0x99,0x3d,0x01,0xaa,0xd1,0x3d,0x37,0x17,0x26,0xbd,0x83,0x65,0x05,0x3f,0xc7,0x63,0x90,0x3e,0x63,0xf3,0xc7,0x3d,0xe8,0x54,0xf6,0x3e,0x9c,0x28,0x00,0xbf,0x45,0x20,0x2e,0x3e,0xdd,0xcc,0xac,0x3e,0xaf,0xe8,0xda,0xbd,0xc9,0xb4,0xa1,0x3e,0x31,0x15,0xc2,0xbc,0x97,0xaf,0x75,0x3b,0x60,0x58,0x02,0x3f,0x30,0x98,0x5c,0x3d,0xd3,0x26,0xa4,0x3e,0x57,0xd5,0x57,0x3e,0xd4,0x60,0xbf,0x3d,0xc2,0x98,0xae,0xbd,0xac,0x14,0x12,0x3e,0x21,0x00,0x0f,0x3e,0x1b,0xf3,0x17,0xbc,0x60,0x68,0xc8,0xbe,0xf1,0x80,0x3f,0x3e,0x65,0xa4,0xfa,0x3d,0xd3,0x74,0x87,0x3d,0x5f,0xec,0xe6,0xbd,0xa1,0x0b,0x22,0xbe,0xa9,0x3c,0x53,0xbe,0x4e,0x8d,0x13,0x3e,0xe6,0xe5,0x52,0xbe,0xa9,0x37,0x14,0x3f,0xc2,0x05,0x72,0x3b,0xc8,0x21,0xb8,0xbc,0x6d,0x4a,0xd1,0xbd,0x30,0x37,0x8a,0xbe,0xdb,0x96,0x8f,0x3d,0x03,0x3b,0x2d,0xbd,0xa6,0x8c,0x14,0x3e,0xb5,0x39,0x47,0x3f,0xff,0x93,0xc1,0x3e,0x36,0xde,0xf3,0xbb,0x56,0xc3,0x64,0xbe,0xe8,0x59,0x0e,0x3e,0x29,0xff,0xb2,0x3d,0x15,0xb9,0x73,0x3d,0xf4,0x74,0x16,0x3e,0x58,0x35,0xa9,0x3e,0xe2,0x47,0xeb,0xbd,0x25,0x84,0xbe,0xbd,0x61,0xb8,0x5d,0x3f,0x92,0xf5,0xa5,0x3e,0x40,0x20,0x06,0x3f,0x32,0xa8,0x52,0x3e,0x98,0x5a,0xfe,0x3d,0xbf,0x17,0x02,0xbe,0x34,0xe7,0x69,0xbd,0xd1,0xaf,0x6a,0xbe,0xa5,0xe4,0x49,0x3d,0xfc,0xe4,0xd9,0x3e,0x9f,0xab,0x2b,0x3e,0x70,0x45,0x16,0xbe,0xdb,0x0c,0x69,0x3d,0x4a,0xad,0x8e,0xbe,0x2e,0xca,0x94,0xbd,0x18,0x38,0x6a,0x3e,0xd5,0x68,0xa5,0xbe,0x7b,0x45,0x92,0xbe,0x51,0x38,0xa1,0xbe,0xb7,0x7f,0xba,0xbd,0xcc,0xff,0xe6,0x3e,0x89,0x55,0xc5,0x3d,0x95,0xba,0x43,0xbe,0x54,0xf9,0xfd,0x3e,0x84,0x08,0x4c,0xbe,0xa7,0x51,0xda,0x3c,0x73,0xa2,0xa2,0xbc,0x1b,0xa9,0xea,0xbd,0xfb,0x15,0x64,0x3e,0x76,0x66,0xf1,0xbd,0xb1,0x48,0x16,0xbe,0xe9,0xb3,0x96,0xbe,0x9e,0x48,0xee,0xbc,0xf4,0xfd,0x6f,0xbe,0x2d,0x68,0x69,0xbe,0x2d,0x6f,0x47,0x3e,0xcf,0x9f,0x90,0x3e,0x58,0x42,0x86,0x3e,0xb7,0x2a,0xde,0x3d,0x7b,0x08,0x09,0x3e,0x98,0xeb,0x59,0xbd,0x9d,0x00,0xca,0x3e,0x2f,0x7c,0x01,0x3e,0x0d,0xf3,0x9e,0xbe,0xe2,0x2a,0xbb,0x3c,0x47,0xd6,0x11,0xbf,0xe0,0xfb,0xd1,0xbd,0x6e,0xff,0x19,0xbc,0x06,0xf4,0xfa,0x3d,0x8d,0x34,0xca,0x3e,0x09,0xae,0x1d,0xbf,0xa5,0x50,0xe8,0xbe,0x65,0x9d,0x08,0x3f,0x5c,0x33,0x67,0xbf,0x88,0xb8,0xc8,0xbe,0x14,0x56,0xdd,0x3e,0xf5,0x9a,0xa9,0x3e,0x2f,0x11,0x10,0x3e,0x4a,0x95,0x5d,0x3e,0x46,0x3c,0x15,0x3e,0x62,0xd6,0x7e,0xbe,0x9c,0x03,0x36,0xbd,0x9d,0xa3,0x2f,0xbd,0xc6,0x4a,0x8c,0xbe,0x24,0xcd,0x75,0xbf,0xe5,0x77,0x4d,0xbe,0xb7,0xec,0x3a,0xbe,0x5e,0x2e,0x03,0x3d,0x85,0xb2,0x67,0xbe,0xdb,0xaf,0xc3,0xbd,0xa2,0x24,0x24,0xbe,0x8b,0x00,0x99,0x3e,0x6f,0x05,0x0e,0x3c,0x42,0xf3,0xe1,0xbe,0xeb,0x5a,0x8a,0x3e,0x02,0x9f,0xb0,0x3e,0xfb,0x31,0x3a,0x3c,0xc9,0xac,0xa6,0x3e,0x28,0x47,0x74,0xbd,0xa2,0x4b,0x32,0xbe,0xf9,0xdd,0xb2,0x3d,0x55,0xd8,0x21,0x3e,0x86,0x9d,0x05,0x3e,0xa0,0x65,0xa6,0x3e,0xca,0xd4,0xd6,0xbe,0x5a,0x78,0x12,0x3d,0x6b,0x4d,0x11,0x3d,0x0b,0x94,0xb1,0xbe,0xdb,0x5e,0x71,0x3c,0x53,0x6f,0x8d,0x3e,0x84,0x69,0x64,0x3e,0x8f,0x34,0x66,0x3e,0xe4,0x37,0x3c,0xbe,0x59,0xb4,0x4d,0x3e,0x09,0xce,0x82,0xbc,0x80,0xb3,0x18,0x3e,0xbf,0x71,0xc7,0xbd,0x1b,0xfd,0x3e,0x3e,0x14,0x69,0xad,0x3e,0x49,0x00,0x29,0xbe,0x5d,0x04,0x86,0xbe,0xf4,0x0e,0xe9,0xbd,0xe0,0xbb,0x77,0x3c,0x75,0x33,0x87,0x3e,0x91,0xc8,0xd5,0x3d,0x6e,0x93,0xa1,0x3e,0x47,0x9a,0x9a,0xbd,0x25,0xc6,0xe3,0x3e,0x67,0x4e,0x70,0xbc,0x45,0xf4,0x18,0x3d,0x6f,0x7f,0xe4,0xbc,0x89,0xde,0x8e,0x3e,0x17,0x97,0x8a,0xbe,0x8d,0xe1,0xdd,0x3d,0x94,0xb7,0xe0,0xbd,0x40,0x09,0xb3,0x3d,0xa2,0x11,0xe6,0x3c,0x80,0x77,0x68,0x3f,0x41,0x33,0x0e,0xbe,0x07,0xcf,0x84,0x3d,0xef,0x6f,0x57,0x3e,0xfc,0x52,0x3c,0x3e,0x40,0x3d,0x7f,0x3d,0xf2,0x49,0x7c,0xbe,0xb1,0xf7,0x3c,0x3e,0x4c,0xa8,0xc7,0x3b,0x1f,0x31,0x95,0x3e,0x10,0x7e,0x83,0xbe,0xb6,0x44,0x45,0x3f,0xe0,0x9f,0x45,0x3d,0xc8,0x6f,0x1f,0x3f,0x48,0x6e,0x57,0xbc,0xdc,0xb0,0xb4,0x3e,0xe3,0x28,0x27,0x3e,0x2a,0x5b,0xfd,0xbb,0x74,0x9a,0xa2,0x3d,0x0f,0xf5,0xc4,0x3d,0x97,0xfd,0xed,0x3e,0x48,0xc4,0xf8,0x3d,0xea,0x5f,0xcc,0xbe,0xb5,0x6d,0x20,0x3e,0x2c,0xa7,0xb5,0xbe,0xca,0xe4,0x0f,0xbc,0xea,0x14,0xb6,0x3e,0x9c,0x1d,0xc4,0xbc,0x80,0x8d,0xbf,0x3d,0xbb,0x15,0x99,0x3c,0xf6,0x33,0xd4,0x3b,0x7c,0x2d,0xbf,0x3d,0x5f,0x76,0x4d,0xbd,0x67,0x67,0x11,0xbe,0x69,0xfa,0x8d,0x3e,0x68,0x5f,0x29,0xbe,0x22,0x95,0x2d,0xbe,0xc4,0x9f,0x73,0x3e,0x88,0xbe,0x67,0xbe,0x7c,0x86,0xa5,0x3d,0xd2,0xee,0x7f,0xbe,0xbe,0x2a,0x7a,0x3d,0x7a,0xb4,0x36,0xbd,0x9a,0x02,0xe1,0xbd,0x69,0xe5,0x4f,0xbc,0xb6,0x37,0x39,0xbe,0x6d,0xf1,0x05,0xbe,0xa8,0x16,0x13,0x3d,0x59,0xd2,0x2b,0x3e,0x4a,0x12,0x0e,0xbd,0x75,0xee,0x44,0x3e,0xa1,0xb3,0xc7,0x3d,0x00,0x1c,0xed,0x3e,0xd0,0x29,0x5a,0x3e,0x4b,0xc6,0x50,0xbe,0x48,0xdd,0x9a,0x3e,0x28,0x5d,0x09,0xbf,0xae,0xd3,0xee,0x3d,0x75,0x1b,0x9a,0xbe,0xb0,0x68,0x94,0x3d,0x26,0xa4,0xa4,0xbd,0x44,0xab,0xe1,0xbe,0x3c,0xb8,0xda,0xbe,0x04,0x51,0xe2,0x3e,0x89,0x76,0x80,0xbf,0xb9,0x8f,0xa9,0xbe,0x76,0x2e,0x00,0x3e,0xb9,0xc5,0xf3,0xbd,0xca,0xe2,0x87,0xbd,0x97,0x5b,0x3f,0xbe,0x39,0xcd,0xa5,0xbc,0xb9,0x9f,0x2d,0x3e,0xb9,0x73,0x7a,0x3e,0x26,0x30,0x79,0x3e,0xfd,0x94,0xdd,0x3c,0x48,0xe5,0x82,0xbf,0xdc,0x58,0xd0,0x3c,0xa5,0x2a,0xb9,0xbe,0x9c,0x01,0x94,0x3e,0xd3,0x92,0x31,0x3e,0x88,0x92,0x68,0xbd,0xed,0x7a,0x08,0xbd,0xa4,0x33,0xb8,0xbd,0x8a,0x7d,0x30,0xbe,0x90,0xe7,0xb4,0x3e,0x5f,0xb6,0x9e,0xbd,0x68,0x3f,0xcb,0xbe,0x2b,0xb3,0xa2,0xbd,0x64,0x01,0xf7,0xbd,0xaf,0xb6,0x32,0xbd,0x3b,0xf2,0x36,0x3e,0xa0,0x7d,0x70,0xbe,0xf1,0xf8,0x3c,0x3e,0x69,0x4d,0x63,0xbe,0xe6,0x4c,0xa8,0xbe,0x7a,0x1e,0x9b,0x3e,0xba,0x4e,0x6b,0xbe,0x2b,0x83,0x68,0xbe,0xa7,0x73,0xf7,0x3e,0x1b,0xc7,0xbb,0xbd,0xc7,0x43,0x11,0x3e,0x20,0x54,0x08,0x3e,0x98,0x12,0x90,0xbe,0x3c,0x09,0x05,0x3e,0xf2,0x65,0x3f,0xbe,0x68,0x63,0x9d,0xbd,0xe3,0x17,0xd7,0xbd,0x8c,0xe1,0x21,0xbe,0xcd,0xf4,0x1e,0x3d,0x3b,0xbf,0x38,0xbc,0x03,0xff,0x00,0xbd,0xcc,0x06,0xc8,0x3e,0x4e,0xb9,0xbb,0x3d,0x2e,0x4e,0x21,0x3e,0x4a,0xc1,0x6a,0x3e,0x29,0x42,0x5c,0x3e,0x95,0x72,0x90,0x3e,0xf4,0x87,0x04,0xbe,0xa0,0x7a,0xd2,0xbc,0x14,0xd4,0x33,0x3e,0x9c,0xc0,0xf8,0xbe,0x0d,0x8f,0x35,0x3e,0x92,0x02,0x9a,0xbe,0xc9,0x55,0x5e,0xbe,0x92,0x73,0x89,0x3e,0x41,0x54,0xb8,0xbe,0x2e,0x77,0x99,0xbe,0xfb,0xd4,0x6f,0x3e,0xcc,0xfd,0x8a,0xbf,0x81,0xf5,0x1b,0xbe,0x1c,0xab,0xce,0x3e,0xec,0xc7,0x1a,0x3e,0x6d,0x91,0x22,0x3e,0xa2,0x8e,0x7e,0xbe,0x72,0xf9,0x0f,0x3e,0x18,0x56,0x27,0x3e,0xc4,0xc2,0x75,0x3e,0x76,0x10,0x58,0xbe,0xf6,0x80,0x5c,0xbc,0xf2,0x9e,0xa9,0xbf,0x1a,0x6c,0xdd,0xbd,0xd2,0xae,0x33,0xbe,0x29,0xe5,0x86,0xbd,0xcf,0xc4,0x23,0x3c,0x56,0x9d,0x0a,0xbf,0xcb,0x3e,0xc5,0xbd,0xc1,0xca,0xcf,0xbf,0x06,0xf5,0x47,0x3e,0xe1,0x4b,0x22,0xbe,0x7b,0x9b,0x60,0x3e,0x33,0x25,0x1b,0xbe,0x54,0x85,0x00,0xbe,0xce,0xaf,0x4c,0x3d,0xdc,0xf6,0x56,0x3e,0x80,0x5b,0x42,0x3f,0x28,0xfc,0xca,0xbc,0xd7,0x23,0x20,0xbe,0xae,0x4f,0x5d,0x3e,0x50,0x90,0xf0,0x3d,0xf1,0xb3,0x2d,0x3d,0x30,0x17,0x41,0xbe,0x14,0x11,0x83,0x3e,0x72,0x38,0xd7,0x3b,0xbe,0x94,0x5d,0xbe,0x2f,0x5f,0x00,0x3d,0x3d,0xdf,0xc8,0x3c,0xd6,0x87,0xef,0xbc,0x68,0x9a,0x68,0x3f,0x13,0x66,0x3d,0x3e,0x3a,0x9c,0x48,0xbe,0x1c,0x68,0xfa,0xbd,0xe0,0xa9,0x03,0x3d,0x98,0x81,0x21,0xbe,0x51,0x93,0xd1,0x3c,0xb3,0xe4,0x26,0xbe,0x68,0x88,0x07,0x3c,0x36,0x5e,0xaf,0x3e,0x51,0x5b,0x9a,0xbd,0xd9,0xe8,0x97,0xbf,0x5a,0x50,0x0c,0x3e,0xaa,0x3d,0x31,0x3f,0x43,0xda,0x16,0xbd,0x1c,0x5c,0xd0,0xbd,0x85,0xe3,0x89,0x3e,0x5f,0x29,0x8d,0xbd,0x15,0x63,0x8c,0x3e,0x6f,0x51,0xb2,0xbf,0x16,0x8d,0xf0,0xbe,0x06,0xdc,0xb2,0x3e,0x05,0x7e,0x49,0xbe,0x11,0x17,0x99,0xbf,0x05,0x36,0xcf,0x3d,0x90,0xe7,0x11,0x3d,0x2f,0x95,0x8a,0xbe,0x0f,0x45,0x93,0x3e,0x0c,0x34,0x1f,0x3d,0xc8,0xcf,0x3e,0x3e,0xa7,0x4c,0x9e,0xbe,0x75,0x80,0x3a,0xbe,0xd5,0x7d,0xbe,0xbd,0xc6,0x97,0x5d,0x3d,0x1e,0x79,0xd6,0x3c,0x5a,0x52,0x2b,0xbe,0xb0,0xe4,0x27,0xbe,0xc6,0xd2,0x4a,0xbe,0x00,0x46,0x1b,0x3b,0x99,0xbd,0x07,0x3e,0xd7,0x8a,0xc1,0xbc,0x8f,0xff,0xf5,0xbd,0x7d,0x6a,0x08,0xbe,0xc9,0x0d,0xdf,0x3d,0x90,0x2c,0x64,0x3e,0x7d,0xd5,0xd1,0x3c,0x3d,0x4f,0x99,0xbd,0xe7,0xdc,0x91,0x3d,0x0f,0x68,0xed,0xbd,0xc3,0x54,0x76,0xbe,0x08,0x3b,0xe4,0x3d,0x77,0x1e,0x08,0x3e,0x04,0xc5,0x8a,0xbd,0x61,0xe9,0x84,0xbe,0x34,0xf3,0x32,0xbe,0xa3,0x4a,0x9b,0xbd,0xf4,0x14,0x6d,0x3e,0x99,0x1c,0xdf,0xbd,0xa6,0xad,0xf6,0xbd,0xd5,0xe1,0x3d,0x3d,0x3c,0xb9,0xf8,0x3c,0x42,0xea,0x03,0x3e,0xc9,0x1c,0x2a,0x3e,0x68,0xf6,0x9d,0x3d,0x5a,0x57,0xee,0x3d,0xff,0x83,0x05,0xbe,0xc6,0x89,0x17,0xbd,0x53,0xaa,0x6c,0x3d,0xa2,0x12,0x32,0xbe,0xfc,0x42,0x53,0x3d,0xdd,0x2c,0x70,0x3c,0x0a,0x69,0x04,0xbe,0x95,0x50,0xe7,0x3d,0x2b,0xcf,0x3e,0xbe,0x85,0x22,0x91,0x3e,0x0e,0x50,0xf8,0xbd,0x88,0xcd,0x28,0x3e,0xfa,0x3f,0x7d,0x3e,0xce,0x15,0xfe,0x3d,0xab,0x63,0x9f,0x3d,0x99,0xdf,0x09,0x3e,0x39,0xd3,0x22,0xbe,0x8c,0x0a,0x43,0x3e,0x68,0xff,0x47,0x3d,0x95,0x53,0xb1,0x3d,0x82,0x01,0x02,0x3e,0x61,0xb4,0xa5,0xbe,0x5c,0x2d,0x9f,0xbb,0x0a,0x90,0xc4,0x3e,0x4f,0x77,0x7b,0xbf,0x46,0x74,0x0c,0xbf,0x67,0xbf,0x01,0xbd,0xb8,0x9b,0x9e,0x3d,0x4d,0x7c,0x5c,0xbe,0x92,0xbf,0x85,0xbe,0x1a,0x36,0x98,0x3e,0xac,0x13,0x3c,0xbe,0x5f,0x3d,0x2a,0x3e,0x8d,0x07,0x86,0x3e,0xb3,0x92,0x21,0xbc,0x3b,0x3e,0x7e,0xbf,0x41,0xb1,0x83,0x3c,0x45,0xc9,0x51,0xbe,0x7d,0xbf,0xce,0x3c,0x97,0xfd,0xe6,0x3d,0xea,0x2e,0xd9,0xbc,0x6f,0xc8,0xb2,0xbd,0x46,0xed,0xae,0x3d,0x3a,0x2c,0x49,0xbd,0xb7,0xca,0xc0,0x3d,0xbf,0xda,0x1f,0x3e,0x93,0x95,0xe8,0xbc,0x0f,0x44,0x85,0x3e,0x35,0xc9,0x19,0xbe,0x1c,0x57,0x9f,0x3d,0x4d,0x17,0x1e,0xbd,0x92,0x4f,0x75,0x3d,0xba,0x66,0xa9,0xbd,0x65,0x26,0x0e,0xbe,0xa8,0xd7,0xa2,0x3d,0x1a,0x92,0x22,0xbd,0x24,0x08,0xdb,0x3d,0xd1,0xd8,0x0d,0xbd,0x4e,0x35,0x0f,0x3e,0x7c,0x9b,0xcc,0x3d,0x4b,0x6f,0x55,0xbe,0xa5,0x07,0x87,0x3e,0xb5,0x37,0xc5,0x3a,0xae,0x68,0xf0,0x3e,0x3b,0xd1,0x80,0xbd,0x22,0x6d,0xab,0xbd,0x3a,0x8a,0x85,0x3a,0x5f,0x3b,0x16,0x3d,0x7f,0x60,0x11,0x3e,0xeb,0xa5,0x6b,0xbd,0xb6,0x09,0x01,0xbe,0x4c,0xdb,0xb8,0x3e,0x25,0x42,0x4d,0x3e,0xae,0xf9,0x12,0xbc,0xdb,0xd8,0xe4,0xbd,0xdd,0xcc,0xf3,0xbd,0x57,0x09,0x66,0x3e,0x25,0x6b,0xa0,0x3e,0x0e,0xf0,0x7b,0x3e,0x44,0x9e,0x55,0x3d,0xe4,0x6e,0x02,0xbf,0xa6,0x03,0x58,0xbe,0x23,0x45,0xbd,0x3d,0x98,0x1e,0x5b,0xbe,0x5a,0x9c,0x34,0x3d,0x64,0xe4,0x1e,0xbf,0xca,0x04,0x00,0xbf,0x59,0xd8,0xcb,0x3e,0x18,0x9b,0x70,0xbf,0xb3,0x82,0x2f,0xbf,0xe3,0xc2,0xe1,0x3e,0x7c,0x37,0x95,0x3c,0x69,0x81,0x70,0x3e,0xc2,0x6c,0x4c,0xbd,0x2b,0x6b,0x3a,0xbd,0x28,0x02,0x56,0xbe,0x0a,0x1f,0xc7,0x3d,0x6b,0x7b,0xa6,0xbd,0x8c,0x65,0x8a,0xbe,0x22,0x43,0xac,0xbf,0xff,0xa0,0x85,0xbe,0xf2,0xef,0xbd,0xbe,0x38,0xd1,0x2b,0x3d,0x26,0xd1,0xcc,0xbe,0xc0,0x75,0xd9,0x3c,0xb2,0x55,0x64,0x3d,0xa0,0xc1,0xbd,0x3e,0x68,0x6d,0x6c,0x3e,0x33,0x5b,0x00,0xbd,0x9e,0x2e,0xd6,0x3e,0x17,0x38,0x26,0x3f,0xf2,0x74,0x66,0xbe,0xd1,0x6c,0xb3,0xbd,0x82,0xff,0xad,0x3e,0x8c,0xd6,0x3c,0x3e,0xd8,0xc8,0x8e,0xbe,0x83,0xad,0xe5,0xbc,0xcd,0x7e,0x69,0x3e,0xb7,0x46,0x62,0xbe,0x34,0x4e,0xf9,0xbe,0x6b,0xfc,0x4d,0x3f,0x7a,0x41,0x79,0xbe,0x45,0x94,0x8e,0x3d,0x38,0x8a,0x09,0xbd,0xb8,0xfa,0xcd,0x3e,0xe2,0x1e,0xce,0x3e,0x99,0x40,0x01,0xbf,0xdd,0x02,0x00,0xbe,0x42,0xda,0xe9,0x3e,0x4f,0xbd,0x08,0x3e,0xf1,0xbc,0x24,0x3d,0xbc,0x75,0xc3,0x3e,0x65,0xe0,0x76,0x3e,0x84,0x66,0x05,0x3f,0x71,0xb2,0xe8,0x3c,0xab,0xe2,0x0b,0xbd,0xce,0xbc,0x0e,0xbe,0xcc,0x76,0x62,0x3d,0xa3,0x2f,0x9b,0xbe,0xa9,0x69,0xf4,0x3b,0xfa,0xd3,0x7e,0x3f,0xfe,0x46,0x10,0x3e,0x37,0x95,0x53,0x3e,0x80,0xb0,0x82,0xbe,0x7f,0x4e,0x01,0xbd,0x37,0x8d,0xee,0x3d,0x84,0xd2,0x58,0x3e,0x46,0x41,0x6d,0xbf,0x41,0x86,0x6f,0x3e,0x46,0x4a,0x62,0x3d,0xa0,0x14,0xcc,0xbf,0x07,0x12,0x4d,0xbe,0x2e,0xd5,0xcf,0x3f,0x40,0x0a,0xa2,0xbe,0x57,0xbe,0xa0,0x3e,0x3b,0x7a,0x5a,0x3e,0x54,0xc6,0xb6,0x3e,0x7c,0x6b,0x0d,0xbe,0xa9,0x26,0xa5,0xbf,0x80,0xd1,0xa6,0x3e,0xf2,0x75,0x07,0x3e,0x8e,0x0d,0xa9,0x3e,0xea,0x7e,0x26,0xbd,0x4b,0xbf,0x96,0x3f,0x4c,0x69,0x38,0xbd,0x1d,0x33,0x47,0x3f,0xef,0x58,0xa5,0x3e,0xc9,0xeb,0x3d,0x3e,0x20,0xd2,0x2c,0x3e,0x2e,0x0f,0x6c,0x3d,0x13,0x43,0x9a,0x3e,0x1f,0xd0,0x0b,0x3e,0x22,0x77,0x96,0xbe,0x51,0xad,0x50,0x3d,0x1a,0x37,0x78,0xbd,0x52,0x79,0x87,0xbb,0x11,0x67,0xc0,0x3d,0x66,0x76,0x11,0xbe,0xf9,0x2c,0x80,0xbe,0x40,0x6e,0xe6,0xbd,0x44,0x7a,0x77,0x3d,0x59,0x74,0x12,0x3e,0xa6,0x81,0x3f,0xbe,0x84,0xd7,0x72,0x3e,0xf2,0x4f,0x1a,0xbe,0xb9,0x83,0x73,0xbe,0x6f,0xdc,0xeb,0xbd,0xc6,0xf9,0x30,0x3e,0x89,0x87,0x98,0x3d,0x58,0x40,0x8b,0xbd,0x53,0xc5,0x45,0xbe,0x01,0x40,0x11,0xbe,0xb0,0xc2,0x27,0x3e,0x34,0xbd,0xfd,0xbd,0xf7,0x66,0x99,0xbd,0x39,0xb0,0x97,0x3e,0x61,0x38,0xfc,0xbd,0x08,0xc6,0xbc,0x3d,0xa5,0xc1,0xc1,0xbd,0x49,0x9b,0x24,0x3d,0x53,0xc4,0x50,0x3e,0x3d,0x1d,0xf1,0xbd,0x45,0x00,0x40,0x3e,0x08,0x0d,0x6b,0xbd,0xe2,0xdf,0x0e,0xbf,0xaf,0xf9,0x4a,0x3e,0xf7,0xde,0xab,0x3d,0x52,0xbf,0xb6,0xbe,0xfd,0xa4,0xef,0x3e,0x1c,0x8e,0xa7,0xbc,0x26,0x53,0x99,0xbb,0xac,0xbf,0xc9,0x3e,0x76,0x99,0x2b,0x3c,0xc6,0x42,0x59,0x3f,0x6f,0x97,0xd5,0x3e,0x4d,0x64,0x01,0xbf,0x4c,0x3c,0x9a,0x3f,0x70,0x4b,0x26,0x3f,0x11,0xe4,0xd8,0xbd,0x15,0x0c,0x89,0xbe,0x66,0xe3,0xf0,0xbd,0x5c,0x72,0x5b,0x3e,0x20,0xd7,0xb1,0x3e,0x12,0xbb,0xce,0xbd,0x8c,0x63,0x62,0xbd,0xf5,0x25,0x60,0xbe,0xa7,0x63,0x9f,0x3d,0x8d,0x56,0x6b,0x3f,0xa3,0x41,0xc2,0x3e,0x01,0x74,0xb6,0x3e,0x16,0xa0,0x4a,0xbd,0x67,0xea,0x38,0xbe,0x50,0xa5,0x53,0xbe,0x6c,0xcc,0x3b,0x3e,0xbe,0x4a,0x9f,0x3e,0xcd,0x76,0x36,0x3e,0x46,0x15,0x3d,0xbe,0xe5,0x03,0xbc,0x3e,0x14,0xf4,0x24,0x3e,0x1f,0xee,0x49,0x3d,0x82,0x1a,0x06,0x3d,0x8f,0xa7,0x2d,0x3e,0xa3,0x5e,0x5d,0x3e,0xba,0xee,0x53,0x3d,0x8a,0x53,0xa4,0xbd,0x9b,0x30,0x7d,0x3e,0xa8,0x6e,0xd7,0xbe,0x44,0xce,0xc4,0xbe,0x02,0xaf,0x82,0x3e,0xa1,0xb0,0xc6,0x3e,0xb8,0xc0,0xdc,0xbd,0x35,0xc4,0x28,0xbc,0x5b,0x85,0xbc,0x3e,0xbe,0x85,0x86,0xbd,0x4c,0xa3,0x69,0x3d,0xe4,0xb1,0x85,0xbd,0x65,0x44,0xbd,0x3b,0x34,0x9c,0x50,0x3e,0x97,0x3e,0x6d,0x3e,0x5e,0x6f,0x12,0x3f,0xb0,0x1b,0x9c,0x3d,0x14,0x7f,0x2c,0x3e,0x1a,0xf3,0xbc,0x3e,0xaf,0xdf,0x58,0xbd,0x15,0x91,0x34,0x3d,0x27,0x08,0x29,0x3e,0x86,0x44,0xff,0xbd,0x6e,0xdf,0x28,0x3e,0x06,0xb0,0xb5,0x3e,0x0b,0xaa,0xb9,0x3d,0xdd,0x30,0x96,0x3d,0x47,0x50,0x8e,0xbe,0x69,0xe7,0x5c,0xbd,0x7e,0x2e,0xb0,0x3d,0x96,0xda,0x5e,0x3e,0x49,0x69,0x01,0xbf,0x4e,0xf4,0xfd,0xbd,0x16,0xcf,0x09,0xbe,0x26,0x62,0xa1,0xbf,0x08,0x7a,0x1f,0x3e,0x91,0x51,0x9b,0x3f,0x32,0x2b,0xb5,0xbe,0xc9,0x47,0xec,0x3d,0x42,0x65,0x9b,0x3d,0x63,0x3e,0x90,0x3e,0x33,0x4a,0x55,0x3e,0x51,0x0e,0x6b,0xbf,0xb1,0xcc,0x80,0x3d,0x17,0xf9,0x86,0x3e,0x8c,0x99,0x25,0x3c,0x65,0x28,0x0b,0xbe,0x9c,0xd7,0x85,0x3f,0x66,0x5d,0x19,0xbe,0xbf,0x1e,0x1f,0x3f,0x2a,0xad,0xe2,0x3d,0x68,0x5e,0x15,0x3e,0x76,0x23,0x5c,0x3e,0x0e,0xb5,0x9c,0xba,0xd0,0x42,0xd7,0xbd,0xea,0x7e,0xbc,0x3d,0xc5,0x58,0xae,0x3c,0xf6,0xfb,0x47,0x3c,0x35,0x46,0xc5,0x3e,0x3e,0x17,0x8e,0x3d,0x92,0x9c,0x7f,0x3e,0x31,0x35,0x98,0xbd,0xb2,0xff,0x98,0x3c,0xb7,0x56,0x27,0x3e,0xc2,0x3c,0xde,0xbd,0xcc,0x45,0x75,0x3e,0xad,0xa4,0x98,0xbe,0x96,0xd3,0xa7,0xbb,0x87,0x80,0x9f,0x3e,0x4b,0x18,0xe2,0x3e,0xcb,0xa3,0xef,0xbd,0xa8,0x64,0x3a,0x3e,0x67,0xda,0xed,0x3d,0xac,0x53,0x96,0x3e,0x16,0x7e,0x7b,0x3d,0x66,0x60,0xbf,0x3c,0x3d,0x1a,0xa7,0x3e,0x7e,0x38,0x4f,0x3e,0x75,0x72,0x13,0xbc,0x34,0x91,0xdc,0x3e,0x93,0x08,0x04,0xbd,0x4c,0x4b,0x1c,0x3f,0xdc,0x5d,0xa3,0xbd,0x29,0x0d,0x33,0x3e,0x92,0xc6,0x2c,0xbd,0x15,0x7d,0xc5,0x3e,0xae,0x2f,0x8a,0xbe,0x3d,0x5f,0xa5,0xbd,0x83,0x51,0x28,0x3f,0xd6,0x87,0x34,0x3d,0x14,0x92,0x8f,0x3e,0x1c,0x09,0xd7,0x3c,0xe3,0x10,0x92,0x3d,0x25,0x37,0x35,0xbe,0x07,0x61,0x06,0x3d,0xb6,0x30,0xaa,0xbe,0xb3,0x6e,0x30,0x3d,0x29,0x22,0xc9,0xbd,0xb1,0x69,0x72,0xbf,0x3a,0x76,0x06,0x3d,0x38,0xbd,0xa1,0x3f,0x76,0xa5,0x8b,0xbe,0xd5,0x33,0xac,0x3e,0x18,0xd0,0xdd,0xbd,0x26,0x81,0x63,0xbd,0x73,0xf4,0xe2,0xbd,0x34,0x21,0xa0,0xbe,0xa2,0x22,0x2a,0xbe,0xdd,0x83,0x2f,0xbe,0x85,0xdd,0x29,0x3e,0xe5,0xc7,0x28,0xbe,0x4e,0x47,0x86,0x3f,0x32,0xdc,0xb3,0xbd,0x6c,0x46,0x8f,0x3e,0x40,0x0f,0x16,0xbd,0x00,0x5e,0x0f,0x3e,0xa8,0x29,0x15,0x3e,0x68,0xff,0xa9,0xbc,0x07,0x28,0x55,0x3c,0xd4,0x8e,0xaa,0x3d,0xb3,0x53,0x9a,0xbc,0x0c,0x79,0xd7,0x3d,0x3d,0x91,0x2b,0x3e,0xc5,0x15,0x84,0x3e,0x7b,0x5c,0xab,0x3e,0x5d,0x5e,0x4b,0xbe,0x73,0x89,0x4d,0xbd,0x88,0xd7,0x50,0xbd,0x84,0xef,0x72,0xbe,0x55,0x67,0xe2,0xbc,0x67,0xb8,0x67,0x3e,0xed,0x5c,0x84,0x3e,0x97,0x58,0x06,0x3e,0x95,0xe6,0x74,0x3e,0x0a,0x55,0xb8,0x3e,0xba,0xf3,0x2c,0x3c,0x76,0x14,0x51,0xbd,0x97,0xd3,0xab,0x3d,0x34,0x1d,0x8f,0xbd,0x84,0x14,0xec,0x3d,0x0c,0xaf,0x6c,0x3e,0xcc,0x68,0xf9,0x3b,0xe0,0xca,0xdd,0x3c,0x63,0xfa,0x24,0xbc,0xd7,0xff,0xa0,0x3d,0x81,0x96,0x5a,0xbe,0x44,0xd6,0x07,0x3e,0x97,0x44,0x97,0x3e,0xfd,0x3e,0xab,0x3e,0xf1,0xe2,0xae,0x3d,0xe9,0xca,0xf4,0xbd,0x79,0x08,0x45,0x3c,0xb7,0xfa,0xaf,0x3e,0xa0,0xd4,0x42,0xbe,0xb9,0xf7,0x35,0x3e,0x8a,0xe3,0x46,0x3e,0x3a,0x5e,0xbf,0xbe,0x74,0xba,0x02,0xbe,0x73,0xe7,0x0b,0x3e,0x4c,0x61,0x68,0xbe,0xdf,0xf4,0xc8,0xbd,0x5b,0xca,0x1a,0xbf,0xb6,0x6b,0xca,0xbe,0xb5,0x2c,0x2b,0x3e,0x62,0xf9,0x65,0xbf,0x22,0x5a,0x16,0xbf,0x93,0x3e,0xfc,0x3d,0xc3,0x58,0x84,0x3e,0xeb,0x1e,0x0f,0x3e,0x5a,0x16,0x00,0x3d,0xa5,0x8c,0x76,0xbe,0xc5,0x53,0x55,0x3e,0x6e,0x94,0xe6,0xbd,0xc7,0xbd,0x0a,0xbd,0xff,0xc4,0x22,0xbe,0x09,0x02,0x75,0xbf,0x99,0x97,0x7e,0xbd,0xb9,0x2a,0xb3,0xbe,0x8f,0x48,0x00,0xbe,0xae,0x68,0x1c,0xbd,0x64,0xb5,0x2f,0x3d,0xda,0x0d,0x57,0x3e,0x01,0x97,0xd2,0x3c,0xa9,0x29,0x6b,0x3e,0xab,0x3b,0x07,0xbf,0x9c,0xdb,0x7f,0x3e,0x94,0xa3,0x3b,0x3e,0x34,0xdf,0xbe,0xbd,0x5a,0x01,0xa4,0xbc,0x4d,0xe0,0x89,0x3e,0x51,0x48,0x0f,0xbe,0x3d,0x8a,0xa0,0x3e,0x30,0xf7,0x78,0x3e,0x9f,0x99,0x13,0xbd,0x23,0xef,0x88,0x3e,0xb6,0x8e,0xa9,0xbd,0xf6,0xa5,0xb9,0x3c,0xfa,0x3c,0x21,0x3e,0x0e,0x84,0xcc,0xbd,0xee,0x7f,0xeb,0x3d,0x52,0x63,0x8a,0x3e,0x13,0xc2,0x83,0xbe,0xde,0x14,0x7a,0x3e,0x4e,0x0e,0x66,0x3b,0xd9,0x6a,0xd5,0x3d,0x2f,0x3f,0x86,0xbd,0xf5,0x86,0x3a,0x3e,0x08,0x0c,0x2c,0xbe,0x42,0x76,0x28,0x3e,0xe7,0x93,0xff,0x3d,0xa2,0x2b,0x49,0xbe,0x7e,0x0d,0x0b,0xbd,0x8a,0x8a,0x43,0x3c,0xbf,0xbd,0xfe,0xbc,0x24,0x3b,0x81,0x3d,0x8a,0x95,0xc2,0x3c,0x96,0xfa,0xce,0xbe,0x6b,0x09,0x1b,0xbe,0xbf,0xc3,0x62,0x3d,0x12,0x89,0xf8,0xbd,0xcb,0xf4,0x2f,0x3e,0x29,0xff,0x12,0x3e,0x82,0x72,0x9a,0x3e,0xfa,0x48,0xeb,0xbd,0xfa,0xa7,0x50,0xbd,0xe9,0xbf,0x90,0x3e,0x94,0xf7,0xa4,0x3e,0x06,0xe9,0xbb,0xbe,0x8e,0x03,0xa2,0x3f,0x75,0xf1,0x0f,0x3f,0x15,0x61,0xb0,0xbe,0xd0,0x8d,0x1c,0xbc,0x88,0x0e,0x62,0x3e,0x37,0x21,0x32,0x3e,0x34,0xc3,0x3a,0xbd,0xe3,0x7c,0xa7,0x3e,0x63,0xd6,0x5f,0x3d,0xaa,0x79,0x49,0x3d,0x6a,0xd5,0xf4,0x3b,0x7d,0xce,0x9e,0x3f,0x62,0x8b,0x93,0x3d,0x2c,0x75,0x15,0x3f,0xed,0x55,0xe7,0xbc,0xf8,0x3e,0xb0,0x3d,0x6c,0xf7,0x23,0x3e,0xc0,0x3a,0x15,0xbe,0x10,0x5e,0x74,0x3d,0x14,0x04,0x70,0x3e,0x38,0x82,0x3e,0x3e,0x88,0x76,0xfe,0x3d,0xf0,0x1f,0x86,0xbd,0x00,0x62,0xb0,0xbc,0xc8,0xbb,0xdb,0x3d,0x40,0x97,0x86,0xbd,0xf0,0x73,0x1a,0x3d,0x98,0x67,0x49,0xbe,0x3c,0x66,0x4f,0x3e,0x40,0x02,0x53,0x3c,0xb4,0x30,0x27,0x3e,0xc8,0x97,0x67,0xbe,0x04,0x24,0x10,0xbe,0x78,0xed,0x7c,0xbe,0x0c,0x65,0x2f,0xbe,0x00,0xc7,0x27,0xbb,0xe8,0xaf,0x57,0xbe,0x58,0xf8,0xa0,0xbd,0xe4,0x6d,0x16,0x3e,0x20,0x81,0xf1,0xbd,0xb8,0xe1,0xa9,0x3d,0xc8,0xfe,0x9d,0xbd,0x88,0xe2,0xde,0xbd,0x84,0xc0,0x56,0x3e,0x38,0x20,0xf7,0xbd,0x74,0x6b,0x79,0x3e,0xbc,0x4e,0x6f,0xbe,0x18,0x7a,0xd4,0x3d,0xa0,0xf7,0x39,0xbe,0x60,0xf7,0x2b,0x3d,0x64,0xd7,0x2f,0xbe,0x60,0x1e,0x1c,0xbe,0xe0,0xae,0xe6,0x3c,0x90,0xcb,0xc9,0x3d,0xa0,0xb4,0x2f,0x3e,0x80,0xa6,0xeb,0x3b,0x80,0xb9,0x28,0xbe,0xc0,0xdb,0xb1,0xbd,0x90,0xe6,0x43,0xbd,0x4c,0x5f,0x02,0xbe,0xc0,0x89,0x28,0xbd,0x48,0x41,0xf7,0x3d,0xb8,0x5e,0xa0,0x3d,0x28,0x5a,0x48,0xbe,0xb8,0x29,0x8d,0x3d,0xa4,0xf3,0x62,0xbe,0x00,0xaf,0x7c,0xbb,0x08,0x72,0xec,0x3d,0xc0,0x87,0xff,0xbd,0x38,0x2d,0xfa,0x3d,0xa0,0x38,0x86,0x3d,0xec,0xeb,0x61,0x3e,0xd0,0x8c,0x40,0xbe,0xf4,0x02,0x54,0xbe,0x08,0x48,0xa1,0xbd,0x50,0x8f,0xcc,0x3d,0xb4,0x44,0x48,0xbe,0xa0,0xc7,0xe8,0xbd,0x90,0x54,0x36,0x3d,0xee,0x97,0xdc,0xbd,0x71,0x92,0x39,0xbd,0xbf,0x09,0x5d,0xbe,0x63,0x7d,0x47,0x3e,0x3f,0xee,0x01,0x3e,0xcf,0x8b,0xa9,0xbe,0xe9,0x12,0x0a,0x3e,0x1a,0xea,0xea,0xbb,0xe0,0xd3,0xca,0xbd,0x48,0x2c,0x12,0x3e,0x77,0xf1,0x38,0xbe,0xfc,0x45,0x63,0xbe,0xdd,0xa2,0x50,0xbb,0xa9,0xef,0x78,0x3e,0x4a,0xf0,0x02,0x3e,0xe4,0xf3,0xbd,0x3e,0x8c,0x2e,0x86,0xbe,0x48,0x17,0x7b,0xbe,0x32,0x2e,0xa6,0x3c,0x5b,0xb3,0x69,0xbd,0xde,0xfc,0x5f,0xbe,0x27,0xf6,0x21,0xbe,0x97,0xd1,0x06,0x3e,0x21,0x54,0xe6,0x3e,0x64,0x59,0x16,0x3e,0x40,0x40,0x04,0x3e,0x10,0x7d,0xa4,0xbd,0xc6,0xf9,0xb9,0x3e,0x41,0x1c,0xc3,0xbe,0x9e,0xfa,0x05,0x3e,0xec,0x7c,0xad,0xbc,0xee,0xf3,0x57,0x3e,0x14,0xd3,0x3e,0x3e,0x49,0xbd,0xce,0x3e,0xac,0xc9,0x92,0x3e,0xab,0xd9,0x89,0x3d,0x56,0x73,0x3e,0x3e,0x44,0x1d,0x51,0xbe,0xa3,0xa8,0x45,0xbb,0x93,0x6e,0x8c,0x3e,0xa6,0x6e,0x56,0x3d,0xd5,0x20,0xc2,0xbe,0xd1,0xb5,0x68,0xbe,0x97,0x19,0xa2,0x3d,0x21,0x00,0x7f,0xbe,0x07,0x99,0xfd,0xbd,0x83,0xac,0xdf,0xbe,0xf2,0xeb,0xf7,0xbc,0x70,0x08,0xc3,0x3e,0xc2,0x22,0xa2,0xbe,0x60,0xcd,0x81,0xbd,0xf4,0xc0,0x7a,0x3e,0xbc,0x33,0x1a,0xbe,0x42,0x0e,0x40,0xbc,0xf7,0xf4,0x6c,0xbe,0x29,0x08,0xcd,0x3d,0x61,0x52,0xb4,0x3d,0x8e,0x50,0xaa,0x3d,0xa8,0xcd,0x68,0xbc,0xd8,0x43,0x63,0x3d,0xe0,0xe1,0xeb,0xbe,0x97,0xbb,0x2b,0x3e,0x7c,0x07,0xfc,0xbd,0x3d,0xad,0xc5,0x3d,0x81,0xf1,0x94,0xbe,0xad,0x82,0x3e,0x3e,0x61,0xe3,0xbc,0x3d,0x85,0xc6,0x27,0x3e,0x5f,0x5e,0x57,0xbd,0xa1,0x93,0x08,0xbf,0x91,0x27,0x59,0x3e,0x19,0xda,0xaa,0x3d,0x85,0xf5,0x9c,0x3e,0x04,0x3f,0x3a,0xbd,0xcb,0x1e,0x07,0x3e,0x89,0x1c,0xe9,0xbe,0x7b,0x7c,0xd5,0x3e,0x1d,0x03,0x01,0xbe,0xbc,0x40,0x61,0x3e,0xec,0x14,0x12,0x3f,0xb9,0x2e,0xb6,0x3d,0x3c,0x23,0xb2,0xbe,0xc0,0xca,0x66,0x3c,0xfd,0x66,0x84,0xbe,0xcb,0x66,0x9d,0x3e,0xc8,0x0d,0x45,0x3c,0x87,0xa3,0x9c,0xbe,0xe9,0x9a,0xe2,0x3e,0x3a,0xf5,0x99,0xbe,0x7b,0x95,0xa8,0x3b,0xef,0x2c,0x88,0x3e,0x95,0xe0,0x37,0xbd,0xc7,0x8b,0x51,0xbf,0x05,0x13,0x51,0xbe,0xef,0xae,0x7c,0xbe,0xa4,0x8d,0x37,0xbe,0xfc,0x96,0xee,0xbe,0x8a,0x81,0x7b,0x3e,0x54,0x70,0xab,0xbd,0xd1,0xa7,0x42,0x3e,0x61,0x9f,0xb8,0xbb,0x1a,0x49,0x66,0xbf,0xca,0x28,0x66,0xbc,0x58,0x06,0x96,0xbc,0xdc,0xdf,0xbe,0x3d,0x16,0x1f,0xda,0x3e,0x57,0x48,0x17,0xbe,0x6b,0x7e,0x2b,0x3e,0x80,0x00,0xcd,0x3e,0x25,0x8d,0x48,0xbe,0x38,0x97,0xfc,0x3e,0xfb,0x01,0xa5,0x3f,0x17,0xf9,0x7e,0xbe,0xfe,0x29,0x1d,0x3f,0x9a,0x54,0xf7,0x3e,0xca,0xae,0xb4,0xbe,0x73,0xb1,0xb2,0xbd,0x22,0xb3,0x09,0x3e,0x66,0x15,0xb9,0x3d,0xa6,0x73,0x42,0x3f,0x48,0x71,0xd1,0xbc,0x36,0x0e,0xd8,0x3d,0xd8,0x9c,0x1c,0x3d,0xa6,0xbb,0xcf,0x3d,0x3c,0xe6,0xb5,0x3d,0xc5,0x86,0xc0,0x3e,0xcf,0x9f,0xe1,0xbc,0x13,0x55,0xb0,0xbb,0x30,0xda,0xaa,0xbd,0x08,0x0d,0x30,0xbe,0x78,0xc4,0x80,0x3d,0x00,0xc7,0x33,0x3c,0x88,0xaf,0xd4,0xbd,0x70,0x59,0x56,0x3e,0x88,0xa4,0x51,0xbe,0xc0,0xf0,0x5f,0x3d,0x04,0xd3,0x19,0xbe,0x80,0x0d,0xec,0x3d,0x40,0xc4,0xc9,0xbd,0x90,0x73,0xe3,0xbd,0x98,0x38,0x39,0xbe,0x2c,0xd4,0x33,0x3e,0x80,0x5a,0xd2,0x3b,0x14,0x1e,0x01,0x3e,0x30,0x4d,0x15,0x3e,0xf8,0x67,0x4b,0x3e,0x98,0xbd,0x6d,0xbe,0x94,0xf8,0x0a,0x3e,0x00,0xc4,0x5c,0xbd,0xc8,0x81,0xc3,0x3d,0x44,0xa9,0x24,0xbe,0x40,0xc6,0x5c,0x3c,0xc0,0x4f,0x2f,0x3c,0xa0,0x1f,0x1d,0xbd,0x3c,0x07,0x7c,0x3e,0x14,0x40,0x4e,0xbe,0xe4,0xc9,0x6f,0xbe,0x2c,0x10,0x32,0xbe,0x80,0x8b,0xaa,0xbc,0xf0,0xdf,0xa1,0xbd,0x44,0x36,0x4d,0xbe,0x60,0x19,0xe4,0xbc,0xe0,0xd6,0x87,0xbd,0xd0,0x63,0x39,0xbe,0x00,0x37,0x4c,0x3d,0xd0,0xed,0xc4,0x3d,0xa0,0xc5,0x7a,0xbe,0x00,0x2c,0x81,0x3d,0x40,0x95,0x78,0x3c,0xd0,0x51,0xa6,0xbd,0x70,0x28,0x46,0xbe,0x18,0x0e,0xab,0xbd,0xd0,0x84,0x3e,0xbe,0x20,0x54,0xc9,0x3d,0xb0,0xee,0xec,0xbd,0x40,0xfe,0xc8,0x3c,0x30,0x9b,0xdc,0xbd,0x2c,0x1c,0x17,0x3e,0x24,0x50,0x23,0x3e,0x88,0x49,0xb5,0xbd,0x68,0xac,0x4c,0x3e,0xc0,0x2d,0xec,0xbd,0x60,0x0e,0x12,0xbd,0x00,0x07,0x0a,0x3c,0x68,0x34,0x2e,0xbe,0x00,0x1c,0x8b,0x3c,0xcc,0x6d,0x35,0x3e,0xd4,0x64,0x79,0xbe,0x40,0xe5,0xc7,0x3c,0x34,0x76,0x29,0xbe,0xf8,0x45,0x82,0xbd,0x00,0x18,0xac,0x3c,0xe6,0x6b,0x23,0x3e,0x47,0x9b,0x94,0xbd,0xfe,0x8a,0x51,0x3e,0x8d,0x8e,0xeb,0x3d,0xbf,0x6e,0xe8,0x3b,0x37,0x9e,0x20,0x3e,0x6d,0xe2,0x25,0xbe,0xa3,0x3b,0x21,0xbe,0xf4,0xa6,0x6d,0xbe,0xee,0xe9,0x82,0xbe,0x80,0x3b,0x00,0x3e,0x75,0x8a,0x02,0x3e,0x2b,0xc6,0x39,0xbf,0x4e,0x7b,0x6d,0x3d,0x1f,0xd7,0xb0,0xbe,0x74,0xf9,0x48,0xbf,0xeb,0x95,0x99,0x3d,0xec,0x9c,0xb3,0x3e,0x1e,0x0a,0xf3,0xbe,0x92,0x48,0x7b,0x3e,0x38,0x68,0x76,0x3d,0x70,0x0d,0xd7,0xbc,0xe4,0x0b,0x59,0x3e,0x52,0x9c,0xa6,0xbe,0xf2,0xc2,0xaf,0xbe,0xf8,0x1f,0x07,0x3c,0xd4,0x34,0xbd,0xbd,0x90,0xec,0x2e,0xbe,0x03,0x9d,0x62,0x3f,0x73,0x20,0x61,0x3e,0x26,0x28,0xdf,0x3e,0x6e,0xb1,0x51,0x3b,0xa7,0x83,0x88,0xbe,0xa1,0xc0,0xda,0xbe,0xbd,0xa1,0x3e,0x3d,0xdd,0x34,0x1a,0x3c,0xf4,0xc7,0x4f,0xbd,0x49,0x61,0x12,0xc0,0x74,0x99,0xda,0x3d,0x19,0x1a,0x45,0xbe,0x6f,0x1b,0x06,0x3e,0x6c,0x99,0xfa,0x3d,0x56,0x4f,0x83,0x3e,0xfb,0x8d,0x21,0xbe,0x2e,0xfe,0x22,0x3f,0x02,0x1e,0xa4,0xbb,0xba,0xee,0x13,0x3f,0x89,0xf7,0x83,0x3f,0x95,0x59,0xa6,0xbd,0xde,0xee,0xb2,0xbe,0x32,0xc1,0x26,0x3f,0x74,0x15,0xe0,0xbe,0x56,0x22,0xab,0xbe,0x9f,0x2f,0x32,0x3e,0x5e,0x93,0x00,0x3e,0x79,0x79,0xef,0x3e,0x96,0x8d,0x22,0xbf,0xc2,0x6c,0x25,0xbe,0x0c,0xa6,0xc9,0xbd,0x5a,0x25,0x86,0xbd,0xde,0xf9,0x5d,0xbd,0xb8,0x3e,0xf5,0xbc,0x87,0xdd,0xbc,0xbd,0x64,0x99,0x58,0x3d,0xaf,0x56,0x82,0x3d,0xaf,0xf8,0x04,0xbc,0x38,0x5b,0x82,0xbc,0xa3,0x01,0x7a,0xbd,0x37,0xc4,0x12,0xbe,0x28,0xc0,0x11,0xbf,0x67,0xe1,0x36,0xbe,0xbd,0xa6,0x80,0xbe,0x87,0x72,0x1e,0x3d,0xf8,0x5f,0xda,0xbd,0x1e,0xe2,0x0f,0xbe,0x12,0xb3,0x04,0x3e,0xb0,0x94,0x76,0x3d,0x64,0x50,0x0c,0xbc,0x0c,0x1e,0x51,0x3e,0x29,0xa2,0x07,0x3f,0xec,0xf1,0x28,0x3d,0x2c,0x04,0x7f,0xbf,0x52,0xc3,0x3c,0x3b,0xcf,0x34,0x61,0xbd,0xa8,0x10,0x3f,0x3e,0xd3,0x4d,0xe0,0x3d,0xcc,0x39,0x1e,0x3e,0x1c,0x0c,0x06,0x3f,0xf0,0xf0,0x85,0x3e,0xa6,0x89,0x7d,0x3d,0x26,0xab,0x05,0xbe,0xac,0x10,0x00,0x3e,0x16,0xbf,0x8e,0xbf,0xdb,0xc4,0x64,0x3d,0xac,0x57,0x1b,0xbf,0x69,0x5d,0x36,0xbe,0x9e,0x08,0xe0,0x3e,0x86,0xdc,0x61,0x3e,0xe6,0x14,0x41,0x3d,0xf9,0xff,0x4f,0xbe,0x79,0x1a,0xab,0x3d,0x23,0xe7,0x17,0x3f,0x93,0xf2,0xf0,0x3c,0x6c,0xef,0x60,0xbd,0x27,0x16,0x3f,0x3e,0xc0,0xb8,0x6d,0xbe,0xbd,0x01,0xe8,0xbd,0x8a,0xa5,0x7b,0x3e,0x44,0xc5,0xfa,0xbe,0x3b,0x72,0x1c,0xbd,0x42,0xe8,0xa3,0xbd,0xe2,0xee,0xa9,0xbf,0x47,0x9d,0x1d,0x3d,0xec,0x46,0x8c,0xbf,0xea,0xf1,0xfe,0xbe,0x76,0xda,0x19,0x3d,0xb7,0x3c,0x5a,0x3e,0xca,0x97,0x0c,0xbe,0x84,0xc6,0x85,0xbe,0x27,0x0f,0xe8,0xbe,0xe6,0xd9,0xcf,0x3e,0x77,0x85,0xf7,0x3d,0xff,0x92,0xfa,0x3d,0xe9,0x78,0x9c,0xbd,0xd3,0x30,0x33,0xbf,0x22,0x0a,0x00,0x3e,0x60,0xfe,0xbf,0xbe,0x11,0x64,0x90,0x3e,0x70,0xe4,0x83,0x3e,0xe5,0x88,0x59,0x3e,0x7c,0x70,0xca,0xbd,0x30,0xc1,0x81,0xbd,0x5c,0x79,0x21,0x3e,0xec,0x1f,0x29,0xbe,0x3b,0xbb,0x89,0x3e,0xa0,0x79,0x24,0xbe,0x41,0x21,0x81,0xbc,0xa9,0x9a,0xe0,0xbe,0xe1,0x44,0x89,0xbc,0x9e,0x0a,0xcc,0xbe,0x3f,0x08,0x12,0xbd,0xda,0xd8,0xa2,0x3e,0xf4,0x09,0x5e,0xbe,0x1b,0x1b,0xe5,0x3d,0x71,0x34,0x91,0x3e,0x45,0x02,0x1b,0xbf,0x0a,0x65,0xbc,0xbe,0x21,0x5f,0xd4,0xbd,0x84,0x94,0x50,0x3e,0x53,0x48,0x17,0x3b,0x41,0x2c,0xce,0xbe,0xa2,0x15,0x8c,0xbd,0x27,0xfb,0xdf,0xbe,0x3d,0xd7,0x47,0x3e,0xce,0x5d,0x88,0x3c,0x00,0xce,0xa3,0xbe,0xb4,0x7a,0x3e,0xbf,0x2e,0xbc,0xc5,0x3d,0x3e,0x42,0x1e,0xbf,0xbd,0x49,0x24,0xbe,0x46,0x7c,0x08,0xbe,0x4e,0x67,0x54,0x3d,0xeb,0xc6,0x67,0x3d,0x1c,0x84,0xa9,0x3e,0x9e,0x7b,0x73,0xbe,0x9b,0xf3,0xc0,0xbf,0x6f,0x0f,0x88,0xbd,0xca,0xc7,0x9f,0xbd,0x33,0x06,0x96,0xbe,0x9c,0x23,0xdf,0x3e,0xfa,0x82,0xdf,0x3b,0x4a,0xa7,0x5c,0x3e,0x38,0xc6,0x2c,0x3f,0x69,0x64,0xcb,0xbe,0x9e,0x1c,0x11,0x3f,0x39,0x50,0x79,0x3f,0xb9,0xf9,0x4e,0xbd,0xa2,0x8a,0x35,0x3f,0xa3,0x89,0xdf,0x3e,0xd3,0x6c,0x1d,0xbe,0x7a,0x74,0xa0,0xbe,0xde,0x75,0x28,0x3b,0xe2,0x83,0xdb,0x3e,0x8c,0xd1,0x2a,0x3f,0x7b,0xf8,0x50,0xbe,0x5f,0xcc,0xab,0xbd,0x15,0xb9,0x15,0xbe,0x37,0xca,0x4b,0xbd,0xb1,0x5d,0x38,0x3e,0xfe,0x5a,0x09,0x3e,0x75,0xe3,0xa5,0x3e,0x95,0xc7,0x9e,0xbd,0x0d,0x2c,0xb0,0x3d,0xaa,0x40,0x7f,0xbd,0xa8,0xa6,0x6f,0x3e,0x06,0x0b,0xa8,0xbd,0xd2,0x0f,0x0d,0x3e,0xef,0x08,0x1e,0x3e,0xd4,0xf1,0x15,0x3e,0xf0,0x24,0x10,0x3e,0x95,0x57,0x5a,0xbd,0xcf,0x36,0x72,0xbe,0xdb,0xf6,0x99,0xbe,0x8b,0x04,0x13,0xbe,0xdc,0x05,0xd2,0xbe,0xb3,0x1a,0x35,0x3e,0x3e,0x6e,0x0e,0xbf,0xbf,0xab,0x4c,0xbf,0x50,0x18,0x8d,0x3d,0xb8,0x31,0x6c,0xbe,0x28,0x8f,0x53,0xbe,0x6e,0xb5,0x35,0x3e,0x44,0x6b,0xde,0x3d,0x6c,0xcd,0xf7,0xbd,0x33,0xff,0x1c,0xbf,0x4e,0x70,0xb3,0xbc,0xa0,0x1e,0xb0,0xbe,0xe7,0xdc,0xff,0xbd,0xb4,0x26,0xe8,0xbd,0x14,0x8d,0x6d,0xbe,0x00,0x2b,0xcf,0xbe,0x26,0xc6,0xc6,0xbe,0xe1,0x43,0x98,0xbe,0x56,0x8d,0x26,0x3e,0xf7,0xe7,0x0d,0xbe,0xfc,0x56,0x02,0xbe,0xd0,0xf0,0x56,0xbd,0x61,0x81,0x90,0x3c,0x61,0xfd,0x92,0xbe,0x5b,0xcd,0x2a,0xc0,0x26,0xed,0xd0,0x3c,0xa9,0xd9,0x25,0xbd,0x87,0xbd,0xaa,0x3d,0x46,0xbe,0xa6,0x3e,0x34,0x85,0xcd,0xbd,0x0a,0x61,0x26,0xbe,0xb6,0xa1,0x09,0x3f,0x6e,0x96,0xcc,0xbe,0xc9,0xb2,0x25,0x3f,0xa2,0x85,0xb3,0x3f,0x16,0xc9,0xa7,0xbe,0x8c,0x52,0x16,0xbe,0x01,0x38,0x24,0x3f,0x2c,0x0d,0x9d,0xbe,0x3b,0x64,0x95,0x3d,0x68,0xd0,0xb8,0x3d,0xa2,0x4b,0x3b,0x3e,0x18,0xe2,0x25,0x3f,0x5e,0x9d,0xe6,0xbe,0xd1,0x45,0x65,0xbe,0x6c,0x60,0x8b,0xbe,0xef,0x39,0x27,0x3e,0xf2,0xe5,0x56,0xbe,0x8d,0x63,0x06,0x3e,0x48,0x9b,0x49,0xbe,0xef,0x1d,0x34,0x3e,0x26,0xee,0x43,0x3e,0xc5,0x6a,0x23,0x3d,0x12,0x9a,0x4f,0x3e,0xfe,0x7e,0x85,0x3e,0xcb,0xee,0xea,0xbd,0x2c,0x9c,0x1f,0x3f,0x08,0x22,0x2e,0xbd,0x64,0x2a,0x83,0xbe,0xf5,0xfd,0xde,0x3d,0x14,0x68,0x29,0xbe,0x14,0x68,0x49,0xbe,0x71,0xb2,0x44,0x3e,0x94,0x8e,0xf0,0xbe,0x87,0xe7,0xda,0xbd,0x96,0xd7,0xa6,0xbe,0xf4,0x24,0x3e,0xbe,0x8b,0x32,0x24,0x3e,0x28,0xd3,0x0d,0xbe,0x43,0x48,0x82,0x3d,0xe7,0x5d,0x86,0x3e,0x63,0x4e,0xc0,0xbc,0xf7,0x39,0x64,0xbb,0xee,0x45,0x63,0x3e,0x0b,0xde,0xa5,0xbe,0x2e,0x5e,0x6a,0x3e,0x50,0x9a,0x13,0xbe,0xe8,0xb5,0x84,0xbe,0x27,0x7a,0x61,0xbc,0xe9,0x59,0x6b,0xbe,0x97,0x6e,0x5c,0xbe,0x2a,0x03,0xb1,0xbd,0x89,0xeb,0x61,0x3d,0x24,0x54,0xde,0x3c,0x39,0x87,0x38,0x3e,0x93,0xf2,0x9f,0x3e,0xab,0x2b,0x0d,0xbe,0x6b,0xa8,0x37,0xbe,0x9e,0x95,0x96,0xbd,0xdd,0x71,0x43,0xbe,0xec,0x8e,0x0c,0xbe,0x15,0xff,0x9c,0x3e,0x25,0x44,0x9e,0xbe,0x6b,0x99,0xf0,0xbd,0x8f,0x78,0x83,0xbd,0xe0,0xa9,0x2d,0x3e,0x12,0x0f,0x5b,0x3e,0xac,0x13,0x30,0xbe,0x8e,0xf9,0x69,0x3e,0x5e,0x1b,0xdd,0x3e,0xe0,0x27,0x2d,0xbf,0x90,0xc7,0x1c,0xbe,0x27,0x28,0x59,0x3e,0x5b,0x09,0x09,0x3e,0x18,0xce,0x82,0x3e,0x20,0xb9,0x20,0x3e,0x00,0x79,0xbe,0x3e,0xbb,0x19,0xcd,0xbd,0x81,0x59,0x2a,0xbd,0x90,0x6e,0x97,0x3e,0x27,0xcf,0x40,0x3e,0xc8,0xb0,0x58,0xbf,0x89,0x25,0x67,0xbe,0xb5,0x9c,0x0c,0xbf,0x8d,0x7f,0x4d,0x3e,0x30,0x6a,0xa6,0xbe,0x79,0x07,0x24,0x3d,0xa0,0xe9,0xd9,0x3d,0xc4,0x2b,0xe4,0x3c,0x89,0x68,0x3b,0x3e,0x7a,0x60,0xe9,0xbe,0x5c,0xf3,0x67,0x3d,0xdf,0x1a,0xf4,0x3d,0xd6,0xb1,0x91,0x3d,0x5c,0x20,0x7b,0x3e,0xdf,0x5c,0x3b,0x3e,0x9f,0x2c,0x58,0xbe,0xb6,0x67,0x52,0x3d,0x4f,0x0e,0x3e,0x3e,0x74,0x0e,0x40,0x3e,0x43,0x4f,0x21,0x3e,0xba,0xb5,0x36,0xbe,0x9f,0x07,0xcd,0x3d,0xb9,0xb0,0x9c,0x3e,0x10,0x68,0x1d,0xbe,0x50,0x47,0x1e,0xbc,0x07,0xd4,0xcc,0xbc,0x19,0xf2,0xcd,0x3c,0x35,0xc6,0x90,0x3e,0x51,0xcd,0xdd,0xbc,0x7b,0x02,0x8f,0x3e,0x86,0x03,0x19,0x3e,0x6a,0x86,0x82,0x3e,0x9a,0x54,0xa3,0x3e,0x24,0x68,0x1e,0x3e,0x65,0x80,0x51,0x3e,0xa9,0x00,0x8d,0xbd,0x1e,0x3b,0x60,0xbe,0xd3,0x1d,0x65,0x3e,0xa7,0xb1,0x8b,0x3d,0xa4,0xa8,0x75,0x3e,0xe9,0x87,0xe3,0xbd,0x9e,0xaf,0x51,0xbd,0x77,0xf2,0x0c,0x3e,0x51,0x15,0x4a,0xbe,0xcc,0x86,0x1f,0xbe,0x7e,0x99,0x1d,0x3f,0x75,0xa3,0x74,0xbd,0x13,0xc4,0xe4,0xbd,0xb4,0x55,0xd8,0xbd,0x9a,0x03,0x91,0xbe,0x4a,0x48,0x40,0x3f,0x40,0x87,0xb6,0x3e,0x03,0x8b,0x80,0xbe,0x59,0x0e,0xa1,0x3f,0xf4,0x28,0xd8,0x3e,0xe3,0x3f,0x9e,0xbe,0x59,0x2e,0xea,0xbd,0x1e,0xc3,0x95,0xbc,0x7c,0x2e,0x2a,0x3e,0x65,0x77,0xb5,0x3e,0x10,0x19,0x3d,0x3e,0xfb,0x26,0x46,0xbe,0x8b,0x95,0x1b,0xbe,0x63,0x37,0x80,0x3d,0x76,0x2c,0xac,0x3f,0x0b,0xf2,0x0b,0x3e,0xf7,0xf3,0x96,0x3e,0x82,0x56,0xaa,0x3c,0xad,0xcd,0xd0,0x3e,0x06,0x90,0x1a,0x3e,0x54,0x44,0x89,0x3e,0x5d,0x0f,0xbe,0x3b,0x0d,0xd6,0xbe,0xbd,0x7e,0xfe,0x54,0x3f,0x23,0x18,0x25,0x3e,0x33,0xfb,0xc3,0xbe,0xb9,0x63,0xc9,0x3d,0x01,0x07,0x5c,0xbf,0xe2,0x73,0x89,0x3d,0x19,0xe2,0x9d,0x3e,0x4c,0xcf,0xf7,0xbf,0x3f,0x13,0xbd,0xbd,0x79,0xe8,0x27,0xbf,0x16,0x1a,0x04,0xc0,0x4f,0x11,0x07,0x3e,0xbf,0xf7,0xd7,0x3d,0x12,0xb0,0x86,0xbf,0x9e,0x2e,0x09,0x3f,0x90,0x0d,0x65,0x3d,0xed,0xc8,0x44,0xbe,0xdd,0x20,0xa2,0xbd,0x8b,0xa2,0xed,0xbf,0x39,0x0f,0x0b,0x3e,0x62,0xfb,0x8f,0xbe,0x5e,0x2b,0x98,0xbd,0x6c,0x6b,0x19,0x3d,0x50,0xb1,0xf9,0xbc,0x70,0x62,0x12,0x3c,0x49,0xec,0x38,0x3e,0x5e,0x14,0x61,0xbe,0xd0,0xb8,0x70,0xbe,0x1b,0x69,0x5b,0xbe,0xef,0x76,0x30,0xbd,0x75,0x56,0x88,0x3e,0xfe,0x38,0x57,0xbc,0xa3,0xd5,0x44,0xbf,0xea,0xf1,0x56,0xbe,0xe4,0x0a,0xe9,0xbe,0xc7,0x32,0xc8,0xbd,0x28,0x23,0x5d,0xbe,0xca,0x42,0x05,0x3d,0x9b,0x72,0x54,0xbd,0xb4,0x35,0x01,0x3f,0x83,0x6d,0x34,0x3e,0xfc,0x83,0x36,0x3e,0x0d,0x6e,0x1f,0x3f,0x90,0x19,0x72,0xbe,0x55,0x70,0x95,0xbf,0x37,0x8b,0xa2,0x3d,0x6c,0x29,0x8b,0xbe,0xf2,0x11,0x6c,0x3e,0x13,0x72,0x8c,0x3e,0x20,0x3c,0xd6,0x3d,0x7f,0x5f,0x47,0x3f,0xe3,0x28,0x9e,0xbe,0xcc,0x02,0xf7,0x3c,0x6d,0x69,0xac,0x3d,0x29,0x39,0x12,0x3e,0x2f,0x0f,0x6c,0xbf,0x9c,0x80,0x73,0x3e,0xaa,0x1b,0xfd,0xbd,0x39,0x9e,0xc4,0xb9,0x09,0x5d,0x45,0xbf,0xa9,0x4c,0x02,0x3e,0xb6,0xa9,0x37,0xbe,0xdc,0x0e,0x9f,0x3e,0x33,0xaa,0x9b,0xbd,0x58,0x57,0x0c,0x3e,0x51,0x84,0x6c,0xbe,0x2b,0xd9,0x1f,0x3d,0x8a,0x92,0x9a,0xbf,0xe4,0x1a,0x92,0xbc,0x79,0x1c,0x4e,0xbd,0x40,0xa0,0x21,0xbd,0xfb,0x8b,0x47,0xbe,0x02,0x27,0x76,0xbe,0xcf,0x5a,0xe6,0x3e,0xa1,0x50,0xd6,0x3e,0x3d,0x30,0x47,0xbf,0xe9,0x43,0x3e,0x3e,0xce,0x80,0x7d,0xbe,0x82,0x50,0x45,0xbe,0x45,0x10,0xca,0xbd,0x67,0x58,0x9e,0xbd,0xf6,0xb7,0x9c,0x3f,0xb5,0x11,0x20,0x3d,0x49,0x6d,0x1d,0xbe,0x9b,0xf8,0xbe,0x3c,0xd1,0x00,0x2e,0x3e,0xa1,0x23,0xbd,0x3f,0x8e,0x9c,0xe7,0x3d,0x8e,0x29,0xce,0x3e,0xce,0xcd,0x89,0x3d,0x65,0x01,0x13,0xbe,0xdf,0xd2,0x92,0xbe,0xb7,0xff,0x4b,0xbe,0x04,0xf8,0xe4,0xbe,0xa1,0xf4,0x6e,0x3e,0x7c,0x1f,0x1c,0x3e,0xe3,0xa6,0x60,0x3f,0x99,0x2c,0x20,0x3d,0xd0,0x6e,0x7c,0xbd,0xf8,0x45,0x09,0xc0,0x9b,0x26,0x18,0x3f,0xaf,0xa8,0xd3,0x3d,0xde,0x86,0xa2,0x3e,0xe0,0xf5,0xc1,0xbf,0x35,0xc8,0xf0,0xbe,0x41,0xb5,0x19,0x3f,0xc3,0x5b,0x78,0xbf,0x66,0xc3,0x8a,0xbd,0x26,0x73,0xbc,0x3f,0xb2,0x11,0xaf,0xbe,0x29,0x36,0xf1,0x3d,0x53,0x05,0x16,0xbe,0x31,0xad,0x40,0xbd,0xab,0xdd,0x35,0xbd,0x9f,0x6e,0x94,0xbf,0x36,0xce,0x9c,0x3e,0x48,0x0f,0xdd,0x3d,0x62,0xca,0x53,0x3e,0x1d,0x2f,0xbe,0xbd,0x64,0x2a,0xb3,0x3f,0xc1,0x24,0xed,0x3c,0xf1,0x23,0x26,0x3f,0x70,0xdc,0x02,0x3e,0x5a,0xfd,0xff,0xff,0x04,0x00,0x00,0x00,0x00,0x01,0x00,0x00,0xa9,0x1f,0x44,0x3e,0x45,0x75,0xbb,0x3e,0x89,0x33,0x87,0x3e,0xcc,0x18,0xa7,0x3e,0x31,0x92,0xe8,0x3c,0xd8,0xad,0xfb,0xbe,0x19,0x95,0xb0,0xbe,0x3c,0x9a,0xaf,0xbd,0x8f,0x56,0xce,0xbe,0x85,0xc9,0x41,0xbd,0x9f,0x1a,0x9a,0xbe,0x21,0xbd,0x09,0xbf,0xca,0x4f,0xee,0xbd,0xee,0x3a,0x54,0xbe,0x85,0x17,0x19,0xbf,0xfc,0x9f,0xdb,0x3e,0xae,0x38,0x2a,0xbf,0x8c,0xb5,0x1b,0xbf,0x6b,0x9d,0x10,0xbf,0xa0,0x62,0x0a,0x3d,0x56,0x76,0x61,0x3e,0x32,0xc1,0x11,0xbf,0x26,0x8c,0xde,0x3e,0xac,0xda,0xda,0x3d,0x75,0x83,0x9f,0x3f,0xfe,0xfc,0x90,0xbc,0xff,0xf7,0x8f,0x3f,0x7b,0xf2,0x8c,0x3f,0x74,0xa6,0xcb,0x3e,0x6d,0x28,0x9b,0x3d,0x22,0x4e,0xcb,0x3e,0x36,0x12,0x52,0x3e,0x9b,0x9d,0x06,0xbf,0xe8,0x0d,0x96,0xbe,0x5d,0x2f,0x76,0x3f,0x03,0x3d,0x5f,0x3f,0x0d,0x0b,0x52,0x3f,0x67,0x9d,0xa9,0x3e,0x11,0x6f,0x54,0x3f,0x7e,0x37,0x67,0xbf,0xfb,0xd8,0x14,0x3f,0xe8,0x78,0x15,0xbf,0xf4,0xdf,0x5f,0xbf,0xbb,0xae,0x75,0xbe,0xbe,0x55,0xac,0xbe,0x7f,0x33,0x0c,0xbf,0xfc,0xed,0xd5,0x3f,0xb6,0xc3,0x26,0x3f,0xaa,0xa3,0x70,0x3f,0xa3,0x62,0x09,0x3f,0x8e,0x44,0xc9,0xbe,0xee,0x91,0x03,0x3f,0x8e,0xd2,0x42,0xbe,0x11,0x94,0xe3,0xbc,0xd5,0xf2,0xb0,0x3f,0xa6,0x88,0x1c,0x3e,0x8f,0x16,0x86,0xbe,0x51,0x31,0xbf,0xbf,0x96,0x14,0xaf,0x3f,0x5b,0xa7,0x3f,0x3f,0xc0,0xce,0x3c,0xbf,0x3c,0x43,0x81,0x3f,0xe3,0xa2,0x92,0xbf,0xe1,0xc7,0xaa,0x3f,0x66,0xfe,0xff,0xff,0x04,0x00,0x00,0x00,0x80,0x00,0x00,0x00,0x00,0x00,0x00,0x00,0x00,0x00,0x00,0x00,0x00,0x00,0x00,0x00,0x00,0x00,0x00,0x00,0x00,0x00,0x00,0x00,0x00,0x00,0x00,0x00,0x00,0x00,0x00,0x00,0x00,0x00,0x00,0x00,0x00,0x00,0x00,0x00,0x00,0x00,0x00,0x00,0x00,0x00,0x00,0x00,0x00,0x00,0x00,0x00,0x00,0x00,0x00,0x00,0x00,0x00,0x00,0x00,0x00,0x00,0x00,0x00,0x00,0x00,0x00,0x00,0x00,0x00,0x00,0x00,0x00,0x00,0x00,0x00,0x00,0x00,0x00,0x00,0x00,0x00,0x00,0x00,0x00,0x00,0x00,0x00,0x00,0x00,0x00,0x00,0x00,0x00,0x00,0x00,0x00,0x00,0x00,0x00,0x00,0x00,0x00,0x00,0x00,0x00,0x00,0x00,0x00,0x00,0x00,0x00,0x00,0x00,0x00,0x00,0x00,0x00,0x00,0x00,0x00,0x00,0x00,0x00,0x00,0x00,0x00,0x00,0x00,0x00,0x00,0x00,0xf2,0xfe,0xff,0xff,0x04,0x00,0x00,0x00,0x00,0x01,0x00,0x00,0xe4,0xa5,0x21,0xbe,0x57,0xf3,0x98,0x3e,0x81,0xf4,0x67,0xba,0x2e,0x73,0x58,0xbe,0x03,0x72,0xd4,0xbd,0x56,0xaf,0x96,0x3e,0xc2,0x8d,0x9a,0xbd,0x20,0x74,0xe6,0xbe,0x20,0x71,0x23,0x3d,0xe9,0xe2,0xa0,0x3e,0xd8,0x55,0xb9,0xbe,0xd1,0x4e,0xb0,0x3e,0xf1,0x52,0x90,0x3e,0x32,0x28,0x2e,0x3e,0xae,0xa6,0xd3,0x3d,0x83,0x1a,0xda,0x3d,0x96,0x1d,0x54,0x3d,0x0a,0x77,0x57,0x3e,0xc2,0xd3,0xb6,0x3e,0xfc,0xc4,0x5c,0xbe,0x6e,0x72,0x88,0x3e,0xe7,0xca,0x77,0x3d,0x65,0x0d,0x1d,0xbf,0x65,0x25,0x91,0x3e,0x75,0xf5,0xda,0x3e,0xc2,0xe6,0xb9,0xbe,0x8b,0xb7,0xf4,0xbd,0x7d,0x14,0xc6,0x3e,0x93,0x17,0xb9,0x3e,0xf1,0x52,0x89,0xbe,0x4c,0xb1,0xcc,0x3e,0xde,0xaa,0xd9,0xbe,0xfa,0x00,0xbd,0xbd,0xcd,0xa4,0x84,0x3e,0xb7,0xd3,0xbd,0xbe,0xc0,0xcf,0xda,0x3d,0xa4,0x2a,0xcd,0x3e,0x3b,0x36,0x98,0xbe,0x6f,0xea,0x36,0xbe,0x2a,0xc5,0x87,0x3e,0xd1,0xe6,0x93,0xbd,0x37,0x36,0xed,0x3e,0x13,0xe1,0xaf,0x3e,0x24,0x14,0x19,0x3d,0xed,0x98,0x89,0x3e,0x82,0x0e,0x4d,0xbe,0xdf,0xde,0x01,0x3f,0x27,0x32,0xe1,0xbe,0xde,0xce,0xa1,0xbe,0x75,0x5a,0x15,0x3e,0x54,0x0a,0x98,0x3e,0xf7,0x4b,0xf1,0x3d,0xfe,0x5c,0x0e,0x3d,0x08,0x2c,0x03,0x3e,0x19,0x40,0xb5,0x3e,0xb1,0xa3,0x12,0xbe,0x07,0x4d,0xae,0xbe,0x7c,0x50,0xb0,0x3d,0xf8,0xee,0xb4,0xbe,0x8a,0x0e,0xdb,0xbe,0xf8,0x4b,0xd8,0xbe,0x56,0x55,0x31,0x3d,0x1d,0xe2,0x6f,0x3e,0x34,0xbd,0x15,0x3e,0x00,0x00,0x06,0x00,0x08,0x00,0x04,0x00,0x06,0x00,0x00,0x00,0x04,0x00,0x00,0x00,0x0c,0x00,0x00,0x00,0xff,0xff,0xff,0xff,0x02,0x00,0x00,0x00,0x20,0x00,0x00,0x00,0x38,0xf7,0xff,0xff,0x3c,0xf7,0xff,0xff,0x0f,0x00,0x00,0x00,0x4d,0x4c,0x49,0x52,0x20,0x43,0x6f,0x6e,0x76,0x65,0x72,0x74,0x65,0x64,0x2e,0x00,0x01,0x00,0x00,0x00,0x14,0x00,0x00,0x00,0x00,0x00,0x0e,0x00,0x18,0x00,0x14,0x00,0x10,0x00,0x0c,0x00,0x08,0x00,0x04,0x00,0x0e,0x00,0x00,0x00,0x14,0x00,0x00,0x00,0x1c,0x00,0x00,0x00,0xcc,0x01,0x00,0x00,0xd0,0x01,0x00,0x00,0xd4,0x01,0x00,0x00,0x04,0x00,0x00,0x00,0x6d,0x61,0x69,0x6e,0x00,0x00,0x00,0x00,0x07,0x00,0x00,0x00,0x84,0x01,0x00,0x00,0x24,0x01,0x00,0x00,0xec,0x00,0x00,0x00,0xa0,0x00,0x00,0x00,0x78,0x00,0x00,0x00,0x3c,0x00,0x00,0x00,0x04,0x00,0x00,0x00,0x02,0xff,0xff,0xff,0x14,0x00,0x00,0x00,0x00,0x00,0x00,0x08,0x10,0x00,0x00,0x00,0x14,0x00,0x00,0x00,0x04,0x00,0x00,0x00,0xc8,0xf7,0xff,0xff,0x01,0x00,0x00,0x00,0x11,0x00,0x00,0x00,0x03,0x00,0x00,0x00,0x10,0x00,0x00,0x00,0x04,0x00,0x00,0x00,0x08,0x00,0x00,0x00,0x36,0xff,0xff,0xff,0x14,0x00,0x00,0x00,0x00,0x00,0x00,0x08,0x14,0x00,0x00,0x00,0x18,0x00,0x00,0x00,0x04,0x00,0x00,0x00,0xa2,0xff,0xff,0xff,0x00,0x00,0x00,0x01,0x01,0x00,0x00,0x00,0x10,0x00,0x00,0x00,0x03,0x00,0x00,0x00,0x0f,0x00,0x00,0x00,0x05,0x00,0x00,0x00,0x07,0x00,0x00,0x00,0x9e,0xff,0xff,0xff,0x0c,0x00,0x00,0x00,0x10,0x00,0x00,0x00,0x02,0x00,0x00,0x00,0x01,0x00,0x00,0x00,0x0f,0x00,0x00,0x00,0x02,0x00,0x00,0x00,0x0e,0x00,0x00,0x00,0x09,0x00,0x00,0x00,0x92,0xff,0xff,0xff,0x1c,0x00,0x00,0x00,0x00,0x00,0x00,0x0b,0x1c,0x00,0x00,0x00,0x20,0x00,0x00,0x00,0x03,0x00,0x00,0x00,0x00,0x00,0x06,0x00,0x08,0x00,0x07,0x00,0x06,0x00,0x00,0x00,0x00,0x00,0x00,0x01,0x01,0x00,0x00,0x00,0x0e,0x00,0x00,0x00,0x02,0x00,0x00,0x00,0x0d,0x00,0x00,0x00,0x06,0x00,0x00,0x00,0x00,0x00,0x0a,0x00,0x10,0x00,0x0c,0x00,0x08,0x00,0x04,0x00,0x0a,0x00,0x00,0x00,0x0c,0x00,0x00,0x00,0x10,0x00,0x00,0x00,0x02,0x00,0x00,0x00,0x01,0x00,0x00,0x00,0x0d,0x00,0x00,0x00,0x02,0x00,0x00,0x00,0x0c,0x00,0x00,0x00,0x01,0x00,0x00,0x00,0x00,0x00,0x0e,0x00,0x1a,0x00,0x14,0x00,0x10,0x00,0x0c,0x00,0x0b,0x00,0x04,0x00,0x0e,0x00,0x00,0x00,0x20,0x00,0x00,0x00,0x00,0x00,0x00,0x01,0x28,0x00,0x00,0x00,0x2c,0x00,0x00,0x00,0x01,0x00,0x00,0x00,0x00,0x00,0x0a,0x00,0x10,0x00,0x0f,0x00,0x08,0x00,0x04,0x00,0x0a,0x00,0x00,0x00,0x01,0x00,0x00,0x00,0x01,0x00,0x00,0x00,0x00,0x00,0x00,0x01,0x01,0x00,0x00,0x00,0x0c,0x00,0x00,0x00,0x03,0x00,0x00,0x00,0x0b,0x00,0x00,0x00,0x02,0x00,0x00,0x00,0x03,0x00,0x00,0x00,0x00,0x00,0x0e,0x00,0x14,0x00,0x00,0x00,0x10,0x00,0x0c,0x00,0x0b,0x00,0x04,0x00,0x0e,0x00,0x00,0x00,0x10,0x00,0x00,0x00,0x00,0x00,0x00,0x34,0x0c,0x00,0x00,0x00,0x10,0x00,0x00,0x00,0x2c,0xf9,0xff,0xff,0x01,0x00,0x00,0x00,0x0b,0x00,0x00,0x00,0x02,0x00,0x00,0x00,0x00,0x00,0x00,0x00,0x0a,0x00,0x00,0x00,0x01,0x00,0x00,0x00,0x11,0x00,0x00,0x00,0x01,0x00,0x00,0x00,0x00,0x00,0x00,0x00,0x12,0x00,0x00,0x00,0x20,0x06,0x00,0x00,0xc8,0x05,0x00,0x00,0x68,0x05,0x00,0x00,0x14,0x05,0x00,0x00,0xd4,0x04,0x00,0x00,0x94,0x04,0x00,0x00,0x50,0x04,0x00,0x00,0x14,0x04,0x00,0x00,0xd8,0x03,0x00,0x00,0x98,0x03,0x00,0x00,0x38,0x03,0x00,0x00,0xb8,0x02,0x00,0x00,0x44,0x02,0x00,0x00,0xd0,0x01,0x00,0x00,0x50,0x01,0x00,0x00,0xf0,0x00,0x00,0x00,0x60,0x00,0x00,0x00,0x04,0x00,0x00,0x00,0x3e,0xfa,0xff,0xff,0x00,0x00,0x00,0x01,0x14,0x00,0x00,0x00,0x1c,0x00,0x00,0x00,0x1c,0x00,0x00,0x00,0x12,0x00,0x00,0x00,0x34,0x00,0x00,0x00,0x02,0x00,0x00,0x00,0xff,0xff,0xff,0xff,0x02,0x00,0x00,0x00,0xc8,0xf9,0xff,0xff,0x1b,0x00,0x00,0x00,0x53,0x74,0x61,0x74,0x65,0x66,0x75,0x6c,0x50,0x61,0x72,0x74,0x69,0x74,0x69,0x6f,0x6e,0x65,0x64,0x43,0x61,0x6c,0x6c,0x5f,0x31,0x3a,0x30,0x00,0x02,0x00,0x00,0x00,0x01,0x00,0x00,0x00,0x02,0x00,0x00,0x00,0x96,0xfa,0xff,0xff,0x00,0x00,0x00,0x01,0x14,0x00,0x00,0x00,0x1c,0x00,0x00,0x00,0x1c,0x00,0x00,0x00,0x11,0x00,0x00,0x00,0x68,0x00,0x00,0x00,0x02,0x00,0x00,0x00,0xff,0xff,0xff,0xff,0x20,0x00,0x00,0x00,0x20,0xfa,0xff,0xff,0x4e,0x00,0x00,0x00,0x73,0x65,0x71,0x75,0x65,0x6e,0x74,0x69,0x61,0x6c,0x5f,0x31,0x2f,0x64,0x65,0x6e,0x73,0x65,0x5f,0x31,0x2f,0x4d,0x61,0x74,0x4d,0x75,0x6c,0x3b,0x73,0x65,0x71,0x75,0x65,0x6e,0x74,0x69,0x61,0x6c,0x5f,0x31,0x2f,0x64,0x65,0x6e,0x73,0x65,0x5f,0x31,0x2f,0x52,0x65,0x6c,0x75,0x3b,0x73,0x65,0x71,0x75,0x65,0x6e,0x74,0x69,0x61,0x6c,0x5f,0x31,0x2f,0x64,0x65,0x6e,0x73,0x65,0x5f,0x31,0x2f,0x41,0x64,0x64,0x00,0x00,0x02,0x00,0x00,0x00,0x01,0x00,0x00,0x00,0x20,0x00,0x00,0x00,0x22,0xfb,0xff,0xff,0x00,0x00,0x00,0x01,0x14,0x00,0x00,0x00,0x1c,0x00,0x00,0x00,0x1c,0x00,0x00,0x00,0x10,0x00,0x00,0x00,0x38,0x00,0x00,0x00,0x02,0x00,0x00,0x00,0xff,0xff,0xff,0xff,0x40,0x00,0x00,0x00,0xac,0xfa,0xff,0xff,0x1e,0x00,0x00,0x00,0x73,0x65,0x71,0x75,0x65,0x6e,0x74,0x69,0x61,0x6c,0x5f,0x31,0x2f,0x66,0x6c,0x61,0x74,0x74,0x65,0x6e,0x5f,0x31,0x2f,0x52,0x65,0x73,0x68,0x61,0x70,0x65,0x00,0x00,0x02,0x00,0x00,0x00,0x01,0x00,0x00,0x00,0x40,0x00,0x00,0x00,0x7e,0xfb,0xff,0xff,0x00,0x00,0x00,0x01,0x14,0x00,0x00,0x00,0x20,0x00,0x00,0x00,0x20,0x00,0x00,0x00,0x0f,0x00,0x00,0x00,0x54,0x00,0x00,0x00,0x03,0x00,0x00,0x00,0xff,0xff,0xff,0xff,0x02,0x00,0x00,0x00,0x20,0x00,0x00,0x00,0x0c,0xfb,0xff,0xff,0x34,0x00,0x00,0x00,0x73,0x65,0x71,0x75,0x65,0x6e,0x74,0x69,0x61,0x6c,0x5f,0x31,0x2f,0x63,0x6f,0x6e,0x76,0x31,0x64,0x5f,0x31,0x2f,0x52,0x65,0x6c,0x75,0x3b,0x73,0x65,0x71,0x75,0x65,0x6e,0x74,0x69,0x61,0x6c,0x5f,0x31,0x2f,0x63,0x6f,0x6e,0x76,0x31,0x64,0x5f,0x31,0x2f,0x61,0x64,0x64,0x00,0x00,0x00,0x00,0x03,0x00,0x00,0x00,0x01,0x00,0x00,0x00,0x02,0x00,0x00,0x00,0x20,0x00,0x00,0x00,0xfa,0xfb,0xff,0xff,0x00,0x00,0x00,0x01,0x14,0x00,0x00,0x00,0x20,0x00,0x00,0x00,0x20,0x00,0x00,0x00,0x0e,0x00,0x00,0x00,0x48,0x00,0x00,0x00,0x03,0x00,0x00,0x00,0xff,0xff,0xff,0xff,0x02,0x00,0x00,0x00,0x20,0x00,0x00,0x00,0x88,0xfb,0xff,0xff,0x29,0x00,0x00,0x00,0x73,0x65,0x71,0x75,0x65,0x6e,0x74,0x69,0x61,0x6c,0x5f,0x31,0x2f,0x63,0x6f,0x6e,0x76,0x31,0x64,0x5f,0x31,0x2f,0x63,0x6f,0x6e,0x76,0x6f,0x6c,0x75,0x74,0x69,0x6f,0x6e,0x2f,0x53,0x71,0x75,0x65,0x65,0x7a,0x65,0x00,0x00,0x00,0x03,0x00,0x00,0x00,0x01,0x00,0x00,0x00,0x02,0x00,0x00,0x00,0x20,0x00,0x00,0x00,0x6a,0xfc,0xff,0xff,0x00,0x00,0x00,0x01,0x14,0x00,0x00,0x00,0x24,0x00,0x00,0x00,0x24,0x00,0x00,0x00,0x0d,0x00,0x00,0x00,0x44,0x00,0x00,0x00,0x04,0x00,0x00,0x00,0xff,0xff,0xff,0xff,0x01,0x00,0x00,0x00,0x02,0x00,0x00,0x00,0x20,0x00,0x00,0x00,0xfc,0xfb,0xff,0xff,0x21,0x00,0x00,0x00,0x73,0x65,0x71,0x75,0x65,0x6e,0x74,0x69,0x61,0x6c,0x5f,0x31,0x2f,0x63,0x6f,0x6e,0x76,0x31,0x64,0x5f,0x31,0x2f,0x63,0x6f,0x6e,0x76,0x6f,0x6c,0x75,0x74,0x69,0x6f,0x6e,0x00,0x00,0x00,0x04,0x00,0x00,0x00,0x01,0x00,0x00,0x00,0x01,0x00,0x00,0x00,0x02,0x00,0x00,0x00,0x20,0x00,0x00,0x00,0xda,0xfc,0xff,0xff,0x00,0x00,0x00,0x01,0x14,0x00,0x00,0x00,0x24,0x00,0x00,0x00,0x24,0x00,0x00,0x00,0x0c,0x00,0x00,0x00,0x50,0x00,0x00,0x00,0x04,0x00,0x00,0x00,0xff,0xff,0xff,0xff,0x01,0x00,0x00,0x00,0x03,0x00,0x00,0x00,0x01,0x00,0x00,0x00,0x6c,0xfc,0xff,0xff,0x2c,0x00,0x00,0x00,0x73,0x65,0x71,0x75,0x65,0x6e,0x74,0x69,0x61,0x6c,0x5f,0x31,0x2f,0x63,0x6f,0x6e,0x76,0x31,0x64,0x5f,0x31,0x2f,0x63,0x6f,0x6e,0x76,0x6f,0x6c,0x75,0x74,0x69,0x6f,0x6e,0x2f,0x45,0x78,0x70,0x61,0x6e,0x64,0x44,0x69,0x6d,0x73,0x00,0x00,0x00,0x00,0x04,0x00,0x00,0x00,0x01,0x00,0x00,0x00,0x01,0x00,0x00,0x00,0x03,0x00,0x00,0x00,0x01,0x00,0x00,0x00,0xaa,0xfd,0xff,0xff,0x00,0x00,0x00,0x01,0x14,0x00,0x00,0x00,0x14,0x00,0x00,0x00,0x0b,0x00,0x00,0x00,0x00,0x00,0x00,0x02,0x40,0x00,0x00,0x00,0xd4,0xfc,0xff,0xff,0x30,0x00,0x00,0x00,0x73,0x65,0x71,0x75,0x65,0x6e,0x74,0x69,0x61,0x6c,0x5f,0x31,0x2f,0x63,0x6f,0x6e,0x76,0x31,0x64,0x5f,0x31,0x2f,0x63,0x6f,0x6e,0x76,0x6f,0x6c,0x75,0x74,0x69,0x6f,0x6e,0x2f,0x45,0x78,0x70,0x61,0x6e,0x64,0x44,0x69,0x6d,0x73,0x2f,0x64,0x69,0x6d,0x00,0x00,0x00,0x00,0x00,0x00,0x00,0x00,0x06,0xfe,0xff,0xff,0x00,0x00,0x00,0x01,0x14,0x00,0x00,0x00,0x14,0x00,0x00,0x00,0x0a,0x00,0x00,0x00,0x00,0x00,0x00,0x02,0x1c,0x00,0x00,0x00,0x30,0xfd,0xff,0xff,0x0f,0x00,0x00,0x00,0x61,0x72,0x69,0x74,0x68,0x2e,0x63,0x6f,0x6e,0x73,0x74,0x61,0x6e,0x74,0x38,0x00,0x01,0x00,0x00,0x00,0x02,0x00,0x00,0x00,0x9e,0xfe,0xff,0xff,0x00,0x00,0x00,0x01,0x10,0x00,0x00,0x00,0x10,0x00,0x00,0x00,0x09,0x00,0x00,0x00,0x1c,0x00,0x00,0x00,0x68,0xfd,0xff,0xff,0x0f,0x00,0x00,0x00,0x61,0x72,0x69,0x74,0x68,0x2e,0x63,0x6f,0x6e,0x73,0x74,0x61,0x6e,0x74,0x37,0x00,0x01,0x00,0x00,0x00,0x02,0x00,0x00,0x00,0xd6,0xfe,0xff,0xff,0x00,0x00,0x00,0x01,0x10,0x00,0x00,0x00,0x10,0x00,0x00,0x00,0x08,0x00,0x00,0x00,0x1c,0x00,0x00,0x00,0xa0,0xfd,0xff,0xff,0x0f,0x00,0x00,0x00,0x61,0x72,0x69,0x74,0x68,0x2e,0x63,0x6f,0x6e,0x73,0x74,0x61,0x6e,0x74,0x36,0x00,0x01,0x00,0x00,0x00,0x20,0x00,0x00,0x00,0x0e,0xff,0xff,0xff,0x00,0x00,0x00,0x01,0x10,0x00,0x00,0x00,0x10,0x00,0x00,0x00,0x07,0x00,0x00,0x00,0x1c,0x00,0x00,0x00,0xd8,0xfd,0xff,0xff,0x0f,0x00,0x00,0x00,0x61,0x72,0x69,0x74,0x68,0x2e,0x63,0x6f,0x6e,0x73,0x74,0x61,0x6e,0x74,0x35,0x00,0x03,0x00,0x00,0x00,0x01,0x00,0x00,0x00,0x01,0x00,0x00,0x00,0x20,0x00,0x00,0x00,0x4e,0xff,0xff,0xff,0x00,0x00,0x00,0x01,0x10,0x00,0x00,0x00,0x10,0x00,0x00,0x00,0x06,0x00,0x00,0x00,0x1c,0x00,0x00,0x00,0x18,0xfe,0xff,0xff,0x0f,0x00,0x00,0x00,0x61,0x72,0x69,0x74,0x68,0x2e,0x63,0x6f,0x6e,0x73,0x74,0x61,0x6e,0x74,0x34,0x00,0x02,0x00,0x00,0x00,0x20,0x00,0x00,0x00,0x40,0x00,0x00,0x00,0x8a,0xff,0xff,0xff,0x00,0x00,0x00,0x01,0x10,0x00,0x00,0x00,0x10,0x00,0x00,0x00,0x05,0x00,0x00,0x00,0x1c,0x00,0x00,0x00,0x54,0xfe,0xff,0xff,0x0f,0x00,0x00,0x00,0x61,0x72,0x69,0x74,0x68,0x2e,0x63,0x6f,0x6e,0x73,0x74,0x61,0x6e,0x74,0x33,0x00,0x02,0x00,0x00,0x00,0x02,0x00,0x00,0x00,0x20,0x00,0x00,0x00,0xc6,0xff,0xff,0xff,0x00,0x00,0x00,0x01,0x10,0x00,0x00,0x00,0x10,0x00,0x00,0x00,0x04,0x00,0x00,0x00,0x1c,0x00,0x00,0x00,0x90,0xfe,0xff,0xff,0x0f,0x00,0x00,0x00,0x61,0x72,0x69,0x74,0x68,0x2e,0x63,0x6f,0x6e,0x73,0x74,0x61,0x6e,0x74,0x32,0x00,0x01,0x00,0x00,0x00,0x20,0x00,0x00,0x00,0x00,0x00,0x16,0x00,0x18,0x00,0x14,0x00,0x00,0x00,0x10,0x00,0x0c,0x00,0x08,0x00,0x00,0x00,0x00,0x00,0x00,0x00,0x07,0x00,0x16,0x00,0x00,0x00,0x00,0x00,0x00,0x01,0x10,0x00,0x00,0x00,0x10,0x00,0x00,0x00,0x03,0x00,0x00,0x00,0x1c,0x00,0x00,0x00,0xe0,0xfe,0xff,0xff,0x0f,0x00,0x00,0x00,0x61,0x72,0x69,0x74,0x68,0x2e,0x63,0x6f,0x6e,0x73,0x74,0x61,0x6e,0x74,0x31,0x00,0x04,0x00,0x00,0x00,0x20,0x00,0x00,0x00,0x01,0x00,0x00,0x00,0x02,0x00,0x00,0x00,0x01,0x00,0x00,0x00,0x00,0x00,0x16,0x00,0x1c,0x00,0x18,0x00,0x17,0x00,0x10,0x00,0x0c,0x00,0x08,0x00,0x00,0x00,0x00,0x00,0x00,0x00,0x07,0x00,0x16,0x00,0x00,0x00,0x00,0x00,0x00,0x01,0x14,0x00,0x00,0x00,0x14,0x00,0x00,0x00,0x02,0x00,0x00,0x00,0x00,0x00,0x00,0x02,0x1c,0x00,0x00,0x00,0x40,0xff,0xff,0xff,0x0e,0x00,0x00,0x00,0x61,0x72,0x69,0x74,0x68,0x2e,0x63,0x6f,0x6e,0x73,0x74,0x61,0x6e,0x74,0x00,0x00,0x01,0x00,0x00,0x00,0x03,0x00,0x00,0x00,0x00,0x00,0x16,0x00,0x1c,0x00,0x18,0x00,0x00,0x00,0x14,0x00,0x10,0x00,0x0c,0x00,0x00,0x00,0x00,0x00,0x08,0x00,0x07,0x00,0x16,0x00,0x00,0x00,0x00,0x00,0x00,0x01,0x14,0x00,0x00,0x00,0x20,0x00,0x00,0x00,0x20,0x00,0x00,0x00,0x01,0x00,0x00,0x00,0x3c,0x00,0x00,0x00,0x03,0x00,0x00,0x00,0xff,0xff,0xff,0xff,0x03,0x00,0x00,0x00,0x01,0x00,0x00,0x00,0xa4,0xff,0xff,0xff,0x1e,0x00,0x00,0x00,0x73,0x65,0x72,0x76,0x69,0x6e,0x67,0x5f,0x64,0x65,0x66,0x61,0x75,0x6c,0x74,0x5f,0x6b,0x65,0x72,0x61,0x73,0x5f,0x74,0x65,0x6e,0x73,0x6f,0x72,0x3a,0x30,0x00,0x00,0x03,0x00,0x00,0x00,0x01,0x00,0x00,0x00,0x03,0x00,0x00,0x00,0x01,0x00,0x00,0x00,0x05,0x00,0x00,0x00,0x4c,0x00,0x00,0x00,0x30,0x00,0x00,0x00,0x20,0x00,0x00,0x00,0x18,0x00,0x00,0x00,0x04,0x00,0x00,0x00,0xd4,0xff,0xff,0xff,0x09,0x00,0x00,0x00,0x00,0x00,0x00,0x09,0x04,0x00,0x04,0x00,0x04,0x00,0x00,0x00,0xe8,0xff,0xff,0xff,0x16,0x00,0x00,0x00,0x00,0x00,0x00,0x16,0xf4,0xff,0xff,0xff,0x03,0x00,0x00,0x00,0x00,0x00,0x00,0x03,0x0c,0x00,0x0c,0x00,0x0b,0x00,0x00,0x00,0x00,0x00,0x04,0x00,0x0c,0x00,0x00,0x00,0x46,0x00,0x00,0x00,0x00,0x00,0x00,0x46};
const int g_model_len = 12072;

const float scaler_i_mean[] = { 2.5, 418.931737012987, 498.2339385922719 };
const float scaler_i_scale[] = { 1.2909944487358056, 173.68251083917716, 153.87725056777126 };
const float scaler_o_mean[] = { 2.5, 32.5 };
const float scaler_o_scale[] = { 1.5811388300841898, 5.5901699437494745 };
#endif  // MODEL_H
