
#ifndef MODEL_H
#define MODEL_H

// MSE(Pos, Temp): [0.76539302 0.9371514 ]

// for SSBH-0830-02, PWM=20Hz, SolStrokeUnit (Rf=19.4kHz), Vs=5.0V
const unsigned char g_model[] = {0x1c,0x00,0x00,0x00,0x54,0x46,0x4c,0x33,0x14,0x00,0x20,0x00,0x1c,0x00,0x18,0x00,0x14,0x00,0x10,0x00,0x0c,0x00,0x00,0x00,0x08,0x00,0x04,0x00,0x14,0x00,0x00,0x00,0x1c,0x00,0x00,0x00,0x8c,0x00,0x00,0x00,0xe4,0x00,0x00,0x00,0x04,0x26,0x00,0x00,0x14,0x26,0x00,0x00,0x98,0x2e,0x00,0x00,0x03,0x00,0x00,0x00,0x01,0x00,0x00,0x00,0x04,0x00,0x00,0x00,0xd6,0xd8,0xff,0xff,0x0c,0x00,0x00,0x00,0x1c,0x00,0x00,0x00,0x3c,0x00,0x00,0x00,0x0f,0x00,0x00,0x00,0x73,0x65,0x72,0x76,0x69,0x6e,0x67,0x5f,0x64,0x65,0x66,0x61,0x75,0x6c,0x74,0x00,0x01,0x00,0x00,0x00,0x04,0x00,0x00,0x00,0x90,0xff,0xff,0xff,0x11,0x00,0x00,0x00,0x04,0x00,0x00,0x00,0x08,0x00,0x00,0x00,0x6f,0x75,0x74,0x70,0x75,0x74,0x5f,0x30,0x00,0x00,0x00,0x00,0x01,0x00,0x00,0x00,0x04,0x00,0x00,0x00,0x8a,0xda,0xff,0xff,0x04,0x00,0x00,0x00,0x0c,0x00,0x00,0x00,0x6b,0x65,0x72,0x61,0x73,0x5f,0x74,0x65,0x6e,0x73,0x6f,0x72,0x00,0x00,0x00,0x00,0x02,0x00,0x00,0x00,0x34,0x00,0x00,0x00,0x04,0x00,0x00,0x00,0xdc,0xff,0xff,0xff,0x14,0x00,0x00,0x00,0x04,0x00,0x00,0x00,0x13,0x00,0x00,0x00,0x43,0x4f,0x4e,0x56,0x45,0x52,0x53,0x49,0x4f,0x4e,0x5f,0x4d,0x45,0x54,0x41,0x44,0x41,0x54,0x41,0x00,0x08,0x00,0x0c,0x00,0x08,0x00,0x04,0x00,0x08,0x00,0x00,0x00,0x13,0x00,0x00,0x00,0x04,0x00,0x00,0x00,0x13,0x00,0x00,0x00,0x6d,0x69,0x6e,0x5f,0x72,0x75,0x6e,0x74,0x69,0x6d,0x65,0x5f,0x76,0x65,0x72,0x73,0x69,0x6f,0x6e,0x00,0x15,0x00,0x00,0x00,0x1c,0x25,0x00,0x00,0x14,0x25,0x00,0x00,0xf8,0x24,0x00,0x00,0xe0,0x23,0x00,0x00,0x50,0x23,0x00,0x00,0x40,0x22,0x00,0x00,0x30,0x02,0x00,0x00,0xa0,0x01,0x00,0x00,0x10,0x01,0x00,0x00,0xf8,0x00,0x00,0x00,0xe0,0x00,0x00,0x00,0xcc,0x00,0x00,0x00,0xc4,0x00,0x00,0x00,0xbc,0x00,0x00,0x00,0xb4,0x00,0x00,0x00,0xac,0x00,0x00,0x00,0xa4,0x00,0x00,0x00,0x9c,0x00,0x00,0x00,0x94,0x00,0x00,0x00,0x74,0x00,0x00,0x00,0x04,0x00,0x00,0x00,0x5a,0xdb,0xff,0xff,0x04,0x00,0x00,0x00,0x60,0x00,0x00,0x00,0x10,0x00,0x00,0x00,0x00,0x00,0x00,0x00,0x08,0x00,0x0e,0x00,0x08,0x00,0x04,0x00,0x08,0x00,0x00,0x00,0x10,0x00,0x00,0x00,0x24,0x00,0x00,0x00,0x00,0x00,0x06,0x00,0x08,0x00,0x04,0x00,0x06,0x00,0x00,0x00,0x04,0x00,0x00,0x00,0x00,0x00,0x00,0x00,0x0c,0x00,0x18,0x00,0x14,0x00,0x10,0x00,0x0c,0x00,0x04,0x00,0x0c,0x00,0x00,0x00,0x81,0xdb,0xf2,0xa3,0xbb,0xed,0x47,0x42,0x02,0x00,0x00,0x00,0x02,0x00,0x00,0x00,0x04,0x00,0x00,0x00,0x06,0x00,0x00,0x00,0x32,0x2e,0x31,0x37,0x2e,0x30,0x00,0x00,0xc6,0xdb,0xff,0xff,0x04,0x00,0x00,0x00,0x10,0x00,0x00,0x00,0x31,0x2e,0x31,0x30,0x2e,0x30,0x00,0x00,0x00,0x00,0x00,0x00,0x00,0x00,0x00,0x00,0xfc,0xd2,0xff,0xff,0x00,0xd3,0xff,0xff,0x04,0xd3,0xff,0xff,0x08,0xd3,0xff,0xff,0x0c,0xd3,0xff,0xff,0x10,0xd3,0xff,0xff,0x14,0xd3,0xff,0xff,0xfe,0xdb,0xff,0xff,0x04,0x00,0x00,0x00,0x04,0x00,0x00,0x00,0xfd,0xff,0xff,0xff,0x0e,0xdc,0xff,0xff,0x04,0x00,0x00,0x00,0x08,0x00,0x00,0x00,0xff,0xff,0xff,0xff,0x40,0x00,0x00,0x00,0x22,0xdc,0xff,0xff,0x04,0x00,0x00,0x00,0x08,0x00,0x00,0x00,0x8a,0x41,0xf2,0x3c,0x96,0xfe,0x58,0xbe,0x36,0xdc,0xff,0xff,0x04,0x00,0x00,0x00,0x80,0x00,0x00,0x00,0xd0,0x05,0x39,0x3e,0xe3,0xeb,0x59,0xbc,0x0a,0xa9,0x7e,0x3d,0xd9,0x0d,0x7c,0xbd,0xd4,0x46,0x57,0x3e,0x8c,0x71,0xb4,0x3e,0xf1,0xe6,0x85,0xbd,0x58,0x60,0x5c,0xbd,0xe1,0x86,0x44,0x3e,0xa2,0x4b,0x6f,0x3e,0x03,0xb7,0x64,0x3d,0x6a,0xc4,0xbc,0x3e,0x10,0x80,0xe3,0x3e,0xf3,0xe0,0x0b,0xbe,0xee,0x4d,0x93,0x3d,0x5d,0x13,0xc5,0xbd,0x77,0xeb,0xb9,0x3d,0x4c,0xee,0x15,0x3f,0xfe,0x3f,0xc4,0xbd,0x7d,0x70,0xcb,0x3d,0x5e,0xe1,0xc2,0x3d,0x6d,0xab,0xfc,0xbd,0x2c,0xdf,0xba,0xbc,0x58,0xb9,0xaf,0x3e,0xc8,0xa1,0xc2,0x3c,0x91,0x3e,0x6f,0xbc,0xe6,0x07,0xb4,0xbc,0x66,0x08,0x98,0x3e,0x4d,0xd2,0x85,0xbe,0xaf,0x3f,0xcf,0xbb,0xf3,0x92,0xa0,0x3e,0x04,0x20,0x96,0x3e,0xc2,0xdc,0xff,0xff,0x04,0x00,0x00,0x00,0x80,0x00,0x00,0x00,0x6c,0x92,0xdd,0xb8,0x1d,0xa8,0xc8,0x3d,0xd3,0x45,0xd2,0x3d,0x3b,0xa9,0x26,0xbc,0x37,0xaa,0xbd,0x3b,0xd0,0x0c,0x1a,0x3e,0x2e,0x00,0x08,0x3e,0xdf,0x14,0x65,0x3e,0xd4,0x1a,0x24,0xbe,0x57,0x45,0xec,0x3d,0x6d,0xd5,0x18,0x3e,0x04,0xad,0x01,0x3e,0x65,0xd1,0x55,0xbc,0x57,0xc7,0x7d,0x3d,0x97,0x80,0x54,0x3e,0xa5,0x06,0x31,0x3e,0xf7,0xb8,0x11,0xb9,0x14,0xd2,0xc7,0x3d,0x9c,0x2c,0xd2,0x3d,0x36,0x25,0x0a,0xbe,0x9a,0x45,0xe1,0xbe,0x99,0x1a,0x08,0xbc,0x6f,0x57,0x26,0x3d,0x12,0x63,0x35,0x3e,0xbf,0x97,0x47,0x3e,0x9d,0xf5,0xd7,0xbc,0xf8,0x91,0xe3,0xbe,0xce,0xb8,0x1f,0x3e,0xe3,0x04,0x3f,0xbd,0xc5,0x2a,0xdb,0x3d,0xc1,0xfb,0xfe,0x3c,0x88,0x92,0x57,0x3d,0x4e,0xdd,0xff,0xff,0x04,0x00,0x00,0x00,0x00,0x20,0x00,0x00,0x76,0x92,0xf0,0x3e,0x4a,0x55,0x25,0x3f,0xd6,0x92,0x1b,0xbf,0x11,0xee,0x54,0x3e,0xd8,0xdd,0x9f,0x3d,0xce,0x95,0xf0,0x3d,0x81,0x82,0xfe,0x3e,0xa0,0xfd,0x4a,0x3e,0x33,0xb6,0xd2,0x3d,0xed,0x48,0x03,0x3f,0x06,0x48,0xd7,0x3d,0xd0,0x92,0xc1,0x3d,0x07,0x42,0x77,0xbd,0xbd,0x64,0xb6,0xbd,0xd2,0x8b,0x71,0xbe,0x7a,0xb1,0xe3,0xbd,0x00,0xdc,0x48,0xbc,0x6f,0x4f,0xf8,0x3e,0xda,0x35,0x4e,0xbf,0x14,0xad,0x31,0xbe,0xeb,0x8a,0xca,0xbd,0xd2,0xa5,0x18,0xbe,0x56,0x64,0x65,0x3e,0x03,0xfc,0x5f,0x3e,0x61,0x73,0x4b,0xbe,0x4b,0x08,0x6f,0x3e,0x74,0xf3,0x9f,0xbc,0x8c,0xeb,0x62,0x3e,0x63,0x2b,0xc0,0x3d,0x12,0xe9,0x11,0xbf,0x56,0x6b,0xc0,0x3e,0x96,0x42,0x34,0x3f,0x73,0x2e,0xb3,0x3e,0xbe,0x1c,0xbd,0xbe,0x1e,0x3d,0x3e,0x3e,0x37,0xc1,0xa3,0xbe,0x82,0xe9,0xfa,0xbe,0xeb,0x29,0xb5,0x3d,0x7b,0x56,0xec,0xbe,0xd4,0x11,0x29,0x3e,0xb6,0xd2,0x6e,0x3e,0x1e,0x67,0x46,0x3e,0x15,0xcd,0x4f,0x3e,0x1f,0x25,0x77,0x3c,0x15,0xdb,0xbb,0x3d,0x57,0x3a,0x60,0xbd,0xdd,0xc6,0x0c,0xbc,0x40,0x46,0x24,0x3e,0xc4,0x9e,0x0e,0x3f,0x09,0x31,0xd1,0xbd,0xa3,0xdc,0x98,0x3d,0x55,0x45,0x21,0xbf,0x1c,0xed,0x43,0x3e,0x65,0xbd,0x5b,0xbd,0x79,0xfe,0x41,0x3d,0xa7,0xe7,0xdc,0xbd,0xa1,0x11,0x8b,0x3d,0x09,0x22,0xa8,0x3d,0x71,0x05,0x83,0x3d,0x20,0xc9,0xd5,0xbe,0x15,0xea,0x0f,0x3e,0x6c,0xb0,0x57,0x3c,0x3f,0x2b,0x74,0xbe,0x4a,0xd2,0x00,0x3f,0x88,0x36,0x00,0xbe,0x8f,0xe2,0xea,0xbc,0x84,0x42,0xa6,0xbb,0x22,0x22,0x41,0xbb,0xd8,0x41,0x54,0xbe,0xec,0xef,0x30,0x3e,0x06,0xb3,0xa3,0x3d,0xf9,0x0e,0x13,0x3e,0xc5,0xe2,0x00,0x3e,0x68,0x3c,0x0e,0xbe,0xf1,0x73,0x56,0xbe,0x2c,0x5a,0xf6,0x3d,0x4a,0x7d,0x86,0xbd,0x13,0x56,0x5c,0xbe,0xba,0xeb,0x2f,0xbe,0x4f,0x1b,0xb1,0x3d,0x0f,0x70,0x33,0xbe,0xf0,0xad,0xf6,0xbd,0xd6,0xa7,0x49,0x3e,0xf0,0x91,0x2b,0x3e,0xe1,0x73,0x9c,0x3c,0x64,0xe5,0xd5,0x3c,0x50,0xb7,0x57,0x3e,0x9d,0x4f,0x83,0xbe,0x92,0x85,0x8d,0x3e,0x60,0xc1,0xa9,0x3d,0x48,0xf3,0x8a,0xbe,0x38,0x54,0xa6,0x3c,0x13,0x45,0x2a,0x3d,0x0d,0x82,0x83,0xbe,0x65,0xb7,0x0e,0xbe,0xc1,0x74,0xff,0xbd,0x74,0x8c,0x8e,0x3d,0x69,0x05,0x74,0x3d,0x19,0x1a,0x69,0x3d,0xe9,0x83,0x6f,0xbe,0xb1,0x1c,0x81,0xbe,0xd6,0xf9,0x35,0xbe,0x35,0x3c,0xf9,0xbd,0x8f,0x5a,0x59,0x3d,0xcd,0x6d,0xbd,0xbd,0xeb,0x9e,0xc4,0xbb,0x04,0x86,0x0d,0xbe,0xca,0x88,0x21,0xbe,0x54,0x1d,0xaf,0xbd,0x6e,0x60,0x69,0x3e,0x36,0xd9,0xfc,0xbd,0xd9,0xcd,0x72,0xbe,0xc3,0xba,0x81,0x3c,0xb6,0x36,0x4e,0x3e,0x12,0xe8,0x0c,0x3b,0x00,0xa8,0x7f,0xbc,0x06,0xc1,0x80,0xbe,0xed,0x50,0x16,0x3d,0x80,0x20,0x79,0xbe,0xe4,0x10,0x60,0xbe,0x94,0xd9,0x73,0xbe,0xfb,0x62,0x9f,0xbd,0x71,0x53,0x28,0x3c,0x6d,0x82,0x24,0x3d,0x76,0x0b,0xca,0xbd,0x3f,0x40,0xbc,0xbc,0xac,0x09,0x22,0x3e,0x8c,0x2c,0x56,0xbc,0xc2,0x5a,0xe7,0x3d,0xbf,0xcb,0xa8,0x3e,0x86,0x1e,0x67,0x3c,0xec,0x0f,0x0f,0xbe,0xf2,0x06,0x1b,0x3f,0xdb,0x47,0xe4,0x3e,0x4f,0x4e,0x93,0x3e,0xe2,0x3c,0x29,0x3d,0x9a,0x71,0x43,0x3f,0x28,0x7b,0xfe,0x3e,0x9c,0x90,0x27,0x3e,0x40,0x4d,0x0c,0x3e,0x32,0xb4,0x95,0xbf,0xe7,0xc8,0x00,0x3f,0xb1,0xe0,0x04,0xbf,0xa0,0x93,0xba,0xbe,0x5f,0x10,0xfa,0xbd,0xc3,0x4f,0x4b,0x3c,0x1d,0x50,0xbe,0x3e,0x52,0x02,0x39,0xbd,0xe1,0x25,0x39,0x3d,0xf0,0xcb,0x45,0x3f,0x88,0x9a,0x43,0xc0,0xca,0x45,0x4f,0x3d,0x8e,0xfb,0x8a,0x3e,0x31,0x83,0x3e,0xbf,0xa3,0x72,0xb9,0xbe,0xc1,0x25,0x71,0x3e,0xf0,0xc3,0xb4,0xbf,0xb4,0x46,0xd4,0x3e,0x1f,0x0c,0xce,0xbe,0xc0,0x46,0x65,0x3e,0xa4,0xcc,0xa1,0x3f,0x90,0x81,0x9f,0xbe,0x84,0x1d,0x0f,0x3f,0x85,0xd5,0xd5,0x3c,0x83,0x03,0xe3,0x3f,0x5f,0x4a,0xca,0xbe,0x5c,0xa4,0x50,0xbf,0x4e,0x49,0xd6,0xbe,0x5c,0xde,0xb9,0x3f,0x94,0xca,0x9b,0x3e,0x2a,0x11,0x47,0xbc,0xe4,0x43,0x98,0x3d,0x99,0x23,0x2e,0x3f,0x6e,0x0c,0xf8,0x3e,0x34,0x5c,0xb9,0xbe,0xc1,0xb0,0x98,0x3b,0xba,0x66,0xa4,0x3f,0x4e,0xf1,0x1f,0xbf,0xab,0x7a,0x2b,0x3f,0xf7,0x53,0x5f,0xbd,0x50,0x0d,0x21,0xc1,0xe3,0x8a,0x9c,0x3e,0xbd,0xbd,0xc8,0x3e,0x95,0x65,0xaf,0xbd,0x5c,0x50,0x96,0xbe,0x73,0x96,0x7b,0x3f,0xca,0x6c,0xac,0x3e,0xf6,0xcd,0x5a,0xbf,0x3a,0x37,0xb1,0x3f,0xc6,0xaa,0x1c,0x3f,0xeb,0xef,0x97,0xbe,0x84,0xd2,0x01,0x3e,0x9a,0xbf,0xd5,0xbd,0x48,0x3c,0x13,0xc0,0xde,0x9d,0x50,0x3f,0x4a,0x4d,0x32,0x3e,0x52,0x8f,0x37,0x3c,0x74,0x61,0x0f,0xbe,0x47,0xf9,0x2a,0xc0,0x7f,0xd4,0x9b,0xbe,0xba,0xf2,0xea,0xbd,0xa5,0xf8,0x36,0x3f,0xba,0x96,0x8b,0xbd,0xa6,0x37,0x2c,0x3d,0xa5,0xef,0x8f,0x3c,0x41,0x8c,0xcc,0xbe,0x31,0x16,0x48,0xbe,0x60,0xd5,0x29,0xbe,0x2b,0xbc,0x9b,0xbd,0x09,0x33,0xc8,0xc0,0x85,0xa1,0x3d,0x3f,0xe5,0x30,0x1f,0x3f,0xb7,0x58,0x53,0x3d,0x16,0x1b,0xda,0xbe,0x3c,0x91,0x7a,0xc0,0x8a,0x1d,0xad,0x3e,0x3a,0x91,0x84,0xbd,0x5d,0x32,0x09,0xbe,0x7f,0xc7,0xcb,0x3d,0x45,0x20,0x16,0xc0,0xad,0x84,0x99,0xbe,0x89,0x7b,0x2d,0x3f,0xef,0xb1,0x97,0xbd,0x56,0xdd,0xdb,0x3e,0x52,0x35,0x2c,0xbf,0xc5,0x06,0xb3,0x3e,0xd9,0xae,0x55,0xbf,0x6d,0xc1,0x11,0xbf,0x40,0xf0,0x97,0x3f,0x95,0x72,0x2e,0x3e,0x88,0x10,0xda,0x3b,0xf7,0x17,0xf3,0x3d,0x12,0x12,0xfa,0xbf,0x68,0xc4,0xb9,0xbf,0x9c,0x61,0xf8,0xbd,0x87,0x9e,0x0d,0x3d,0xe3,0x3f,0xd2,0xbe,0x63,0x9e,0x26,0xbe,0x40,0x47,0xf3,0xbe,0xe6,0xb8,0x93,0x3d,0xb6,0x49,0x6b,0xbf,0x62,0xbf,0x32,0x3f,0x02,0xda,0x5c,0xbf,0x73,0x9c,0x8e,0xbe,0x93,0xd4,0xbc,0xc0,0x61,0x06,0xcd,0xbe,0x76,0x0a,0x70,0xbe,0x67,0x0c,0xc1,0xbd,0x42,0x9a,0x95,0xbe,0x34,0xe2,0xaa,0xbe,0xfa,0x43,0x2c,0x3d,0x3d,0xee,0x2b,0xbb,0x56,0x89,0xa1,0xbe,0xde,0x25,0x5c,0xbf,0xb8,0x6e,0x77,0xbe,0x19,0xda,0xf2,0xbe,0xad,0x43,0x85,0xbe,0x8b,0x9f,0x5d,0x3f,0xb8,0x12,0x03,0xbf,0x0b,0x16,0x92,0x3e,0xd4,0xb7,0x0c,0x3f,0x0b,0xe1,0xd1,0xbd,0xd8,0xe9,0x21,0x3f,0x3f,0x85,0x35,0xbd,0x7d,0xf6,0x00,0x3e,0x72,0x5e,0xea,0x3e,0xcf,0xeb,0x49,0x3d,0xe0,0xec,0x15,0x3c,0x5f,0xf4,0x11,0x3e,0x50,0x10,0x0f,0xbf,0xf7,0xf0,0x45,0xbf,0xbf,0x26,0x15,0x3c,0xf8,0x04,0xfa,0xbe,0x72,0x4e,0x8f,0x3e,0xc0,0xaf,0x2f,0xbf,0xa3,0xb6,0xab,0x3e,0x73,0x9e,0x62,0x3e,0xe6,0x29,0x59,0xbd,0xe3,0x10,0x5f,0x3c,0x46,0xf1,0x8f,0x3e,0x0d,0x5d,0x3f,0x3e,0x6b,0xab,0x6a,0x3e,0xc0,0xa4,0x3b,0x3e,0x9f,0xd6,0xef,0x3e,0x7f,0x17,0xd2,0xbd,0x06,0xfd,0x9b,0xbe,0xf6,0xa2,0x79,0x3e,0x61,0x09,0x32,0x3f,0x6a,0x6d,0x44,0x3f,0x43,0x85,0xac,0xbe,0x36,0x32,0x8e,0x3f,0x79,0xde,0x3a,0xbe,0x83,0x61,0xb4,0xbf,0x60,0xaa,0x0a,0x3e,0xed,0x47,0x49,0xbf,0xf3,0xe9,0x73,0x3e,0xc6,0x91,0xa8,0x3e,0x7a,0x44,0x08,0x3f,0x2e,0x5e,0xd9,0xbd,0xc5,0xd5,0xc6,0xbc,0x8f,0x00,0xa8,0xbe,0x24,0xf7,0x9c,0xbc,0x4f,0xce,0xfc,0x3d,0x8d,0x7d,0x66,0x3e,0x6e,0x0e,0x03,0x3f,0x72,0x57,0x17,0xbe,0x03,0xe1,0x62,0x3f,0x8b,0xbc,0x0b,0xbf,0xb2,0xa8,0x60,0x3e,0x07,0x8d,0x42,0xbe,0x8b,0xb0,0xac,0xbc,0x24,0x8d,0x1a,0xbe,0x28,0x92,0x11,0x3e,0xe8,0x62,0x19,0xbe,0xe1,0xbd,0x44,0xbe,0xb0,0x08,0x9f,0xbe,0xdb,0x03,0x6e,0x3d,0x4f,0x6f,0x87,0x3f,0x77,0x18,0x47,0xbf,0xa0,0x03,0x20,0x3f,0x95,0x1f,0x0d,0x3e,0x2e,0x6b,0x4d,0x3f,0xd2,0x14,0x75,0xbf,0x27,0xe2,0x8b,0x3f,0xe2,0xaa,0x21,0x3f,0x4b,0xd8,0x0e,0x3e,0x33,0x02,0x2d,0x3f,0x0c,0x8c,0x81,0x3e,0x4e,0xec,0xe7,0xbd,0xef,0xc3,0x46,0x3e,0x6e,0xa5,0x8e,0xbe,0x77,0x81,0x3d,0xc0,0x75,0xd9,0x92,0xbd,0x1f,0xf1,0x17,0xbe,0x62,0x05,0xe6,0xbb,0xf7,0xff,0xf8,0x3e,0x30,0x50,0x2b,0x3c,0x7e,0xe6,0x40,0x3f,0x7a,0x28,0x95,0xbf,0x7d,0x46,0xb0,0x3f,0x98,0x98,0x03,0x3e,0x3c,0x69,0x88,0xbe,0x11,0x5e,0xbc,0xbc,0x55,0xe2,0x8d,0xbf,0x82,0xd0,0x17,0x3e,0x17,0x01,0xe6,0x3d,0xdf,0xb3,0xf6,0x3d,0xec,0xbb,0x21,0x3f,0x9a,0xbd,0x97,0x3b,0xc7,0xdd,0x83,0xbf,0x5d,0xd3,0xdb,0x3d,0x17,0x39,0xd8,0x3e,0x67,0xd2,0x5d,0xbe,0x7f,0xf4,0xe7,0xbd,0x3a,0x4a,0xa8,0x3f,0x12,0x17,0xb9,0x3f,0xa7,0x16,0x97,0xbe,0x5c,0x42,0x15,0xbd,0x30,0x88,0x8e,0xbe,0x2d,0xb6,0x48,0xbe,0x2f,0x98,0xe1,0xbc,0xe9,0xf9,0x49,0x3f,0x00,0xfe,0x8a,0xbf,0x18,0x48,0x90,0xbf,0x92,0xa1,0x6a,0x3d,0x2d,0xed,0x01,0xbe,0xce,0xde,0xa5,0x3e,0x5c,0x4e,0xb5,0x3d,0x5c,0x6d,0x1a,0x3d,0xf2,0x16,0xc8,0xbd,0xce,0xd9,0x83,0x3f,0x2c,0x3e,0xaf,0xbf,0x1e,0x56,0x31,0xbc,0x37,0x34,0x18,0xbe,0xc2,0xaa,0x66,0xbe,0x8f,0xe4,0x88,0x3c,0x0a,0x14,0xca,0xbe,0x5d,0x6e,0xaf,0xbe,0x2a,0x25,0x8e,0xbd,0xa7,0x99,0x34,0xbe,0x25,0xa8,0x4c,0xbe,0xec,0xc1,0x60,0x3f,0xc6,0xe7,0x25,0xbc,0xe3,0x72,0x25,0x40,0x9c,0x5f,0x40,0xbe,0x5f,0xac,0x4b,0xbd,0xec,0xb7,0x7c,0xbc,0xd4,0x01,0x4e,0xbd,0x6a,0x9e,0xec,0x3d,0x83,0x13,0xfe,0x3d,0x06,0x8a,0x8d,0x3c,0x0e,0x1e,0xb4,0x3d,0xfc,0x0a,0x55,0x3e,0xcf,0x1b,0xfc,0x3d,0xa9,0x31,0xfc,0xbb,0xbe,0xc6,0x58,0x3c,0x24,0x2a,0x5b,0xbe,0x29,0x82,0x70,0xbe,0x76,0xf1,0x0c,0xbe,0xff,0x97,0x2f,0x3e,0xdc,0xcf,0xcb,0x3c,0x03,0x26,0x78,0x3d,0x11,0xa6,0x61,0xbe,0xe8,0x0d,0xbb,0xbd,0x9b,0x6f,0x51,0xbd,0x8c,0xb7,0x53,0xbe,0xfc,0x71,0x59,0xbe,0xb2,0x9d,0xcf,0x3c,0x93,0x9e,0x45,0xbc,0xbf,0xfc,0x3b,0x3e,0xaf,0xb1,0x8c,0x3c,0xe9,0x4a,0xd3,0xbd,0xd1,0xca,0x69,0xbe,0x97,0x81,0x2e,0xbe,0xfd,0x87,0x97,0xbd,0x44,0x89,0x5e,0x3e,0x00,0xa5,0x21,0x3b,0x3c,0x46,0x1b,0x3d,0xbf,0x13,0xbf,0x3b,0x94,0xd4,0x05,0xbe,0xa0,0xfa,0xc4,0x3d,0xff,0xb8,0x1b,0xbe,0xa2,0x99,0x4a,0xbe,0x02,0x39,0x81,0xbe,0xa1,0xc2,0xbe,0x3d,0x35,0x77,0x36,0xbd,0x4c,0xf8,0x10,0xbe,0x94,0xbd,0x83,0xbd,0xf4,0xf0,0x7b,0xbe,0xfc,0xe1,0x4b,0xbe,0x76,0x0b,0xde,0x3c,0xec,0xc7,0x1e,0xbd,0x85,0x5c,0xca,0x3d,0xa5,0xa8,0x12,0x3e,0x08,0xad,0x2b,0x3e,0x34,0xbb,0x5b,0xbe,0xa4,0x2e,0x2b,0x3e,0x6f,0x40,0x3b,0xbe,0xdc,0x58,0x49,0xbe,0x3d,0x4f,0x06,0xbe,0x1d,0x75,0x43,0x3d,0xbe,0x91,0xa4,0x3d,0xf0,0x4e,0x8a,0x3d,0xb0,0xab,0x0b,0x3d,0x51,0x42,0x1a,0x3e,0xc6,0x87,0xc1,0xbd,0xa1,0x3d,0x1e,0xbe,0x44,0xee,0x85,0xbc,0x4d,0x33,0xcf,0xbd,0x1d,0x21,0x57,0xbf,0x97,0xbd,0xaa,0x3e,0x3b,0xe0,0x1d,0xbe,0x0e,0xa0,0x2a,0xbd,0x71,0x2e,0xd7,0x3e,0x14,0x9c,0xa0,0xbf,0xfb,0x1b,0xb4,0x3f,0x8e,0xc8,0xe8,0xbd,0x2a,0xa9,0x38,0x3e,0xfa,0x83,0x85,0xc0,0xa9,0x3c,0x96,0xbf,0x89,0xc8,0x58,0xbe,0x07,0xc9,0xba,0x3d,0xa5,0xa3,0xde,0x3d,0xa2,0xcc,0xdc,0x3e,0xa4,0x68,0xb3,0x3c,0x19,0x0b,0x4e,0xbf,0x5c,0x7a,0x80,0x3e,0xb1,0xf3,0x0b,0xbe,0x3e,0xa8,0xac,0xbe,0xba,0x21,0x1c,0x3e,0x1f,0xd8,0x67,0xbe,0xe2,0x47,0x08,0xbf,0x5c,0xed,0x66,0x3f,0x6a,0x5e,0x17,0xbe,0xaf,0x8c,0xce,0xbe,0x40,0x97,0x75,0xbf,0x72,0x78,0x53,0xbe,0x9c,0xba,0x71,0x3e,0x43,0x40,0x0b,0x3d,0xf1,0x7b,0x0b,0xbe,0xc1,0xb8,0xfa,0x3e,0xa9,0xb1,0x98,0x3e,0xbb,0xa3,0xb9,0x3e,0x8d,0x16,0xd6,0xc0,0xd2,0x77,0x38,0xbf,0x29,0x2e,0x3b,0x3f,0x4b,0xda,0x53,0xbe,0x34,0x88,0x9c,0x3f,0x93,0xc6,0x38,0x3e,0x59,0xbe,0x2e,0x3e,0x7d,0x9c,0xc0,0xbf,0x35,0x5f,0x98,0xbf,0x9a,0xa5,0xa6,0x3e,0xcd,0x2c,0x8b,0x3e,0x44,0x56,0x18,0x3e,0x76,0x17,0x4a,0x3e,0x08,0xd5,0xed,0x3d,0xc8,0x17,0xbb,0xbe,0xf4,0x69,0x06,0x3f,0x9c,0xc8,0x2f,0x3e,0xd9,0x2a,0x53,0x3e,0x9d,0xb8,0x3d,0x3e,0xb2,0x06,0x80,0x3e,0x53,0x90,0x2c,0xc0,0x65,0xae,0x54,0x3f,0x60,0x69,0x79,0x3e,0x36,0x39,0xde,0xbd,0x4e,0x29,0x38,0xbe,0xab,0x59,0xf3,0x3d,0xcc,0xb6,0x45,0x3f,0xdc,0x90,0x6f,0xbd,0x3f,0x3f,0x18,0x40,0x3e,0xdc,0x44,0x3d,0xeb,0x3c,0xc3,0x3e,0x90,0xd4,0xce,0xbd,0x87,0x3c,0x90,0x3d,0xd2,0x47,0x19,0x3f,0xcb,0x68,0xd4,0xbc,0x93,0x8f,0x69,0x3e,0x85,0x1c,0x85,0x3e,0x63,0x76,0x95,0x3e,0x2e,0x04,0xea,0x3e,0xee,0xea,0xf6,0x3d,0xe3,0x88,0xbc,0xbd,0x99,0x43,0xe7,0xbd,0x31,0x0a,0xb2,0xbd,0x3e,0x76,0x10,0xbf,0x13,0xd9,0x8a,0x3d,0x3f,0xb7,0x46,0x3e,0xcd,0xdf,0xe8,0x3e,0x96,0x9e,0xf4,0xbe,0x56,0xf5,0x96,0x3d,0xe3,0x75,0xed,0xbc,0x12,0xb9,0xe1,0xbd,0x0a,0x1a,0x3c,0x3d,0xe3,0xdf,0xed,0x3d,0x2a,0x17,0x2f,0xba,0xcb,0x55,0xe1,0x3c,0x1f,0x9b,0x93,0xbe,0xe9,0x47,0xdf,0x3e,0x4a,0x88,0x89,0x3d,0xf8,0x96,0x9a,0xbe,0x7d,0xfe,0x44,0xbd,0x13,0xb0,0x91,0xbc,0xdd,0xfd,0x8e,0x3e,0xc8,0x04,0xd1,0xbe,0xf3,0xc0,0x25,0xbe,0x26,0x1b,0x77,0x3d,0x1b,0x75,0xed,0xbe,0xed,0x0f,0x04,0x3e,0xda,0x5d,0x1a,0xbf,0x33,0x7d,0x90,0x3d,0xc8,0x46,0xce,0x3d,0xf1,0x65,0xae,0x3e,0x15,0xfb,0x17,0xbe,0xde,0x71,0x07,0xbe,0x3a,0x14,0x56,0xbd,0xec,0x8f,0x7f,0x3e,0x23,0x1e,0xef,0x3d,0x50,0x6c,0x42,0x3e,0x48,0x82,0x9c,0x3e,0xfc,0x97,0xad,0xbd,0x57,0x75,0xe9,0x3d,0x6c,0x7e,0x0d,0xbf,0x81,0x91,0xa1,0x3e,0x19,0xc3,0x85,0x3e,0xf5,0xba,0xed,0xbd,0x3c,0xba,0x60,0x3b,0xfd,0xa8,0xba,0x3d,0x52,0xa0,0xe5,0x3d,0x10,0x7f,0x39,0x3d,0x43,0xd4,0xaf,0xbe,0x6a,0x25,0x57,0x3e,0x2a,0xbe,0x84,0x3e,0x3b,0xac,0x46,0xbe,0xfd,0x31,0xe7,0x3e,0xaa,0xf5,0xb3,0x3e,0x1f,0xd1,0x38,0xbf,0x39,0x37,0xb0,0x3e,0x68,0x95,0x42,0x3e,0x40,0x4f,0x38,0xbe,0xbc,0xd4,0x0a,0xbd,0x6e,0x72,0x49,0xbf,0xd0,0x2a,0x6e,0x3c,0x53,0x14,0x96,0x3d,0xd8,0x92,0x0e,0x3f,0x1d,0xf6,0x3c,0x3d,0xc1,0xe5,0xfc,0xbd,0x51,0x23,0xcb,0xbc,0x10,0x70,0x80,0x3e,0x7b,0x55,0xce,0x3e,0x1d,0x62,0xbf,0x3e,0xbe,0x0f,0xac,0xbc,0xb9,0x10,0x1d,0xbe,0x10,0x17,0x16,0x3f,0x02,0x97,0x33,0xbd,0xc9,0xcd,0x72,0xbd,0x12,0x35,0xf3,0x3c,0x67,0xa7,0x95,0x3e,0xfd,0xdf,0xcf,0x3d,0x32,0x61,0xa2,0xbc,0x93,0xc4,0x96,0x3e,0x7c,0x80,0xb2,0xbe,0xd3,0x40,0x13,0xbf,0x53,0x9d,0x00,0xbe,0x36,0x2f,0xc5,0x3e,0x65,0x9b,0xc6,0xbd,0xbc,0xe3,0x6a,0xbe,0x51,0xbf,0x4d,0xbe,0xa7,0xe0,0xdb,0x3e,0x3b,0x4d,0x94,0xbe,0x56,0xbf,0x31,0xbf,0x63,0xc2,0xdd,0xbe,0x6d,0xe0,0x74,0x3e,0xaa,0xa9,0x48,0x3f,0xe5,0x57,0x05,0x3f,0xf6,0xdd,0x38,0x3e,0xa5,0x1b,0x6a,0xbd,0x28,0xb7,0x95,0x3e,0x5f,0x2a,0xc0,0xbc,0x87,0x50,0x11,0x3e,0x96,0xcd,0x4b,0x3d,0xfb,0xe4,0x27,0xbd,0x19,0x00,0xb2,0x3e,0xcc,0x82,0xc1,0x3c,0xbb,0xe3,0x2e,0x3f,0x27,0x56,0x0d,0xbf,0x5c,0xec,0x0b,0xbe,0xbb,0x5f,0xbd,0x3e,0x20,0xcf,0xf3,0xbd,0x4f,0x94,0x46,0xbd,0x4b,0xe2,0x98,0xbc,0x3c,0xab,0xdb,0x3e,0x5b,0x17,0x8e,0x3e,0x59,0x91,0x66,0x3e,0xb7,0xc8,0x23,0x3f,0xa1,0x63,0x28,0x3e,0x5d,0x5b,0xe8,0xbe,0x7f,0x45,0x0e,0x3f,0x73,0x4a,0xe3,0xbe,0xed,0x77,0x20,0xbe,0x6a,0xeb,0xa4,0xbf,0x97,0xe5,0x4b,0x3f,0x91,0x3a,0x0f,0x3f,0xe3,0xe5,0x9b,0xbd,0x4b,0x71,0x07,0xbe,0x3d,0x24,0xcb,0xbf,0xd9,0xdb,0x9c,0xbe,0x8a,0xbb,0xff,0xbe,0x5c,0x34,0xd5,0x3e,0xc0,0x8a,0x48,0xbe,0x44,0x22,0x90,0x3e,0x72,0xb3,0xb6,0x3d,0x36,0x8e,0x36,0xbf,0x3e,0xff,0x80,0xbe,0xb2,0x2b,0x16,0xbe,0x79,0x9f,0xdc,0xbe,0x24,0xe6,0xdb,0xc0,0x64,0x7b,0x38,0x3f,0x88,0x3b,0xf8,0x3e,0x90,0xb0,0x87,0xbe,0x5a,0x6b,0x2d,0xbe,0xc2,0x29,0x8c,0xc0,0x8d,0x08,0x3a,0x3e,0x16,0x34,0xd7,0xbe,0x69,0x3d,0x82,0xbe,0x6b,0x48,0xb5,0x3d,0x24,0xf7,0xd5,0xbf,0xd9,0x77,0xc9,0xbe,0x25,0x21,0x44,0x3f,0x45,0x3c,0xf0,0xbe,0x63,0x88,0x34,0x3f,0x0a,0x58,0x80,0xbf,0x0b,0x42,0xb6,0x3d,0x69,0x97,0x07,0xbf,0xfb,0xfc,0xfe,0xbe,0x81,0xd4,0x91,0x3f,0xc9,0xc0,0x1c,0xbe,0x7c,0x31,0xf4,0x3e,0x56,0x96,0x15,0xbe,0xa1,0x8a,0x30,0xc0,0x6f,0x6a,0x82,0xbf,0x3c,0x63,0x30,0xbe,0x26,0xf1,0xa7,0xbd,0x72,0x63,0xb5,0xbe,0x06,0xfc,0xa9,0xbe,0x59,0xf9,0xb1,0xbe,0x3f,0xad,0xfc,0x3c,0xeb,0x00,0x88,0xbf,0xfc,0x6a,0xa2,0x3e,0x4c,0xb9,0xf4,0xbe,0xad,0x9e,0xed,0xbe,0xeb,0xe8,0x80,0xc0,0x42,0xe2,0x1b,0xbf,0x5a,0x45,0x8b,0xbe,0xc6,0xc3,0x3c,0xbe,0x2d,0x7e,0x4b,0xbd,0x3d,0x6f,0xa0,0xbe,0x4f,0x1b,0xa6,0x3d,0x48,0xf1,0x88,0x3e,0x78,0x32,0xfc,0xbe,0x2d,0xb4,0x46,0xbe,0xb7,0xd4,0xa4,0xbe,0xe8,0x9a,0xd2,0xbd,0x4c,0xd1,0x0a,0xbf,0xf5,0x8f,0x00,0x3f,0xd9,0xd9,0xe4,0xbe,0xa9,0x63,0x56,0xbf,0x4b,0x58,0x4c,0xbd,0xf3,0x36,0x0d,0x3e,0xc4,0xd7,0x20,0x3f,0x9d,0x4d,0x8b,0x3e,0xf1,0xe1,0xd5,0xbf,0xc4,0xda,0xc9,0xbf,0x1f,0xf6,0x3d,0xbd,0x62,0x2f,0x9f,0xbe,0x91,0xef,0x50,0x3f,0xf4,0x1f,0xe4,0x3f,0x45,0x75,0xcc,0x3e,0x45,0x62,0x19,0x3f,0x01,0x99,0x29,0xbf,0xdd,0xa6,0xa7,0x3e,0x50,0x19,0x1d,0xbf,0xac,0x52,0x98,0xbf,0x89,0xde,0x79,0xbf,0xe3,0x74,0xf7,0xbe,0x80,0x0a,0x82,0x3f,0x16,0x3f,0xa5,0xbe,0x94,0x51,0xa3,0x3e,0x6b,0x07,0x55,0x3f,0x4a,0xd1,0xa8,0xbf,0xf5,0xf3,0xd0,0x3e,0x73,0x02,0x17,0x3f,0x4a,0x0d,0x18,0xbf,0xc5,0xf5,0x68,0x3e,0x94,0x26,0xb9,0xc0,0x27,0x1c,0x4e,0xbf,0x50,0x01,0x87,0xbc,0x82,0xe3,0x86,0x3e,0x98,0x30,0x7e,0x3e,0x29,0x7c,0x67,0xbe,0xb6,0x38,0x85,0xbd,0x7a,0xe1,0x51,0xbe,0xd9,0xb4,0xe5,0xbd,0x43,0xfe,0x37,0xbf,0xe3,0x1a,0x04,0x3f,0xa1,0x9f,0xd9,0xbd,0x90,0xa3,0x9b,0x3e,0xf3,0x65,0xe2,0xbd,0xdd,0x3a,0x82,0xbe,0xf3,0x0d,0x38,0xbf,0x9e,0x08,0xed,0x3e,0x9b,0x91,0xd4,0xbe,0x00,0x44,0x9e,0x3e,0x3b,0x51,0xeb,0x3e,0x23,0xef,0x0a,0xbd,0x56,0x1f,0xb1,0xbf,0x6c,0xf7,0xe2,0x3e,0xb0,0x93,0x83,0x3e,0x1e,0x78,0x91,0x3e,0x62,0x2e,0x87,0x3d,0xe1,0x94,0x8c,0xbe,0xc3,0xc2,0xad,0xbf,0xdc,0x97,0xe6,0x3d,0x21,0x5d,0x06,0xbf,0xcc,0xa8,0x0b,0x3f,0x72,0x61,0xcb,0x3f,0x69,0x35,0x08,0x3f,0xb4,0x32,0xa1,0xbe,0x53,0xee,0xc6,0x3f,0xbb,0x2b,0x92,0xbe,0xe3,0x1f,0xb2,0xbf,0x2b,0x2f,0xad,0x3f,0xcd,0xed,0x6f,0x40,0x7d,0xb4,0xd8,0x3f,0xde,0xa9,0x09,0x40,0x08,0x8d,0x17,0xbe,0x93,0xd6,0x0c,0xbf,0xc4,0x1f,0x59,0xc0,0xcb,0x7f,0xd0,0xbf,0x67,0x7a,0xed,0x3e,0xb7,0x83,0x9d,0x3e,0x1c,0x8b,0x38,0x3e,0x8d,0x3a,0x19,0x3f,0xe0,0xfe,0x20,0xbe,0x17,0x47,0x08,0x40,0x90,0xfc,0xe5,0xbe,0x5c,0x92,0xa3,0x3d,0x1a,0x61,0x2f,0xbc,0x87,0x5c,0x06,0x3e,0xef,0x34,0xc1,0x3e,0x4f,0x2e,0x14,0xc0,0xf4,0x39,0x85,0x40,0xc8,0x6f,0xc2,0x3e,0xb1,0x02,0x1c,0xbe,0x29,0xa0,0x7d,0x3f,0x7f,0xb7,0xf5,0x3d,0x9a,0x84,0xa1,0xbe,0x1f,0x64,0x05,0x3f,0x88,0x6d,0x50,0x3f,0x15,0xbf,0x32,0x3e,0xdf,0xf8,0x0b,0xbf,0x29,0x83,0xb7,0x3f,0xc4,0x27,0x3f,0x40,0x1f,0x90,0x1d,0xbf,0xe7,0x0d,0x5c,0xc0,0x09,0xe3,0x1d,0x3d,0x73,0xc2,0x6b,0xc0,0x60,0x2f,0x0c,0xbd,0x49,0x3a,0x0f,0x3f,0x22,0x39,0x67,0xc0,0x79,0xe1,0x53,0xc0,0xe0,0xc1,0x3c,0x3d,0xce,0x91,0x47,0xbd,0x90,0x22,0x27,0x3e,0x04,0x3f,0x11,0x3f,0xf7,0xe0,0x37,0xbd,0xdc,0x0c,0x5b,0xbe,0x3b,0xdd,0xc4,0x3f,0x05,0x47,0x21,0xc0,0x4d,0x66,0xdd,0xbe,0x7d,0xd8,0x95,0xbd,0x02,0x6f,0x62,0xbd,0xd6,0x8f,0x68,0xc0,0x53,0x1c,0x5e,0xc0,0x3a,0x1f,0x08,0xbe,0x83,0xa4,0xaa,0xbd,0x63,0xfb,0xdd,0x3d,0x15,0x87,0xa4,0xbe,0x1e,0x39,0xb3,0x3f,0x98,0x5a,0xb1,0xbd,0xd3,0xfd,0xf4,0x3f,0x33,0x50,0xa9,0x3d,0x60,0x76,0xb4,0xbf,0x04,0x54,0xfa,0x3e,0x9a,0x28,0xf4,0x3e,0xc9,0x60,0xc4,0x3e,0x1c,0x14,0x0a,0x3e,0xdc,0x75,0xe5,0xbf,0x89,0xe2,0x10,0x3e,0x89,0x36,0xba,0x3a,0x0d,0x85,0xc1,0x3e,0x07,0x49,0x62,0x3d,0xcb,0xaa,0x24,0xbe,0x4a,0xd6,0x52,0xbe,0x59,0x73,0x7a,0x3e,0xef,0xc6,0xd9,0x3d,0x4f,0x6b,0xaf,0xbd,0xa8,0x3f,0xe7,0x3c,0x4b,0xfa,0x03,0xbf,0x35,0x8a,0xda,0x3d,0xd2,0x9f,0xb0,0x3d,0x04,0xd5,0x6c,0xbd,0x67,0x1c,0x40,0x3e,0xd6,0x16,0x81,0x3d,0x0b,0xfd,0xc0,0xbc,0xe4,0xce,0x22,0xbe,0x37,0xb6,0x97,0xbe,0xd7,0x31,0x53,0x3d,0xc4,0xec,0xa7,0xbf,0x40,0xca,0x43,0xbe,0x82,0x10,0xfc,0x3e,0xd9,0x89,0xa9,0x3c,0xbd,0xa1,0xa6,0xbd,0x3c,0x77,0x81,0x3e,0x0b,0x96,0x4a,0x3f,0x99,0xb5,0x57,0xbf,0x84,0x39,0x55,0xbd,0x6a,0x61,0xc0,0x3d,0xb5,0x35,0xe1,0xbc,0xd5,0x66,0xbb,0x3e,0x7d,0x84,0xc7,0x3e,0x1b,0x02,0x05,0x3f,0x9e,0x1c,0x2a,0xbf,0x35,0x7c,0x3b,0x3d,0xd3,0x1f,0x60,0x3e,0x3f,0x6c,0xdd,0xbc,0x64,0x09,0x23,0x3e,0x30,0x0f,0xc4,0xbd,0xb8,0x3e,0x26,0xbe,0x6b,0x14,0x0a,0x3e,0x58,0x28,0x9f,0x3e,0xd7,0xd7,0x6e,0xbf,0x44,0xcf,0xdc,0x3d,0xea,0xe9,0xe2,0x3e,0x45,0x17,0xa4,0x3d,0x7b,0x68,0xbf,0x3e,0x03,0x34,0x98,0x3e,0x81,0x32,0x07,0x3f,0xab,0xe2,0xe0,0x3d,0xe2,0xad,0xff,0x3e,0xc5,0x9e,0x76,0x3e,0x8d,0x76,0x89,0x3e,0x22,0x91,0x3b,0xbf,0xd2,0x69,0xb4,0x3d,0xae,0x1d,0x17,0xbf,0xa3,0xae,0x30,0xbf,0xb9,0x6a,0xf6,0x3e,0x8d,0xb1,0xab,0x3c,0xec,0x42,0x81,0x3e,0xc5,0x63,0x97,0x3d,0xda,0xef,0x87,0xbe,0x0d,0x6b,0x5f,0x3f,0x44,0xa1,0xf9,0x3d,0x4a,0x47,0x36,0xbf,0x24,0xad,0x2c,0xbf,0xdf,0x82,0x4a,0x3e,0x6d,0x31,0xa9,0x3e,0x8a,0x6b,0x86,0x3e,0x5e,0xc3,0x13,0x3e,0x13,0x69,0x81,0xbc,0xc2,0xb4,0xba,0x3d,0x14,0xe0,0xfd,0xbe,0xde,0x92,0x82,0x3e,0x7d,0x76,0x0b,0x3d,0xb7,0xe6,0x9e,0x3e,0x2a,0xe1,0x91,0x3d,0x50,0x50,0xa5,0x3e,0xac,0x31,0x97,0x3e,0xdf,0x47,0x51,0x3e,0x7f,0x8f,0x9e,0xbe,0x3e,0x18,0x71,0x3e,0x21,0x41,0x98,0xbe,0x5f,0x15,0x55,0x3f,0xf7,0x01,0xda,0x3e,0x15,0x84,0xf2,0x3d,0xd0,0x3e,0xb2,0x3e,0x2e,0xf2,0xd9,0x3e,0xe5,0x56,0x83,0xbe,0x4f,0xbe,0x8a,0x3e,0x33,0x76,0x98,0x3d,0x4d,0x25,0x80,0x3e,0xf0,0x9c,0xb2,0x3f,0x5f,0xe6,0x26,0xbe,0x05,0x67,0xdb,0x3e,0xab,0xdd,0x9d,0xbe,0x28,0x94,0x0b,0xbf,0x70,0xbc,0x23,0xbe,0x4b,0x5c,0x9a,0x3d,0x70,0xaf,0x86,0xbe,0xa4,0xad,0x4d,0xba,0x6c,0xaa,0x06,0x3e,0xee,0x56,0xd3,0x3d,0xe6,0x27,0x7d,0x3e,0xd1,0x98,0xf7,0xbe,0xe2,0x61,0x3f,0x3e,0xcf,0x1b,0x4c,0xbd,0x35,0x14,0xa1,0xbb,0x1a,0xd0,0x86,0xbf,0x00,0x63,0xec,0xbd,0x7f,0x50,0x62,0x3e,0x43,0x89,0x94,0xbe,0xd6,0x2a,0xa6,0xbe,0x57,0xf9,0x16,0x3e,0x7b,0xe4,0xdf,0xbf,0x6a,0x38,0xa3,0x3e,0x29,0x07,0xef,0xbd,0xe8,0x9c,0xa0,0x3d,0x7e,0x39,0x8e,0xbe,0xb4,0x7c,0x15,0xbe,0xa1,0x26,0x5d,0xbd,0x2f,0x82,0xf1,0xbf,0xfe,0x21,0xdf,0x3d,0xdc,0x53,0x13,0xbd,0x51,0xc4,0x82,0x3e,0x96,0x37,0x30,0x3d,0xb1,0x16,0x0c,0xc0,0x22,0x4d,0x20,0x3e,0x91,0x05,0xa2,0x3e,0x4c,0x9a,0x1b,0x3d,0x6f,0xad,0xd4,0x3d,0x75,0xf3,0xa3,0x3d,0x68,0x89,0xb8,0xbe,0x6b,0xbc,0x43,0xbc,0x36,0x9d,0xbc,0x3d,0xd0,0x66,0x1d,0xbe,0x59,0x40,0x5d,0xbd,0x65,0x5a,0xf5,0xbe,0x79,0x1c,0xf5,0x3e,0x77,0x7d,0x33,0x3d,0xf0,0x95,0x83,0xbd,0xa6,0x59,0xa2,0x3d,0x80,0xb3,0x4f,0x3e,0x93,0x5e,0x62,0xbe,0x63,0x16,0x08,0xbe,0xbf,0xf7,0x69,0xbe,0xb9,0x34,0x11,0x3e,0xd4,0x6b,0xb1,0xbf,0x11,0x61,0xdf,0xbe,0xe2,0x9b,0x7f,0x3e,0x91,0x1e,0xef,0xbd,0x20,0x71,0xd1,0x3c,0x12,0x01,0x5f,0x3e,0x68,0x54,0x82,0x3f,0x7f,0x81,0x4f,0xbf,0x62,0x0c,0xda,0xbd,0xc3,0x82,0x86,0xbe,0x2b,0xcc,0xa6,0x3d,0x5b,0xa5,0x34,0x3f,0xdc,0xfd,0x9a,0x3e,0x09,0x10,0xcc,0x3e,0xfd,0xd4,0x0a,0xbf,0xc4,0x1e,0x62,0x3e,0x28,0x16,0xa8,0x3e,0x49,0x7c,0x47,0x3e,0xdf,0x8e,0x2b,0x3e,0xcc,0x90,0xb9,0x3d,0x1b,0x13,0x98,0x3d,0xc8,0xe9,0x04,0x3d,0xf2,0xde,0xe2,0x3e,0x6c,0xe1,0x8d,0xbf,0x29,0xfa,0x9f,0xbd,0xf7,0x65,0x19,0x3e,0x9e,0xa5,0x7c,0x3e,0xe4,0x03,0xce,0x3e,0x0e,0xf2,0xaa,0xbc,0x12,0x6a,0x33,0x3e,0xd5,0x92,0x2b,0x3e,0x84,0xe7,0x1a,0x3e,0x31,0xfa,0x4b,0x3f,0xfb,0x1b,0x9e,0x3e,0x99,0x0c,0x30,0xbf,0xd1,0x45,0x85,0x3e,0xb0,0x06,0x6b,0xbf,0x82,0x4c,0x35,0x3e,0xae,0x24,0x48,0xbf,0x4a,0x31,0x45,0xbe,0xcd,0x2e,0x88,0x3d,0x97,0x0e,0xe2,0xbd,0x35,0x71,0xbc,0xbd,0x72,0x4f,0x88,0xbf,0x37,0xdb,0x67,0x3e,0x61,0x65,0x3d,0x3e,0xf7,0xa1,0x34,0x3f,0xe8,0x51,0xea,0x3b,0x69,0x39,0x7b,0x3e,0xfb,0x10,0xf5,0xbd,0x83,0x8c,0xa6,0x3e,0xf4,0x36,0x0e,0x3e,0x7a,0x71,0x70,0x3e,0xc0,0x7c,0xd6,0x3e,0xb8,0x4b,0x00,0xbd,0xf5,0x75,0xc0,0x3d,0xd6,0x54,0x49,0x3e,0x6c,0x49,0x89,0x3d,0xab,0x8d,0x06,0x3e,0xc5,0x2c,0xc3,0xbd,0xe5,0x2e,0x76,0x3b,0x1f,0x7d,0x6d,0x3c,0x00,0x6e,0x50,0xbd,0x2d,0x1a,0xff,0xbc,0x19,0xe6,0x18,0xbf,0xd9,0xb0,0xe7,0x3c,0x5e,0xdd,0x5d,0x3e,0x59,0xf0,0xaa,0xbe,0x80,0xc1,0x9d,0x3d,0xaf,0xe1,0x53,0x3f,0x76,0x96,0x6e,0xbe,0x95,0xf2,0x44,0x3d,0x20,0xdb,0x4b,0xbe,0xf9,0xcb,0x33,0xbf,0x05,0x7d,0xf6,0x3d,0xd2,0xed,0x01,0xbf,0x3f,0xf2,0x1f,0x3d,0x42,0x47,0xb9,0x3e,0xdc,0x86,0xb1,0x3e,0xc8,0xc0,0xaf,0x3e,0xc4,0xe6,0x25,0x3e,0xd3,0x05,0xbb,0x3e,0x9b,0x66,0xe8,0x3e,0x0d,0x46,0x88,0xbd,0x91,0x12,0x99,0x3e,0x44,0x22,0xf1,0x3e,0xa1,0x15,0x29,0xbe,0x31,0xb1,0x6d,0xbe,0x12,0xa8,0x69,0x3e,0x01,0x30,0xfd,0x3e,0x8a,0x37,0xcf,0x3e,0x29,0x74,0x73,0x3e,0x0d,0xa2,0x8c,0x3e,0xb0,0x4a,0xa0,0x3e,0xdd,0xb1,0xad,0x3e,0x85,0xe5,0x85,0x3e,0xf1,0xfc,0x91,0xbe,0x1e,0x68,0x30,0x3e,0x0e,0xb5,0x11,0xbc,0xa5,0xa2,0x13,0x3d,0x22,0xb2,0x9b,0x3e,0x8c,0x21,0x68,0xbe,0xa6,0xf0,0x64,0x3e,0x40,0x0d,0x98,0xbc,0x20,0x8b,0xfb,0xbd,0x2f,0x35,0x38,0x40,0xa2,0xed,0x8a,0x3e,0x4a,0xef,0xbd,0xbc,0x6c,0x88,0x9a,0x3e,0x7f,0x6e,0x31,0x3e,0xf1,0xb8,0xd6,0x3e,0x02,0xe8,0xd4,0x3e,0x40,0xf2,0xaa,0x3d,0xd1,0x14,0x45,0xc0,0xaf,0x7e,0x09,0xbd,0x71,0xf3,0x92,0xc0,0xec,0x59,0xf3,0x3e,0x76,0x62,0xc6,0x3d,0x95,0x68,0x21,0x3f,0x4d,0x28,0x5c,0x3d,0xdc,0x47,0x9e,0x3c,0x0c,0x56,0x8b,0x3d,0x21,0x1e,0x93,0xbe,0xdc,0x9e,0x35,0xc0,0xbd,0x7a,0xf4,0x3e,0x8d,0x35,0xc9,0x3d,0x01,0x8f,0xa5,0xc0,0xcc,0x2d,0x42,0xbd,0xa9,0x4d,0xab,0xbd,0x24,0xef,0x1d,0xc0,0x90,0xdd,0x95,0xbe,0x30,0xa9,0xad,0xc0,0xc4,0x49,0xdf,0xbd,0xdb,0xd7,0xc4,0xc0,0x77,0x5d,0xc7,0x3f,0x0e,0x97,0x26,0xbf,0xff,0x48,0x46,0xbe,0x9e,0x22,0xcc,0x3d,0x39,0xd2,0x67,0x3e,0x5d,0xcb,0xac,0x3f,0x9f,0xa5,0xce,0x3e,0x46,0xd2,0x6b,0xbe,0xdd,0x9a,0x34,0x3e,0xee,0x31,0xd3,0x3e,0xdc,0xa3,0xb2,0x3e,0x08,0x98,0x90,0xbb,0xe2,0xe8,0x3b,0xbe,0x42,0x28,0xe4,0xc0,0x10,0xef,0x19,0x3f,0x26,0xa2,0xc0,0xc0,0x95,0x34,0x3b,0x3f,0x0d,0x58,0x1e,0xbf,0x0c,0x5e,0xa2,0x3e,0x12,0xa5,0x3b,0xbe,0x11,0x7e,0x93,0x3d,0xd1,0xbc,0x3e,0x3e,0x1c,0x9b,0xc4,0x3e,0x97,0x2f,0x8f,0x3e,0x4c,0x35,0x50,0xbe,0xc0,0x9c,0xc8,0x3d,0xef,0x56,0xa1,0x3f,0xac,0x30,0x76,0x3d,0xe4,0x12,0x0a,0xbf,0x14,0x4a,0xb4,0xbe,0x5b,0x35,0x8f,0xbf,0x89,0xd9,0x5b,0x3e,0x52,0xf7,0x84,0x3d,0xa0,0xe8,0x99,0x3e,0x01,0x74,0xe2,0xbd,0xae,0x2d,0xea,0xbe,0x8e,0x25,0x78,0xbe,0x2e,0xa0,0x06,0x3d,0xb3,0x15,0x10,0xbd,0x4d,0x18,0x55,0x3e,0xc8,0xee,0x9b,0x3e,0x9f,0x77,0x7f,0xbe,0x5f,0x70,0xee,0x3d,0xee,0x48,0xe0,0x3d,0xdd,0xd4,0x9a,0x3e,0x28,0x96,0x07,0x3f,0x66,0x08,0x1b,0xbe,0xf4,0xb7,0x94,0x3e,0x87,0xbd,0xfd,0x3c,0xc6,0x64,0xe8,0x3e,0x16,0xe6,0x94,0xbe,0x73,0x14,0x08,0x3e,0x65,0x8c,0x33,0x3d,0x63,0x45,0x20,0xbe,0xaf,0xc7,0x88,0x3d,0x41,0x84,0x1d,0x3e,0xb6,0x75,0x07,0xbe,0xf4,0xc4,0xd3,0xbd,0xa9,0xb8,0x72,0xbe,0xcc,0x45,0x8f,0xbe,0x26,0x76,0xbb,0x3e,0xd5,0x33,0x01,0xbe,0xfe,0xff,0x09,0xbf,0x93,0xd7,0x9e,0xbe,0xf0,0xe5,0xf3,0x3e,0xec,0xaf,0x08,0xbf,0x58,0xe2,0x8d,0x3e,0x44,0x1b,0x1e,0x3f,0x17,0x4c,0xcf,0x3e,0x6a,0x87,0x25,0x3f,0x05,0xcd,0x86,0x3d,0x97,0x0b,0x6a,0xbe,0x42,0x25,0x1c,0xbf,0x6a,0x14,0xae,0x3e,0x33,0x3e,0x81,0x3e,0xb4,0x1c,0x13,0x3c,0xbc,0x50,0x54,0xbd,0xbb,0x60,0x8e,0xbe,0x0e,0x12,0xcb,0xbd,0x4b,0x9d,0x0c,0xbf,0xbc,0x23,0x17,0x3f,0xbe,0x03,0xe4,0xbe,0xcf,0x8f,0x26,0x3f,0x17,0xff,0x02,0xbe,0xe9,0xd6,0xb3,0xbd,0xb2,0x4a,0x63,0x3e,0xec,0xd7,0x9b,0x3e,0x5b,0x29,0xc7,0x3e,0x4c,0x9a,0xfb,0xbd,0x14,0x90,0xae,0xbe,0x48,0xe1,0x3f,0x3f,0xc2,0x6d,0x81,0x3d,0xa8,0xd6,0x28,0xbf,0x0d,0x16,0x85,0x3e,0xa5,0x0c,0x88,0xbf,0x7c,0xf1,0xab,0x3f,0xdc,0x0d,0xdb,0x3d,0xf4,0x15,0x50,0x3f,0x35,0xf9,0xde,0x3e,0x04,0x87,0x58,0xbe,0x4d,0x54,0x58,0xbc,0xab,0x88,0xb2,0x3e,0x36,0xdf,0x7b,0x3e,0x89,0x9a,0x3e,0xc1,0xa7,0x1a,0xd0,0x3e,0x47,0x9f,0x65,0x3e,0xec,0x05,0x92,0x3e,0x4a,0xf5,0xe2,0xbf,0x85,0xe7,0x51,0xc0,0xe5,0xca,0x92,0x3f,0x66,0xed,0xfd,0x3d,0x6e,0xde,0x2d,0x3f,0x34,0x43,0x11,0xbe,0xf8,0xc3,0x1a,0x3f,0xfd,0xd0,0x44,0xbe,0x77,0x9f,0x6d,0xbe,0xac,0x94,0xc5,0x3c,0xdb,0xac,0x5f,0xc0,0x81,0x50,0xac,0x3e,0x13,0x00,0x28,0xbc,0x7a,0x00,0xc6,0xbf,0xbe,0x4d,0x73,0xbe,0x43,0x68,0x6b,0x3e,0x97,0x80,0xec,0xbf,0xc1,0x5e,0xf7,0x3e,0xa4,0xab,0x05,0x3c,0x16,0xfd,0xf3,0x3e,0x9a,0xfc,0xd3,0xc0,0x0d,0x15,0x91,0x3f,0xa6,0xf9,0x61,0xbe,0x93,0x93,0x0d,0xbe,0x51,0x39,0xa4,0x40,0x38,0xae,0xa7,0x3d,0xd4,0x80,0x9c,0x3f,0x6b,0x9a,0xd0,0x3e,0x63,0xf6,0x55,0x3d,0x18,0xa3,0x08,0xbf,0x9c,0xf0,0xac,0x3d,0xec,0xe1,0x64,0x3e,0x86,0xf3,0xd5,0x3e,0xb3,0x09,0x5a,0xbf,0x06,0x47,0xd6,0xbe,0xaf,0x24,0x2c,0x3e,0xb1,0x83,0xf7,0xc0,0x88,0x35,0x3d,0x3f,0xcc,0xdf,0x4f,0xbd,0xb6,0xaf,0x83,0x3e,0x09,0xff,0x97,0xbd,0x04,0x5a,0x75,0xc0,0xfc,0x2e,0x02,0xbe,0x34,0xd1,0x48,0x3e,0x6c,0x0f,0xef,0x3e,0x54,0x12,0xb3,0x3e,0x50,0x85,0x7c,0x3c,0x97,0x08,0x5a,0x3f,0x72,0x8c,0x82,0xc0,0x72,0x1a,0x94,0xbd,0x06,0x03,0xc9,0x3f,0xb3,0xda,0x34,0xbe,0x43,0xc8,0x08,0xbf,0xed,0xc5,0x2a,0x3f,0x84,0x6d,0x88,0xbb,0xf0,0x2c,0x0f,0x3f,0xf8,0xa4,0xce,0x3e,0x54,0x16,0x88,0xbe,0x14,0x06,0x33,0x3f,0x75,0x17,0x7f,0xbd,0xfa,0x16,0x29,0xbf,0x50,0x18,0x21,0xbf,0xfb,0x75,0xe9,0x3d,0xbb,0xdb,0xaf,0x3e,0x61,0x87,0x4a,0xbb,0x0a,0xb3,0xa0,0xbe,0x91,0x62,0xd8,0x3e,0xae,0xce,0x76,0x3c,0x4d,0xb6,0x07,0xbf,0xb2,0x17,0xc9,0x3e,0xe8,0x10,0x7f,0xbe,0xb5,0xbc,0x33,0x3e,0x97,0x34,0xa0,0x3e,0xdd,0x39,0x88,0xbe,0x48,0xe6,0x32,0xbe,0xf5,0x52,0xdb,0x3e,0xeb,0x6a,0xdc,0x3c,0x63,0x1f,0x84,0x3d,0x7c,0x42,0x13,0x3d,0x5a,0xb9,0x32,0x3f,0xbf,0xbb,0x88,0x3e,0x0a,0xbd,0x21,0xbe,0xd6,0xf7,0xe5,0x3e,0x57,0x13,0x8e,0x3e,0xa7,0xfa,0x14,0x3f,0xe9,0xa2,0x98,0xbe,0xed,0x66,0x41,0x3f,0x3e,0xa5,0x17,0x3e,0x1e,0x21,0x41,0xbf,0x1b,0x2e,0x8d,0x3d,0x4a,0xef,0x0c,0xbf,0xd3,0x22,0xd2,0xbe,0xe4,0x21,0xab,0x3e,0x56,0xa3,0x66,0x3e,0xe2,0x71,0x38,0xbe,0x13,0xfe,0x4f,0xbe,0x6f,0x34,0x8f,0xbe,0xd1,0xfa,0xaa,0x3d,0x1b,0x57,0x33,0x3e,0x24,0x4f,0x30,0x3e,0x64,0x5d,0xbc,0x3e,0x3b,0xcd,0x9d,0xbe,0xbb,0xc2,0x1e,0x3f,0xb1,0x65,0x5c,0xbd,0x8f,0x6f,0x04,0xbf,0xac,0x8c,0x63,0x3e,0x2f,0x0e,0xc0,0x3d,0x8b,0xcf,0x44,0xbe,0x2c,0x2f,0x9c,0xbe,0x27,0x5d,0x27,0x3e,0x2b,0x2c,0x9b,0xbe,0x87,0xf6,0xe6,0xbe,0x28,0x6d,0xa8,0xbd,0xf3,0xfa,0x4d,0x3f,0x06,0x34,0x9a,0xbe,0x82,0xc6,0xc6,0x3e,0x1f,0x28,0xea,0x3e,0x3f,0x6d,0x2f,0x3e,0xed,0x13,0xed,0x3e,0xcd,0x93,0x2b,0xbd,0x6c,0x35,0x26,0xbf,0xbd,0x54,0xe5,0x3d,0x7c,0xca,0x63,0x3e,0x46,0x86,0xe8,0x3d,0xb1,0x4f,0x6b,0x3e,0xd2,0x03,0xcb,0x3e,0xd2,0xdb,0x20,0x3e,0xd0,0x2d,0xa9,0xbe,0xdd,0xb3,0xf0,0x3a,0x4c,0xbf,0xd2,0xbc,0x89,0x34,0xc5,0x3c,0x13,0xcf,0x83,0xbe,0xac,0x75,0x80,0x3e,0xb0,0x50,0xa5,0xbe,0x32,0xb2,0x7c,0x3e,0xf7,0x68,0xc0,0xbe,0xaf,0xc6,0x0b,0x3e,0xcd,0xf6,0x7b,0x3e,0x63,0x6b,0x46,0xbd,0xfb,0x0c,0x81,0xbe,0x57,0xce,0xa6,0xbc,0x4e,0xfb,0x34,0xbe,0x6f,0x0b,0x94,0x3e,0xdb,0xc9,0x14,0x3e,0xf4,0x93,0x6e,0xbe,0x72,0xc2,0xf7,0x3e,0x35,0x1c,0x49,0x3e,0xd0,0xf6,0x74,0xbe,0xf4,0x44,0xa7,0xbc,0x03,0x80,0x6e,0x3e,0x08,0x77,0xa7,0xbf,0x3d,0x89,0x2a,0xbf,0x67,0xab,0x37,0x3f,0x48,0xac,0xd6,0x3e,0x69,0xac,0x3d,0x3f,0xcb,0x4a,0x3e,0x3e,0xf6,0x9b,0x5b,0x3c,0x7f,0x6a,0x80,0xbf,0x48,0xce,0xc8,0x3e,0xc6,0x40,0x4d,0x3d,0x8a,0x68,0x01,0x3e,0x43,0x74,0xb2,0x3b,0xf5,0x07,0x8a,0xbe,0xe4,0x6d,0x6a,0x3d,0xdb,0xe5,0xce,0xbe,0x1a,0x1e,0x5f,0x3f,0x1b,0xba,0xce,0xbf,0x89,0x89,0x7d,0xbb,0xa7,0xfa,0xa7,0x3d,0x9a,0xe0,0xb2,0xbe,0x46,0x7d,0x0a,0x3d,0xc2,0x7d,0x08,0x3e,0x0b,0xce,0xe5,0x3e,0xd2,0x00,0x68,0x3e,0xb0,0x2c,0xa8,0x3e,0x62,0xa3,0xf8,0x3e,0x63,0x66,0x2d,0xbb,0xb7,0xb1,0xda,0xbf,0x61,0x44,0x69,0xbe,0xf5,0xef,0x8c,0xc0,0x24,0x74,0xb2,0x3d,0x97,0xed,0x03,0x3e,0x75,0xcb,0xc7,0x3d,0x9d,0x0f,0x68,0x3d,0x87,0xac,0x32,0xbf,0x3b,0x95,0xf8,0x3d,0x71,0x8e,0x32,0xbe,0xba,0xf0,0x07,0x3e,0xa3,0xdf,0x1d,0x3e,0x61,0x33,0x01,0x3e,0x3c,0x42,0xae,0x38,0x89,0x50,0x5f,0x3d,0xe9,0x1e,0xd9,0xbe,0x47,0x44,0x53,0xbe,0x58,0xb3,0x3e,0x3f,0x17,0xff,0x34,0x3e,0xa8,0x95,0x42,0x3e,0xcb,0x84,0x95,0xbe,0xe1,0x94,0x88,0x3e,0x40,0x22,0x18,0x3d,0x27,0x75,0x42,0x3e,0xc5,0x7b,0xbd,0x3e,0xae,0x07,0x42,0xbe,0xd2,0x66,0x25,0xbe,0x95,0xa8,0x99,0x3c,0xa9,0x8d,0xbb,0xbe,0x89,0x5b,0x19,0x3f,0xb3,0xa0,0x8d,0xbd,0xd8,0xc4,0xd1,0xbe,0x2c,0xf8,0x93,0x3e,0x06,0x48,0x1f,0x3e,0x04,0x9f,0xe3,0xbd,0x26,0x85,0x5f,0xbf,0xba,0x56,0x81,0x3f,0x90,0x0b,0x6b,0xbf,0xd3,0xf1,0xa2,0x3c,0xed,0x6d,0x83,0x3f,0xd2,0x00,0xdb,0x3e,0x60,0x67,0x72,0x3f,0xf5,0x89,0x00,0x3f,0x55,0x47,0x01,0xbf,0xe0,0xc6,0x30,0xbf,0x8c,0xa7,0x6f,0x3e,0xfe,0xc1,0x51,0x3e,0x24,0xb3,0x68,0x3d,0xe7,0xd7,0x0a,0xbe,0x2d,0x19,0xef,0x3c,0xc6,0xe6,0x74,0x3e,0xbc,0xca,0x40,0xbf,0x3f,0x28,0x23,0x3f,0x2c,0x1f,0x1f,0xbf,0x18,0x2e,0xd0,0x3e,0x27,0x02,0xd9,0x3d,0x8e,0x60,0xbc,0xbe,0x2f,0x00,0x11,0xbe,0xdb,0xc8,0xb7,0x3e,0xd4,0x24,0xaa,0x3e,0xdd,0xe7,0x4c,0x3e,0xb0,0xde,0x2b,0x3e,0x4a,0x31,0x71,0x3f,0x61,0xf4,0xd2,0x3d,0xb3,0xe4,0x4f,0xbf,0x54,0x02,0xe2,0x3e,0xc4,0xd1,0x7d,0xbf,0xf9,0xd8,0x1c,0x3f,0x83,0xd9,0x0f,0x3e,0x05,0xb6,0x38,0xbe,0x79,0x7d,0x81,0xbe,0x24,0x09,0x60,0x3e,0x2a,0x0d,0xce,0x3e,0x2b,0x01,0x4c,0x3d,0x6a,0xfe,0xd3,0x3d,0xb1,0xaa,0x56,0x3f,0x2d,0x3c,0xd8,0x3e,0xbc,0x8a,0x8f,0xbd,0x1c,0x97,0x43,0xbc,0x64,0x3d,0xf1,0xbd,0xaa,0xe8,0x2c,0xbe,0xb7,0x3f,0x1a,0xbf,0x24,0xa8,0xd7,0x3e,0x44,0x89,0x27,0x3f,0x38,0xb3,0xdf,0x3e,0x4f,0x98,0x37,0xbe,0xa9,0xa2,0xbf,0xbd,0x93,0x4b,0x48,0xbf,0x26,0x93,0x92,0x3e,0x69,0xf0,0xb2,0xbe,0xac,0x45,0x02,0x3e,0xef,0xfc,0x8b,0xbc,0xf2,0xe6,0x07,0x3d,0xf2,0x19,0x37,0xc0,0xa2,0xbe,0xdc,0x3e,0x3e,0xe3,0xfd,0xbe,0x6c,0x65,0xc1,0xbe,0xb2,0x8c,0x49,0x3e,0xb7,0x89,0xfb,0x3e,0xbe,0x31,0x2f,0x3f,0xcf,0x09,0x43,0xbe,0xe8,0x47,0x29,0x3e,0xcc,0x92,0x6b,0xbe,0x96,0xbc,0x18,0xbf,0x6b,0xb9,0x70,0xbe,0x28,0x48,0x09,0xbf,0xd9,0xea,0x25,0xbe,0x0f,0xea,0x28,0x3f,0x07,0x0c,0x0a,0x3f,0x61,0xac,0x9b,0xbc,0x75,0x11,0xbd,0x3a,0x99,0x09,0x97,0x3e,0xf0,0x08,0xe4,0xbd,0xf0,0x34,0xc6,0x3d,0x00,0x44,0x92,0x3e,0x7d,0x7e,0x99,0x3e,0x87,0xd9,0x05,0xbe,0x91,0x39,0x90,0x3e,0xc0,0x99,0xe4,0xbe,0xb5,0xe6,0x71,0xbe,0x68,0x1b,0x69,0x3d,0x7c,0x32,0x84,0x3e,0xa0,0x66,0xa4,0xbc,0x8a,0xfc,0xd9,0x3c,0xf7,0xc0,0x23,0x3d,0x64,0x31,0x93,0xbf,0x02,0xd0,0x43,0xbe,0x1e,0xe2,0xfc,0x3e,0x2f,0x97,0xe8,0x3e,0x74,0xac,0xf9,0xbe,0x6d,0xf1,0xb6,0xbe,0x2f,0xaa,0xe1,0x3d,0xa1,0xc1,0x38,0xbe,0xd5,0xda,0x74,0xbe,0x6d,0xbb,0x55,0xbf,0x6e,0xb1,0xfb,0xbe,0xf8,0xf7,0x33,0x3e,0xc3,0x80,0xa5,0x3e,0x4d,0xcd,0xfd,0x3d,0x2c,0xfc,0x92,0x3e,0xa1,0xee,0x03,0x3e,0xe9,0x8a,0xca,0x3d,0x83,0xf7,0x9b,0xbe,0xc2,0x9e,0xcf,0xbe,0x5f,0x39,0x6e,0x3e,0x3e,0x68,0xf7,0x3e,0x67,0x1c,0xf7,0x3d,0xa5,0x14,0xf9,0x3e,0xe8,0x96,0x92,0x3e,0x97,0x6d,0x89,0xbe,0x90,0x80,0x88,0xbf,0xf9,0xad,0xc9,0xbd,0x05,0x78,0x8a,0x3e,0x24,0xa6,0xb6,0xbc,0x35,0x55,0x02,0xbf,0xed,0x54,0xbe,0xbc,0xb5,0x95,0xbc,0xbe,0x54,0x9c,0xfd,0xbd,0xbf,0xe3,0x91,0x3e,0x27,0xcd,0x1c,0x3c,0x86,0x04,0x41,0xbe,0xfe,0xa9,0x4f,0xbe,0xac,0x62,0x00,0xc0,0x9f,0xc1,0xc7,0xbe,0x46,0xbd,0xea,0x3e,0xe4,0x03,0xba,0xbf,0x8a,0x90,0x15,0xbe,0xb1,0xfc,0x7b,0x3f,0x16,0x68,0x2a,0x3e,0xfc,0x87,0x62,0x3f,0x49,0x03,0x11,0x3f,0x55,0x76,0xea,0xbd,0xdb,0x09,0x3e,0xbf,0x1b,0xe9,0x35,0x3e,0x8c,0x0c,0x89,0x3e,0xf1,0x55,0x17,0xbe,0x3e,0x5c,0x91,0xbd,0xf2,0x48,0xbb,0xbd,0x44,0xf0,0xc7,0x3e,0xef,0xcf,0xb4,0xbe,0xac,0x28,0x85,0x3f,0xc9,0xea,0x89,0xbf,0xe7,0xa9,0x86,0x3e,0xe2,0x42,0x94,0x3d,0x56,0xb0,0x26,0xbd,0xc0,0xc8,0x47,0xbc,0xc6,0x35,0xb9,0x3d,0x45,0x37,0x30,0x3f,0x7f,0x20,0xbd,0x3d,0xca,0xbe,0x7b,0xbe,0x96,0x11,0x14,0x3f,0x08,0xc3,0xd2,0x3d,0x91,0xfa,0x83,0xbf,0x50,0x10,0x30,0x3e,0x6e,0x5b,0x27,0xc0,0x5f,0x9d,0x2e,0xbe,0x4e,0x42,0x2b,0x3e,0xda,0x71,0x29,0xbe,0xc0,0xe3,0xd9,0x3d,0xde,0x5c,0x90,0x3d,0xb7,0x7f,0x35,0xbd,0xf0,0x4a,0x42,0xbe,0x27,0x3f,0xa0,0xbd,0xf1,0x41,0x18,0x3e,0x3c,0x66,0x23,0xbe,0x56,0xd9,0x24,0x3d,0xe8,0xe5,0x1b,0xbe,0xe6,0x37,0x5a,0x3e,0x83,0x8f,0x44,0xbe,0x6e,0x1b,0xff,0xbd,0x1f,0x9e,0x54,0xbe,0x32,0x21,0x32,0x3e,0x4e,0xa4,0x3b,0x3e,0xb3,0xbc,0x2e,0xbe,0xa2,0xd0,0x62,0x3e,0x1c,0xff,0x50,0x3e,0x4b,0x2a,0x2c,0x3e,0x91,0x5b,0x7b,0xbe,0x18,0xe4,0x4e,0xbe,0x4a,0x4e,0x55,0xbe,0xc7,0x6f,0xca,0xbd,0x43,0xac,0x1e,0xbe,0x05,0x80,0x6a,0x3e,0x09,0x9e,0x0d,0x3e,0x8e,0xdb,0x0e,0x3e,0xf5,0x4a,0x40,0xbe,0xc1,0x1f,0x7d,0xbe,0x50,0x78,0xe8,0x3d,0x16,0x4d,0x81,0x3d,0x09,0x10,0x05,0xbe,0x10,0x60,0x56,0x3e,0xdc,0x6b,0xd6,0x3d,0xca,0xbc,0x42,0x3d,0x45,0x0a,0xab,0x3d,0xb0,0xd0,0x69,0x3d,0x56,0x3b,0x52,0x3e,0x8c,0x3b,0x63,0x3d,0x91,0x9a,0x36,0xbe,0x6a,0x7f,0xe9,0xbd,0x49,0x73,0xff,0x3d,0xca,0x16,0x04,0xbe,0x6a,0x4b,0x3e,0x3c,0x18,0xc8,0xf3,0x3d,0xbd,0x93,0x3e,0x3d,0x20,0xb7,0x7b,0xbe,0x29,0x84,0x1e,0xbe,0xd4,0xc4,0x5a,0x3d,0x1a,0xb0,0xce,0xbc,0x53,0x83,0x15,0x3e,0x04,0xf3,0x30,0xbd,0xe4,0x59,0x2f,0x3d,0xe3,0x7a,0x6b,0xbe,0x80,0x37,0x83,0xbe,0x25,0x63,0x38,0x3e,0x20,0xd0,0x43,0xbe,0x6e,0x3a,0x16,0x3e,0x70,0xd3,0x5a,0x3d,0x54,0x55,0x86,0xbe,0xd8,0xa2,0x2d,0x3e,0x44,0x47,0x15,0xbe,0x00,0xd0,0x91,0x3a,0x83,0x40,0x5c,0xbe,0xd4,0xed,0x7d,0x3d,0xa0,0x75,0x48,0x3e,0x14,0x44,0x57,0x3c,0x50,0xd3,0x19,0xbd,0x57,0x14,0xa7,0x3d,0x80,0x79,0x2f,0x3c,0x2e,0xce,0x7c,0xbe,0xf9,0xf0,0x39,0xbe,0xa8,0xf3,0x0a,0xbe,0xd0,0xc2,0x3d,0x3d,0x80,0xd6,0x1d,0x3d,0x00,0x46,0x7f,0xbd,0xa0,0x3a,0xb7,0xbd,0x04,0x3d,0x3b,0xbe,0xb1,0xd5,0x9d,0xbc,0xfa,0x26,0x69,0x3e,0x3d,0x48,0x37,0x3e,0x2c,0x2b,0x05,0x3e,0x00,0xda,0x9c,0xbb,0x90,0x73,0x43,0xbe,0x9b,0xd8,0xd6,0x3d,0x3e,0x21,0xbf,0xbc,0x48,0xc3,0x8f,0xbd,0x14,0x9d,0x1c,0xbe,0xb8,0x49,0x1c,0xbe,0x68,0x3f,0x08,0x3e,0xca,0x5a,0x81,0xbb,0x48,0x90,0xe8,0xbd,0xb9,0x0a,0xaa,0xbb,0xd8,0x0e,0x45,0xbe,0x04,0x1a,0x1d,0xbe,0xd3,0xae,0x06,0xbd,0xf5,0x70,0x78,0xbe,0xec,0x93,0x02,0xbe,0x32,0x8d,0xde,0x3d,0xb3,0x04,0x39,0xbe,0x78,0x15,0xe9,0x3b,0x18,0xcc,0x24,0xbe,0xa7,0x1c,0x28,0xbe,0x97,0x6e,0xe8,0xbd,0x5b,0x3d,0x16,0xbd,0xa4,0xbc,0x46,0x3e,0x68,0x14,0xfe,0xbd,0x28,0x17,0x57,0xbe,0x00,0x38,0xdb,0xbc,0x1c,0xeb,0x0f,0xbe,0x28,0xaf,0x30,0xbe,0x2a,0xc2,0x20,0x3d,0xfa,0x86,0x94,0x3d,0x34,0x57,0x11,0x3e,0x40,0xae,0xf2,0xbc,0x60,0x38,0xb2,0xbd,0x06,0xcb,0x2d,0x3d,0x6d,0xe2,0x16,0xbd,0x78,0x4d,0x98,0x3d,0x58,0x25,0xa9,0xbd,0xb0,0x8c,0x7d,0xbd,0xb0,0x07,0x3b,0xbe,0xdb,0xe9,0x3b,0xbe,0x04,0xa2,0x7e,0xbe,0xe7,0x90,0xd3,0x3d,0xce,0x36,0xee,0xbd,0xd1,0x90,0x8a,0xbe,0x1d,0x58,0xa5,0x3e,0x68,0x67,0x7b,0xbe,0xb1,0x62,0x86,0xbf,0xaa,0xdc,0x3d,0xc1,0xb9,0xba,0x01,0xbe,0xe3,0xcb,0x91,0xbf,0x48,0x85,0x0a,0xbe,0xe0,0xea,0x14,0x3e,0xfa,0x4d,0xe0,0xbe,0x0e,0xe9,0x2e,0x40,0x19,0x08,0xab,0x3e,0x5d,0x0c,0xb0,0x3e,0x8c,0x59,0x5e,0xbd,0x68,0xbf,0xb2,0x3e,0x6c,0x44,0x09,0x3e,0x42,0xc1,0xf5,0xbd,0x93,0xd7,0x5b,0x3e,0xca,0x44,0x1f,0xbc,0xec,0x81,0x54,0x3d,0x4a,0x95,0xa2,0xbd,0x0c,0x31,0x2d,0x3e,0x31,0x07,0xae,0x3e,0x5f,0x4a,0x4b,0xc1,0x46,0xff,0x2f,0x3e,0xa1,0x2a,0xf9,0xbe,0x9f,0xa1,0x6c,0xbe,0x03,0xa6,0x8e,0xbd,0x5b,0x22,0x19,0x3e,0x09,0xb1,0x4c,0x3d,0x7c,0x04,0x9b,0xbd,0x1b,0xad,0xe8,0xbd,0xb9,0xd5,0x44,0x3f,0x34,0x47,0x75,0xbf,0x72,0xec,0x1f,0xc0,0x02,0xee,0x65,0x3f,0xcb,0x89,0x70,0x40,0x37,0xb1,0x23,0x3f,0x12,0x40,0x90,0x3f,0x03,0xf0,0x52,0xbf,0x0a,0x8b,0xa7,0xbe,0xc6,0xc3,0x8b,0xc0,0x80,0x73,0xc5,0x3d,0x9b,0x31,0x1e,0xbe,0x0a,0x28,0x8d,0xbe,0x98,0xb4,0x58,0x3e,0x2e,0x97,0xdf,0x3e,0x72,0xb1,0x8b,0xbe,0xa4,0x77,0xa5,0x3f,0xfb,0xdf,0x72,0xbf,0x20,0x2f,0xa9,0xbc,0x88,0x7e,0xdf,0xbe,0xa5,0xc2,0x28,0x3d,0x24,0x78,0x63,0x3d,0x12,0xdb,0x0a,0xc1,0x2a,0xef,0xa4,0x40,0x60,0x8d,0xba,0xbd,0x66,0x93,0x9f,0xbe,0x7e,0x59,0x07,0x3f,0xec,0x86,0x08,0x3e,0x9e,0xf3,0x96,0xbf,0xa2,0xd2,0x02,0x3e,0x0f,0xd5,0xb5,0xc0,0x6d,0xd6,0x7e,0x3e,0x66,0xa1,0xbc,0xbf,0x7c,0x27,0xfd,0x3e,0x56,0xb9,0xb1,0xbd,0xcb,0xcb,0x9a,0xbf,0x33,0xe1,0xa1,0xbd,0xc5,0xb7,0xa4,0xbf,0x9b,0x17,0xb6,0xbd,0x13,0x1c,0xd7,0x3e,0xbe,0x98,0x0e,0x3f,0x6b,0x24,0xa8,0x3b,0xe9,0xcc,0x88,0x3e,0x57,0x26,0x74,0xbd,0x75,0x87,0x34,0xbe,0xec,0x46,0x64,0x3e,0x04,0x32,0xf4,0xbd,0xcf,0xe8,0xb6,0x3e,0x57,0x3d,0xbf,0xbf,0x95,0xd9,0xeb,0x3e,0xe2,0xb3,0x80,0x3d,0x1a,0xbd,0xc4,0x3e,0x36,0xd7,0x56,0xbe,0x59,0x98,0x84,0x3e,0x1a,0x4f,0x34,0xbe,0x0f,0x20,0xc0,0xbe,0xa9,0x1c,0x95,0xbe,0x89,0x5f,0xc5,0x3e,0x1e,0x06,0xbb,0xbf,0x46,0x4a,0x3a,0x3e,0xca,0xd4,0x0a,0x3f,0xbb,0xbf,0x1a,0xbe,0x91,0x6e,0xbd,0x3e,0x08,0x07,0x9b,0xbd,0xe9,0xdb,0x05,0x3f,0x2d,0xa2,0x13,0xbf,0x90,0x69,0x1b,0xbf,0x9c,0xad,0x7d,0xbd,0x9d,0x7f,0x06,0x3f,0x16,0x0e,0x11,0x3f,0x75,0x8e,0xfd,0x3e,0x63,0x5c,0xd3,0xbd,0x62,0xc4,0xa2,0xbe,0x76,0x00,0x2b,0x3d,0x66,0xc0,0xee,0x3c,0x2e,0xc0,0xde,0xbd,0x73,0xf6,0x5a,0x3c,0x61,0xf7,0x98,0x3c,0x9f,0xcb,0x0b,0xbe,0x88,0x38,0x8e,0xbd,0xa3,0xcb,0x7c,0x3e,0x44,0x8a,0x3e,0xbf,0x03,0x06,0x93,0xbd,0x05,0x7f,0x1c,0x3f,0xfa,0x5a,0x7e,0xbe,0x47,0x42,0x42,0xbe,0x3a,0x89,0x01,0xbe,0x3f,0xe5,0xa0,0x3e,0x67,0xc4,0x3d,0x3e,0x9a,0xa4,0x3c,0x3f,0x16,0xc3,0x9d,0x3e,0x28,0xb7,0x88,0x3d,0x11,0x33,0x39,0xbf,0x5f,0x21,0x9c,0x3d,0x07,0x9e,0x69,0xbf,0x40,0x01,0xff,0xbc,0xba,0x59,0x7b,0xbe,0x1d,0x00,0x36,0xbe,0xe4,0xd9,0x6d,0xbe,0xc8,0xd9,0x51,0xbe,0x71,0x60,0xb6,0xbd,0x4a,0x6d,0x20,0xbe,0x40,0x47,0x0f,0xbe,0x32,0xaf,0x41,0xbe,0x15,0x22,0x5f,0xbe,0xe8,0xeb,0xd7,0xbd,0x1d,0xc6,0xff,0xbd,0x78,0x56,0x83,0x3d,0x9f,0x4b,0x70,0x3e,0xd8,0xf6,0x18,0xbd,0xe8,0x2d,0x0c,0xbe,0x8a,0xa5,0xb7,0xbc,0xa8,0xc3,0xab,0x3d,0x28,0x31,0x64,0x3e,0x94,0xa2,0x7c,0x3e,0x70,0x69,0x64,0x3d,0x63,0x9f,0x14,0x3e,0xf8,0xf1,0x5c,0xbe,0x1f,0xa4,0xbd,0xbd,0xa7,0x5a,0xda,0x3d,0xd4,0xa3,0x2c,0x3e,0xb0,0x49,0x70,0xbe,0x8c,0x33,0x60,0xbe,0xd9,0x58,0xdb,0xbd,0x3a,0x7c,0x3d,0xbd,0xc2,0x24,0xdf,0x3d,0x50,0x09,0x70,0x3d,0x49,0xf8,0xfd,0x3d,0x34,0x90,0x5e,0xbd,0x1d,0x34,0xa4,0x3d,0xb0,0x1c,0x3d,0x3e,0x1f,0x4a,0x4c,0xbe,0xf0,0xad,0x5c,0xbe,0x7d,0xe4,0x80,0x3d,0x40,0x39,0x53,0xbe,0x42,0xf9,0x71,0xbe,0x00,0xc5,0xfe,0xbd,0xe8,0x54,0x03,0xbe,0xb0,0x2d,0x5b,0xbd,0xa4,0x73,0x4d,0x3e,0x46,0xf6,0x9b,0xbd,0xf3,0x77,0xb6,0x3d,0x20,0xe5,0x19,0x3d,0xaa,0xe3,0x50,0x3e,0xcf,0xd9,0x07,0x3e,0x58,0x21,0x0f,0xbe,0x2c,0xc4,0x6e,0xbe,0xc8,0x14,0x15,0xbe,0x88,0x1c,0x41,0x3e,0x08,0x71,0x3c,0xbe,0xc0,0xfd,0x56,0xbd,0x16,0xe9,0xce,0x3d,0xeb,0xc0,0xf1,0xbd,0xf0,0x0d,0x5a,0x3e,0xd0,0x0a,0xe8,0xbd,0xea,0xe6,0x26,0xbe,0xd8,0x83,0x2b,0x3e,0xad,0x5e,0x5c,0xbe,0xc0,0xb9,0x55,0x3e,0x1d,0x01,0x81,0x3e,0xb3,0x60,0x59,0x3c,0xfd,0x05,0xb3,0x3e,0x7b,0xcd,0xdf,0x3e,0x3a,0x4b,0x8c,0x3e,0xb1,0x17,0x09,0xbe,0x4f,0xa8,0x2e,0x3c,0x52,0x4c,0x6f,0x3e,0x05,0xf5,0x64,0xbc,0x3f,0xc0,0xb2,0x3e,0x49,0x7b,0x38,0x3e,0x9a,0x9e,0x17,0xbe,0xda,0xe4,0x77,0xbd,0xfd,0x12,0x76,0x3e,0x6d,0xcd,0x9e,0xbe,0x16,0x48,0x76,0x3e,0xe1,0xa5,0xd8,0x3c,0xb4,0xdc,0xe9,0x3d,0x55,0x03,0x6f,0x3c,0x7b,0x86,0x16,0x3e,0x4c,0x7f,0x45,0xbf,0xba,0xb1,0xf3,0xbe,0x67,0x59,0x7b,0x3e,0xd0,0x41,0xab,0x3d,0x05,0xd0,0x28,0xbe,0x02,0x65,0x29,0xbd,0xf4,0x4a,0x70,0xbe,0x68,0x42,0x80,0x3d,0xe1,0xe3,0x2b,0xbe,0xc0,0x5a,0x64,0x3d,0x5b,0x79,0xb5,0xbb,0xfa,0xbf,0x3d,0x3f,0xa2,0xe5,0xb8,0xbd,0x90,0x08,0x2d,0xbf,0x71,0xda,0x21,0x3f,0xc9,0xb8,0xb8,0x3e,0xe3,0x58,0x59,0xbf,0x9c,0xdc,0x70,0xbe,0xda,0x7e,0x2d,0xbf,0x16,0xad,0x16,0x3e,0xfb,0x6e,0xbb,0x3d,0x36,0xcf,0x1e,0x3f,0xb5,0xa5,0xcf,0xbe,0x15,0x54,0xf0,0x3c,0xd6,0xf7,0xfe,0xbd,0x4f,0x46,0x58,0xbe,0xe6,0xde,0x4b,0x3c,0x2f,0x6f,0x24,0x3d,0xba,0x9a,0xb4,0x3a,0x8d,0x95,0x28,0xbe,0x67,0x8d,0x7f,0x3f,0x8c,0xc7,0x17,0xbf,0xd4,0x48,0x25,0xc0,0x95,0x13,0x8a,0x3d,0x5c,0xcf,0x7e,0xbe,0x3d,0xb1,0x3a,0x3e,0x87,0x49,0x55,0xbe,0x20,0x04,0x9d,0xbc,0xe1,0x61,0xcc,0xbd,0x4a,0x25,0xb8,0xbe,0xc1,0x54,0xa5,0xbd,0x65,0x75,0x49,0x3f,0xa9,0x99,0xbb,0xbe,0x16,0x9f,0x7b,0x3f,0x56,0x76,0x0f,0x3e,0xa6,0x38,0xfa,0x3e,0x5a,0xcd,0xfb,0xbe,0x4c,0xd5,0x1b,0xbf,0x6c,0xa8,0xf5,0xbd,0xff,0x97,0xa0,0xbd,0x31,0x78,0xc0,0x3e,0x44,0xd0,0x15,0x3e,0x43,0xe8,0x55,0xbe,0xc0,0xce,0x1f,0xbe,0x2d,0x01,0xcf,0x3c,0x88,0x28,0xb4,0xbd,0x07,0x00,0x16,0xbe,0x9d,0x40,0xd8,0x3d,0xc2,0x67,0x21,0x3e,0x60,0x1c,0x85,0x3e,0x8d,0x89,0x50,0xbe,0x03,0x04,0xd2,0x3c,0xcb,0x05,0x9d,0xbe,0x2c,0xfa,0xcd,0xbe,0x58,0xf1,0x41,0x3e,0x7c,0x42,0x77,0x3c,0xf8,0x5e,0xa9,0x3d,0xf6,0x3d,0x0b,0xbe,0xdf,0x94,0xaa,0x3d,0xcc,0xc5,0x59,0xbe,0x35,0x03,0x1c,0x3e,0x80,0x7d,0x1a,0x3f,0x64,0x9f,0xe9,0xbd,0xaa,0xab,0xf0,0xbe,0xf0,0xa4,0x8a,0x3e,0x8f,0xca,0x4a,0xb9,0xaf,0x2c,0x7b,0x3e,0x99,0x40,0x4c,0xbe,0x61,0xa5,0x19,0x3f,0xf6,0x0f,0xc4,0xbe,0xc8,0x8f,0xce,0x3d,0x86,0xe2,0xcd,0xbc,0xc9,0x08,0xd2,0x3b,0x36,0x0a,0x64,0xbd,0xb7,0x84,0xfd,0xbd,0x47,0x9c,0xd2,0x3e,0xab,0x7a,0xc5,0x3d,0x44,0xc2,0xdc,0xbc,0x2c,0x2c,0x29,0xbe,0x12,0xf0,0xd5,0x3d,0xd4,0xb7,0x5d,0xbd,0x40,0x69,0x5f,0x3d,0x7f,0x6d,0x20,0xbe,0x90,0xad,0x6a,0xbd,0x3a,0x1b,0x0c,0x3e,0x13,0x2b,0x40,0xbd,0xdb,0x78,0x0e,0xbe,0xbf,0x9c,0x41,0x3b,0x50,0x8c,0x3c,0x3e,0x8d,0x22,0x0e,0x3e,0xa2,0xbc,0xca,0xbc,0xd8,0x70,0x1f,0xbe,0x03,0xf4,0x96,0xbe,0xa2,0x1b,0x8b,0x3e,0xa8,0x7f,0xf6,0xbd,0xc6,0xe5,0xff,0x3e,0x5a,0x70,0x5d,0xbe,0x5e,0x34,0x50,0xbe,0x5a,0xfd,0xff,0xff,0x04,0x00,0x00,0x00,0x00,0x01,0x00,0x00,0x0d,0x9c,0x9b,0xbe,0xe6,0x60,0x6f,0x3c,0x35,0x4c,0x90,0xbf,0x00,0x08,0xeb,0xbf,0x66,0x12,0x2e,0xbf,0x27,0xc6,0xb9,0x3e,0x2e,0xbb,0x9d,0x3e,0xc7,0x56,0x4a,0x3f,0x3a,0x9f,0x57,0xbd,0x28,0x1b,0xe3,0x3e,0x51,0xd6,0x8c,0xbf,0x75,0x50,0xa0,0x3f,0x83,0xa7,0x05,0xbf,0x71,0x53,0x04,0x3e,0x05,0xf5,0x35,0xbf,0x87,0x3a,0x44,0x3d,0xa5,0x70,0x3d,0x3e,0xd4,0xbb,0xba,0x3d,0x9c,0x70,0x7e,0x3e,0x55,0x36,0x49,0xbe,0x79,0x89,0xb0,0xbe,0x44,0x6b,0xb0,0x3f,0xc8,0x48,0x01,0x3e,0xb0,0x48,0x1b,0xbf,0x0f,0x50,0x1a,0xbc,0xf2,0x55,0xc9,0xbe,0x5f,0x70,0xc0,0x3e,0x3f,0xcd,0x11,0x3f,0xed,0xa3,0x32,0x3f,0x19,0x2e,0x83,0x3e,0x51,0xd8,0xcb,0x3e,0x3e,0xff,0x4b,0xbe,0xc8,0x86,0xd2,0xbd,0x4a,0xcc,0xcc,0x3d,0xe9,0xdc,0x19,0xbf,0x5f,0x52,0xf8,0x3f,0xc9,0xb1,0x9c,0x3d,0x91,0xc4,0x62,0xc0,0xf9,0x48,0x76,0xbe,0xa9,0x2c,0x90,0xbf,0xc0,0x02,0x5b,0xbe,0xbb,0x98,0xb4,0xbe,0xa7,0xed,0x6e,0x40,0xa0,0x27,0x3f,0x3d,0x48,0x88,0xa3,0x3f,0xd9,0x35,0x63,0xbf,0xdb,0x2e,0x5e,0x3f,0xfe,0x2e,0xce,0xbf,0x64,0x1f,0x1c,0xbf,0xbc,0x40,0x58,0xbf,0x49,0xf5,0xc1,0x3e,0x27,0x5a,0x9a,0x3f,0xea,0x05,0x10,0x3f,0x5a,0xe7,0x0f,0x40,0xcc,0x0b,0x33,0x3f,0x7e,0x1e,0x13,0xbf,0xb6,0x75,0x05,0x40,0xfa,0xc6,0xd8,0x3d,0x49,0xf2,0x13,0x3e,0x56,0x36,0x26,0x40,0x38,0xfc,0x53,0x3f,0xab,0x92,0xca,0x3d,0x73,0xf2,0xd9,0xbe,0xca,0x98,0xb6,0xbc,0x66,0xfe,0xff,0xff,0x04,0x00,0x00,0x00,0x80,0x00,0x00,0x00,0x00,0x00,0x00,0x00,0x00,0x00,0x00,0x00,0x00,0x00,0x00,0x00,0x00,0x00,0x00,0x00,0x00,0x00,0x00,0x00,0x00,0x00,0x00,0x00,0x00,0x00,0x00,0x00,0x00,0x00,0x00,0x00,0x00,0x00,0x00,0x00,0x00,0x00,0x00,0x00,0x00,0x00,0x00,0x00,0x00,0x00,0x00,0x00,0x00,0x00,0x00,0x00,0x00,0x00,0x00,0x00,0x00,0x00,0x00,0x00,0x00,0x00,0x00,0x00,0x00,0x00,0x00,0x00,0x00,0x00,0x00,0x00,0x00,0x00,0x00,0x00,0x00,0x00,0x00,0x00,0x00,0x00,0x00,0x00,0x00,0x00,0x00,0x00,0x00,0x00,0x00,0x00,0x00,0x00,0x00,0x00,0x00,0x00,0x00,0x00,0x00,0x00,0x00,0x00,0x00,0x00,0x00,0x00,0x00,0x00,0x00,0x00,0x00,0x00,0x00,0x00,0x00,0x00,0x00,0x00,0x00,0x00,0x00,0x00,0x00,0x00,0x00,0x00,0xf2,0xfe,0xff,0xff,0x04,0x00,0x00,0x00,0x00,0x01,0x00,0x00,0xbf,0x99,0xbd,0xbe,0x60,0x21,0x1c,0x3f,0xf8,0x1d,0x03,0x3f,0x55,0x70,0xe3,0xbe,0x9b,0x0f,0x0f,0xbf,0x10,0xfc,0x0e,0x3f,0x16,0x4f,0x0b,0xbf,0x9f,0x86,0xe4,0x3e,0x4c,0x54,0x2d,0x3f,0x19,0xc9,0x12,0xbf,0xfe,0xe9,0x2d,0x3e,0xb8,0x31,0xf2,0xbe,0x90,0xb3,0x2c,0x3f,0x77,0x71,0x19,0xbf,0x34,0x87,0x79,0x3c,0x18,0xc8,0xe1,0xbe,0xf5,0xf6,0x5c,0xbe,0x75,0x6f,0x30,0x3f,0x12,0x39,0xed,0xbe,0xb3,0xa1,0x04,0x3f,0x65,0x68,0x8f,0xbd,0x0f,0x8d,0x0b,0xbf,0x52,0x9a,0x56,0xbf,0x32,0x4e,0x6e,0xbf,0xab,0x96,0xd8,0x3e,0x4a,0x74,0xba,0xbd,0x29,0x7e,0x58,0x3e,0x50,0x8d,0xc6,0x3e,0xaa,0xb4,0x06,0xbe,0xd8,0x53,0xdc,0x3e,0x15,0x90,0x35,0x3e,0xe1,0xc4,0x5a,0xbe,0xcd,0xb0,0xca,0xbe,0xcf,0x7a,0x26,0x3f,0xc6,0xac,0x00,0x3f,0x9f,0xcf,0x05,0xbf,0x04,0x4a,0x10,0xbf,0x15,0x37,0x10,0x3f,0x0d,0x08,0x30,0xbf,0xa6,0x7a,0x90,0xbd,0x66,0xda,0xad,0x3e,0x6b,0x85,0xe5,0x3e,0xeb,0x29,0x6a,0xbd,0x09,0x48,0x95,0x3e,0x25,0x11,0x0f,0x3f,0x9f,0x18,0x91,0x3e,0xa6,0xdd,0xf9,0xbe,0x17,0xda,0x61,0xbd,0x12,0xdf,0x34,0x3e,0x6a,0x84,0x20,0xbf,0xed,0x1f,0x08,0x3f,0xa6,0x81,0x38,0xbe,0x49,0xd5,0x94,0x3e,0x6f,0xc5,0x91,0x3e,0x0c,0x84,0x11,0x3f,0x6e,0x7b,0xf0,0xbe,0x21,0x7b,0xc9,0x3e,0x8a,0x94,0xbc,0x3c,0x29,0x41,0x15,0xbf,0x16,0x10,0x15,0x3f,0xeb,0x5c,0xc3,0x3e,0x1d,0x76,0x8f,0xbe,0x34,0x4b,0x11,0xbf,0xc0,0xd6,0x04,0x3f,0x00,0x00,0x06,0x00,0x08,0x00,0x04,0x00,0x06,0x00,0x00,0x00,0x04,0x00,0x00,0x00,0x0c,0x00,0x00,0x00,0xff,0xff,0xff,0xff,0x02,0x00,0x00,0x00,0x20,0x00,0x00,0x00,0x38,0xf7,0xff,0xff,0x3c,0xf7,0xff,0xff,0x0f,0x00,0x00,0x00,0x4d,0x4c,0x49,0x52,0x20,0x43,0x6f,0x6e,0x76,0x65,0x72,0x74,0x65,0x64,0x2e,0x00,0x01,0x00,0x00,0x00,0x14,0x00,0x00,0x00,0x00,0x00,0x0e,0x00,0x18,0x00,0x14,0x00,0x10,0x00,0x0c,0x00,0x08,0x00,0x04,0x00,0x0e,0x00,0x00,0x00,0x14,0x00,0x00,0x00,0x1c,0x00,0x00,0x00,0xcc,0x01,0x00,0x00,0xd0,0x01,0x00,0x00,0xd4,0x01,0x00,0x00,0x04,0x00,0x00,0x00,0x6d,0x61,0x69,0x6e,0x00,0x00,0x00,0x00,0x07,0x00,0x00,0x00,0x84,0x01,0x00,0x00,0x24,0x01,0x00,0x00,0xec,0x00,0x00,0x00,0xa0,0x00,0x00,0x00,0x78,0x00,0x00,0x00,0x3c,0x00,0x00,0x00,0x04,0x00,0x00,0x00,0x02,0xff,0xff,0xff,0x14,0x00,0x00,0x00,0x00,0x00,0x00,0x08,0x10,0x00,0x00,0x00,0x14,0x00,0x00,0x00,0x04,0x00,0x00,0x00,0xc8,0xf7,0xff,0xff,0x01,0x00,0x00,0x00,0x11,0x00,0x00,0x00,0x03,0x00,0x00,0x00,0x10,0x00,0x00,0x00,0x04,0x00,0x00,0x00,0x08,0x00,0x00,0x00,0x36,0xff,0xff,0xff,0x14,0x00,0x00,0x00,0x00,0x00,0x00,0x08,0x14,0x00,0x00,0x00,0x18,0x00,0x00,0x00,0x04,0x00,0x00,0x00,0xa2,0xff,0xff,0xff,0x00,0x00,0x00,0x01,0x01,0x00,0x00,0x00,0x10,0x00,0x00,0x00,0x03,0x00,0x00,0x00,0x0f,0x00,0x00,0x00,0x05,0x00,0x00,0x00,0x07,0x00,0x00,0x00,0x9e,0xff,0xff,0xff,0x0c,0x00,0x00,0x00,0x10,0x00,0x00,0x00,0x02,0x00,0x00,0x00,0x01,0x00,0x00,0x00,0x0f,0x00,0x00,0x00,0x02,0x00,0x00,0x00,0x0e,0x00,0x00,0x00,0x09,0x00,0x00,0x00,0x92,0xff,0xff,0xff,0x1c,0x00,0x00,0x00,0x00,0x00,0x00,0x0b,0x1c,0x00,0x00,0x00,0x20,0x00,0x00,0x00,0x03,0x00,0x00,0x00,0x00,0x00,0x06,0x00,0x08,0x00,0x07,0x00,0x06,0x00,0x00,0x00,0x00,0x00,0x00,0x01,0x01,0x00,0x00,0x00,0x0e,0x00,0x00,0x00,0x02,0x00,0x00,0x00,0x0d,0x00,0x00,0x00,0x06,0x00,0x00,0x00,0x00,0x00,0x0a,0x00,0x10,0x00,0x0c,0x00,0x08,0x00,0x04,0x00,0x0a,0x00,0x00,0x00,0x0c,0x00,0x00,0x00,0x10,0x00,0x00,0x00,0x02,0x00,0x00,0x00,0x01,0x00,0x00,0x00,0x0d,0x00,0x00,0x00,0x02,0x00,0x00,0x00,0x0c,0x00,0x00,0x00,0x01,0x00,0x00,0x00,0x00,0x00,0x0e,0x00,0x1a,0x00,0x14,0x00,0x10,0x00,0x0c,0x00,0x0b,0x00,0x04,0x00,0x0e,0x00,0x00,0x00,0x20,0x00,0x00,0x00,0x00,0x00,0x00,0x01,0x28,0x00,0x00,0x00,0x2c,0x00,0x00,0x00,0x01,0x00,0x00,0x00,0x00,0x00,0x0a,0x00,0x10,0x00,0x0f,0x00,0x08,0x00,0x04,0x00,0x0a,0x00,0x00,0x00,0x01,0x00,0x00,0x00,0x01,0x00,0x00,0x00,0x00,0x00,0x00,0x01,0x01,0x00,0x00,0x00,0x0c,0x00,0x00,0x00,0x03,0x00,0x00,0x00,0x0b,0x00,0x00,0x00,0x02,0x00,0x00,0x00,0x03,0x00,0x00,0x00,0x00,0x00,0x0e,0x00,0x14,0x00,0x00,0x00,0x10,0x00,0x0c,0x00,0x0b,0x00,0x04,0x00,0x0e,0x00,0x00,0x00,0x10,0x00,0x00,0x00,0x00,0x00,0x00,0x34,0x0c,0x00,0x00,0x00,0x10,0x00,0x00,0x00,0x2c,0xf9,0xff,0xff,0x01,0x00,0x00,0x00,0x0b,0x00,0x00,0x00,0x02,0x00,0x00,0x00,0x00,0x00,0x00,0x00,0x0a,0x00,0x00,0x00,0x01,0x00,0x00,0x00,0x11,0x00,0x00,0x00,0x01,0x00,0x00,0x00,0x00,0x00,0x00,0x00,0x12,0x00,0x00,0x00,0x20,0x06,0x00,0x00,0xc8,0x05,0x00,0x00,0x68,0x05,0x00,0x00,0x14,0x05,0x00,0x00,0xd4,0x04,0x00,0x00,0x94,0x04,0x00,0x00,0x50,0x04,0x00,0x00,0x14,0x04,0x00,0x00,0xd8,0x03,0x00,0x00,0x98,0x03,0x00,0x00,0x38,0x03,0x00,0x00,0xb8,0x02,0x00,0x00,0x44,0x02,0x00,0x00,0xd0,0x01,0x00,0x00,0x50,0x01,0x00,0x00,0xf0,0x00,0x00,0x00,0x60,0x00,0x00,0x00,0x04,0x00,0x00,0x00,0x3e,0xfa,0xff,0xff,0x00,0x00,0x00,0x01,0x14,0x00,0x00,0x00,0x1c,0x00,0x00,0x00,0x1c,0x00,0x00,0x00,0x12,0x00,0x00,0x00,0x34,0x00,0x00,0x00,0x02,0x00,0x00,0x00,0xff,0xff,0xff,0xff,0x02,0x00,0x00,0x00,0xc8,0xf9,0xff,0xff,0x1b,0x00,0x00,0x00,0x53,0x74,0x61,0x74,0x65,0x66,0x75,0x6c,0x50,0x61,0x72,0x74,0x69,0x74,0x69,0x6f,0x6e,0x65,0x64,0x43,0x61,0x6c,0x6c,0x5f,0x31,0x3a,0x30,0x00,0x02,0x00,0x00,0x00,0x01,0x00,0x00,0x00,0x02,0x00,0x00,0x00,0x96,0xfa,0xff,0xff,0x00,0x00,0x00,0x01,0x14,0x00,0x00,0x00,0x1c,0x00,0x00,0x00,0x1c,0x00,0x00,0x00,0x11,0x00,0x00,0x00,0x68,0x00,0x00,0x00,0x02,0x00,0x00,0x00,0xff,0xff,0xff,0xff,0x20,0x00,0x00,0x00,0x20,0xfa,0xff,0xff,0x4e,0x00,0x00,0x00,0x73,0x65,0x71,0x75,0x65,0x6e,0x74,0x69,0x61,0x6c,0x5f,0x31,0x2f,0x64,0x65,0x6e,0x73,0x65,0x5f,0x31,0x2f,0x4d,0x61,0x74,0x4d,0x75,0x6c,0x3b,0x73,0x65,0x71,0x75,0x65,0x6e,0x74,0x69,0x61,0x6c,0x5f,0x31,0x2f,0x64,0x65,0x6e,0x73,0x65,0x5f,0x31,0x2f,0x52,0x65,0x6c,0x75,0x3b,0x73,0x65,0x71,0x75,0x65,0x6e,0x74,0x69,0x61,0x6c,0x5f,0x31,0x2f,0x64,0x65,0x6e,0x73,0x65,0x5f,0x31,0x2f,0x41,0x64,0x64,0x00,0x00,0x02,0x00,0x00,0x00,0x01,0x00,0x00,0x00,0x20,0x00,0x00,0x00,0x22,0xfb,0xff,0xff,0x00,0x00,0x00,0x01,0x14,0x00,0x00,0x00,0x1c,0x00,0x00,0x00,0x1c,0x00,0x00,0x00,0x10,0x00,0x00,0x00,0x38,0x00,0x00,0x00,0x02,0x00,0x00,0x00,0xff,0xff,0xff,0xff,0x40,0x00,0x00,0x00,0xac,0xfa,0xff,0xff,0x1e,0x00,0x00,0x00,0x73,0x65,0x71,0x75,0x65,0x6e,0x74,0x69,0x61,0x6c,0x5f,0x31,0x2f,0x66,0x6c,0x61,0x74,0x74,0x65,0x6e,0x5f,0x31,0x2f,0x52,0x65,0x73,0x68,0x61,0x70,0x65,0x00,0x00,0x02,0x00,0x00,0x00,0x01,0x00,0x00,0x00,0x40,0x00,0x00,0x00,0x7e,0xfb,0xff,0xff,0x00,0x00,0x00,0x01,0x14,0x00,0x00,0x00,0x20,0x00,0x00,0x00,0x20,0x00,0x00,0x00,0x0f,0x00,0x00,0x00,0x54,0x00,0x00,0x00,0x03,0x00,0x00,0x00,0xff,0xff,0xff,0xff,0x02,0x00,0x00,0x00,0x20,0x00,0x00,0x00,0x0c,0xfb,0xff,0xff,0x34,0x00,0x00,0x00,0x73,0x65,0x71,0x75,0x65,0x6e,0x74,0x69,0x61,0x6c,0x5f,0x31,0x2f,0x63,0x6f,0x6e,0x76,0x31,0x64,0x5f,0x31,0x2f,0x52,0x65,0x6c,0x75,0x3b,0x73,0x65,0x71,0x75,0x65,0x6e,0x74,0x69,0x61,0x6c,0x5f,0x31,0x2f,0x63,0x6f,0x6e,0x76,0x31,0x64,0x5f,0x31,0x2f,0x61,0x64,0x64,0x00,0x00,0x00,0x00,0x03,0x00,0x00,0x00,0x01,0x00,0x00,0x00,0x02,0x00,0x00,0x00,0x20,0x00,0x00,0x00,0xfa,0xfb,0xff,0xff,0x00,0x00,0x00,0x01,0x14,0x00,0x00,0x00,0x20,0x00,0x00,0x00,0x20,0x00,0x00,0x00,0x0e,0x00,0x00,0x00,0x48,0x00,0x00,0x00,0x03,0x00,0x00,0x00,0xff,0xff,0xff,0xff,0x02,0x00,0x00,0x00,0x20,0x00,0x00,0x00,0x88,0xfb,0xff,0xff,0x29,0x00,0x00,0x00,0x73,0x65,0x71,0x75,0x65,0x6e,0x74,0x69,0x61,0x6c,0x5f,0x31,0x2f,0x63,0x6f,0x6e,0x76,0x31,0x64,0x5f,0x31,0x2f,0x63,0x6f,0x6e,0x76,0x6f,0x6c,0x75,0x74,0x69,0x6f,0x6e,0x2f,0x53,0x71,0x75,0x65,0x65,0x7a,0x65,0x00,0x00,0x00,0x03,0x00,0x00,0x00,0x01,0x00,0x00,0x00,0x02,0x00,0x00,0x00,0x20,0x00,0x00,0x00,0x6a,0xfc,0xff,0xff,0x00,0x00,0x00,0x01,0x14,0x00,0x00,0x00,0x24,0x00,0x00,0x00,0x24,0x00,0x00,0x00,0x0d,0x00,0x00,0x00,0x44,0x00,0x00,0x00,0x04,0x00,0x00,0x00,0xff,0xff,0xff,0xff,0x01,0x00,0x00,0x00,0x02,0x00,0x00,0x00,0x20,0x00,0x00,0x00,0xfc,0xfb,0xff,0xff,0x21,0x00,0x00,0x00,0x73,0x65,0x71,0x75,0x65,0x6e,0x74,0x69,0x61,0x6c,0x5f,0x31,0x2f,0x63,0x6f,0x6e,0x76,0x31,0x64,0x5f,0x31,0x2f,0x63,0x6f,0x6e,0x76,0x6f,0x6c,0x75,0x74,0x69,0x6f,0x6e,0x00,0x00,0x00,0x04,0x00,0x00,0x00,0x01,0x00,0x00,0x00,0x01,0x00,0x00,0x00,0x02,0x00,0x00,0x00,0x20,0x00,0x00,0x00,0xda,0xfc,0xff,0xff,0x00,0x00,0x00,0x01,0x14,0x00,0x00,0x00,0x24,0x00,0x00,0x00,0x24,0x00,0x00,0x00,0x0c,0x00,0x00,0x00,0x50,0x00,0x00,0x00,0x04,0x00,0x00,0x00,0xff,0xff,0xff,0xff,0x01,0x00,0x00,0x00,0x03,0x00,0x00,0x00,0x01,0x00,0x00,0x00,0x6c,0xfc,0xff,0xff,0x2c,0x00,0x00,0x00,0x73,0x65,0x71,0x75,0x65,0x6e,0x74,0x69,0x61,0x6c,0x5f,0x31,0x2f,0x63,0x6f,0x6e,0x76,0x31,0x64,0x5f,0x31,0x2f,0x63,0x6f,0x6e,0x76,0x6f,0x6c,0x75,0x74,0x69,0x6f,0x6e,0x2f,0x45,0x78,0x70,0x61,0x6e,0x64,0x44,0x69,0x6d,0x73,0x00,0x00,0x00,0x00,0x04,0x00,0x00,0x00,0x01,0x00,0x00,0x00,0x01,0x00,0x00,0x00,0x03,0x00,0x00,0x00,0x01,0x00,0x00,0x00,0xaa,0xfd,0xff,0xff,0x00,0x00,0x00,0x01,0x14,0x00,0x00,0x00,0x14,0x00,0x00,0x00,0x0b,0x00,0x00,0x00,0x00,0x00,0x00,0x02,0x40,0x00,0x00,0x00,0xd4,0xfc,0xff,0xff,0x30,0x00,0x00,0x00,0x73,0x65,0x71,0x75,0x65,0x6e,0x74,0x69,0x61,0x6c,0x5f,0x31,0x2f,0x63,0x6f,0x6e,0x76,0x31,0x64,0x5f,0x31,0x2f,0x63,0x6f,0x6e,0x76,0x6f,0x6c,0x75,0x74,0x69,0x6f,0x6e,0x2f,0x45,0x78,0x70,0x61,0x6e,0x64,0x44,0x69,0x6d,0x73,0x2f,0x64,0x69,0x6d,0x00,0x00,0x00,0x00,0x00,0x00,0x00,0x00,0x06,0xfe,0xff,0xff,0x00,0x00,0x00,0x01,0x14,0x00,0x00,0x00,0x14,0x00,0x00,0x00,0x0a,0x00,0x00,0x00,0x00,0x00,0x00,0x02,0x1c,0x00,0x00,0x00,0x30,0xfd,0xff,0xff,0x0f,0x00,0x00,0x00,0x61,0x72,0x69,0x74,0x68,0x2e,0x63,0x6f,0x6e,0x73,0x74,0x61,0x6e,0x74,0x38,0x00,0x01,0x00,0x00,0x00,0x02,0x00,0x00,0x00,0x9e,0xfe,0xff,0xff,0x00,0x00,0x00,0x01,0x10,0x00,0x00,0x00,0x10,0x00,0x00,0x00,0x09,0x00,0x00,0x00,0x1c,0x00,0x00,0x00,0x68,0xfd,0xff,0xff,0x0f,0x00,0x00,0x00,0x61,0x72,0x69,0x74,0x68,0x2e,0x63,0x6f,0x6e,0x73,0x74,0x61,0x6e,0x74,0x37,0x00,0x01,0x00,0x00,0x00,0x02,0x00,0x00,0x00,0xd6,0xfe,0xff,0xff,0x00,0x00,0x00,0x01,0x10,0x00,0x00,0x00,0x10,0x00,0x00,0x00,0x08,0x00,0x00,0x00,0x1c,0x00,0x00,0x00,0xa0,0xfd,0xff,0xff,0x0f,0x00,0x00,0x00,0x61,0x72,0x69,0x74,0x68,0x2e,0x63,0x6f,0x6e,0x73,0x74,0x61,0x6e,0x74,0x36,0x00,0x01,0x00,0x00,0x00,0x20,0x00,0x00,0x00,0x0e,0xff,0xff,0xff,0x00,0x00,0x00,0x01,0x10,0x00,0x00,0x00,0x10,0x00,0x00,0x00,0x07,0x00,0x00,0x00,0x1c,0x00,0x00,0x00,0xd8,0xfd,0xff,0xff,0x0f,0x00,0x00,0x00,0x61,0x72,0x69,0x74,0x68,0x2e,0x63,0x6f,0x6e,0x73,0x74,0x61,0x6e,0x74,0x35,0x00,0x03,0x00,0x00,0x00,0x01,0x00,0x00,0x00,0x01,0x00,0x00,0x00,0x20,0x00,0x00,0x00,0x4e,0xff,0xff,0xff,0x00,0x00,0x00,0x01,0x10,0x00,0x00,0x00,0x10,0x00,0x00,0x00,0x06,0x00,0x00,0x00,0x1c,0x00,0x00,0x00,0x18,0xfe,0xff,0xff,0x0f,0x00,0x00,0x00,0x61,0x72,0x69,0x74,0x68,0x2e,0x63,0x6f,0x6e,0x73,0x74,0x61,0x6e,0x74,0x34,0x00,0x02,0x00,0x00,0x00,0x20,0x00,0x00,0x00,0x40,0x00,0x00,0x00,0x8a,0xff,0xff,0xff,0x00,0x00,0x00,0x01,0x10,0x00,0x00,0x00,0x10,0x00,0x00,0x00,0x05,0x00,0x00,0x00,0x1c,0x00,0x00,0x00,0x54,0xfe,0xff,0xff,0x0f,0x00,0x00,0x00,0x61,0x72,0x69,0x74,0x68,0x2e,0x63,0x6f,0x6e,0x73,0x74,0x61,0x6e,0x74,0x33,0x00,0x02,0x00,0x00,0x00,0x02,0x00,0x00,0x00,0x20,0x00,0x00,0x00,0xc6,0xff,0xff,0xff,0x00,0x00,0x00,0x01,0x10,0x00,0x00,0x00,0x10,0x00,0x00,0x00,0x04,0x00,0x00,0x00,0x1c,0x00,0x00,0x00,0x90,0xfe,0xff,0xff,0x0f,0x00,0x00,0x00,0x61,0x72,0x69,0x74,0x68,0x2e,0x63,0x6f,0x6e,0x73,0x74,0x61,0x6e,0x74,0x32,0x00,0x01,0x00,0x00,0x00,0x20,0x00,0x00,0x00,0x00,0x00,0x16,0x00,0x18,0x00,0x14,0x00,0x00,0x00,0x10,0x00,0x0c,0x00,0x08,0x00,0x00,0x00,0x00,0x00,0x00,0x00,0x07,0x00,0x16,0x00,0x00,0x00,0x00,0x00,0x00,0x01,0x10,0x00,0x00,0x00,0x10,0x00,0x00,0x00,0x03,0x00,0x00,0x00,0x1c,0x00,0x00,0x00,0xe0,0xfe,0xff,0xff,0x0f,0x00,0x00,0x00,0x61,0x72,0x69,0x74,0x68,0x2e,0x63,0x6f,0x6e,0x73,0x74,0x61,0x6e,0x74,0x31,0x00,0x04,0x00,0x00,0x00,0x20,0x00,0x00,0x00,0x01,0x00,0x00,0x00,0x02,0x00,0x00,0x00,0x01,0x00,0x00,0x00,0x00,0x00,0x16,0x00,0x1c,0x00,0x18,0x00,0x17,0x00,0x10,0x00,0x0c,0x00,0x08,0x00,0x00,0x00,0x00,0x00,0x00,0x00,0x07,0x00,0x16,0x00,0x00,0x00,0x00,0x00,0x00,0x01,0x14,0x00,0x00,0x00,0x14,0x00,0x00,0x00,0x02,0x00,0x00,0x00,0x00,0x00,0x00,0x02,0x1c,0x00,0x00,0x00,0x40,0xff,0xff,0xff,0x0e,0x00,0x00,0x00,0x61,0x72,0x69,0x74,0x68,0x2e,0x63,0x6f,0x6e,0x73,0x74,0x61,0x6e,0x74,0x00,0x00,0x01,0x00,0x00,0x00,0x03,0x00,0x00,0x00,0x00,0x00,0x16,0x00,0x1c,0x00,0x18,0x00,0x00,0x00,0x14,0x00,0x10,0x00,0x0c,0x00,0x00,0x00,0x00,0x00,0x08,0x00,0x07,0x00,0x16,0x00,0x00,0x00,0x00,0x00,0x00,0x01,0x14,0x00,0x00,0x00,0x20,0x00,0x00,0x00,0x20,0x00,0x00,0x00,0x01,0x00,0x00,0x00,0x3c,0x00,0x00,0x00,0x03,0x00,0x00,0x00,0xff,0xff,0xff,0xff,0x03,0x00,0x00,0x00,0x01,0x00,0x00,0x00,0xa4,0xff,0xff,0xff,0x1e,0x00,0x00,0x00,0x73,0x65,0x72,0x76,0x69,0x6e,0x67,0x5f,0x64,0x65,0x66,0x61,0x75,0x6c,0x74,0x5f,0x6b,0x65,0x72,0x61,0x73,0x5f,0x74,0x65,0x6e,0x73,0x6f,0x72,0x3a,0x30,0x00,0x00,0x03,0x00,0x00,0x00,0x01,0x00,0x00,0x00,0x03,0x00,0x00,0x00,0x01,0x00,0x00,0x00,0x05,0x00,0x00,0x00,0x4c,0x00,0x00,0x00,0x30,0x00,0x00,0x00,0x20,0x00,0x00,0x00,0x18,0x00,0x00,0x00,0x04,0x00,0x00,0x00,0xd4,0xff,0xff,0xff,0x09,0x00,0x00,0x00,0x00,0x00,0x00,0x09,0x04,0x00,0x04,0x00,0x04,0x00,0x00,0x00,0xe8,0xff,0xff,0xff,0x16,0x00,0x00,0x00,0x00,0x00,0x00,0x16,0xf4,0xff,0xff,0xff,0x03,0x00,0x00,0x00,0x00,0x00,0x00,0x03,0x0c,0x00,0x0c,0x00,0x0b,0x00,0x00,0x00,0x00,0x00,0x04,0x00,0x0c,0x00,0x00,0x00,0x46,0x00,0x00,0x00,0x00,0x00,0x00,0x46};
const int g_model_len = 12072;

const float scaler_i_mean[] = { 2.5, 266.79358974358973, 309.56004273504266 };
const float scaler_i_scale[] = { 1.2909944487358056, 133.12755355096166, 120.38504041075464 };
const float scaler_o_mean[] = { 3.0, 32.5 };
const float scaler_o_scale[] = { 1.8708286933869707, 5.5901699437494745 };
#endif  // MODEL_H
