
#ifndef MODEL_H
#define MODEL_H

// MSE(Pos, Temp): [0.00639383 0.16031106]


const unsigned char g_model[] = {0x1c,0x00,0x00,0x00,0x54,0x46,0x4c,0x33,0x14,0x00,0x20,0x00,0x1c,0x00,0x18,0x00,0x14,0x00,0x10,0x00,0x0c,0x00,0x00,0x00,0x08,0x00,0x04,0x00,0x14,0x00,0x00,0x00,0x1c,0x00,0x00,0x00,0x8c,0x00,0x00,0x00,0xe4,0x00,0x00,0x00,0x04,0x26,0x00,0x00,0x14,0x26,0x00,0x00,0x98,0x2e,0x00,0x00,0x03,0x00,0x00,0x00,0x01,0x00,0x00,0x00,0x04,0x00,0x00,0x00,0xd6,0xd8,0xff,0xff,0x0c,0x00,0x00,0x00,0x1c,0x00,0x00,0x00,0x3c,0x00,0x00,0x00,0x0f,0x00,0x00,0x00,0x73,0x65,0x72,0x76,0x69,0x6e,0x67,0x5f,0x64,0x65,0x66,0x61,0x75,0x6c,0x74,0x00,0x01,0x00,0x00,0x00,0x04,0x00,0x00,0x00,0x90,0xff,0xff,0xff,0x11,0x00,0x00,0x00,0x04,0x00,0x00,0x00,0x08,0x00,0x00,0x00,0x6f,0x75,0x74,0x70,0x75,0x74,0x5f,0x30,0x00,0x00,0x00,0x00,0x01,0x00,0x00,0x00,0x04,0x00,0x00,0x00,0x8a,0xda,0xff,0xff,0x04,0x00,0x00,0x00,0x0c,0x00,0x00,0x00,0x6b,0x65,0x72,0x61,0x73,0x5f,0x74,0x65,0x6e,0x73,0x6f,0x72,0x00,0x00,0x00,0x00,0x02,0x00,0x00,0x00,0x34,0x00,0x00,0x00,0x04,0x00,0x00,0x00,0xdc,0xff,0xff,0xff,0x14,0x00,0x00,0x00,0x04,0x00,0x00,0x00,0x13,0x00,0x00,0x00,0x43,0x4f,0x4e,0x56,0x45,0x52,0x53,0x49,0x4f,0x4e,0x5f,0x4d,0x45,0x54,0x41,0x44,0x41,0x54,0x41,0x00,0x08,0x00,0x0c,0x00,0x08,0x00,0x04,0x00,0x08,0x00,0x00,0x00,0x13,0x00,0x00,0x00,0x04,0x00,0x00,0x00,0x13,0x00,0x00,0x00,0x6d,0x69,0x6e,0x5f,0x72,0x75,0x6e,0x74,0x69,0x6d,0x65,0x5f,0x76,0x65,0x72,0x73,0x69,0x6f,0x6e,0x00,0x15,0x00,0x00,0x00,0x1c,0x25,0x00,0x00,0x14,0x25,0x00,0x00,0xf8,0x24,0x00,0x00,0xe0,0x23,0x00,0x00,0x50,0x23,0x00,0x00,0x40,0x22,0x00,0x00,0x30,0x02,0x00,0x00,0xa0,0x01,0x00,0x00,0x10,0x01,0x00,0x00,0xf8,0x00,0x00,0x00,0xe0,0x00,0x00,0x00,0xcc,0x00,0x00,0x00,0xc4,0x00,0x00,0x00,0xbc,0x00,0x00,0x00,0xb4,0x00,0x00,0x00,0xac,0x00,0x00,0x00,0xa4,0x00,0x00,0x00,0x9c,0x00,0x00,0x00,0x94,0x00,0x00,0x00,0x74,0x00,0x00,0x00,0x04,0x00,0x00,0x00,0x5a,0xdb,0xff,0xff,0x04,0x00,0x00,0x00,0x60,0x00,0x00,0x00,0x10,0x00,0x00,0x00,0x00,0x00,0x00,0x00,0x08,0x00,0x0e,0x00,0x08,0x00,0x04,0x00,0x08,0x00,0x00,0x00,0x10,0x00,0x00,0x00,0x24,0x00,0x00,0x00,0x00,0x00,0x06,0x00,0x08,0x00,0x04,0x00,0x06,0x00,0x00,0x00,0x04,0x00,0x00,0x00,0x00,0x00,0x00,0x00,0x0c,0x00,0x18,0x00,0x14,0x00,0x10,0x00,0x0c,0x00,0x04,0x00,0x0c,0x00,0x00,0x00,0x81,0xdb,0xf2,0xa3,0xbb,0xed,0x47,0x42,0x02,0x00,0x00,0x00,0x02,0x00,0x00,0x00,0x04,0x00,0x00,0x00,0x06,0x00,0x00,0x00,0x32,0x2e,0x31,0x37,0x2e,0x30,0x00,0x00,0xc6,0xdb,0xff,0xff,0x04,0x00,0x00,0x00,0x10,0x00,0x00,0x00,0x31,0x2e,0x31,0x30,0x2e,0x30,0x00,0x00,0x00,0x00,0x00,0x00,0x00,0x00,0x00,0x00,0xfc,0xd2,0xff,0xff,0x00,0xd3,0xff,0xff,0x04,0xd3,0xff,0xff,0x08,0xd3,0xff,0xff,0x0c,0xd3,0xff,0xff,0x10,0xd3,0xff,0xff,0x14,0xd3,0xff,0xff,0xfe,0xdb,0xff,0xff,0x04,0x00,0x00,0x00,0x04,0x00,0x00,0x00,0xfd,0xff,0xff,0xff,0x0e,0xdc,0xff,0xff,0x04,0x00,0x00,0x00,0x08,0x00,0x00,0x00,0xff,0xff,0xff,0xff,0x40,0x00,0x00,0x00,0x22,0xdc,0xff,0xff,0x04,0x00,0x00,0x00,0x08,0x00,0x00,0x00,0x87,0x75,0xb2,0x3c,0xb8,0x33,0x3d,0xbe,0x36,0xdc,0xff,0xff,0x04,0x00,0x00,0x00,0x80,0x00,0x00,0x00,0xce,0x04,0x2e,0xbe,0x5a,0x02,0x9e,0xbd,0x21,0x35,0x89,0x39,0x55,0x5c,0xc4,0xbc,0x3b,0xb2,0xb2,0xbe,0x5a,0x46,0xdd,0x3d,0xb6,0x2b,0x17,0x3d,0xed,0xc7,0x54,0xbd,0xbc,0x2e,0x91,0xbe,0xc8,0x17,0x34,0x3e,0xda,0x20,0xa3,0x3d,0x7e,0xc9,0xe9,0x3c,0xc2,0x19,0x01,0x3e,0xa0,0x5f,0xa4,0xbe,0x6b,0x92,0x71,0xbd,0x58,0x5c,0xea,0x3d,0xd3,0x1b,0x73,0xbd,0x59,0x3b,0xe8,0xbc,0x4b,0x28,0xb8,0xbe,0x6a,0x57,0x28,0x3e,0x72,0xbf,0xd2,0xbc,0xfa,0xe9,0x9d,0x3b,0xa8,0xc0,0xe4,0xbc,0xe4,0xfc,0x65,0x3e,0xdd,0x24,0x31,0x3c,0xe1,0x17,0x5e,0x3e,0xb5,0xf1,0x19,0xbd,0x38,0x3a,0x33,0x3d,0x11,0x08,0x81,0x3e,0x8b,0xd0,0x09,0xbd,0x73,0x96,0x49,0x3e,0xa4,0x94,0x00,0x3e,0xc2,0xdc,0xff,0xff,0x04,0x00,0x00,0x00,0x80,0x00,0x00,0x00,0x69,0xd0,0x9c,0x3e,0x2e,0xf8,0x9b,0xbe,0xf0,0x9b,0xb1,0xbc,0x12,0xca,0xea,0xbd,0x40,0x92,0xd4,0xbd,0xa5,0x0f,0xb0,0xbb,0x6c,0x7f,0xdf,0x3c,0x7a,0x52,0x9c,0x3e,0x37,0x5e,0x99,0x3e,0xaa,0x9c,0x22,0xbe,0x46,0x4f,0x95,0x3d,0x09,0xa4,0x23,0xbd,0x36,0x0f,0x56,0xbe,0x49,0xb2,0xad,0x3e,0x12,0x32,0x57,0x3e,0x70,0x71,0x73,0xbd,0x85,0x28,0x6a,0x3e,0xad,0x26,0xa6,0x3e,0x23,0x7f,0x4e,0xbd,0x6c,0x6e,0x75,0x3d,0xa5,0xe4,0x4d,0xbe,0xa4,0x2c,0x64,0xbc,0x1d,0xc0,0xba,0x3b,0xbb,0xb8,0x95,0x3e,0x2a,0xfd,0x6a,0x3e,0x6c,0x18,0x59,0x3e,0xe8,0x40,0xbc,0xbe,0xcd,0x16,0x48,0x3e,0x87,0xea,0x6f,0xbe,0x88,0x81,0xc5,0x3d,0x6e,0x07,0xb1,0x3b,0x8b,0xdd,0xf0,0x3d,0x4e,0xdd,0xff,0xff,0x04,0x00,0x00,0x00,0x00,0x20,0x00,0x00,0x5e,0x32,0x02,0xbf,0x1c,0x0c,0x0e,0x3e,0x43,0x7f,0xf8,0x3d,0xf6,0x13,0xc1,0x3e,0x79,0x8e,0xf4,0xbd,0x06,0x2e,0x19,0x3e,0x2f,0x50,0x63,0x3d,0x4a,0x56,0xc6,0xbe,0xae,0x77,0xc6,0xbe,0x6c,0xbc,0xa5,0x3d,0x92,0x85,0xcc,0x3e,0x57,0x3a,0x6a,0xbe,0xaa,0x6d,0xeb,0x3e,0xd4,0x37,0xc8,0x3e,0xe8,0x00,0x28,0x3d,0xfd,0x1b,0x8c,0x3e,0x63,0x07,0x82,0xbe,0x36,0x8b,0xa7,0xbb,0x24,0xdd,0x1f,0x3e,0x22,0x80,0xf0,0x3d,0xef,0x9f,0x57,0x3e,0x1b,0xdd,0xc0,0x3e,0xf0,0x41,0x38,0x3d,0xf6,0x4e,0x1e,0xbf,0x97,0xb4,0x18,0xbf,0x1f,0x0a,0x3f,0x3e,0x0c,0xa7,0xd7,0x3e,0xa4,0x94,0x51,0x3e,0xd2,0x70,0x12,0x3e,0x48,0xa5,0x04,0x3f,0x2e,0x18,0x49,0xbd,0x03,0xaf,0x96,0x3e,0x23,0x00,0x45,0xbd,0xd8,0x71,0x46,0x3f,0xbd,0xfd,0x54,0x3e,0xf9,0x75,0x8b,0xbb,0x80,0xc8,0xb1,0x3e,0x0f,0xd5,0xb2,0x3d,0x62,0xa3,0x2b,0x3d,0x26,0x97,0xb9,0x3d,0xc1,0x4f,0x9c,0x3d,0x5e,0x0d,0x53,0xbd,0x77,0x9c,0xb3,0xbd,0xa7,0xe7,0x02,0x3f,0x46,0xe0,0x25,0x3e,0x51,0x03,0x2a,0x3d,0x33,0xb1,0x29,0xbe,0x13,0x25,0x6a,0x3e,0x6d,0x41,0xfc,0x3d,0xba,0x35,0x00,0xbf,0xe7,0x2f,0xb5,0x3d,0xd0,0xc1,0x1a,0xbe,0xae,0x23,0x38,0x3e,0x18,0x04,0x04,0xbe,0xd7,0x2b,0x4c,0xbe,0xd2,0x96,0x07,0x3e,0x98,0x3c,0x8f,0x3e,0x5f,0x8f,0xc7,0x3d,0xf2,0x2d,0x44,0x3e,0x2b,0x4b,0xa8,0xbe,0x62,0xa7,0xd8,0x3d,0x49,0xc2,0x8a,0xbd,0xa6,0xf1,0xc6,0xbc,0x54,0x8f,0x51,0x3e,0x97,0x77,0xca,0xbd,0x08,0x65,0x79,0xbd,0x45,0x66,0x81,0x3e,0x53,0x3a,0x39,0x3d,0x63,0xfd,0xc0,0xbe,0xb9,0xa5,0x04,0xbe,0x11,0x95,0x80,0x3e,0x72,0xbd,0x53,0xbd,0x78,0x96,0x7f,0xbd,0xb9,0x03,0x55,0xbe,0x20,0xbf,0xc3,0x3e,0x92,0x31,0xde,0xbe,0x0b,0x86,0x94,0x3d,0xbb,0xc2,0x8f,0x3e,0x02,0x74,0xc9,0x3b,0xca,0xc2,0x98,0x3d,0x13,0x01,0x24,0xbe,0x77,0x35,0xac,0x3d,0x59,0x1d,0x0b,0x3e,0x27,0x35,0x17,0x3e,0x51,0x09,0x5a,0x3e,0xb8,0x59,0x96,0xbd,0x40,0x7a,0xf7,0x3e,0xdb,0x05,0x13,0xbd,0xb9,0xd6,0xd1,0xbe,0x4a,0xc2,0x76,0x3e,0x30,0x65,0x96,0x3e,0x0a,0xa9,0x4c,0x3e,0x1a,0x9d,0xbb,0x3b,0x6d,0x92,0x66,0x3e,0x60,0x02,0x75,0xbd,0x18,0x4a,0x9e,0x3e,0x52,0x3b,0xec,0xbe,0xda,0xfa,0x0a,0x3f,0x2d,0x2d,0x90,0x3e,0xdd,0x32,0xff,0xbb,0xde,0x65,0x0b,0xbe,0xc8,0x7a,0x36,0xbe,0x4e,0x23,0x8c,0xbc,0xa7,0x2b,0x07,0x3e,0xcb,0xcc,0x07,0xbf,0x3f,0x4c,0x86,0xbd,0xe3,0x3c,0x09,0x3f,0x33,0xdd,0x54,0x3e,0xd1,0x70,0x0d,0xbd,0x20,0x02,0x2f,0x3e,0xae,0x3e,0xb8,0x3d,0xca,0x7b,0x17,0x3e,0x20,0x88,0x3d,0xbe,0x5c,0x5b,0xc6,0x3e,0xa2,0x73,0xe2,0x3b,0xcb,0xa8,0x7c,0xbd,0x2d,0x26,0x91,0x3e,0xc7,0x26,0xec,0x3e,0x4c,0x29,0xa4,0xbd,0x99,0xca,0xde,0xbe,0xc3,0x22,0xa6,0xbe,0x21,0x37,0x11,0x3f,0xfd,0x34,0xd6,0x3e,0xcc,0x51,0xab,0x3e,0xce,0x21,0x73,0x3e,0xcd,0xbd,0x8e,0x3e,0xca,0xec,0xa4,0x3d,0x7a,0x47,0x6e,0xbe,0xbb,0x7c,0x7f,0xbe,0x4d,0xbb,0x5f,0xbd,0xe9,0x5e,0x88,0x3e,0x76,0x94,0x29,0x3e,0x43,0x91,0x55,0xbd,0xf5,0xcc,0xf9,0xbd,0xac,0xdc,0x38,0xbe,0xe8,0x2e,0x87,0xbe,0x90,0x2a,0x8c,0xbd,0x07,0xd9,0x1a,0x3e,0x22,0x7f,0xb8,0xbc,0x08,0x38,0x02,0x3e,0x78,0xe5,0xe6,0xbd,0xd1,0x75,0xfe,0x3d,0x78,0x43,0x20,0x3c,0x94,0xe7,0xc7,0x3d,0x30,0xf9,0x71,0xbe,0xe7,0xd1,0xa6,0xbd,0xda,0xb9,0xa0,0x3d,0x79,0x99,0x09,0x3e,0x29,0x59,0x69,0x3e,0x32,0x4b,0x6c,0x3e,0x5b,0xcb,0x95,0x3d,0x31,0xce,0x87,0xbe,0xd8,0x2b,0x57,0x3d,0x74,0x00,0x4b,0x3e,0x2b,0x32,0x13,0x3e,0xdc,0xec,0xc1,0x3d,0xfb,0x5c,0xb3,0x3e,0x49,0x02,0xa8,0x3e,0xfc,0x52,0x3c,0xbe,0x87,0xa1,0x17,0x3e,0x6f,0x31,0xbf,0x3e,0xb0,0x41,0xee,0x3e,0x09,0x0a,0x12,0xbe,0x54,0x6a,0xfb,0x3b,0x95,0xec,0x63,0x3e,0x7b,0x59,0xd3,0x3d,0x51,0xb6,0x28,0xbe,0x62,0x44,0x5b,0xbd,0x70,0x10,0xc7,0x3e,0xd3,0x0d,0xa8,0xbd,0xa9,0xef,0xa5,0xbd,0x1d,0x5f,0xd7,0x3e,0x83,0x17,0x9d,0xbe,0xfd,0x11,0x27,0x3e,0xce,0x48,0x3e,0xbe,0x34,0x74,0x05,0x3e,0x65,0xfe,0xd9,0x3e,0x42,0x75,0x3b,0xbf,0x5a,0x0f,0x92,0x3e,0x83,0xf4,0x50,0x3e,0xc1,0xb3,0x42,0xbe,0x7d,0x0a,0x24,0xbe,0x85,0x80,0x1e,0xbf,0x69,0x3b,0xce,0x3e,0xf1,0x6d,0xdb,0x3e,0x54,0x3f,0x5a,0xbe,0x9d,0xdc,0xc1,0xbe,0x1c,0x19,0x05,0xbf,0xca,0xec,0x42,0x3d,0xe5,0x47,0x02,0xbf,0x82,0xf2,0x58,0x3d,0xd0,0x5d,0x88,0x3e,0xb6,0x28,0x65,0x3e,0xd6,0x26,0xea,0xbe,0xe5,0x8e,0x25,0x3e,0x0f,0x47,0x85,0x3e,0x87,0xbe,0xe8,0xbe,0x93,0xc2,0x1c,0x3e,0xd3,0x3f,0xaa,0x3e,0xe4,0xa8,0x14,0x3d,0x94,0x60,0x4d,0xbe,0x44,0x59,0x7c,0xbe,0x94,0xc6,0x69,0xbc,0xbd,0x27,0x1b,0xbe,0x95,0xd6,0x84,0xbe,0x4f,0x1e,0x74,0x3e,0x20,0x57,0x3b,0x3e,0x41,0x5e,0xf0,0xbe,0x39,0x1f,0x93,0xbd,0xa6,0x53,0xb4,0x3c,0xd1,0xf6,0x03,0x3d,0xe6,0x64,0x6b,0x3e,0x65,0x47,0xd2,0xbd,0x9a,0x2a,0x3a,0xbe,0x57,0x64,0x25,0x3e,0x58,0xbe,0xae,0xbc,0x5a,0xa0,0x4a,0xbd,0xf4,0xbf,0x80,0x3e,0xea,0x71,0x94,0xbe,0xc1,0xd6,0x6a,0xbc,0x79,0x06,0xc0,0xbd,0x27,0x6c,0x14,0xbe,0x38,0x9e,0x83,0x3e,0x83,0x78,0xc4,0x3c,0x51,0xd9,0x2c,0xbc,0x5c,0xa3,0xfa,0xbd,0x2e,0xe7,0x29,0x3e,0xdc,0xb3,0x2a,0xbe,0x93,0x36,0xa5,0xbe,0xed,0x51,0xb0,0x3c,0x2d,0x5a,0x5c,0xbe,0xb8,0xbf,0x3a,0x3e,0x0a,0x87,0x9b,0xbe,0x81,0xf4,0xc8,0x3e,0xd1,0xf9,0xfe,0x3e,0xbc,0x97,0x04,0xbe,0x05,0x8b,0xca,0x3d,0x4e,0x15,0x6b,0x3d,0x54,0x8a,0x89,0x3e,0xc7,0x20,0xfe,0x3c,0x45,0xa3,0xc8,0xbe,0x64,0x29,0x06,0x3f,0xe5,0xca,0xe9,0xbd,0xa6,0x70,0x76,0xbd,0xbe,0x53,0x65,0x3e,0xa5,0x76,0x1c,0x3e,0x84,0x54,0xdf,0x3e,0xbb,0xf3,0x3e,0xbe,0xbc,0x10,0x05,0xbf,0x29,0xf2,0xad,0x3d,0xa1,0x84,0x83,0xbd,0xc6,0x4c,0x0e,0x3f,0x1c,0x3b,0x6d,0x3e,0x25,0xd9,0x03,0x3f,0x8d,0x42,0x9a,0xbe,0x6a,0xb5,0xb1,0xbe,0x95,0x2f,0x05,0xbf,0xff,0x5a,0x6b,0x3e,0x80,0xd7,0x01,0x3f,0xd1,0x9d,0xde,0x3e,0x1d,0x37,0x9a,0x3c,0x34,0xb1,0x60,0x3d,0x1b,0x61,0x16,0x3e,0x12,0x5a,0xeb,0xbe,0xd9,0x9c,0x04,0xbf,0xd3,0x9c,0xc9,0x3e,0x0c,0x27,0x3b,0xbe,0x7f,0x34,0x9d,0x3a,0x9a,0x2c,0x03,0x3f,0x6d,0xd6,0x95,0xbd,0xf2,0xff,0xa8,0x3e,0x36,0xd0,0x98,0x3e,0x72,0xf2,0x02,0xbe,0x67,0xf3,0xe7,0xbd,0xe9,0x46,0xe0,0x3e,0xf6,0x4e,0x67,0x3e,0xfc,0x35,0xd5,0x3d,0x63,0xe0,0x88,0x3e,0x14,0x47,0x15,0x3e,0x59,0x42,0x87,0xbe,0x62,0x9f,0x04,0xbf,0xea,0x3b,0x89,0xbe,0xb6,0xf7,0x1e,0x3f,0x3c,0x69,0xb4,0xbd,0x38,0xaf,0xeb,0x3e,0xbd,0x5d,0xc3,0x3e,0x12,0x9b,0x37,0x3d,0xf3,0xf6,0x92,0xbb,0x94,0x0d,0x9f,0xbd,0x2a,0x54,0x28,0x3f,0x81,0xf6,0x89,0xbd,0xb3,0xa1,0x9a,0xbc,0x07,0x80,0xf6,0x3e,0xcf,0x0b,0xba,0x3e,0x88,0x0d,0x3f,0x3e,0x06,0x8c,0xd7,0xbd,0xea,0x0a,0xaa,0xbd,0x55,0xba,0xc4,0x3e,0xfc,0xcb,0xdf,0xbe,0xf1,0x7b,0xc3,0x3e,0x68,0xfe,0x35,0x3e,0xd4,0x10,0x15,0xbe,0x36,0xc1,0x9f,0xbe,0x56,0x08,0x8c,0x3d,0x64,0xdb,0x7a,0x3e,0x34,0xe4,0x73,0xbf,0x37,0x58,0xb3,0x3c,0xe8,0x5b,0x7f,0xbd,0xb4,0x7e,0x30,0x3e,0xc8,0x29,0x12,0xbd,0xb6,0x1a,0x47,0xbe,0x7e,0xab,0xa9,0x3c,0x05,0x6b,0x46,0xbd,0x9f,0xcc,0xde,0x3c,0x68,0x1b,0x71,0x3e,0x90,0x34,0x88,0xbf,0x7c,0x7a,0x55,0x3e,0xac,0x19,0x2c,0xbe,0x03,0xa5,0xa1,0x3e,0xf8,0x00,0x60,0x3e,0x28,0xf8,0x16,0x3c,0x79,0x9b,0x4c,0xbe,0x60,0xcb,0x8e,0xbe,0x3d,0x9a,0x9a,0xbe,0x8d,0x84,0x74,0x3d,0x35,0xa6,0x33,0xbe,0xf1,0x3b,0xf0,0x3d,0xb2,0x19,0xa3,0xbc,0xd9,0xce,0xb1,0x3d,0xf4,0xec,0x7d,0xbe,0xad,0x95,0x23,0xbe,0x5f,0x51,0xb9,0xbd,0x10,0xe0,0x80,0x3d,0x1e,0x51,0xd1,0xbe,0xc2,0xc5,0xb3,0x3d,0x41,0x05,0xad,0x3d,0xec,0x40,0x90,0x3e,0x9b,0x64,0xb5,0xbd,0x1b,0x9e,0xc9,0xbd,0xae,0x89,0x84,0xbe,0xa0,0xa4,0x98,0xbe,0x8a,0x49,0xfb,0xbe,0x79,0x35,0x4e,0xbe,0xb5,0x07,0x33,0xbc,0xf5,0x18,0xcf,0xbc,0x9c,0xa4,0xd0,0x3c,0x18,0x08,0x9e,0xbe,0x61,0x48,0x80,0xbe,0xfc,0xd7,0xf1,0xbe,0xa8,0x85,0x06,0x3e,0x6b,0x85,0x03,0xbe,0xe1,0x6c,0x75,0x3c,0x3e,0xab,0x68,0x3e,0x7f,0x90,0x08,0xbf,0xfa,0x0b,0xa3,0xbe,0x63,0x7d,0x6b,0x3e,0x19,0xe5,0x28,0xbe,0x65,0x34,0x9e,0x3d,0x91,0xeb,0x80,0xbd,0x21,0x7a,0xa0,0x3e,0x47,0x17,0x1e,0x3e,0xe4,0xf9,0xbb,0x3d,0xa5,0x27,0x96,0xbf,0xe2,0x77,0xb6,0xbe,0xc0,0x1d,0xfe,0x3c,0x35,0xa9,0x1c,0xbe,0x12,0x84,0x8e,0x3e,0x49,0x36,0xb2,0xbd,0xba,0xe0,0x8b,0x3d,0xbe,0x53,0x14,0x3e,0x73,0x04,0x8c,0x3e,0x70,0x26,0xb0,0x3d,0x78,0x85,0x5e,0xbe,0xc8,0xe4,0xb3,0xbd,0xf8,0x7a,0x64,0xbf,0x3d,0x54,0xaf,0x3e,0x0d,0x80,0xd0,0x3e,0x50,0x2b,0xa2,0xbe,0xef,0x38,0xcf,0x3e,0x08,0x98,0x20,0x3e,0xb3,0xf8,0xce,0xbc,0xb9,0x3b,0x8b,0x3e,0xff,0x6c,0xcf,0x3e,0xf6,0x7a,0x84,0x3e,0x23,0x2c,0x8b,0xbd,0xdb,0x70,0xf1,0xbe,0x68,0x2d,0x5a,0xbe,0x83,0x31,0xf6,0xbd,0x4e,0x99,0x81,0xbe,0x54,0xd3,0xcb,0xbd,0xc6,0x85,0x92,0xbd,0x72,0x84,0x13,0x3e,0x1d,0xca,0x02,0xbe,0x17,0x99,0xb0,0xbe,0xc4,0xcb,0x41,0xbe,0x13,0xdd,0xa0,0xbe,0x2d,0xbc,0xbf,0xbd,0x93,0xc5,0x14,0x3e,0x69,0x3e,0x7b,0x3e,0xd7,0xfa,0xf8,0x3c,0x8f,0x51,0xdc,0xbd,0x41,0x02,0xe5,0xbd,0x2a,0xe6,0x08,0x3d,0xfa,0x7d,0x69,0xbd,0xc5,0x9e,0x9f,0xbe,0xbd,0x66,0xac,0xbe,0xf9,0x0e,0x8a,0xbe,0x14,0x64,0x5e,0xbd,0x1d,0x0c,0x76,0xbe,0xfe,0xf5,0x39,0x3d,0x1d,0x46,0xe3,0x3d,0xd5,0xff,0x22,0x3e,0xa2,0x5e,0x4b,0xbc,0x9c,0x45,0xab,0x3d,0x68,0x43,0x14,0x3d,0x0b,0xca,0x5a,0x3e,0xf1,0xea,0x16,0xbe,0xec,0x10,0x7e,0x3e,0x86,0x83,0x09,0x3f,0x2d,0xb2,0x13,0x3e,0x0b,0x9b,0x0f,0xbe,0x81,0xd9,0x52,0x3d,0x4f,0x95,0x18,0x3d,0x50,0x2b,0x24,0x3e,0x7f,0x87,0x17,0xbf,0xf8,0xa9,0x0d,0xbe,0x7c,0x5e,0x22,0x3f,0xda,0xec,0x1f,0xbe,0x68,0xbb,0x58,0x3d,0xe8,0x3a,0x3b,0x3d,0x20,0xe2,0x4b,0x3d,0x48,0x72,0x49,0x3e,0x8d,0x89,0x5e,0xbf,0x28,0xef,0xe3,0x3e,0x42,0xf1,0x29,0x3b,0xb1,0x37,0x6b,0x3e,0xa4,0xa9,0x8b,0xbe,0xfc,0x8f,0x0b,0x3f,0x47,0x66,0xe7,0x3d,0x49,0x3d,0x1f,0xbf,0x36,0x38,0x2d,0xbf,0x9a,0x72,0x1b,0x3f,0xe5,0x21,0xda,0xbd,0xd1,0xc5,0x4f,0x3f,0x46,0x16,0xa6,0xbd,0x75,0xbd,0x59,0x3e,0xb5,0xc2,0x1c,0xbd,0x7c,0x91,0x60,0xbd,0xb2,0x1d,0x0b,0x3e,0x20,0xce,0xbe,0xbe,0xf2,0xab,0x5e,0x3e,0x8d,0x4e,0xaf,0x3e,0xac,0xb7,0x08,0xbf,0x58,0x48,0x9a,0x3e,0x91,0x43,0xcc,0xbd,0xa1,0x02,0xba,0x3d,0x4c,0x2f,0xbd,0xbe,0x36,0xb8,0x5f,0xbd,0xb1,0xd5,0x86,0x3d,0x48,0xb4,0x64,0x3d,0xc9,0x5a,0x9d,0xbe,0x59,0xda,0xba,0x3d,0x68,0x36,0xc2,0x3e,0xba,0x46,0x81,0xbe,0x4c,0xe2,0x48,0xbe,0x7f,0xe0,0x49,0x3e,0x3b,0xb2,0x7e,0x3e,0xb9,0x18,0xa4,0x3e,0xa3,0x6c,0x13,0xbe,0xe5,0x6b,0x91,0x3d,0x45,0x19,0xdd,0x3e,0xba,0xd3,0x1c,0xbe,0x8d,0x85,0x6f,0xbe,0xf2,0x6c,0xd3,0x3e,0x26,0xd0,0x26,0x3e,0x82,0xf3,0xdf,0x3d,0xe6,0x9b,0x66,0xbb,0x7e,0x6a,0xa9,0xbd,0x34,0x3b,0x87,0x3d,0x12,0x24,0x18,0xbe,0xc1,0x07,0x35,0xbd,0xe7,0x33,0xe9,0x3d,0x99,0x81,0xdf,0x3d,0x1d,0xcb,0xd0,0x3d,0xed,0x5d,0x43,0xbe,0xd1,0xc9,0xd9,0x3d,0xe8,0xfd,0x0b,0xbe,0x0f,0xa7,0x77,0xbe,0x72,0x4d,0xfc,0xbe,0xae,0xcb,0xb7,0x3e,0x33,0xad,0xd3,0x3e,0x26,0xfc,0x2a,0x3e,0x98,0xf7,0x0a,0xbd,0x0a,0xdb,0xa8,0x3d,0x53,0x3e,0x9d,0x3e,0xb1,0x81,0xab,0x3b,0xe9,0xc8,0x72,0xbe,0x6a,0xaa,0xb6,0x3e,0xe2,0x1b,0xa4,0xbd,0x07,0x80,0x12,0xbd,0x8f,0x6a,0xcc,0xbd,0xbc,0xb6,0x83,0x3e,0xc9,0xc2,0xc3,0x3e,0x61,0x50,0x0e,0xbf,0x14,0x1a,0xa4,0xbe,0x33,0x4e,0xdc,0x3e,0x74,0x26,0xa8,0x3c,0x09,0x27,0xfd,0x3e,0xf2,0xba,0xa0,0x3d,0x93,0xd6,0x86,0x3e,0x3d,0x49,0xa9,0xbe,0xa7,0x0e,0x98,0x3d,0x81,0xf1,0xca,0xbe,0xb9,0x89,0xe5,0x3e,0x35,0x48,0x4c,0x3e,0x77,0x55,0x9d,0xbd,0x7c,0x43,0x5c,0x3d,0x47,0xbd,0xed,0x3d,0x4f,0x0d,0x40,0x3e,0xb6,0x77,0x04,0xbf,0x28,0x56,0xdf,0xbe,0xcb,0x12,0xcd,0x3e,0xa8,0x17,0xad,0xbe,0x82,0x88,0xe1,0xbd,0xd3,0x7f,0x06,0x3f,0x2d,0x32,0x83,0x3e,0xb5,0x0f,0x69,0xbe,0x2d,0x96,0xa0,0x3e,0x84,0xef,0x6e,0xbe,0xfa,0xd1,0x06,0xbe,0x85,0x2c,0xa3,0xbd,0x54,0x1f,0x1e,0x3e,0xac,0x3f,0x72,0x3e,0xab,0x64,0xa3,0x3e,0x7c,0x74,0x56,0xbe,0xc8,0xb9,0xdd,0xbe,0xbd,0xfc,0xa9,0xbe,0x80,0x41,0xe8,0xbd,0xcc,0x0f,0xe8,0x3e,0xee,0x85,0x71,0xbd,0xb3,0x47,0xfa,0x3e,0xac,0x09,0xb4,0x3e,0x73,0x8b,0x25,0x3e,0x1f,0x36,0xba,0xbd,0xcc,0xa6,0xb3,0x3d,0xc0,0xee,0x20,0x3f,0xb9,0xe0,0xe3,0x3d,0x7e,0xc8,0x28,0x3d,0x1e,0x67,0xff,0x3e,0x81,0x4c,0xa4,0x3e,0x06,0xf3,0xc0,0x3d,0xb7,0xe8,0x32,0xbe,0xeb,0xa6,0xc7,0x3d,0x07,0x2d,0xa6,0x3c,0x23,0x7e,0xb2,0xbe,0xc9,0x2a,0xcd,0x3e,0xef,0x30,0xcb,0xbd,0xe2,0x50,0xe9,0xbd,0x82,0x83,0x07,0xbf,0x89,0x9f,0x8a,0x3e,0xd1,0x66,0x53,0x3e,0xe5,0xb4,0x4b,0xbf,0x9a,0xa3,0x02,0x3d,0xaf,0x94,0x69,0x3e,0x7a,0x7e,0x52,0x3e,0x97,0xae,0x60,0x3e,0xc1,0x58,0xb0,0x3c,0x23,0x3f,0x08,0x3d,0xda,0x3d,0x30,0x3e,0x61,0x96,0x07,0xbe,0xbf,0x99,0x54,0x3e,0x34,0xe1,0x2b,0xbf,0x7a,0x57,0x83,0x3e,0x77,0x75,0x0a,0xbe,0x33,0x94,0x1f,0x3e,0xc0,0x89,0x0a,0x3e,0x66,0x65,0xc5,0x3e,0x77,0x4d,0x22,0x3e,0xb3,0x0e,0xb9,0xbe,0x15,0xb2,0xae,0x3e,0xc6,0x14,0xc3,0x3d,0xa2,0x17,0x39,0xbe,0x55,0xe4,0x4a,0xbe,0x47,0x11,0x07,0x3f,0x67,0x35,0xa2,0x3e,0x6f,0x16,0x4f,0x3e,0x23,0x7f,0x07,0x3d,0x55,0x15,0x37,0x3e,0xe9,0xbb,0x08,0x3e,0xb5,0x1c,0x06,0xbf,0x2d,0xf3,0x2d,0xbe,0x9b,0x8e,0x3f,0x3e,0x09,0xa4,0xed,0x3e,0x64,0x4d,0x6b,0xbd,0x3f,0xf3,0x3b,0xbc,0x2b,0x92,0x8b,0xbe,0x4d,0xf3,0x53,0xbd,0x77,0x55,0x7e,0xbe,0xae,0x23,0x51,0x3d,0xdc,0x40,0x5c,0x3e,0xeb,0xe6,0x66,0x3e,0x13,0x24,0x10,0xbd,0x1b,0xe0,0xc8,0xbd,0x82,0x64,0x68,0xbd,0x3d,0x20,0xc0,0xbe,0xee,0x69,0x45,0xbe,0x4c,0x20,0xa4,0xba,0x93,0x5d,0xdb,0xbe,0x16,0x7e,0x85,0x3e,0x81,0x5d,0x18,0xbf,0xb7,0x00,0x93,0xbe,0xbd,0x24,0x6a,0xbf,0x30,0xae,0x8b,0xbe,0xf8,0x1e,0x7a,0x3d,0xf2,0x49,0xb5,0xbe,0x4e,0xda,0xf8,0x3d,0x67,0x95,0x2a,0x3c,0x8c,0x38,0x17,0xbd,0xa0,0x35,0xb0,0xbd,0x75,0x21,0x43,0xbe,0x05,0x70,0x4d,0x3d,0xfe,0x3b,0x9b,0xbf,0x04,0xee,0xae,0x3c,0xd8,0x1d,0x00,0xbe,0x02,0x14,0x55,0xbe,0x06,0xe8,0xfe,0x3e,0xa1,0x8f,0x18,0x3f,0xe4,0x03,0xbc,0x3d,0x38,0xb4,0xeb,0xbd,0x61,0xbc,0xdb,0xbe,0x3a,0xb3,0xa3,0x3c,0xdb,0x44,0x7f,0x3e,0xbf,0xd7,0xf9,0xbd,0xe4,0x4b,0x17,0x3d,0xc9,0xc5,0x5d,0xbe,0x0a,0xc3,0xe7,0x3e,0xce,0x26,0xc0,0xbe,0x44,0x53,0xc6,0x3d,0x19,0xad,0x56,0x3e,0x08,0xd3,0x18,0xbf,0xdf,0xe0,0x42,0x3c,0x9c,0x70,0x71,0xbf,0xff,0x7f,0xa5,0x3d,0x3b,0xda,0x81,0x3e,0x74,0x84,0xde,0xbe,0x1e,0x73,0x9f,0xbd,0x3c,0x3b,0x21,0x3e,0xb8,0x41,0x8a,0x3e,0x8c,0x13,0x82,0x3e,0xfc,0x8e,0x1e,0xbf,0x7e,0xb0,0x16,0xbe,0xef,0x0b,0xea,0xbd,0xf5,0x18,0xf9,0xbe,0xde,0x28,0x75,0x3e,0x0f,0xab,0xed,0x3e,0xc0,0x41,0xd3,0xbe,0x45,0x7f,0x90,0x3e,0x96,0x6c,0xab,0x3e,0xe7,0x69,0x81,0x3e,0x01,0xa6,0x91,0x3e,0xc9,0x8c,0xa3,0xbe,0x90,0xf9,0x3a,0xbd,0xf8,0xb6,0xc0,0xbd,0x17,0xc4,0x16,0x3e,0xca,0x7d,0xdd,0x3d,0xbb,0xfa,0xc6,0xbd,0x71,0x5a,0xfd,0xbe,0x67,0xb6,0xc9,0x3e,0x63,0x3b,0xff,0xbe,0xf2,0x42,0x0f,0x3e,0xb7,0x80,0xa2,0x3e,0xd8,0x07,0x47,0x3d,0x0b,0x07,0xa1,0x3d,0x7e,0xab,0x90,0xbf,0x0d,0x7c,0xce,0x3e,0xbd,0x57,0x65,0xbe,0xe2,0xea,0xbd,0xbe,0x58,0x15,0x68,0xbd,0x14,0x61,0x6a,0xbe,0x98,0xec,0x38,0xbe,0xcf,0x4d,0x3d,0xbe,0xd4,0xc8,0x5c,0x3e,0x9a,0x97,0x55,0x3f,0x49,0x45,0x4c,0xbe,0x92,0x2e,0x63,0x3d,0xd2,0x06,0x07,0x3e,0x2a,0xde,0x03,0x3f,0x56,0xb0,0x8f,0x3e,0xb1,0x50,0x05,0xbf,0x5b,0x26,0xff,0x3e,0x1e,0x84,0xae,0x3d,0xba,0x99,0xdb,0x3c,0x88,0xb8,0xb3,0xbe,0x0d,0xa4,0x89,0x3e,0x37,0xdf,0x32,0x3e,0x10,0x36,0x47,0xbe,0xe8,0xf2,0x21,0xbf,0xfd,0xbb,0x9c,0x3e,0xa5,0xa0,0x59,0xbe,0xc2,0x58,0x73,0x3f,0xd7,0xd6,0xcd,0xbe,0x04,0x5a,0x93,0x3e,0x4f,0x09,0xf4,0x3c,0x70,0x27,0x89,0x3c,0xae,0x5c,0xa3,0x3d,0xdd,0x73,0x87,0x3e,0xaf,0x04,0x2e,0xbf,0x02,0x37,0x2e,0x3e,0x51,0x90,0x94,0xbc,0x18,0x0c,0x3b,0x3d,0x5b,0x37,0x05,0xbe,0x17,0xcf,0x8f,0x3d,0xf5,0x12,0x2a,0x3e,0x9b,0xd6,0x78,0xbd,0xe6,0x9d,0x97,0xbf,0x5e,0x6d,0x83,0x3e,0x65,0x5e,0xfc,0xbc,0x93,0xd6,0xbd,0xbe,0x1c,0x99,0x6c,0xbd,0x5c,0xa1,0xe1,0xbd,0x5a,0x58,0xe2,0x3e,0xd0,0x4f,0xdf,0xbe,0xe7,0x21,0xbe,0x3d,0x87,0x36,0x8a,0xbe,0xcc,0x2e,0xe5,0x3d,0x90,0xb9,0x66,0xbf,0xb2,0x24,0x43,0xbf,0x4b,0x67,0x40,0x3e,0x1d,0x9a,0xa0,0x3d,0xdc,0x22,0x80,0xbf,0x4c,0xab,0xfd,0x3d,0xe9,0x6a,0xf0,0xbe,0x69,0x57,0x79,0xbe,0x52,0x59,0x0d,0xbe,0x9d,0xd6,0x13,0xbd,0x3a,0xe0,0xb0,0x3e,0xf2,0xb1,0x86,0xbe,0x51,0xc6,0xf9,0xbe,0xd9,0x59,0x53,0x3e,0x7a,0x02,0xea,0xbc,0x87,0xfc,0x9f,0xbe,0xf8,0xf1,0x44,0xbe,0x4c,0xd2,0x1f,0x3e,0x58,0xfa,0xb5,0x3d,0x64,0xfb,0x9b,0xbe,0x99,0xff,0xa2,0xbd,0x2d,0xb7,0xa8,0x3e,0x5e,0xfd,0xee,0x3d,0x7d,0x2f,0xf4,0x3d,0x61,0x62,0x9c,0x3d,0x15,0x6b,0x0f,0xbe,0xd7,0x61,0x92,0x3d,0x1f,0xe8,0xbb,0xbe,0x33,0xd0,0xa9,0x3e,0xc8,0xdb,0x15,0x3e,0x60,0x18,0x62,0x3e,0x8e,0x7d,0x17,0x3e,0x4a,0x34,0x03,0x3e,0x9d,0xc6,0x50,0x3d,0xe6,0x5f,0xf5,0xbe,0x6c,0x9c,0xe5,0xbe,0x34,0xe6,0x92,0x3d,0xe2,0x1b,0x05,0xbb,0x04,0x69,0x89,0x3e,0x4c,0x7f,0x61,0x3e,0x01,0x1c,0x51,0xbe,0x7f,0x3b,0xbb,0xbd,0xd5,0x8b,0x93,0xbd,0x99,0xee,0x23,0x3e,0xfe,0xa8,0x1c,0xbe,0x89,0x35,0xbf,0xbd,0x7c,0xdf,0x62,0xbe,0x70,0x7a,0x9b,0x3e,0x2d,0xe0,0x3d,0x3e,0xfb,0x69,0x07,0xbe,0x06,0xba,0x98,0xbc,0x5b,0xa6,0xf4,0x3e,0x6e,0xc7,0xae,0xbd,0xb7,0x41,0x9f,0xbd,0xc3,0x4d,0x48,0x3e,0xa7,0x3b,0xf7,0xbd,0x07,0x68,0xe3,0xbe,0x41,0x5e,0xa9,0xbe,0xf7,0x8f,0x2e,0x3d,0x1f,0x42,0x11,0x3f,0x81,0x2b,0xfa,0xbd,0xdd,0xb4,0x1d,0xbe,0xa8,0x4e,0xe1,0xba,0x08,0x56,0x24,0x3e,0x81,0xa3,0x9a,0xbe,0x10,0xbe,0x08,0x3d,0x18,0x0d,0xfb,0x3d,0xdb,0xb7,0x0e,0x3f,0x33,0x2f,0x59,0xbf,0xe4,0x27,0x27,0xbd,0xaf,0x04,0x90,0xbe,0x6f,0x45,0x18,0xbe,0x02,0x5f,0x89,0xbe,0x36,0x60,0x33,0xbd,0xe2,0xc0,0x2b,0x3e,0xfe,0xc4,0xa9,0x3c,0xa3,0xd9,0x13,0xbf,0xc3,0xa1,0x13,0xbc,0x34,0x09,0x05,0xbe,0x4b,0x79,0x72,0xbe,0x00,0xdb,0x2f,0xbe,0x61,0xbe,0x40,0xbe,0xc5,0xa9,0xa7,0x3e,0xdc,0x42,0x6a,0xbe,0x31,0x89,0x08,0x3e,0xb4,0xdc,0x8e,0xbe,0x2e,0x18,0x3e,0xbe,0x79,0x20,0x97,0xbd,0x2f,0xea,0xcd,0x3d,0xf8,0xe5,0x25,0x3e,0x7e,0x00,0xe2,0x3d,0xce,0x57,0x03,0xbe,0x5f,0xf8,0x3b,0x3e,0x69,0x2f,0x70,0x3e,0xb7,0xae,0x68,0x3e,0x47,0xc3,0xd0,0xbd,0x9e,0xfb,0xb7,0xbd,0xed,0xbc,0xca,0xbe,0x49,0x2e,0x1b,0x3d,0xd9,0x0f,0x89,0xbd,0xcc,0xf5,0xb2,0x3d,0x5f,0xaa,0x5f,0x3b,0xfc,0x46,0x99,0x3e,0x0b,0xf0,0x75,0xbe,0x18,0xc6,0xe8,0x3d,0x6c,0xc8,0x18,0x3e,0x00,0x03,0x63,0xbe,0x65,0xc6,0xa8,0xbe,0x11,0x4e,0x9b,0x3e,0xb4,0xf8,0x0a,0x3f,0x3e,0x3b,0x75,0x3e,0x05,0xa5,0x84,0x3e,0xbc,0x4b,0x04,0x3e,0x37,0xff,0x6a,0x3e,0x41,0xf6,0xd7,0xbe,0x29,0x87,0x64,0xbe,0xd1,0x61,0x93,0x3e,0xde,0x50,0x02,0xbe,0x8a,0xa6,0x74,0x3c,0x46,0x7e,0xc6,0x3e,0x42,0x62,0xc2,0xbd,0xdd,0x18,0x6b,0x3d,0x75,0x65,0x75,0x3e,0x45,0xf8,0x87,0xbe,0xbf,0x2c,0x17,0x3e,0x49,0x06,0xbf,0x3e,0x7c,0x2e,0x51,0x3e,0xbd,0xfd,0xe7,0x3e,0x84,0xfc,0xec,0x3e,0x9a,0x85,0x1a,0x3d,0x7e,0xf3,0x32,0xbf,0x53,0x96,0xa6,0xbe,0x55,0x20,0xce,0x3d,0xb1,0xd7,0x0a,0x3f,0xa1,0x21,0x81,0x3e,0x6b,0x6d,0x0a,0x3f,0x2f,0x1f,0xb0,0x3e,0x7d,0x4e,0xca,0x3d,0xfb,0x4f,0x86,0x3e,0xbd,0xed,0xf0,0xbe,0x71,0x9e,0x5e,0x3f,0xa4,0xd3,0xaa,0x3e,0x69,0xd2,0x17,0xbe,0x30,0x5e,0xb4,0x3e,0x17,0xda,0x2d,0xbe,0x93,0x64,0xf1,0xbc,0x13,0x15,0xff,0xbc,0x15,0xa9,0x2e,0xbd,0x56,0x7b,0x78,0xbd,0x22,0x9e,0x74,0x3d,0xc5,0x75,0x9d,0x3e,0x07,0xbd,0x93,0x3e,0x57,0x23,0x26,0x3a,0x8f,0x7b,0xe4,0xbd,0x71,0xe4,0x59,0x3d,0x93,0xf3,0x58,0xbe,0x0e,0x0e,0x3c,0xbf,0x26,0x27,0xfb,0x3d,0x5d,0xe1,0x8c,0x3e,0x64,0x89,0x3d,0x3e,0x83,0xe2,0x3e,0x3e,0x60,0x1b,0x58,0xbd,0xe1,0x9c,0x8f,0xbd,0x62,0x07,0x20,0x3e,0x50,0x10,0xda,0xbe,0xea,0x97,0xb8,0x3e,0x0a,0x8b,0x3e,0xbf,0xdf,0x82,0xaa,0x3e,0x7e,0xcc,0xd7,0xbe,0xeb,0x06,0xf0,0xbd,0xad,0x08,0x09,0x3e,0x5a,0xda,0x64,0x3e,0xa4,0x12,0x61,0xbe,0x03,0x7c,0xcd,0xbe,0x28,0xb3,0xf6,0xbc,0xfc,0xb5,0x0f,0xbe,0x7a,0xa1,0x80,0xbc,0x90,0x27,0x98,0xbc,0x9c,0x5d,0x2a,0xbe,0xb5,0xb9,0x5e,0x3e,0xff,0xa1,0x55,0xbd,0x81,0xdd,0xe4,0xbd,0x9e,0x2a,0xa4,0xbe,0x16,0x8e,0x42,0x3e,0x4a,0x8b,0x74,0xbe,0xb5,0xec,0xc7,0x3e,0xd0,0xb2,0x83,0xbd,0x22,0x11,0x22,0x3e,0x3a,0x6a,0x76,0xbe,0xad,0x26,0x36,0x3e,0x66,0x73,0xfc,0xbb,0xfa,0x47,0x2c,0xbe,0xfe,0x1e,0x1c,0xbe,0x1c,0x7a,0xb9,0x3e,0x87,0x0b,0x9f,0xbc,0xe9,0xef,0x82,0x3e,0xac,0x9e,0x2f,0xbf,0x3f,0x95,0x23,0x3c,0xdf,0xe7,0x29,0xbc,0x7a,0xbb,0x1f,0xbe,0xb3,0x86,0xcc,0x3d,0xad,0x33,0xa5,0x3e,0x0c,0x3c,0xb5,0x3a,0x9a,0xbb,0xc1,0xbe,0xaf,0x01,0x3b,0x3f,0x6a,0x2e,0xa6,0x3e,0xea,0x4a,0xc3,0x3d,0xa2,0x35,0x84,0x3d,0x7f,0x8d,0x4b,0xbe,0xde,0xb9,0x4b,0xbd,0x73,0x59,0xb5,0x3d,0x43,0xa0,0xe3,0xbe,0xe6,0xf4,0xb9,0x3d,0xee,0xec,0x03,0x3f,0x78,0x51,0x0f,0x3f,0x08,0xad,0x1f,0xbe,0x7d,0x84,0x88,0x3e,0x11,0x29,0x72,0xbd,0x71,0x42,0x8d,0x3e,0x69,0x5c,0x80,0xbf,0x5d,0x4f,0x95,0x3e,0xb2,0x70,0xb2,0xbd,0x4a,0x6f,0x8a,0x3e,0x4f,0x55,0x35,0x3e,0x3c,0xce,0x20,0x3f,0xf9,0x72,0x49,0xbd,0x88,0x92,0x66,0xbe,0x62,0xcd,0x50,0xbf,0x00,0xd3,0x01,0x3e,0x74,0x2e,0x3e,0xbd,0xc5,0x7b,0xd9,0x3e,0x4e,0xdc,0x3a,0x3e,0xc4,0xbe,0x3d,0x3e,0x99,0x87,0x44,0xbe,0x75,0xbe,0x2b,0x3d,0x2b,0xca,0x82,0x3e,0x40,0x03,0xab,0xbe,0x44,0x4c,0xf7,0x3c,0x8b,0xf9,0x26,0xbe,0xc8,0x7a,0x39,0x3d,0xb3,0xe4,0x27,0x3d,0xfa,0x31,0x3d,0xbe,0xdb,0xe2,0x88,0x3e,0x4c,0xa1,0x32,0xbd,0x58,0x52,0x79,0xbe,0x18,0xbd,0x0e,0x3e,0xda,0x90,0xa3,0xbe,0xc4,0x60,0x6a,0xbe,0xf2,0x1a,0x16,0x3e,0xd9,0xeb,0x56,0xbe,0x01,0x10,0x6d,0xbe,0x94,0x42,0x9f,0xbd,0xbb,0xb1,0xf3,0x3c,0xbe,0x0f,0x27,0xbe,0xb5,0x92,0x04,0x3d,0xac,0xa1,0x45,0xbe,0xfc,0xa8,0x69,0x3e,0x2a,0x30,0x8c,0xbe,0x7a,0x80,0x94,0x3d,0xe7,0x56,0x32,0x3e,0xbd,0x78,0x81,0xbe,0x5e,0xa5,0xd1,0xbc,0x2a,0xdc,0x45,0x3e,0xe3,0x39,0x42,0xbe,0x29,0x68,0x5a,0x3d,0x05,0x23,0x10,0x3d,0x3e,0x7b,0x41,0x3d,0x1e,0xef,0xb5,0x3e,0x14,0xa2,0xb0,0x3d,0x9d,0xa3,0x55,0xbe,0x7d,0x93,0x04,0xbe,0x68,0xa0,0xe3,0xbd,0x93,0xd3,0x78,0x3e,0x9b,0xbd,0xea,0xbd,0x4c,0xa8,0xa5,0x3e,0x5d,0xa7,0xce,0x3e,0x71,0xb6,0xd0,0xbe,0x8e,0xac,0x82,0xbe,0xe1,0xbd,0x29,0x3e,0x74,0x9e,0x2e,0xbf,0x08,0x97,0xbd,0x3d,0xc4,0x3b,0xb1,0xbe,0x74,0xbc,0x15,0xbf,0x5a,0xe1,0x56,0x3e,0x51,0xd1,0xd0,0x3c,0xc8,0xeb,0xce,0xbd,0x58,0xc0,0x25,0xbd,0xff,0x26,0x10,0xbf,0xc9,0x6c,0x5d,0xbe,0x41,0x9b,0x5b,0xbd,0xe5,0xb3,0x2a,0x3e,0x3e,0xf6,0x9e,0x3e,0x7b,0xad,0x8c,0xbe,0x64,0x0f,0xc4,0xbd,0x59,0xdf,0x13,0xbe,0xf4,0xb1,0x8e,0xbf,0xdc,0x2e,0x2b,0xbf,0x60,0x3c,0x9d,0x3d,0xb7,0x5e,0x18,0x3e,0x4e,0x8d,0x56,0xbe,0x38,0x18,0xec,0xbe,0x8a,0x52,0x81,0x3e,0x43,0x2e,0x6b,0x3e,0xf7,0x76,0xa2,0xbe,0xbd,0xdd,0x03,0x3e,0x48,0x6c,0x74,0x3d,0x2e,0x5e,0x1e,0x3e,0x43,0x95,0x12,0xbe,0x1d,0xb2,0xa0,0xbd,0x0b,0x66,0x9d,0x3e,0xcb,0x6f,0x41,0xbe,0xe8,0x6a,0x36,0xbd,0x9b,0xd1,0x8a,0xbc,0xdb,0x23,0x07,0xbc,0x27,0x93,0x4d,0xbd,0x59,0x95,0xfe,0xbe,0x06,0xa1,0xf7,0xbb,0xe0,0x81,0x4e,0x3e,0x02,0xbb,0xb2,0x3e,0x9c,0x49,0x98,0x3d,0x55,0xe1,0xdc,0xbb,0xec,0x65,0x8c,0x3e,0x31,0x6f,0xe6,0xbe,0xe3,0x28,0xeb,0xbe,0xfd,0xda,0xdf,0x3e,0x60,0xa9,0xe4,0x3d,0x47,0x02,0x98,0x3e,0xfc,0x31,0x21,0xbe,0x8d,0xec,0x48,0x3e,0x7c,0x9b,0x03,0xbd,0x16,0xc2,0x05,0x3e,0x8a,0x20,0xd9,0xbd,0x44,0x39,0xc3,0x3e,0xcc,0xeb,0xc4,0x3d,0x77,0xa5,0xae,0xbb,0x9e,0xd3,0x2a,0x3d,0x9b,0x99,0x69,0x3e,0x7e,0xa3,0x19,0xbe,0x32,0x9e,0xe8,0x3d,0xc4,0xb8,0xfe,0xbe,0x6f,0xe0,0x8f,0xbd,0xd8,0x6e,0xa9,0x3e,0x5b,0xd1,0x42,0xbd,0xa1,0xf2,0xaf,0x3e,0x9b,0x7e,0x32,0x3e,0x3f,0xf7,0xa3,0x3e,0x12,0xda,0xfd,0x3d,0x67,0xa2,0x08,0xbe,0x8c,0x1a,0xd9,0x3c,0x6e,0xf5,0x24,0xbe,0x6f,0x08,0x90,0x3d,0xd5,0x7a,0x84,0xbd,0x04,0x78,0xe9,0x3b,0xe3,0x2a,0xe3,0x3d,0x26,0x6a,0xe8,0x3b,0xe5,0x3c,0xe9,0xbe,0x10,0xaf,0xf0,0x3e,0xe3,0x87,0x96,0x3e,0xb4,0xdd,0xd3,0x3e,0x23,0x5e,0x3a,0x3e,0x4b,0xb1,0x61,0x3e,0x7b,0x5f,0xd7,0x3d,0xef,0xac,0xad,0xbe,0xad,0x41,0x83,0xbe,0x80,0x20,0x0c,0xbe,0x2c,0x82,0xce,0x3d,0xc7,0x55,0x96,0xbd,0x90,0x2b,0x8d,0xbd,0xd0,0x3b,0x4b,0xbe,0x3b,0x15,0xd2,0x3d,0x9b,0xc6,0x2a,0xbe,0x60,0xd3,0x59,0x3e,0xdc,0xec,0xe7,0x3c,0xc5,0x81,0x4d,0x3e,0x50,0xb6,0xe5,0xbb,0x24,0x89,0xed,0x3d,0xf6,0xa4,0x2b,0xbc,0x92,0x79,0xb0,0x3d,0x8f,0xc3,0xda,0x3c,0xaf,0x22,0x62,0x3e,0xe7,0x91,0xf7,0x3c,0x3a,0xd9,0x57,0x3e,0x5e,0x92,0xd4,0xbd,0x03,0x93,0x5f,0xbe,0x74,0x7b,0x4b,0xbe,0x62,0x66,0x26,0x3e,0x8f,0x27,0x36,0x3c,0x14,0x61,0x99,0xbd,0x38,0xd5,0x3e,0xbe,0x48,0x90,0x83,0x3d,0xf0,0x95,0x67,0xbe,0x08,0x14,0x0b,0xbd,0x1c,0xde,0xde,0x3d,0x6f,0x58,0x5b,0xbd,0xaa,0x03,0x2c,0x3c,0x3b,0x51,0x05,0x3e,0x44,0xc9,0x35,0x3e,0x91,0x18,0x35,0x3e,0x87,0x83,0x66,0xbe,0x77,0xca,0x80,0xbe,0x3d,0xf9,0x77,0xbe,0x6e,0x45,0x13,0xbc,0x69,0x85,0x15,0xbe,0x18,0x0e,0x4b,0xbd,0xdb,0x2f,0x5a,0xbe,0x77,0x94,0xe5,0xbd,0x75,0xb1,0x2f,0x3e,0x03,0xb2,0x80,0xbb,0x7b,0x8f,0xf7,0xbb,0xae,0x37,0xd1,0xbd,0x5b,0xb0,0x66,0xbe,0x10,0xac,0x0a,0x3e,0x69,0x65,0x27,0x3d,0x97,0xa9,0x41,0x3e,0xac,0xf1,0x75,0xbd,0x7c,0x56,0x29,0xbe,0xcc,0x8b,0x80,0xbd,0x61,0xd5,0x02,0xbd,0x53,0x5f,0xbb,0xbd,0xb1,0x84,0xb4,0x3d,0xb9,0x0e,0x30,0x3c,0x9f,0x9e,0xfa,0xbd,0x33,0x66,0x09,0x3e,0x84,0x96,0xf3,0x3c,0xb6,0xba,0xc1,0x3d,0xd7,0xee,0xa6,0x3d,0x40,0xf8,0x3d,0x3d,0xfc,0x56,0x4a,0xbf,0x0a,0xe1,0xc7,0x3d,0x60,0x99,0xb8,0x3e,0x9b,0x31,0xa3,0x3d,0xac,0xca,0x4a,0xbe,0xb0,0x0b,0x90,0x3c,0x96,0x96,0x9b,0x3e,0xe3,0x18,0x8a,0xbe,0x87,0x0e,0x3f,0xbf,0xf8,0x78,0xda,0x3e,0xfe,0xb4,0xab,0x3d,0xeb,0xc6,0x45,0xbe,0x9b,0x2d,0xfe,0x3e,0x16,0xd1,0xae,0x3d,0x3f,0xd0,0x77,0x3e,0xe6,0x70,0xac,0x3e,0x44,0x41,0x50,0xbe,0x12,0x24,0x0a,0x3d,0x08,0x36,0xd7,0x3e,0xe7,0xbe,0x67,0x3e,0xcd,0x8e,0xda,0x3e,0x26,0xb5,0xe9,0x3e,0xf0,0x32,0x3e,0xbe,0x0b,0xa0,0xf4,0xbe,0xce,0x25,0x93,0xbe,0x3a,0x64,0x6a,0xbe,0x1a,0x0a,0x05,0x3f,0x1c,0x8b,0xd3,0x3d,0x29,0xa0,0xa0,0x3e,0x6e,0x4e,0xce,0x3e,0x00,0x2d,0x5f,0x3e,0xd6,0x2c,0x92,0x3d,0xb6,0x55,0xc5,0xbe,0x85,0x26,0x8b,0x3f,0x01,0x9b,0xad,0x3e,0xe7,0x94,0x0d,0x3e,0xd9,0xaf,0xde,0x3e,0x50,0xf0,0x40,0x3e,0xf8,0x8d,0x36,0xbe,0x74,0xfe,0x32,0xbe,0x12,0x30,0x0b,0xbe,0x62,0x01,0x8e,0x3e,0xc9,0x04,0x74,0xbe,0x49,0xb4,0x92,0x3e,0x43,0x83,0xc5,0xbc,0x94,0xd7,0x65,0x3e,0xd7,0xd1,0x8d,0xbe,0x4c,0x33,0x2b,0x3d,0x93,0x1b,0x28,0x3e,0xd6,0xfd,0x35,0xbf,0xa1,0x2c,0xfa,0x3d,0x22,0x3b,0x6f,0xbd,0x1c,0xb3,0x65,0x3e,0x1d,0x22,0x78,0x3d,0xdc,0xba,0xa4,0x3e,0x57,0x02,0xc2,0xbe,0x88,0x88,0x8e,0x3d,0x02,0xa4,0x9d,0xbe,0x64,0xb5,0x8e,0x3e,0x5c,0x7f,0x44,0xbf,0x7a,0xf0,0xef,0x3e,0x59,0xf3,0x3b,0xbe,0x5a,0xca,0x99,0x3c,0x84,0xe4,0xfe,0x3d,0x92,0xa9,0x64,0x3e,0xdc,0xdb,0x3a,0x3e,0xbf,0x06,0xd2,0xbc,0xc8,0x10,0x27,0x3d,0x0d,0x52,0xaa,0x3e,0x22,0xdd,0x58,0x3d,0xe4,0x26,0x46,0x3e,0xf0,0x00,0x82,0x3e,0xdf,0x61,0x0f,0x3e,0xb1,0x21,0x27,0xbe,0xc9,0x0e,0xc5,0x3d,0x97,0xe4,0xa6,0x3e,0x14,0xce,0xb8,0x3c,0xa6,0x4e,0xb0,0xbd,0x01,0x04,0xd1,0xbe,0x0a,0xd5,0x98,0x3c,0x9a,0x70,0xcc,0x3d,0x90,0x67,0xa6,0xbe,0x87,0x92,0x5d,0xbe,0x61,0x0e,0x07,0x3e,0xe4,0xa2,0x22,0xbe,0xbb,0xf6,0x0d,0xbd,0x55,0x82,0x6c,0xbe,0x03,0xab,0xa3,0x3e,0x2c,0xe0,0x11,0x3f,0xe8,0x9b,0xa2,0xbe,0x94,0x32,0x36,0x3d,0x67,0xfb,0xcc,0x3d,0x2f,0xb5,0x31,0xbe,0x82,0x21,0xd4,0xbe,0x5e,0x28,0xa3,0x3d,0x69,0x60,0x1e,0x3e,0x53,0xf4,0xbb,0xbd,0x41,0x85,0x12,0xbf,0x15,0x81,0x32,0xbd,0xd4,0xd4,0xed,0x3d,0xe7,0x46,0x0f,0xbe,0x10,0x45,0xe2,0xbd,0xb5,0xd9,0xc4,0x3d,0xfa,0x41,0x3e,0x3e,0x48,0xdb,0x78,0x3e,0x7d,0xda,0xe1,0x3d,0x5f,0xfc,0x9f,0xbd,0x97,0xc2,0x73,0xbe,0x3d,0x4f,0x97,0x3d,0xae,0xa6,0x02,0x3e,0x05,0x02,0x0a,0x3e,0xbe,0x99,0x61,0xbd,0x71,0x3e,0x68,0xbe,0x9f,0xf5,0xfc,0x3e,0x51,0x3c,0x92,0x3d,0x9a,0x6c,0x88,0x3d,0xe1,0x0d,0x30,0xbe,0x7c,0x5d,0xfb,0x3d,0x20,0x8c,0x38,0xbe,0xd9,0x92,0xeb,0xbd,0x3e,0x65,0x0b,0x3e,0x3a,0xa9,0x98,0x3d,0xba,0x48,0x01,0xbe,0x4d,0x14,0x5a,0x3e,0xe9,0x5d,0x6a,0xbe,0x61,0x7e,0xf3,0x3d,0xad,0x74,0xac,0xbd,0x6b,0x9e,0x3b,0x3e,0xe7,0x5b,0x1c,0xbd,0xed,0x08,0x91,0xbe,0x1c,0xc4,0xc7,0x3d,0x24,0x67,0x5a,0x3d,0xd4,0xe3,0xc4,0xbe,0x58,0x27,0x95,0x3c,0x54,0x1e,0xe6,0xbd,0x27,0x44,0xc7,0xbd,0x82,0x02,0x18,0xbe,0x1f,0xdb,0x49,0xbd,0x2d,0x2e,0xd9,0x3e,0x44,0xa1,0x69,0xbe,0x89,0x52,0x42,0xbe,0x2b,0x55,0x94,0x3e,0x4c,0x24,0xae,0xbd,0xc2,0x76,0x98,0x3d,0x90,0x4b,0x58,0x3d,0xe6,0x6f,0x55,0xbd,0x96,0x9c,0x9a,0x3e,0x86,0xfc,0x52,0x3e,0x79,0x7e,0x58,0xbd,0xb8,0x0b,0x4b,0x3e,0x18,0x1c,0xba,0x3e,0xa1,0xb6,0xff,0xbd,0x4f,0xec,0xab,0xbb,0xa6,0x16,0xc2,0x3d,0x6b,0x51,0x51,0xbe,0xd1,0x38,0x34,0x3e,0xb2,0xa6,0x6c,0x3c,0xa2,0x2e,0x03,0xbe,0x3e,0x12,0x7b,0x3e,0xa8,0x9a,0x87,0x3e,0xc6,0x4f,0x94,0x3d,0x0a,0xdb,0x0b,0x3e,0x3e,0x90,0xd2,0x3e,0x4e,0xa1,0x1b,0x3e,0x7c,0x96,0xbe,0x3b,0x18,0xe8,0x61,0xbe,0x91,0x77,0x04,0xbe,0x98,0x8d,0x0c,0x3c,0x97,0x4a,0xd9,0xbe,0xd8,0xc7,0x0f,0x3e,0xe5,0xef,0xcb,0x3e,0xb5,0x89,0x65,0x3e,0xaa,0x8d,0x7e,0x3e,0x32,0x92,0xd1,0x3e,0x9d,0x13,0x0d,0x3e,0x0f,0xf1,0xea,0xbb,0x73,0x33,0xb9,0xbe,0xd8,0x97,0x4b,0x3e,0xe4,0x41,0x57,0xbe,0x8a,0x6a,0x88,0x3e,0xe5,0xbb,0x8d,0x3d,0x46,0x2a,0xea,0x3e,0x98,0x4e,0xd3,0x3d,0xd8,0xfb,0xde,0xbe,0x1c,0xb4,0x13,0xbe,0x76,0x9c,0xb4,0x3e,0x0f,0x0c,0x81,0xbd,0x80,0x6b,0xa1,0x3e,0x24,0x1a,0xb8,0x3e,0x7e,0xf4,0xa8,0x3e,0x08,0x51,0x31,0xbe,0x62,0x24,0x98,0x3c,0x63,0xb5,0xf7,0x3d,0x22,0x84,0x94,0xbe,0x06,0xc4,0x88,0x3e,0xe6,0x81,0x9b,0x3e,0x4c,0x32,0xcf,0xbe,0xd7,0x83,0x98,0xbd,0xe6,0xde,0xba,0xbc,0xe4,0x79,0x46,0xbe,0x67,0xfa,0x22,0xbc,0x97,0x4a,0xa8,0x3c,0x1f,0x21,0x33,0x3e,0x89,0xd5,0x35,0x3d,0xe3,0xae,0x82,0xbc,0x4d,0x59,0xc0,0x3d,0xf1,0xcc,0xd3,0x3c,0x7e,0x1c,0x3a,0xbe,0xc2,0x44,0x46,0xbe,0xcb,0x3e,0xcf,0x3e,0x55,0x71,0x52,0xbd,0xe8,0xaa,0x23,0xbd,0x75,0x3b,0x03,0x3e,0x8e,0x26,0x09,0x3e,0x40,0x73,0x7e,0x3d,0x8a,0x32,0x0b,0xbc,0xbd,0x30,0x0b,0x3d,0xae,0xe4,0x4b,0x3d,0x7a,0x17,0x42,0xbe,0x5f,0x76,0xc6,0xbb,0xca,0x60,0x56,0xbc,0x0f,0x43,0x50,0xbe,0xe6,0xb6,0xd5,0xbd,0x7b,0x50,0xa0,0x3e,0xaf,0x16,0x65,0xbe,0xe7,0xcd,0x84,0xbc,0xd7,0x5d,0x1a,0x3e,0x8d,0xd8,0x61,0xbe,0x5b,0x47,0x5e,0xbd,0x3f,0x60,0xb4,0xba,0xbb,0x15,0xa4,0xbc,0x56,0x9d,0xd7,0x3c,0x16,0xf9,0xb9,0xbe,0x28,0x58,0x9e,0xbd,0x8a,0x31,0x25,0x3f,0x43,0xd3,0x12,0xbe,0xba,0xf1,0x1f,0x3d,0x1f,0xf9,0x74,0x3e,0x71,0xb8,0x0e,0x3c,0xd5,0x56,0x92,0x3e,0xbd,0x49,0xd1,0xbe,0xba,0xf7,0xa5,0x3d,0xd3,0xc8,0x26,0xbe,0x27,0x80,0x0d,0x3d,0xbb,0xb6,0xc9,0xbd,0x2c,0xc8,0x0d,0x3f,0x4a,0x3a,0xdc,0xbb,0x6f,0x35,0x26,0xbe,0x59,0x33,0x97,0xbe,0x51,0x29,0x8f,0x3e,0x97,0x65,0xf5,0xbd,0x4d,0x34,0x07,0x3f,0x01,0x49,0xa3,0x3c,0xbb,0x10,0x82,0x3e,0x9e,0xe1,0xb5,0x3d,0x38,0x0c,0x9b,0x3d,0x4a,0xb1,0xec,0x3d,0x00,0x4b,0x43,0x3e,0x52,0xcc,0x96,0xbd,0x75,0x0d,0x76,0xbc,0x5d,0xe4,0x35,0xbe,0x84,0xd7,0x0e,0x3b,0x92,0xd4,0x75,0xbd,0xde,0xff,0x23,0x3e,0x8d,0x17,0x04,0x3e,0x2f,0xef,0x2c,0x3b,0x63,0x51,0xe4,0x3d,0x6f,0x67,0xe2,0x3d,0xa9,0xc6,0x1c,0xbd,0xab,0x07,0x94,0xbd,0x66,0xc6,0x53,0xbe,0x58,0xc3,0x84,0xbe,0x09,0x3b,0x2d,0xbe,0x3b,0x2d,0xe7,0x3b,0xae,0x94,0x9f,0x3d,0xa1,0x6a,0x43,0xbe,0xf7,0x92,0x31,0xbe,0x58,0x25,0x36,0xbd,0x96,0x24,0xbf,0x3b,0xf5,0x6d,0xbc,0x3d,0xd5,0x7d,0x65,0xbe,0xa7,0xfe,0xbb,0xbd,0x8a,0x47,0x1e,0x3e,0x0f,0x74,0x08,0x3e,0xc5,0x2c,0x3b,0x3e,0x37,0x17,0x4e,0x3e,0x60,0xb3,0x9c,0x3c,0xf8,0x9a,0x4e,0xbe,0xed,0xe3,0xa7,0xbd,0x8f,0xf7,0xbc,0x3d,0xb1,0x2c,0xec,0xbd,0x90,0xfa,0xf5,0x3d,0x69,0x0a,0x8d,0xbd,0xf0,0x28,0x13,0xbe,0x00,0x75,0x03,0x3b,0x5b,0x2c,0x44,0x3d,0x23,0xcf,0x92,0x3c,0x37,0x8c,0x2f,0xbe,0xf8,0x96,0x03,0xbe,0x31,0x89,0xf5,0xbc,0xe1,0xa3,0x9a,0xbc,0xdc,0x4a,0xd3,0xbc,0x96,0x7f,0x54,0xbe,0xca,0x1b,0x33,0x3d,0x75,0x24,0x4a,0x3e,0x4e,0xf9,0x64,0xbe,0x78,0x07,0xa4,0x3d,0x00,0xaf,0x92,0xbd,0x7d,0x89,0xe9,0x3d,0x1c,0xe2,0x46,0xbe,0xd0,0x71,0xd0,0x3c,0x73,0x96,0xd9,0xbd,0xe9,0x9c,0x08,0xbe,0x8b,0xdb,0xc2,0x3d,0x56,0x78,0xc9,0x3c,0x51,0x32,0x06,0x3e,0xb6,0xfb,0xb5,0x3d,0xb4,0x2e,0x28,0xbd,0x9a,0x0c,0x3f,0xbe,0x7f,0x27,0x1c,0x3d,0x78,0x50,0x37,0x3e,0x7e,0x09,0x9b,0xbd,0x8a,0x1c,0x14,0xbe,0x7d,0x38,0x48,0xbe,0xf9,0x94,0x58,0x3d,0x35,0x82,0x84,0xbe,0xdf,0x10,0x94,0xbe,0xb6,0xe4,0xfc,0x3c,0x22,0x7f,0x8b,0x3e,0x04,0x1f,0x8b,0xbd,0xe6,0xd5,0x15,0x3e,0x16,0x21,0x89,0x3e,0xd7,0x2b,0x7a,0x3d,0x32,0xf6,0x3f,0xbe,0xc4,0x8e,0x1d,0xbe,0xfa,0x6a,0x85,0xbe,0xf9,0xf2,0xcc,0x3e,0xe3,0xfd,0x1d,0xbc,0x18,0xf6,0xfc,0x3d,0xd6,0xe3,0x10,0xbe,0x46,0xcc,0x8c,0xbd,0xd5,0xf5,0xae,0xbe,0x84,0x22,0x13,0xbd,0xd2,0xeb,0x99,0x3e,0xbb,0xbf,0x29,0x3e,0x18,0x0e,0xb3,0xbe,0xcc,0x11,0x2e,0xbe,0xc0,0x6e,0x9e,0xbe,0xa6,0x73,0x35,0xbe,0x24,0xac,0x55,0xbe,0x47,0xbe,0x49,0x3e,0x69,0x59,0xc6,0x3c,0x58,0x8e,0xa9,0x3e,0xcb,0xed,0x3f,0xbf,0xff,0xe0,0x55,0xbe,0xdf,0x4b,0x59,0x3e,0xb3,0xb2,0xc8,0xbe,0xf8,0x0d,0x09,0xbd,0x2f,0x46,0x67,0x3c,0x76,0x2a,0xab,0x3e,0xd8,0xeb,0x85,0x3c,0x79,0x43,0x0c,0xbe,0xda,0xf6,0x5b,0xbe,0x0f,0x01,0x52,0xbe,0x2b,0x6c,0x5f,0x3d,0x3e,0xf0,0x5c,0xbd,0xf5,0x9a,0xed,0x3e,0xa0,0x20,0x0b,0x3e,0x6b,0x4e,0x94,0x3e,0x5e,0x6b,0x0d,0x3f,0xc4,0xb0,0x49,0x3e,0x9b,0x98,0x8f,0x3d,0x1c,0xa7,0xcd,0xbe,0x75,0xf1,0xb2,0xbe,0x32,0xea,0x4a,0x3b,0x9e,0x5c,0x96,0x3e,0x20,0xcc,0x8a,0x3e,0x5f,0xec,0x0a,0xbe,0x26,0x18,0xfd,0xbd,0x12,0xd9,0xb7,0x3e,0xd8,0x55,0xa3,0xbe,0x0b,0x1a,0x60,0xbd,0x87,0xe2,0x97,0x3d,0xbc,0xf6,0xf8,0x3d,0x9b,0xdf,0x0b,0x3e,0x74,0x7a,0x47,0x3e,0x50,0x24,0xc2,0xbd,0x9f,0xa9,0x02,0x3e,0x62,0x96,0xc7,0xbd,0x21,0xe2,0x8d,0x3e,0xa1,0xb2,0x15,0xbd,0xeb,0x29,0x4d,0xbe,0x4a,0x95,0x18,0xbe,0x34,0xd0,0x02,0x3e,0x9d,0x8f,0x99,0xbe,0x95,0x1c,0xaf,0xbd,0xe1,0x15,0x8d,0xbd,0x0a,0x2f,0x6d,0xbe,0xae,0x75,0xca,0xbb,0xb8,0x0f,0x87,0xbd,0x76,0xfc,0x10,0x3d,0x07,0xb9,0xe5,0x3b,0x72,0x62,0x93,0x3d,0x81,0x21,0x9d,0xbd,0xd3,0x3d,0xee,0x3d,0xdc,0xbc,0xa3,0xbe,0xda,0x6a,0x1f,0xbc,0x01,0x6e,0x40,0x3e,0xba,0x28,0x7d,0xbd,0xa6,0x81,0x68,0xbe,0x96,0x38,0x0d,0x3e,0xa2,0xff,0xbb,0x3e,0xdc,0x3c,0x00,0x3e,0xde,0x2d,0xcc,0x3e,0xb4,0x68,0x4d,0x3e,0x5b,0xfe,0x85,0x3e,0xf8,0xa7,0x78,0xbe,0x32,0xcc,0x2d,0x3f,0xf4,0x1c,0x3b,0x3e,0xff,0x72,0x0a,0x3d,0xc6,0x32,0x9b,0x3e,0x99,0x15,0x0f,0xbe,0xdc,0x64,0x1a,0xbe,0xb8,0x2d,0xae,0x3c,0x2c,0xab,0x2c,0xbe,0x0d,0x96,0x8d,0x3e,0xf2,0xca,0xec,0x3e,0x7d,0xfd,0x11,0x3e,0x9c,0xd3,0x00,0x3e,0xca,0xad,0x8d,0x3e,0xee,0x4c,0xbb,0xbe,0xcd,0x3a,0x76,0x3d,0x6d,0xee,0x0f,0xbf,0xeb,0xd6,0x83,0x3e,0x4c,0x3f,0x74,0x3c,0x06,0x7c,0x18,0xbe,0x9c,0x49,0x00,0xbe,0xab,0xc3,0xfb,0x3e,0x3b,0x3f,0xd1,0xbe,0x4c,0x63,0x63,0xbd,0xb8,0xd8,0x87,0xbe,0xab,0x74,0xf4,0x3d,0x0d,0x89,0x85,0x3c,0xe6,0x47,0xdf,0x3e,0x7c,0x35,0xea,0x3d,0x1b,0xb6,0x2f,0x3d,0xb2,0xf2,0x3b,0xbe,0x58,0x5d,0xb3,0xbe,0xbf,0xa6,0x01,0x3f,0x30,0xfd,0x19,0x3e,0x33,0x41,0xda,0x3d,0xf9,0xc8,0xa7,0xbe,0x5e,0xb7,0x96,0x3e,0xb2,0x08,0xed,0xbd,0xc7,0x4c,0xab,0x3d,0xdb,0xef,0xb5,0x3e,0x4a,0x72,0x69,0x3e,0x29,0x71,0x1d,0xbe,0xf0,0x55,0x75,0x3e,0x2e,0xdc,0x28,0x3d,0x9f,0x34,0x85,0xbd,0x26,0x3a,0x7e,0xbd,0xe0,0x61,0xf1,0xbd,0xa9,0x74,0xbc,0xbc,0x63,0x80,0x05,0x3f,0xf3,0x40,0xd1,0x3d,0x90,0x54,0x8e,0xbe,0xca,0xbe,0x0d,0x3e,0xb0,0x10,0x0b,0x3d,0xc0,0xa5,0x04,0x3e,0x46,0x4f,0xc5,0x3c,0x50,0x2b,0xe2,0x3e,0xe1,0x91,0x2d,0x3e,0x0a,0x10,0x16,0xbe,0x04,0x2c,0xb4,0xbe,0xe7,0x8b,0xb1,0xbc,0xa6,0xf7,0x5b,0xbe,0x10,0x4e,0x9e,0xbe,0xb5,0x15,0x26,0x3e,0x4d,0xcd,0x88,0xbd,0xe0,0xdf,0x34,0x3d,0xdc,0xa5,0x0e,0xbf,0xc9,0x54,0xfd,0xbe,0xe1,0x74,0x55,0x3e,0xef,0x93,0x7c,0x3d,0x13,0x39,0xc6,0xbd,0x9a,0x15,0x97,0xbd,0x6e,0x0f,0xd7,0x3d,0x99,0xab,0x6a,0x3e,0x92,0x8b,0x93,0xba,0x1d,0xa2,0x3d,0xbd,0xd5,0x92,0xaa,0xbe,0xf8,0x6a,0xe9,0x3d,0x3a,0xcd,0x8e,0xbe,0x65,0xeb,0xb6,0x3d,0x65,0x6a,0x47,0xbc,0x2c,0xd8,0x88,0x3e,0x38,0xd2,0x55,0x3d,0xa7,0x24,0x3a,0xbc,0xbc,0x10,0x1b,0x3e,0xd3,0xc2,0x94,0xbe,0x8b,0x7c,0xd6,0xbe,0xa9,0x69,0x5f,0x3d,0xef,0x55,0xd3,0x3e,0x60,0xc1,0x89,0x3e,0x35,0xc0,0x76,0xbe,0xce,0xf7,0x85,0xbe,0xc1,0x01,0x93,0x3e,0xb2,0x1b,0xdc,0xbe,0xef,0x85,0x0f,0x3e,0xb3,0x87,0x23,0xbd,0xae,0x77,0x7f,0x3e,0xd1,0xb0,0x4e,0x3e,0x98,0x1b,0xf7,0xbd,0x05,0x0a,0x48,0x3e,0xeb,0x21,0x3f,0xbe,0x8c,0x11,0xb1,0xbd,0x07,0x28,0x19,0x3d,0xf2,0x98,0x3f,0xbe,0x2e,0xf2,0x4d,0x3e,0x9d,0x6a,0x92,0xbe,0xe1,0x55,0x86,0x3d,0x1f,0xaa,0x88,0xbe,0xd1,0xe6,0x52,0xbe,0x6d,0x7d,0xe9,0xbd,0x71,0xa8,0x80,0xbc,0x85,0x05,0x83,0xbe,0x70,0x54,0x1f,0x3e,0xec,0x7c,0xcb,0x3d,0x61,0x13,0x61,0x3d,0x35,0x65,0x4f,0x3d,0xd7,0xeb,0x0d,0xbc,0xe0,0xfb,0x8d,0xbd,0xc5,0xa8,0x6c,0xbd,0x0a,0x69,0x81,0xbe,0xd4,0xd6,0x5b,0xbe,0x69,0x17,0xba,0x3d,0x90,0x9b,0xa8,0x3b,0x87,0xca,0x96,0xbd,0xaf,0xdb,0x65,0x3d,0x2a,0x6c,0xf7,0xbd,0x7a,0x61,0xb1,0x3d,0x85,0x72,0x76,0x3e,0x06,0xf6,0xc4,0x3d,0x81,0x0e,0x1f,0x3d,0xbf,0x67,0x62,0xbb,0xce,0x46,0xb2,0xbd,0xa7,0x14,0x01,0xbe,0x68,0x0d,0x53,0xbe,0xee,0x70,0x9a,0xbd,0x20,0x09,0x73,0x3e,0x44,0x89,0x10,0xbd,0x56,0x79,0x53,0xbe,0xde,0x2e,0xcd,0x3c,0x98,0x15,0x31,0xbe,0xa8,0x06,0x1a,0x3e,0x1f,0x65,0x14,0x3c,0x3b,0x86,0x3d,0xbe,0x47,0x13,0x75,0xbc,0x59,0x23,0x0f,0xbe,0x62,0x27,0xd6,0xbd,0x78,0xa3,0xb1,0x3d,0xea,0x48,0xf2,0x3d,0x8e,0x66,0x33,0xbe,0x1b,0xa4,0x35,0x3e,0x7b,0x2b,0xce,0x3d,0x40,0xb7,0x46,0xbd,0x2a,0x1a,0x3e,0x3d,0xd9,0x6d,0x7d,0xbc,0x43,0x34,0x57,0xbe,0x76,0xfd,0x5c,0xbe,0x62,0x7d,0xfd,0xbd,0x01,0xd9,0xba,0xbd,0xfa,0x12,0x81,0xbd,0x0c,0x04,0xd3,0x3d,0x5b,0x68,0x8c,0xbe,0x8f,0xfd,0xc1,0x3d,0x14,0x73,0x00,0xbf,0x77,0x26,0xe3,0xbd,0x10,0xb3,0xe1,0xbd,0x5e,0xf1,0x73,0xbe,0xda,0x7f,0x65,0xbe,0xb3,0x3d,0x7c,0xbd,0xc4,0x7c,0x6f,0x3d,0x28,0x4d,0x0b,0xbe,0x12,0xc8,0x29,0x3d,0x46,0x8e,0x96,0x3e,0xa2,0x68,0x54,0xbf,0x00,0x07,0x91,0xbb,0xc4,0x0a,0x64,0x3e,0xbd,0x4f,0x6d,0xbc,0xc5,0x7c,0x91,0xbd,0x67,0x49,0x8b,0x3d,0x26,0x71,0xf0,0xbd,0x3d,0x62,0x51,0xbd,0xca,0x62,0x76,0x3d,0xca,0x7f,0x1d,0xbe,0x10,0x11,0x34,0xbe,0xae,0xe5,0x87,0xbe,0x8a,0xea,0xcc,0xbc,0x88,0xff,0x89,0x3d,0x02,0x27,0x1b,0x3e,0x61,0x1a,0x8d,0xbe,0x41,0x0c,0x98,0x3e,0x0f,0xfc,0x0a,0xbf,0x90,0xa7,0x54,0xbe,0x63,0xef,0x82,0xbd,0x0b,0x73,0x63,0xbe,0x72,0x7b,0x8d,0xbd,0x28,0x1d,0xb1,0x3d,0xa9,0xc6,0x71,0xbe,0x41,0xd5,0xfe,0x3d,0x65,0xc0,0xe9,0xbd,0x56,0xfa,0x2c,0x3e,0xd4,0x48,0x4a,0x3e,0x17,0xb9,0x36,0x3e,0x60,0xe0,0xb2,0x3e,0xd6,0x2c,0x86,0xbd,0xfd,0x26,0x19,0xbf,0xf5,0x68,0x17,0xbe,0x86,0x32,0xf9,0x3d,0xe4,0xe5,0xc8,0xbd,0x7e,0xdb,0xc8,0x3e,0x90,0x78,0x94,0xbe,0x9a,0x0b,0xed,0x3d,0x8a,0xb0,0xe0,0x3d,0x8c,0x3f,0x33,0x3e,0xea,0x88,0x4d,0xbe,0xff,0xa0,0x16,0xbd,0xdc,0xe7,0xb8,0x3d,0xa2,0x5e,0x91,0x3e,0x8a,0x6f,0x04,0x3f,0x03,0xa3,0xbc,0x3d,0xa6,0xbf,0xd5,0xbe,0x16,0x16,0x02,0x3f,0xa8,0xf7,0xbd,0xbe,0x49,0xc0,0x84,0x3e,0x99,0x30,0x5e,0xbe,0x46,0x93,0xa1,0x3e,0xb9,0x67,0xdb,0x3c,0xf9,0x4b,0x0d,0x3f,0xec,0xad,0x6b,0x3e,0xc7,0x07,0x88,0xbe,0xe2,0xe6,0x8c,0xbd,0xd7,0xe3,0x66,0x3d,0x8f,0xc0,0xa0,0xbe,0x05,0x16,0x6d,0xbe,0xe6,0xd0,0xb3,0x3e,0x43,0x45,0xc2,0x3e,0xbc,0x41,0xd2,0x3c,0xb9,0xc1,0x6e,0xbd,0xc7,0x93,0x88,0x3e,0x74,0xb1,0x9c,0xbe,0x8e,0xa3,0xe9,0x3d,0xa0,0x52,0x80,0xbd,0xab,0xe4,0x07,0x3e,0x90,0xea,0x9f,0x3e,0x7b,0x20,0x01,0x3d,0x12,0xb8,0x8e,0xbe,0x6b,0xa9,0x29,0x3d,0xb7,0x7f,0x08,0xbe,0xf8,0x74,0x11,0xbc,0x32,0xb9,0x8d,0xbe,0xc0,0xc6,0xc0,0x3e,0x1c,0x4f,0xb5,0x3d,0x8d,0x64,0x71,0xbe,0x09,0xb4,0xcf,0xbe,0x52,0x7b,0x13,0xbb,0x42,0xbc,0x8a,0xbe,0x46,0xbd,0xbe,0xbd,0x23,0x78,0x2f,0xbe,0x8a,0x5d,0x8c,0xbe,0x40,0x7e,0xd6,0x3e,0xaf,0x7a,0x50,0xbf,0x3a,0x86,0x3a,0xbe,0xec,0x12,0xd2,0xbd,0x88,0xe8,0x34,0xbd,0x78,0x5f,0x58,0xbc,0xd9,0x3d,0x60,0x3e,0xb1,0x6d,0x8e,0x3e,0xd4,0x84,0x91,0x3e,0x14,0xf4,0xd9,0x3c,0xbf,0x9b,0x94,0x3d,0x9f,0x96,0xe4,0xbe,0xb9,0x15,0x46,0xbe,0x07,0x18,0xf6,0x3c,0xf6,0x2a,0x15,0x3d,0x7f,0x7e,0xd3,0x3d,0x70,0x99,0xb0,0x3e,0x54,0x63,0x02,0x3f,0x86,0x86,0x08,0xbd,0xb9,0x96,0x42,0x3e,0x52,0x85,0x86,0xbe,0x4b,0x21,0x1e,0xbe,0x66,0xf6,0xff,0xbd,0xc7,0x1c,0xd5,0x3e,0x44,0x8f,0x1c,0x3e,0x62,0x4b,0xbc,0xbd,0x73,0xd9,0x74,0xbe,0x57,0x63,0x7b,0x3e,0x5c,0x68,0x12,0x3d,0x56,0x67,0x84,0xbd,0xa2,0x50,0x92,0x3e,0x07,0x2d,0xd6,0x3d,0x91,0x6c,0x4c,0x3d,0xf2,0x38,0x54,0xbe,0x80,0x0a,0x35,0x3e,0x5c,0x62,0x04,0xbe,0x8c,0x27,0xd1,0xbd,0x18,0x2e,0xff,0xbc,0x45,0xbb,0x46,0xbe,0x34,0xd0,0xc3,0x3c,0x2a,0xf6,0x66,0xbe,0x72,0x98,0x80,0xbe,0x9c,0x1c,0x85,0xbe,0xc1,0x9a,0xdb,0xbd,0xe4,0xe0,0x19,0x3e,0xb7,0xee,0x42,0xbd,0x21,0x4a,0x49,0xbe,0x15,0x34,0xe0,0x3c,0x79,0x90,0x2a,0x3e,0x45,0x6b,0xca,0xbd,0x70,0xcb,0x36,0xbe,0xef,0x7d,0x24,0xbe,0xdd,0x8b,0x09,0x3e,0x3b,0x57,0x60,0xbe,0xd5,0x90,0x1f,0x3d,0x9c,0x94,0x64,0xbe,0xe9,0x7d,0x2c,0x3e,0x19,0x4d,0xca,0x3d,0xfc,0xe2,0x23,0x3e,0x31,0x10,0x15,0xbe,0x6b,0xb8,0x69,0x3b,0xf3,0xea,0xfd,0xbb,0xb2,0x1f,0x9b,0x3d,0x19,0x57,0x18,0xbd,0xa0,0x4e,0x03,0xbe,0xee,0x98,0x67,0xbe,0x5f,0x18,0x91,0xbe,0x50,0x26,0x7e,0xbe,0x87,0xcd,0x74,0xbe,0xd0,0x9b,0x31,0xbe,0x64,0x88,0x3e,0xbe,0xac,0x61,0x83,0xbe,0x24,0x93,0xea,0xbd,0x22,0x2c,0x8d,0x3d,0x80,0x85,0x92,0xbd,0x41,0xb2,0x7e,0xbe,0x56,0x92,0x77,0x3c,0x9c,0x5a,0x1a,0xbe,0x2b,0xb5,0x55,0x3e,0x6e,0x16,0x0d,0xbe,0xa0,0x91,0x5f,0x3d,0x92,0xdb,0x24,0x3e,0x2a,0x64,0x8f,0x3d,0xe9,0xba,0x4c,0xbe,0xf0,0x74,0x3e,0xbe,0x1a,0x74,0x51,0xbd,0xf9,0x84,0xce,0x3d,0xe9,0x5d,0xdf,0x3d,0x3a,0x18,0x3b,0xbe,0xfe,0xa5,0x88,0xbd,0xfe,0x2a,0x85,0xbd,0x60,0x0d,0xd1,0x3d,0xb1,0xac,0xdc,0x3d,0x18,0xfb,0x3a,0x3e,0x1c,0x2a,0x6d,0x3e,0x88,0x5e,0x03,0xbe,0x17,0x63,0x58,0x3d,0x75,0x2f,0x27,0xbe,0xc5,0x88,0xf7,0xbe,0x1f,0x92,0xc2,0xbe,0x40,0x4a,0x40,0x3d,0x45,0x2d,0x88,0xbe,0xbc,0xfb,0xf7,0x3a,0x57,0x3a,0x96,0x3e,0xef,0x9b,0x8c,0x3e,0x45,0xc7,0xdd,0x3a,0x04,0x0f,0x93,0x3e,0xd2,0x72,0x05,0x3e,0x46,0xe2,0xb7,0xba,0x32,0x93,0xab,0xbe,0xcc,0x19,0x8c,0xbd,0x8f,0xb1,0x2d,0xbe,0xd3,0x78,0x28,0x3e,0x2b,0x44,0x68,0x3e,0x36,0x80,0x81,0xbe,0x38,0x96,0x45,0xbe,0x78,0xf4,0x80,0xbe,0xb7,0x6f,0xba,0xbd,0x6a,0xf7,0x71,0x3e,0xcc,0x3d,0x0b,0x3e,0x00,0x6c,0xc2,0x3e,0x35,0x57,0xe2,0xbd,0xd8,0x13,0xb6,0xbe,0x12,0x88,0x58,0x3e,0x9c,0xe8,0xbd,0xbe,0xf4,0x27,0x29,0xbe,0xe5,0x29,0x4c,0x3e,0xb4,0xec,0x5d,0x3e,0xa4,0x61,0x7d,0xbc,0xf2,0x7a,0x92,0xbe,0x8a,0x6f,0xaf,0xbe,0x9c,0x25,0x53,0xbe,0xcc,0xb2,0x8b,0xbe,0x0d,0xe2,0x8b,0xbc,0xab,0xc4,0x9c,0x3e,0x4d,0x56,0x58,0x3e,0xcd,0xaf,0x8f,0x3e,0x6d,0xe7,0xef,0xbd,0x26,0xa5,0x11,0xbf,0x3a,0x6d,0xd2,0xbd,0x59,0x54,0x5e,0xbe,0x45,0xbd,0xaf,0xbd,0xf9,0x99,0xb1,0xbd,0xcd,0x1c,0x7b,0x3d,0xf0,0xef,0x0f,0x3e,0x07,0x8f,0xe6,0x3e,0xa9,0xd9,0x1d,0x3e,0xd5,0x9f,0xb1,0xbb,0xef,0xf8,0x5a,0xbe,0x51,0x4b,0xab,0xbe,0x34,0x7f,0x24,0xbf,0xa7,0xd1,0x1e,0x3e,0x9d,0x06,0x53,0x3c,0xf6,0xc7,0xf8,0xbe,0x13,0xc5,0xd0,0x3d,0x6d,0xcd,0xe6,0x3e,0x6a,0x63,0xc0,0xbe,0xdf,0x6f,0x8a,0x3e,0x24,0x9e,0x7b,0x3e,0x79,0xe6,0x6c,0x3d,0xf3,0xd3,0x2e,0x3c,0xaf,0x8a,0x48,0x3e,0xe5,0x54,0xac,0xbe,0xa1,0x5d,0xd1,0x3d,0xdb,0x31,0xca,0x3e,0x78,0x85,0xb9,0x3d,0x41,0xe5,0x26,0xbe,0x94,0x1c,0x2c,0x3d,0x49,0xf5,0x02,0x3e,0x5f,0xdd,0x58,0xbe,0x97,0x92,0x73,0x3e,0xe3,0x97,0x3f,0x3e,0x0d,0xdb,0x93,0xbe,0x3e,0x99,0x56,0xbc,0xbc,0xb1,0x50,0xbe,0x6a,0xe8,0x04,0x3e,0xc2,0x4c,0x41,0x3e,0x72,0x8f,0x01,0xbe,0xb3,0x30,0x0b,0xbe,0x45,0x07,0x91,0x3d,0x72,0x4f,0x65,0x3e,0x68,0x6a,0xa8,0xbd,0x0a,0x6e,0xfd,0x3d,0x26,0x69,0xf6,0xba,0x4e,0x55,0x17,0x3e,0x0b,0x03,0x75,0xbe,0xac,0xa3,0xb7,0xbe,0x94,0xc6,0x20,0xbe,0x8a,0xf3,0x53,0x3e,0xce,0xa5,0xc9,0xbe,0x74,0xb1,0xca,0xbd,0x77,0x23,0x1c,0x3e,0x11,0xd0,0xa3,0x3c,0x84,0x69,0x47,0xbe,0x07,0xd4,0xbf,0xbe,0x3d,0xe6,0x0b,0xbe,0xc9,0x9d,0x8c,0xbe,0x95,0x7a,0x17,0x3e,0x43,0x3f,0x80,0xbc,0x84,0x65,0x12,0x3e,0x1d,0x35,0xb1,0x3e,0xfe,0x24,0x74,0xbe,0x46,0xe6,0x52,0xbf,0x43,0xc4,0xdc,0xbe,0xaf,0x7c,0x36,0x3e,0x19,0xd1,0x4d,0x3e,0xfa,0x5e,0xf6,0xbe,0xd0,0x8a,0xc5,0xbe,0xc2,0x2e,0x06,0x3f,0xbb,0x64,0x6a,0xbe,0xa3,0x02,0xd8,0x3d,0x61,0x35,0x07,0xbd,0x71,0x0f,0xf9,0xbe,0x2e,0xb2,0x1f,0xbe,0xe2,0x2d,0x4d,0x3f,0x30,0x5b,0xf7,0x3e,0xe4,0x4c,0xc6,0x3e,0x86,0x87,0x66,0xbe,0xc8,0x26,0x38,0xbf,0x6f,0xbe,0x92,0xbe,0x27,0x96,0x35,0xbf,0xd7,0xbe,0xa0,0xbf,0x41,0x33,0x2d,0x3e,0x60,0xdf,0xc6,0xbd,0x5a,0xfd,0xff,0xff,0x04,0x00,0x00,0x00,0x00,0x01,0x00,0x00,0x75,0x1d,0xd4,0xbe,0xe1,0xd8,0x64,0x3d,0xca,0xfd,0xf1,0xbe,0x43,0xeb,0xb8,0xbe,0xfd,0x41,0xef,0xbe,0xf0,0xb9,0x11,0xbe,0x20,0xb8,0x1a,0x3f,0x98,0xa6,0x03,0xbe,0x7d,0xee,0x09,0xbf,0xbc,0x47,0x52,0xbe,0xcc,0x62,0x53,0x3e,0xd2,0x60,0x3f,0x3f,0xd8,0x08,0xcf,0x3e,0x8a,0x58,0x65,0x3d,0x57,0xfd,0x32,0x3f,0x26,0x39,0x4c,0x3d,0x03,0x79,0xbd,0xbe,0x3c,0x31,0x9a,0x3e,0xf6,0x48,0xd2,0xbd,0x11,0x67,0x8d,0x3e,0xcf,0x26,0xf6,0x3e,0x53,0xa0,0x0c,0x3f,0xcc,0x2c,0x90,0x3e,0xc9,0x22,0x1d,0xbd,0xdb,0x98,0xf2,0x3e,0x0e,0x48,0x2e,0xbe,0x71,0x5e,0x2f,0x3d,0x4e,0xcb,0xd8,0xbe,0xab,0xb8,0x0a,0xbd,0x79,0x80,0x47,0xbe,0x04,0x7c,0x9a,0x3d,0x59,0xa9,0x81,0xbb,0x73,0x87,0x5c,0x3f,0xe1,0xc4,0x3a,0x3f,0x13,0x02,0xaf,0x3e,0xfb,0xf7,0x91,0x3f,0xee,0x07,0xad,0x3f,0x36,0x63,0x9e,0xbf,0x59,0x54,0x33,0x3f,0xd6,0xcf,0x49,0x3f,0xe7,0x38,0x7e,0x3f,0x66,0x4e,0x1c,0xbf,0x8c,0x62,0x0e,0x3f,0x14,0x9e,0x00,0xbf,0x3d,0x26,0x34,0xbf,0x8d,0xc9,0x03,0x40,0xfe,0x6a,0x62,0x3e,0xab,0xbe,0x2f,0xbf,0x46,0xeb,0x26,0x3f,0x17,0x04,0x8b,0xbe,0x3f,0x3b,0xe3,0x3f,0xab,0xc2,0xeb,0xbe,0xb3,0x42,0x2d,0x3f,0x87,0x4a,0x18,0x3f,0x16,0xb6,0xae,0xbb,0xf7,0xa3,0x1c,0xbf,0x9f,0xb4,0x73,0x3d,0x9e,0x1f,0x28,0xbf,0x97,0x1d,0x14,0x3e,0xc5,0x51,0x09,0xbf,0xc0,0xfa,0x2e,0xbf,0xef,0x30,0x7c,0xbd,0xf6,0xa6,0x98,0xbf,0x81,0x9a,0x19,0xbf,0x66,0xfe,0xff,0xff,0x04,0x00,0x00,0x00,0x80,0x00,0x00,0x00,0x00,0x00,0x00,0x00,0x00,0x00,0x00,0x00,0x00,0x00,0x00,0x00,0x00,0x00,0x00,0x00,0x00,0x00,0x00,0x00,0x00,0x00,0x00,0x00,0x00,0x00,0x00,0x00,0x00,0x00,0x00,0x00,0x00,0x00,0x00,0x00,0x00,0x00,0x00,0x00,0x00,0x00,0x00,0x00,0x00,0x00,0x00,0x00,0x00,0x00,0x00,0x00,0x00,0x00,0x00,0x00,0x00,0x00,0x00,0x00,0x00,0x00,0x00,0x00,0x00,0x00,0x00,0x00,0x00,0x00,0x00,0x00,0x00,0x00,0x00,0x00,0x00,0x00,0x00,0x00,0x00,0x00,0x00,0x00,0x00,0x00,0x00,0x00,0x00,0x00,0x00,0x00,0x00,0x00,0x00,0x00,0x00,0x00,0x00,0x00,0x00,0x00,0x00,0x00,0x00,0x00,0x00,0x00,0x00,0x00,0x00,0x00,0x00,0x00,0x00,0x00,0x00,0x00,0x00,0x00,0x00,0x00,0x00,0x00,0x00,0x00,0x00,0x00,0xf2,0xfe,0xff,0xff,0x04,0x00,0x00,0x00,0x00,0x01,0x00,0x00,0xbd,0x04,0x4c,0xbd,0xea,0xe8,0x2d,0x3e,0x0e,0x1e,0x05,0xbf,0xa0,0xd0,0x00,0x3e,0x83,0x12,0xc9,0x3e,0x44,0x79,0x6c,0xbe,0xee,0xe8,0xc0,0x3e,0xb9,0x9d,0xf1,0x3d,0x82,0xc6,0x31,0xbf,0xb2,0xae,0xe3,0x3d,0x41,0x71,0x97,0x3e,0x27,0x81,0xdd,0x3e,0xe5,0x8b,0x06,0x3e,0x5e,0xe1,0xaa,0x3e,0x58,0x8a,0x7e,0xbc,0x63,0x0e,0x34,0x3e,0x47,0x20,0x70,0xbe,0x00,0x55,0x8e,0x3e,0x2b,0x3a,0x9d,0xbe,0xb6,0x4a,0xd6,0xbe,0xf4,0x46,0xd5,0x3e,0xab,0xae,0xe3,0xbe,0xa6,0x60,0x2e,0xbf,0xd6,0x2f,0x8e,0x3e,0x32,0x24,0x75,0xbe,0x8a,0x34,0x06,0xbf,0xf7,0x2e,0xea,0x3e,0x41,0x2c,0xca,0xbc,0xf8,0xd2,0x42,0x3e,0xa2,0xc8,0xf4,0xbe,0xdf,0x60,0xc7,0xbe,0xda,0xc3,0x06,0xbf,0x4e,0xb1,0xc4,0xbe,0xe1,0xa6,0xa1,0x3e,0x86,0xa7,0x96,0x3e,0xe7,0xdf,0xed,0xbe,0x53,0x68,0xfe,0x3e,0x31,0x6f,0xc2,0x3e,0xe8,0x24,0xe5,0x3e,0xfc,0xf0,0xaf,0x3d,0x75,0xf5,0xd5,0xbe,0xbf,0xbc,0x8e,0xbe,0x18,0x79,0x79,0x3e,0x6c,0xde,0x13,0xbe,0x0a,0x06,0x9e,0x3e,0x0d,0xf8,0xcd,0xbe,0x2c,0x99,0x2d,0xbe,0xd8,0x48,0x7c,0x3e,0x31,0x9d,0x84,0xbe,0xfb,0x2a,0x85,0x3e,0xe7,0xa1,0xf5,0x3e,0x00,0x46,0xaf,0xbe,0x34,0x53,0x8e,0xbe,0x66,0x0b,0x0a,0xbf,0xb1,0x11,0xaf,0x3e,0x93,0xe7,0xde,0xbe,0x8e,0x3c,0x89,0xbe,0xcf,0xa0,0xa5,0xbe,0x70,0x28,0x14,0x3e,0x20,0x07,0x1c,0xbf,0x73,0xbd,0xef,0xbd,0x17,0xc1,0x0c,0x3f,0x13,0x07,0x3a,0xbd,0x46,0xd5,0xaf,0x3e,0x00,0x00,0x06,0x00,0x08,0x00,0x04,0x00,0x06,0x00,0x00,0x00,0x04,0x00,0x00,0x00,0x0c,0x00,0x00,0x00,0xff,0xff,0xff,0xff,0x02,0x00,0x00,0x00,0x20,0x00,0x00,0x00,0x38,0xf7,0xff,0xff,0x3c,0xf7,0xff,0xff,0x0f,0x00,0x00,0x00,0x4d,0x4c,0x49,0x52,0x20,0x43,0x6f,0x6e,0x76,0x65,0x72,0x74,0x65,0x64,0x2e,0x00,0x01,0x00,0x00,0x00,0x14,0x00,0x00,0x00,0x00,0x00,0x0e,0x00,0x18,0x00,0x14,0x00,0x10,0x00,0x0c,0x00,0x08,0x00,0x04,0x00,0x0e,0x00,0x00,0x00,0x14,0x00,0x00,0x00,0x1c,0x00,0x00,0x00,0xcc,0x01,0x00,0x00,0xd0,0x01,0x00,0x00,0xd4,0x01,0x00,0x00,0x04,0x00,0x00,0x00,0x6d,0x61,0x69,0x6e,0x00,0x00,0x00,0x00,0x07,0x00,0x00,0x00,0x84,0x01,0x00,0x00,0x24,0x01,0x00,0x00,0xec,0x00,0x00,0x00,0xa0,0x00,0x00,0x00,0x78,0x00,0x00,0x00,0x3c,0x00,0x00,0x00,0x04,0x00,0x00,0x00,0x02,0xff,0xff,0xff,0x14,0x00,0x00,0x00,0x00,0x00,0x00,0x08,0x10,0x00,0x00,0x00,0x14,0x00,0x00,0x00,0x04,0x00,0x00,0x00,0xc8,0xf7,0xff,0xff,0x01,0x00,0x00,0x00,0x11,0x00,0x00,0x00,0x03,0x00,0x00,0x00,0x10,0x00,0x00,0x00,0x04,0x00,0x00,0x00,0x08,0x00,0x00,0x00,0x36,0xff,0xff,0xff,0x14,0x00,0x00,0x00,0x00,0x00,0x00,0x08,0x14,0x00,0x00,0x00,0x18,0x00,0x00,0x00,0x04,0x00,0x00,0x00,0xa2,0xff,0xff,0xff,0x00,0x00,0x00,0x01,0x01,0x00,0x00,0x00,0x10,0x00,0x00,0x00,0x03,0x00,0x00,0x00,0x0f,0x00,0x00,0x00,0x05,0x00,0x00,0x00,0x07,0x00,0x00,0x00,0x9e,0xff,0xff,0xff,0x0c,0x00,0x00,0x00,0x10,0x00,0x00,0x00,0x02,0x00,0x00,0x00,0x01,0x00,0x00,0x00,0x0f,0x00,0x00,0x00,0x02,0x00,0x00,0x00,0x0e,0x00,0x00,0x00,0x09,0x00,0x00,0x00,0x92,0xff,0xff,0xff,0x1c,0x00,0x00,0x00,0x00,0x00,0x00,0x0b,0x1c,0x00,0x00,0x00,0x20,0x00,0x00,0x00,0x03,0x00,0x00,0x00,0x00,0x00,0x06,0x00,0x08,0x00,0x07,0x00,0x06,0x00,0x00,0x00,0x00,0x00,0x00,0x01,0x01,0x00,0x00,0x00,0x0e,0x00,0x00,0x00,0x02,0x00,0x00,0x00,0x0d,0x00,0x00,0x00,0x06,0x00,0x00,0x00,0x00,0x00,0x0a,0x00,0x10,0x00,0x0c,0x00,0x08,0x00,0x04,0x00,0x0a,0x00,0x00,0x00,0x0c,0x00,0x00,0x00,0x10,0x00,0x00,0x00,0x02,0x00,0x00,0x00,0x01,0x00,0x00,0x00,0x0d,0x00,0x00,0x00,0x02,0x00,0x00,0x00,0x0c,0x00,0x00,0x00,0x01,0x00,0x00,0x00,0x00,0x00,0x0e,0x00,0x1a,0x00,0x14,0x00,0x10,0x00,0x0c,0x00,0x0b,0x00,0x04,0x00,0x0e,0x00,0x00,0x00,0x20,0x00,0x00,0x00,0x00,0x00,0x00,0x01,0x28,0x00,0x00,0x00,0x2c,0x00,0x00,0x00,0x01,0x00,0x00,0x00,0x00,0x00,0x0a,0x00,0x10,0x00,0x0f,0x00,0x08,0x00,0x04,0x00,0x0a,0x00,0x00,0x00,0x01,0x00,0x00,0x00,0x01,0x00,0x00,0x00,0x00,0x00,0x00,0x01,0x01,0x00,0x00,0x00,0x0c,0x00,0x00,0x00,0x03,0x00,0x00,0x00,0x0b,0x00,0x00,0x00,0x02,0x00,0x00,0x00,0x03,0x00,0x00,0x00,0x00,0x00,0x0e,0x00,0x14,0x00,0x00,0x00,0x10,0x00,0x0c,0x00,0x0b,0x00,0x04,0x00,0x0e,0x00,0x00,0x00,0x10,0x00,0x00,0x00,0x00,0x00,0x00,0x34,0x0c,0x00,0x00,0x00,0x10,0x00,0x00,0x00,0x2c,0xf9,0xff,0xff,0x01,0x00,0x00,0x00,0x0b,0x00,0x00,0x00,0x02,0x00,0x00,0x00,0x00,0x00,0x00,0x00,0x0a,0x00,0x00,0x00,0x01,0x00,0x00,0x00,0x11,0x00,0x00,0x00,0x01,0x00,0x00,0x00,0x00,0x00,0x00,0x00,0x12,0x00,0x00,0x00,0x20,0x06,0x00,0x00,0xc8,0x05,0x00,0x00,0x68,0x05,0x00,0x00,0x14,0x05,0x00,0x00,0xd4,0x04,0x00,0x00,0x94,0x04,0x00,0x00,0x50,0x04,0x00,0x00,0x14,0x04,0x00,0x00,0xd8,0x03,0x00,0x00,0x98,0x03,0x00,0x00,0x38,0x03,0x00,0x00,0xb8,0x02,0x00,0x00,0x44,0x02,0x00,0x00,0xd0,0x01,0x00,0x00,0x50,0x01,0x00,0x00,0xf0,0x00,0x00,0x00,0x60,0x00,0x00,0x00,0x04,0x00,0x00,0x00,0x3e,0xfa,0xff,0xff,0x00,0x00,0x00,0x01,0x14,0x00,0x00,0x00,0x1c,0x00,0x00,0x00,0x1c,0x00,0x00,0x00,0x12,0x00,0x00,0x00,0x34,0x00,0x00,0x00,0x02,0x00,0x00,0x00,0xff,0xff,0xff,0xff,0x02,0x00,0x00,0x00,0xc8,0xf9,0xff,0xff,0x1b,0x00,0x00,0x00,0x53,0x74,0x61,0x74,0x65,0x66,0x75,0x6c,0x50,0x61,0x72,0x74,0x69,0x74,0x69,0x6f,0x6e,0x65,0x64,0x43,0x61,0x6c,0x6c,0x5f,0x31,0x3a,0x30,0x00,0x02,0x00,0x00,0x00,0x01,0x00,0x00,0x00,0x02,0x00,0x00,0x00,0x96,0xfa,0xff,0xff,0x00,0x00,0x00,0x01,0x14,0x00,0x00,0x00,0x1c,0x00,0x00,0x00,0x1c,0x00,0x00,0x00,0x11,0x00,0x00,0x00,0x68,0x00,0x00,0x00,0x02,0x00,0x00,0x00,0xff,0xff,0xff,0xff,0x20,0x00,0x00,0x00,0x20,0xfa,0xff,0xff,0x4e,0x00,0x00,0x00,0x73,0x65,0x71,0x75,0x65,0x6e,0x74,0x69,0x61,0x6c,0x5f,0x31,0x2f,0x64,0x65,0x6e,0x73,0x65,0x5f,0x31,0x2f,0x4d,0x61,0x74,0x4d,0x75,0x6c,0x3b,0x73,0x65,0x71,0x75,0x65,0x6e,0x74,0x69,0x61,0x6c,0x5f,0x31,0x2f,0x64,0x65,0x6e,0x73,0x65,0x5f,0x31,0x2f,0x52,0x65,0x6c,0x75,0x3b,0x73,0x65,0x71,0x75,0x65,0x6e,0x74,0x69,0x61,0x6c,0x5f,0x31,0x2f,0x64,0x65,0x6e,0x73,0x65,0x5f,0x31,0x2f,0x41,0x64,0x64,0x00,0x00,0x02,0x00,0x00,0x00,0x01,0x00,0x00,0x00,0x20,0x00,0x00,0x00,0x22,0xfb,0xff,0xff,0x00,0x00,0x00,0x01,0x14,0x00,0x00,0x00,0x1c,0x00,0x00,0x00,0x1c,0x00,0x00,0x00,0x10,0x00,0x00,0x00,0x38,0x00,0x00,0x00,0x02,0x00,0x00,0x00,0xff,0xff,0xff,0xff,0x40,0x00,0x00,0x00,0xac,0xfa,0xff,0xff,0x1e,0x00,0x00,0x00,0x73,0x65,0x71,0x75,0x65,0x6e,0x74,0x69,0x61,0x6c,0x5f,0x31,0x2f,0x66,0x6c,0x61,0x74,0x74,0x65,0x6e,0x5f,0x31,0x2f,0x52,0x65,0x73,0x68,0x61,0x70,0x65,0x00,0x00,0x02,0x00,0x00,0x00,0x01,0x00,0x00,0x00,0x40,0x00,0x00,0x00,0x7e,0xfb,0xff,0xff,0x00,0x00,0x00,0x01,0x14,0x00,0x00,0x00,0x20,0x00,0x00,0x00,0x20,0x00,0x00,0x00,0x0f,0x00,0x00,0x00,0x54,0x00,0x00,0x00,0x03,0x00,0x00,0x00,0xff,0xff,0xff,0xff,0x02,0x00,0x00,0x00,0x20,0x00,0x00,0x00,0x0c,0xfb,0xff,0xff,0x34,0x00,0x00,0x00,0x73,0x65,0x71,0x75,0x65,0x6e,0x74,0x69,0x61,0x6c,0x5f,0x31,0x2f,0x63,0x6f,0x6e,0x76,0x31,0x64,0x5f,0x31,0x2f,0x52,0x65,0x6c,0x75,0x3b,0x73,0x65,0x71,0x75,0x65,0x6e,0x74,0x69,0x61,0x6c,0x5f,0x31,0x2f,0x63,0x6f,0x6e,0x76,0x31,0x64,0x5f,0x31,0x2f,0x61,0x64,0x64,0x00,0x00,0x00,0x00,0x03,0x00,0x00,0x00,0x01,0x00,0x00,0x00,0x02,0x00,0x00,0x00,0x20,0x00,0x00,0x00,0xfa,0xfb,0xff,0xff,0x00,0x00,0x00,0x01,0x14,0x00,0x00,0x00,0x20,0x00,0x00,0x00,0x20,0x00,0x00,0x00,0x0e,0x00,0x00,0x00,0x48,0x00,0x00,0x00,0x03,0x00,0x00,0x00,0xff,0xff,0xff,0xff,0x02,0x00,0x00,0x00,0x20,0x00,0x00,0x00,0x88,0xfb,0xff,0xff,0x29,0x00,0x00,0x00,0x73,0x65,0x71,0x75,0x65,0x6e,0x74,0x69,0x61,0x6c,0x5f,0x31,0x2f,0x63,0x6f,0x6e,0x76,0x31,0x64,0x5f,0x31,0x2f,0x63,0x6f,0x6e,0x76,0x6f,0x6c,0x75,0x74,0x69,0x6f,0x6e,0x2f,0x53,0x71,0x75,0x65,0x65,0x7a,0x65,0x00,0x00,0x00,0x03,0x00,0x00,0x00,0x01,0x00,0x00,0x00,0x02,0x00,0x00,0x00,0x20,0x00,0x00,0x00,0x6a,0xfc,0xff,0xff,0x00,0x00,0x00,0x01,0x14,0x00,0x00,0x00,0x24,0x00,0x00,0x00,0x24,0x00,0x00,0x00,0x0d,0x00,0x00,0x00,0x44,0x00,0x00,0x00,0x04,0x00,0x00,0x00,0xff,0xff,0xff,0xff,0x01,0x00,0x00,0x00,0x02,0x00,0x00,0x00,0x20,0x00,0x00,0x00,0xfc,0xfb,0xff,0xff,0x21,0x00,0x00,0x00,0x73,0x65,0x71,0x75,0x65,0x6e,0x74,0x69,0x61,0x6c,0x5f,0x31,0x2f,0x63,0x6f,0x6e,0x76,0x31,0x64,0x5f,0x31,0x2f,0x63,0x6f,0x6e,0x76,0x6f,0x6c,0x75,0x74,0x69,0x6f,0x6e,0x00,0x00,0x00,0x04,0x00,0x00,0x00,0x01,0x00,0x00,0x00,0x01,0x00,0x00,0x00,0x02,0x00,0x00,0x00,0x20,0x00,0x00,0x00,0xda,0xfc,0xff,0xff,0x00,0x00,0x00,0x01,0x14,0x00,0x00,0x00,0x24,0x00,0x00,0x00,0x24,0x00,0x00,0x00,0x0c,0x00,0x00,0x00,0x50,0x00,0x00,0x00,0x04,0x00,0x00,0x00,0xff,0xff,0xff,0xff,0x01,0x00,0x00,0x00,0x03,0x00,0x00,0x00,0x01,0x00,0x00,0x00,0x6c,0xfc,0xff,0xff,0x2c,0x00,0x00,0x00,0x73,0x65,0x71,0x75,0x65,0x6e,0x74,0x69,0x61,0x6c,0x5f,0x31,0x2f,0x63,0x6f,0x6e,0x76,0x31,0x64,0x5f,0x31,0x2f,0x63,0x6f,0x6e,0x76,0x6f,0x6c,0x75,0x74,0x69,0x6f,0x6e,0x2f,0x45,0x78,0x70,0x61,0x6e,0x64,0x44,0x69,0x6d,0x73,0x00,0x00,0x00,0x00,0x04,0x00,0x00,0x00,0x01,0x00,0x00,0x00,0x01,0x00,0x00,0x00,0x03,0x00,0x00,0x00,0x01,0x00,0x00,0x00,0xaa,0xfd,0xff,0xff,0x00,0x00,0x00,0x01,0x14,0x00,0x00,0x00,0x14,0x00,0x00,0x00,0x0b,0x00,0x00,0x00,0x00,0x00,0x00,0x02,0x40,0x00,0x00,0x00,0xd4,0xfc,0xff,0xff,0x30,0x00,0x00,0x00,0x73,0x65,0x71,0x75,0x65,0x6e,0x74,0x69,0x61,0x6c,0x5f,0x31,0x2f,0x63,0x6f,0x6e,0x76,0x31,0x64,0x5f,0x31,0x2f,0x63,0x6f,0x6e,0x76,0x6f,0x6c,0x75,0x74,0x69,0x6f,0x6e,0x2f,0x45,0x78,0x70,0x61,0x6e,0x64,0x44,0x69,0x6d,0x73,0x2f,0x64,0x69,0x6d,0x00,0x00,0x00,0x00,0x00,0x00,0x00,0x00,0x06,0xfe,0xff,0xff,0x00,0x00,0x00,0x01,0x14,0x00,0x00,0x00,0x14,0x00,0x00,0x00,0x0a,0x00,0x00,0x00,0x00,0x00,0x00,0x02,0x1c,0x00,0x00,0x00,0x30,0xfd,0xff,0xff,0x0f,0x00,0x00,0x00,0x61,0x72,0x69,0x74,0x68,0x2e,0x63,0x6f,0x6e,0x73,0x74,0x61,0x6e,0x74,0x38,0x00,0x01,0x00,0x00,0x00,0x02,0x00,0x00,0x00,0x9e,0xfe,0xff,0xff,0x00,0x00,0x00,0x01,0x10,0x00,0x00,0x00,0x10,0x00,0x00,0x00,0x09,0x00,0x00,0x00,0x1c,0x00,0x00,0x00,0x68,0xfd,0xff,0xff,0x0f,0x00,0x00,0x00,0x61,0x72,0x69,0x74,0x68,0x2e,0x63,0x6f,0x6e,0x73,0x74,0x61,0x6e,0x74,0x37,0x00,0x01,0x00,0x00,0x00,0x02,0x00,0x00,0x00,0xd6,0xfe,0xff,0xff,0x00,0x00,0x00,0x01,0x10,0x00,0x00,0x00,0x10,0x00,0x00,0x00,0x08,0x00,0x00,0x00,0x1c,0x00,0x00,0x00,0xa0,0xfd,0xff,0xff,0x0f,0x00,0x00,0x00,0x61,0x72,0x69,0x74,0x68,0x2e,0x63,0x6f,0x6e,0x73,0x74,0x61,0x6e,0x74,0x36,0x00,0x01,0x00,0x00,0x00,0x20,0x00,0x00,0x00,0x0e,0xff,0xff,0xff,0x00,0x00,0x00,0x01,0x10,0x00,0x00,0x00,0x10,0x00,0x00,0x00,0x07,0x00,0x00,0x00,0x1c,0x00,0x00,0x00,0xd8,0xfd,0xff,0xff,0x0f,0x00,0x00,0x00,0x61,0x72,0x69,0x74,0x68,0x2e,0x63,0x6f,0x6e,0x73,0x74,0x61,0x6e,0x74,0x35,0x00,0x03,0x00,0x00,0x00,0x01,0x00,0x00,0x00,0x01,0x00,0x00,0x00,0x20,0x00,0x00,0x00,0x4e,0xff,0xff,0xff,0x00,0x00,0x00,0x01,0x10,0x00,0x00,0x00,0x10,0x00,0x00,0x00,0x06,0x00,0x00,0x00,0x1c,0x00,0x00,0x00,0x18,0xfe,0xff,0xff,0x0f,0x00,0x00,0x00,0x61,0x72,0x69,0x74,0x68,0x2e,0x63,0x6f,0x6e,0x73,0x74,0x61,0x6e,0x74,0x34,0x00,0x02,0x00,0x00,0x00,0x20,0x00,0x00,0x00,0x40,0x00,0x00,0x00,0x8a,0xff,0xff,0xff,0x00,0x00,0x00,0x01,0x10,0x00,0x00,0x00,0x10,0x00,0x00,0x00,0x05,0x00,0x00,0x00,0x1c,0x00,0x00,0x00,0x54,0xfe,0xff,0xff,0x0f,0x00,0x00,0x00,0x61,0x72,0x69,0x74,0x68,0x2e,0x63,0x6f,0x6e,0x73,0x74,0x61,0x6e,0x74,0x33,0x00,0x02,0x00,0x00,0x00,0x02,0x00,0x00,0x00,0x20,0x00,0x00,0x00,0xc6,0xff,0xff,0xff,0x00,0x00,0x00,0x01,0x10,0x00,0x00,0x00,0x10,0x00,0x00,0x00,0x04,0x00,0x00,0x00,0x1c,0x00,0x00,0x00,0x90,0xfe,0xff,0xff,0x0f,0x00,0x00,0x00,0x61,0x72,0x69,0x74,0x68,0x2e,0x63,0x6f,0x6e,0x73,0x74,0x61,0x6e,0x74,0x32,0x00,0x01,0x00,0x00,0x00,0x20,0x00,0x00,0x00,0x00,0x00,0x16,0x00,0x18,0x00,0x14,0x00,0x00,0x00,0x10,0x00,0x0c,0x00,0x08,0x00,0x00,0x00,0x00,0x00,0x00,0x00,0x07,0x00,0x16,0x00,0x00,0x00,0x00,0x00,0x00,0x01,0x10,0x00,0x00,0x00,0x10,0x00,0x00,0x00,0x03,0x00,0x00,0x00,0x1c,0x00,0x00,0x00,0xe0,0xfe,0xff,0xff,0x0f,0x00,0x00,0x00,0x61,0x72,0x69,0x74,0x68,0x2e,0x63,0x6f,0x6e,0x73,0x74,0x61,0x6e,0x74,0x31,0x00,0x04,0x00,0x00,0x00,0x20,0x00,0x00,0x00,0x01,0x00,0x00,0x00,0x02,0x00,0x00,0x00,0x01,0x00,0x00,0x00,0x00,0x00,0x16,0x00,0x1c,0x00,0x18,0x00,0x17,0x00,0x10,0x00,0x0c,0x00,0x08,0x00,0x00,0x00,0x00,0x00,0x00,0x00,0x07,0x00,0x16,0x00,0x00,0x00,0x00,0x00,0x00,0x01,0x14,0x00,0x00,0x00,0x14,0x00,0x00,0x00,0x02,0x00,0x00,0x00,0x00,0x00,0x00,0x02,0x1c,0x00,0x00,0x00,0x40,0xff,0xff,0xff,0x0e,0x00,0x00,0x00,0x61,0x72,0x69,0x74,0x68,0x2e,0x63,0x6f,0x6e,0x73,0x74,0x61,0x6e,0x74,0x00,0x00,0x01,0x00,0x00,0x00,0x03,0x00,0x00,0x00,0x00,0x00,0x16,0x00,0x1c,0x00,0x18,0x00,0x00,0x00,0x14,0x00,0x10,0x00,0x0c,0x00,0x00,0x00,0x00,0x00,0x08,0x00,0x07,0x00,0x16,0x00,0x00,0x00,0x00,0x00,0x00,0x01,0x14,0x00,0x00,0x00,0x20,0x00,0x00,0x00,0x20,0x00,0x00,0x00,0x01,0x00,0x00,0x00,0x3c,0x00,0x00,0x00,0x03,0x00,0x00,0x00,0xff,0xff,0xff,0xff,0x03,0x00,0x00,0x00,0x01,0x00,0x00,0x00,0xa4,0xff,0xff,0xff,0x1e,0x00,0x00,0x00,0x73,0x65,0x72,0x76,0x69,0x6e,0x67,0x5f,0x64,0x65,0x66,0x61,0x75,0x6c,0x74,0x5f,0x6b,0x65,0x72,0x61,0x73,0x5f,0x74,0x65,0x6e,0x73,0x6f,0x72,0x3a,0x30,0x00,0x00,0x03,0x00,0x00,0x00,0x01,0x00,0x00,0x00,0x03,0x00,0x00,0x00,0x01,0x00,0x00,0x00,0x05,0x00,0x00,0x00,0x4c,0x00,0x00,0x00,0x30,0x00,0x00,0x00,0x20,0x00,0x00,0x00,0x18,0x00,0x00,0x00,0x04,0x00,0x00,0x00,0xd4,0xff,0xff,0xff,0x09,0x00,0x00,0x00,0x00,0x00,0x00,0x09,0x04,0x00,0x04,0x00,0x04,0x00,0x00,0x00,0xe8,0xff,0xff,0xff,0x16,0x00,0x00,0x00,0x00,0x00,0x00,0x16,0xf4,0xff,0xff,0xff,0x03,0x00,0x00,0x00,0x00,0x00,0x00,0x03,0x0c,0x00,0x0c,0x00,0x0b,0x00,0x00,0x00,0x00,0x00,0x04,0x00,0x0c,0x00,0x00,0x00,0x46,0x00,0x00,0x00,0x00,0x00,0x00,0x46};
const int g_model_len = 12072;

const float scaler_i_mean[] = { 5.0, 350.31769781144783, 496.7822320426487 };
const float scaler_i_scale[] = { 2.581988897471611, 148.34905984190482, 120.57640180027173 };
const float scaler_o_mean[] = { 2.5, 32.5 };
const float scaler_o_scale[] = { 1.5811388300841898, 5.5901699437494745 };
#endif  // MODEL_H
