
#ifndef MODEL_H
#define MODEL_H

// MSE(Pos, Temp): [0.17249878 0.20512922]


const unsigned char g_model[] = {0x1c,0x00,0x00,0x00,0x54,0x46,0x4c,0x33,0x14,0x00,0x20,0x00,0x1c,0x00,0x18,0x00,0x14,0x00,0x10,0x00,0x0c,0x00,0x00,0x00,0x08,0x00,0x04,0x00,0x14,0x00,0x00,0x00,0x1c,0x00,0x00,0x00,0x8c,0x00,0x00,0x00,0xe4,0x00,0x00,0x00,0x04,0x26,0x00,0x00,0x14,0x26,0x00,0x00,0x98,0x2e,0x00,0x00,0x03,0x00,0x00,0x00,0x01,0x00,0x00,0x00,0x04,0x00,0x00,0x00,0xd6,0xd8,0xff,0xff,0x0c,0x00,0x00,0x00,0x1c,0x00,0x00,0x00,0x3c,0x00,0x00,0x00,0x0f,0x00,0x00,0x00,0x73,0x65,0x72,0x76,0x69,0x6e,0x67,0x5f,0x64,0x65,0x66,0x61,0x75,0x6c,0x74,0x00,0x01,0x00,0x00,0x00,0x04,0x00,0x00,0x00,0x90,0xff,0xff,0xff,0x11,0x00,0x00,0x00,0x04,0x00,0x00,0x00,0x08,0x00,0x00,0x00,0x6f,0x75,0x74,0x70,0x75,0x74,0x5f,0x30,0x00,0x00,0x00,0x00,0x01,0x00,0x00,0x00,0x04,0x00,0x00,0x00,0x8a,0xda,0xff,0xff,0x04,0x00,0x00,0x00,0x0c,0x00,0x00,0x00,0x6b,0x65,0x72,0x61,0x73,0x5f,0x74,0x65,0x6e,0x73,0x6f,0x72,0x00,0x00,0x00,0x00,0x02,0x00,0x00,0x00,0x34,0x00,0x00,0x00,0x04,0x00,0x00,0x00,0xdc,0xff,0xff,0xff,0x14,0x00,0x00,0x00,0x04,0x00,0x00,0x00,0x13,0x00,0x00,0x00,0x43,0x4f,0x4e,0x56,0x45,0x52,0x53,0x49,0x4f,0x4e,0x5f,0x4d,0x45,0x54,0x41,0x44,0x41,0x54,0x41,0x00,0x08,0x00,0x0c,0x00,0x08,0x00,0x04,0x00,0x08,0x00,0x00,0x00,0x13,0x00,0x00,0x00,0x04,0x00,0x00,0x00,0x13,0x00,0x00,0x00,0x6d,0x69,0x6e,0x5f,0x72,0x75,0x6e,0x74,0x69,0x6d,0x65,0x5f,0x76,0x65,0x72,0x73,0x69,0x6f,0x6e,0x00,0x15,0x00,0x00,0x00,0x1c,0x25,0x00,0x00,0x14,0x25,0x00,0x00,0xf8,0x24,0x00,0x00,0xe0,0x23,0x00,0x00,0x50,0x23,0x00,0x00,0x40,0x22,0x00,0x00,0x30,0x02,0x00,0x00,0xa0,0x01,0x00,0x00,0x10,0x01,0x00,0x00,0xf8,0x00,0x00,0x00,0xe0,0x00,0x00,0x00,0xcc,0x00,0x00,0x00,0xc4,0x00,0x00,0x00,0xbc,0x00,0x00,0x00,0xb4,0x00,0x00,0x00,0xac,0x00,0x00,0x00,0xa4,0x00,0x00,0x00,0x9c,0x00,0x00,0x00,0x94,0x00,0x00,0x00,0x74,0x00,0x00,0x00,0x04,0x00,0x00,0x00,0x5a,0xdb,0xff,0xff,0x04,0x00,0x00,0x00,0x60,0x00,0x00,0x00,0x10,0x00,0x00,0x00,0x00,0x00,0x00,0x00,0x08,0x00,0x0e,0x00,0x08,0x00,0x04,0x00,0x08,0x00,0x00,0x00,0x10,0x00,0x00,0x00,0x24,0x00,0x00,0x00,0x00,0x00,0x06,0x00,0x08,0x00,0x04,0x00,0x06,0x00,0x00,0x00,0x04,0x00,0x00,0x00,0x00,0x00,0x00,0x00,0x0c,0x00,0x18,0x00,0x14,0x00,0x10,0x00,0x0c,0x00,0x04,0x00,0x0c,0x00,0x00,0x00,0x81,0xdb,0xf2,0xa3,0xbb,0xed,0x47,0x42,0x02,0x00,0x00,0x00,0x02,0x00,0x00,0x00,0x04,0x00,0x00,0x00,0x06,0x00,0x00,0x00,0x32,0x2e,0x31,0x37,0x2e,0x30,0x00,0x00,0xc6,0xdb,0xff,0xff,0x04,0x00,0x00,0x00,0x10,0x00,0x00,0x00,0x31,0x2e,0x31,0x30,0x2e,0x30,0x00,0x00,0x00,0x00,0x00,0x00,0x00,0x00,0x00,0x00,0xfc,0xd2,0xff,0xff,0x00,0xd3,0xff,0xff,0x04,0xd3,0xff,0xff,0x08,0xd3,0xff,0xff,0x0c,0xd3,0xff,0xff,0x10,0xd3,0xff,0xff,0x14,0xd3,0xff,0xff,0xfe,0xdb,0xff,0xff,0x04,0x00,0x00,0x00,0x04,0x00,0x00,0x00,0xfd,0xff,0xff,0xff,0x0e,0xdc,0xff,0xff,0x04,0x00,0x00,0x00,0x08,0x00,0x00,0x00,0xff,0xff,0xff,0xff,0x40,0x00,0x00,0x00,0x22,0xdc,0xff,0xff,0x04,0x00,0x00,0x00,0x08,0x00,0x00,0x00,0x79,0xd9,0x99,0x3e,0xf4,0x44,0xc4,0xbe,0x36,0xdc,0xff,0xff,0x04,0x00,0x00,0x00,0x80,0x00,0x00,0x00,0xd3,0x63,0x7c,0x3d,0x0f,0x03,0x7e,0xbe,0x6e,0x24,0x5c,0x3e,0x4b,0x12,0x31,0xbe,0xa2,0xcb,0xb1,0x3e,0x29,0x2f,0x9d,0x3d,0xea,0x83,0x89,0x3e,0xc7,0x57,0x50,0xbd,0x59,0xcc,0x8c,0x3e,0x73,0x5b,0xb8,0xbe,0x76,0x38,0x4e,0x3e,0xc5,0xa3,0x70,0x3e,0x91,0xce,0x9a,0x3e,0xb9,0x81,0x79,0xbe,0x9e,0x17,0xff,0xbd,0x5c,0xe9,0xe8,0xbe,0xe9,0xd5,0x14,0xbe,0x91,0xa8,0x8c,0xbe,0xb7,0x8a,0x24,0x3d,0xab,0x6b,0xb6,0x3d,0x84,0x01,0x93,0xbe,0x01,0xa2,0xba,0x3e,0x02,0x69,0x8b,0xbe,0x58,0xde,0x16,0xbf,0xf6,0xa2,0x15,0x3d,0x7e,0x87,0xcd,0x3d,0x31,0x69,0x8c,0xbe,0x74,0x28,0x92,0x3d,0xd3,0xc2,0x50,0xbd,0xac,0x22,0x8f,0x3e,0x90,0xc0,0xb9,0x3e,0x5d,0x4a,0xce,0x3e,0xc2,0xdc,0xff,0xff,0x04,0x00,0x00,0x00,0x80,0x00,0x00,0x00,0x7a,0x78,0xeb,0xbb,0x2d,0xcd,0x08,0x3e,0xae,0x8f,0x5a,0x3e,0x5b,0x3f,0x89,0x3e,0x29,0xb5,0xcd,0x3d,0xb2,0xaa,0xb4,0x3d,0x03,0xf9,0x0a,0x3c,0x0e,0xff,0xa1,0xbc,0xe9,0x2b,0x2f,0x3e,0x19,0xcf,0xe9,0xbe,0xfa,0x75,0xf9,0xbe,0x48,0x88,0x00,0xbc,0x63,0x63,0xe0,0x3c,0xdf,0x03,0xe5,0x3d,0xa5,0xbe,0x0b,0xbf,0x59,0x5d,0x28,0x3e,0x5b,0xf0,0x6d,0x3e,0x25,0xc0,0x84,0xbe,0x2d,0xaa,0x4f,0xbe,0xc4,0x5f,0x7c,0x3e,0x0a,0x57,0x5c,0xbe,0x7d,0x81,0x21,0xbc,0xd3,0xd7,0xc3,0x3d,0x60,0xaf,0x16,0xbe,0x95,0x69,0x34,0x3e,0xaf,0x7a,0x4c,0xbf,0x01,0xdc,0x08,0x3e,0x98,0xc5,0xdc,0xbe,0xa7,0x0a,0x4f,0x3e,0x95,0xda,0x8a,0xbe,0xe5,0x9b,0x35,0x3e,0x3a,0x27,0x4a,0xbe,0x4e,0xdd,0xff,0xff,0x04,0x00,0x00,0x00,0x00,0x20,0x00,0x00,0xf5,0x57,0x05,0xc0,0xcb,0x62,0x34,0x3c,0xcb,0x3a,0xaf,0x3e,0x8e,0xe7,0x79,0xbc,0x44,0x58,0xaf,0xbe,0xb1,0x6c,0x93,0x3e,0x85,0xf7,0x41,0xbe,0xae,0x20,0x31,0xbe,0xfc,0x51,0xe2,0xbd,0xb7,0x62,0x99,0xbd,0x7e,0xee,0xae,0x3e,0x5f,0x46,0x33,0x3c,0xc1,0x21,0xe4,0x3b,0x69,0xa1,0x87,0x3f,0x12,0xad,0x5c,0xbe,0x4b,0xb8,0xad,0x3d,0xf4,0x6c,0x54,0xbd,0xfc,0x51,0x60,0xbd,0x93,0x0c,0x52,0xbe,0x57,0x8b,0xbe,0x3d,0x15,0xba,0x8a,0x3d,0x38,0x21,0x61,0x3d,0x24,0x93,0x82,0xbe,0xd0,0xf1,0x69,0x3c,0xd2,0xd9,0x96,0x3e,0xa0,0xac,0xc2,0xbe,0xf9,0xef,0xb3,0xbe,0x69,0x2c,0x6d,0xbe,0x28,0xde,0xd8,0xbd,0x26,0x4d,0xea,0xbe,0x17,0x06,0x8e,0x3e,0x73,0x1e,0x16,0xbe,0x7d,0xdc,0x76,0x3d,0xc9,0x78,0x3e,0x3f,0xb2,0xb8,0xe4,0xbd,0xce,0x97,0xc2,0xbe,0x2f,0xcc,0xf9,0x3e,0x53,0x53,0x87,0xbe,0x42,0xaa,0x1b,0xbd,0x40,0xfb,0x10,0xbe,0x78,0x87,0xc0,0xbf,0xe4,0xec,0x85,0x3e,0x8b,0x78,0xa3,0x3f,0xdf,0x3a,0x21,0x3e,0x2b,0x9a,0x5a,0xbf,0xc5,0xd7,0xc6,0x3f,0x12,0x62,0xac,0xbe,0x44,0xc2,0x0d,0xbf,0xb9,0xea,0x4f,0x3f,0xe9,0x3e,0xf1,0x3d,0xd8,0x99,0x60,0x3e,0xc0,0xda,0xe0,0xbe,0x8a,0xba,0xbe,0xbe,0x69,0x27,0xd6,0x3c,0x6c,0xae,0xde,0x3d,0x07,0xd1,0x6a,0xbe,0x74,0x1a,0x8e,0xbe,0xce,0x9c,0x2d,0x3e,0x2a,0x3d,0xb2,0x3d,0xd2,0x26,0xe7,0x3e,0x8d,0x26,0x7c,0x3e,0x90,0x01,0x8d,0x3e,0xea,0x60,0x0c,0x3e,0xee,0xb0,0x9a,0xbd,0xc3,0x8f,0x93,0x3e,0x8c,0xe9,0x68,0x3f,0x8d,0xc5,0xd4,0x3d,0xd0,0xe6,0xdb,0xbe,0xdc,0xfb,0xf8,0x3d,0x15,0x3d,0xb4,0xbe,0x15,0x04,0xb6,0xbe,0x9c,0x6f,0x1b,0x3e,0x59,0x29,0x71,0xbe,0x57,0x5b,0xae,0x3e,0x3f,0xa7,0x9d,0x3e,0x50,0xdc,0x9c,0x3b,0xdf,0x0e,0x3e,0xbe,0xa5,0x1b,0x9c,0x3e,0xc7,0x6c,0xd3,0x3e,0xab,0x8d,0x64,0xbe,0x55,0xdf,0x87,0x3e,0x26,0x0b,0x19,0x3e,0xae,0xdd,0x94,0xbd,0xc9,0x97,0x0e,0xbe,0x9e,0x87,0xa8,0x3e,0xd9,0x16,0x44,0xbe,0x4b,0x0e,0xc4,0x3d,0xb3,0xcc,0x5f,0xbe,0xd7,0x26,0x15,0xbc,0x4c,0x1f,0x3a,0x3f,0x10,0xa8,0xf4,0x3e,0xbf,0x72,0x8a,0x3e,0xb2,0x76,0xb0,0x3e,0x0f,0xdc,0x2b,0x3e,0x53,0xdc,0x09,0x3e,0x9d,0xa2,0xc5,0x3d,0xee,0xe4,0xf5,0x3d,0xdc,0x23,0x42,0xbf,0x10,0x5f,0x48,0x3e,0x74,0x67,0xdf,0x3e,0xd3,0x98,0x3e,0xbd,0x35,0x3f,0x58,0x3e,0xa4,0x09,0x4c,0x3e,0xc8,0xa5,0xaa,0xbe,0xa7,0xb4,0xa2,0x3e,0x67,0xd9,0x8d,0x3d,0xc4,0x85,0xa0,0x40,0x49,0xb4,0x7d,0x3c,0xa6,0x56,0xbd,0x3e,0xe9,0xd3,0xee,0xbe,0xad,0x8f,0x13,0x3f,0x03,0x1d,0x6d,0x3e,0x6a,0x0b,0x35,0xbe,0x6d,0xdb,0x9a,0x3d,0xe8,0x0d,0x8e,0x3e,0x1a,0xfb,0x93,0x3e,0xc5,0xb4,0x2c,0x3b,0x1a,0xf3,0x84,0xbd,0xb1,0x14,0x70,0xbe,0x1b,0x34,0x7b,0xbe,0x86,0x91,0x12,0x3f,0x72,0x89,0x6f,0x3f,0x13,0xda,0xbe,0x3e,0xdc,0x02,0x37,0x3e,0x1f,0x71,0x92,0xbd,0x41,0xb5,0x74,0xbe,0x11,0xeb,0x0f,0xbe,0x5d,0xa4,0xba,0xbe,0x54,0x91,0x68,0xbe,0x75,0xad,0x20,0xbf,0xa7,0xed,0x80,0x3e,0xc7,0xc3,0x2e,0x3e,0xfc,0x4f,0x59,0xbd,0x3a,0xfb,0xd0,0x3e,0x5f,0xeb,0x9c,0x3e,0xff,0x03,0x42,0xbf,0x59,0xea,0xbd,0x3e,0x06,0x45,0x49,0x3c,0xfa,0xa8,0xc5,0xbe,0xa7,0xa8,0xe2,0x3d,0x55,0xd0,0xcb,0xba,0x1d,0xc5,0xcf,0xbd,0x77,0xb7,0x7a,0xbd,0x12,0xd5,0x61,0xbd,0xbd,0x53,0xd6,0xbc,0x9c,0xd2,0xc4,0xbd,0xcb,0xf7,0x75,0x3e,0x4e,0x2f,0xb9,0x3d,0x3c,0x88,0x35,0x3d,0x44,0xab,0x8b,0x3d,0x89,0x58,0x66,0x3d,0x86,0xcd,0x02,0x3d,0xa5,0xd2,0xa9,0x3e,0x7b,0x68,0x68,0xbf,0xf4,0x1a,0x0a,0xbf,0x2f,0x18,0xe1,0xbc,0xe9,0xd3,0x67,0xbe,0x49,0x3e,0x0a,0xbe,0xa7,0x7c,0x0f,0xbe,0x13,0x61,0x42,0x3e,0x33,0x0b,0x09,0xbf,0xa6,0x43,0x38,0xbe,0xcc,0xc0,0xa3,0xbd,0x21,0xcb,0xd4,0x3e,0x2e,0xd6,0xc2,0x3e,0x4c,0x34,0xa6,0xbe,0x37,0x36,0x11,0xbc,0xfa,0x4d,0xc9,0x3d,0x7a,0x22,0xef,0x3e,0xd4,0xc4,0xb8,0xbc,0xc1,0x15,0x9c,0xc0,0x53,0x84,0x80,0x3d,0xb7,0x4c,0x66,0xbd,0x37,0x65,0x96,0xbe,0x5f,0x76,0x03,0xbf,0x70,0x9f,0x6a,0x3e,0x8c,0x30,0xfe,0xbc,0xe8,0xc0,0xcc,0x3d,0x55,0x64,0xdd,0x3d,0x34,0xc6,0xcb,0x3e,0x6a,0x3b,0xdc,0x3e,0x2a,0x2d,0x05,0x3e,0xa9,0xbc,0x5d,0x3e,0xc3,0xdb,0xff,0x3e,0xe8,0x45,0xeb,0x3d,0xec,0x22,0x63,0xbf,0x3c,0x5d,0x6c,0xbf,0xed,0xa8,0xfd,0xbd,0x8c,0x24,0x02,0xbf,0x8f,0x45,0xf1,0xbd,0x76,0xcb,0xaa,0x3e,0x84,0x47,0xb8,0xbd,0xa7,0x15,0xd3,0xbe,0xa6,0xde,0x15,0x3e,0xf6,0x28,0x03,0xbe,0x2d,0x86,0x7b,0xbc,0x14,0x6f,0x4d,0x3c,0x36,0x36,0xbd,0xbe,0x10,0x94,0x12,0xbd,0x98,0xb6,0x5c,0xbc,0x95,0x59,0x16,0xbe,0xfb,0x6b,0xcd,0x3e,0xec,0x4b,0xd7,0x3e,0xe6,0x93,0x8d,0xbd,0x7a,0x1c,0x47,0xbe,0x15,0xc4,0x96,0xbd,0xfd,0x0d,0xcc,0x3e,0xf0,0x70,0x17,0xbe,0xdd,0xe7,0xc3,0x3d,0xa6,0x13,0x99,0x3c,0x1d,0xbd,0xa3,0x3e,0xbe,0x38,0x6c,0xbe,0xaf,0xf6,0xda,0x3e,0x31,0x6c,0x83,0x3e,0x76,0xaa,0x1d,0x3e,0x00,0x0d,0x4d,0x3d,0x93,0x64,0xd5,0xbd,0xa7,0x79,0x12,0x3f,0x08,0x19,0x86,0x3e,0x27,0x6c,0xd7,0x3d,0x80,0x5a,0x3a,0x3e,0x63,0x6d,0x54,0x3e,0x57,0xd4,0x4d,0x3d,0x54,0x42,0x80,0xbd,0xeb,0x17,0x23,0x3f,0x87,0x78,0xb1,0x3c,0x0f,0xbe,0x26,0x3e,0x8a,0xee,0x35,0xbe,0xdb,0x41,0x09,0x3d,0x02,0x2a,0xdc,0x3d,0x66,0xdb,0xfe,0x3c,0x3a,0xe7,0x37,0x3e,0x2d,0xce,0xb5,0x3d,0x06,0xed,0xab,0x3e,0x2c,0xe2,0x99,0x40,0x78,0xfd,0x65,0xbe,0x57,0x7b,0x68,0x3e,0x5c,0x6a,0xf3,0x3d,0x40,0x45,0xd8,0x3e,0x42,0x46,0xae,0xbc,0xbb,0x95,0x34,0x3e,0x3d,0x59,0xf6,0x3e,0x63,0x60,0x36,0x3c,0x4d,0xa1,0x7e,0xbe,0x65,0xbb,0x7a,0xbe,0x93,0xee,0xb6,0xbe,0xb9,0xa9,0xfd,0xbd,0x79,0x63,0xaa,0xbd,0xb0,0xf1,0x94,0xbe,0xd8,0xde,0x9c,0x3f,0x2e,0xa9,0x19,0x3f,0xca,0xa7,0x8e,0x3e,0xae,0xd5,0xb3,0x3e,0xec,0x49,0xc4,0x3c,0x3c,0x0f,0x22,0xbe,0xcd,0x5e,0x29,0xbe,0xe3,0xa7,0x4f,0x40,0x8b,0x9f,0x8e,0xc0,0xe3,0xc6,0xbd,0xbd,0x58,0xd1,0x00,0x3f,0x20,0x3e,0xd5,0x3d,0xb4,0x56,0x03,0x3e,0x56,0x23,0x8f,0xbc,0xce,0xd8,0x28,0xc0,0x5b,0x62,0x82,0x3e,0xf2,0x09,0xae,0xbe,0x9b,0x6a,0x5c,0xbe,0x1d,0x7c,0xe2,0xbd,0x62,0xbb,0xec,0xbd,0x4b,0x43,0x13,0xbf,0x5d,0x8e,0x8e,0xbc,0x65,0x93,0x95,0x3e,0x43,0xba,0x00,0xbe,0x64,0xbd,0x8e,0x3d,0xdf,0xeb,0x5c,0x3e,0x38,0x10,0x30,0x3f,0x7b,0x6e,0x90,0x3e,0x29,0xc2,0x8c,0xbe,0x56,0x45,0x8e,0xbe,0x24,0xf0,0xdc,0x3b,0x16,0x1b,0xcc,0x3e,0xf4,0x06,0x47,0xbf,0xd1,0x1e,0xb4,0x3e,0xae,0xca,0xee,0xbe,0x69,0xa6,0xe8,0xbb,0x9c,0xb2,0xaf,0xbe,0xe2,0x1b,0xfb,0xbe,0xb0,0xcd,0x02,0x3e,0xf8,0xc0,0x92,0xbf,0x72,0x37,0x5d,0x3f,0x40,0x73,0xa2,0xbd,0xa4,0x8e,0xf7,0x3c,0x58,0x85,0xb0,0x3d,0x6b,0x49,0x2b,0xbf,0x4e,0xf7,0x42,0x3b,0xc4,0x0d,0x88,0x3e,0x68,0x21,0x6a,0xbe,0xae,0x9e,0x88,0xbd,0xfa,0x7d,0xa5,0xc0,0x57,0x24,0xc7,0xbd,0x51,0xf0,0x04,0xbc,0xdf,0x64,0x1c,0x3f,0xe8,0x47,0x2e,0xbf,0x1e,0xe9,0xbf,0xbb,0x25,0x64,0x88,0x3e,0x84,0x14,0xa2,0xbc,0x97,0x92,0x77,0x3e,0xfd,0xa0,0xa9,0xbe,0x1f,0x63,0xb2,0xbd,0x4e,0x51,0x0a,0xbe,0x70,0xcc,0xa1,0x3e,0x51,0xd6,0x19,0x3e,0x7b,0x6a,0x27,0xbf,0x39,0x69,0x50,0xbf,0x6d,0x72,0x84,0xbf,0xfc,0x15,0x07,0xbc,0x31,0xf1,0x7c,0x3e,0x1f,0x64,0xe3,0x3d,0x0c,0x67,0xc4,0xbe,0x0a,0xe8,0xaf,0xbd,0xec,0x7a,0x94,0xbe,0x9b,0x6f,0x80,0x3e,0x0f,0x40,0xa4,0x3e,0x1e,0xcf,0xeb,0xbc,0x50,0x1b,0xdc,0x3d,0xe8,0x5c,0xaf,0x3d,0x24,0xbd,0x40,0x3e,0x78,0x5d,0x14,0x3e,0xc2,0x73,0x24,0xbe,0x6a,0xcb,0xb6,0xbc,0xa1,0x2b,0x85,0x3e,0xf8,0xa6,0x42,0xbd,0x9c,0x92,0x89,0xbe,0xe1,0x77,0xe0,0x3e,0x2c,0xe4,0x88,0x3e,0x50,0x60,0xde,0x3b,0x0f,0x10,0x11,0x3e,0x34,0x86,0x2a,0x3e,0xc6,0xa2,0x03,0x3e,0xa5,0x4f,0x74,0xbe,0x80,0x72,0xdc,0xbd,0xbf,0x3c,0x15,0x3d,0x95,0xa1,0x45,0xbe,0x5a,0x13,0x37,0x3e,0x42,0x79,0x89,0xbe,0xe9,0x17,0x54,0x3f,0xf8,0xeb,0x7c,0x3e,0xb4,0xca,0x20,0x3f,0xd0,0x7d,0xaa,0x3e,0x3a,0x44,0x44,0xbe,0xa4,0xaf,0x31,0xbe,0x4d,0xb9,0x23,0xbe,0xc1,0xb3,0x06,0x3e,0x84,0x1f,0x2f,0x3e,0x73,0x09,0x89,0x3c,0xf9,0x67,0x0e,0xbe,0x4d,0x4d,0x16,0x3e,0xe2,0x09,0x1b,0xbe,0x88,0x0c,0xdc,0x3d,0x78,0x65,0xf1,0x3d,0xe4,0x71,0x70,0xbe,0x86,0xa6,0x88,0x3e,0x3b,0x22,0x88,0x40,0x3c,0x5f,0x54,0xbe,0x76,0xe2,0x4a,0x3f,0x5a,0x52,0xc9,0xbc,0xd6,0xf9,0x33,0x3f,0x55,0x45,0xc9,0x3e,0xf7,0xa7,0xd9,0xbd,0x45,0x9e,0x0e,0x3f,0x8b,0xa9,0x3b,0xbd,0x43,0x34,0x87,0xbd,0x62,0xd1,0xe9,0xbe,0xc9,0xba,0x96,0xbe,0xc1,0x72,0x90,0x3d,0xfc,0x1c,0x54,0x3e,0x16,0xd9,0xaa,0xbe,0x0f,0x7a,0x07,0x3f,0x27,0x30,0xad,0x3e,0x82,0x7b,0xe6,0x3d,0xd8,0xb5,0x5f,0x3e,0x21,0x79,0x0e,0xbe,0x80,0xe2,0x82,0xbb,0xcc,0x5e,0x5e,0xbe,0x9e,0x80,0xe3,0xbe,0x74,0x90,0x0a,0xbf,0x3c,0xe0,0x36,0x3e,0xee,0x38,0xa4,0x3e,0xd1,0xa9,0x89,0xba,0x83,0xfc,0xc5,0x3e,0x5d,0x37,0xa3,0x3e,0xb3,0x71,0x97,0xbe,0xad,0xd8,0x83,0x3e,0x5e,0x70,0x52,0xbe,0x28,0x00,0xc3,0xbe,0xb5,0x15,0xed,0xbd,0x97,0xa4,0xfd,0x3e,0x26,0xda,0xc3,0xbe,0x51,0xfa,0xa5,0xbe,0xff,0x08,0xaa,0x3e,0xa5,0xfe,0x84,0xbd,0xc5,0x98,0x1d,0x3e,0x75,0x87,0xb8,0x3d,0x7a,0xf2,0x8a,0x3e,0xfb,0x20,0x8e,0x3e,0x0d,0x16,0xbb,0x3d,0xae,0x68,0xe6,0xbd,0xbc,0xcf,0xca,0x3c,0xdc,0x88,0x96,0x3d,0x8c,0x3d,0x19,0xbf,0xaf,0x62,0x10,0xbf,0x18,0x31,0x49,0xbd,0x00,0x17,0xc0,0xbe,0x48,0x0d,0x88,0xbe,0x85,0x90,0x70,0x3d,0x79,0x15,0x39,0x3e,0xd8,0xba,0xd6,0xbe,0x4b,0x83,0xe9,0xbc,0x0a,0x3e,0x3a,0x3e,0x85,0x1c,0xbd,0xbc,0x96,0xf8,0x47,0x3e,0xc6,0x99,0x5c,0xbe,0x11,0xec,0xf9,0x3d,0x5a,0x33,0xfc,0x3e,0x7c,0xbb,0xd9,0x3e,0x10,0xa0,0xa7,0x3d,0x00,0xeb,0x97,0xc0,0x1a,0xc0,0xdc,0x3e,0xcc,0x06,0x12,0x3e,0xd0,0x73,0xcd,0xbe,0x55,0xd5,0xb1,0xbe,0x01,0x0f,0x16,0x3c,0xd7,0x31,0x18,0xbe,0x60,0x1e,0xbc,0xbd,0xee,0xf7,0x83,0x3e,0xed,0xc5,0xeb,0x3e,0x01,0x11,0xe3,0x3e,0x0e,0xf8,0xd3,0x3e,0x36,0x1a,0x86,0x3d,0x68,0xfc,0xa3,0x3e,0xbd,0xd4,0x2c,0xbb,0xe6,0x53,0x87,0xbf,0x93,0xc1,0x7a,0xbf,0xc0,0xa6,0xb3,0xbe,0x3c,0x9c,0xce,0xbe,0x20,0xc0,0x8e,0x3c,0xed,0x49,0xea,0x3d,0x5d,0xf0,0x7a,0xbd,0xdf,0x9f,0x63,0xbd,0x89,0xa0,0xd3,0x3b,0x67,0xa2,0xb5,0x3d,0xf3,0x4f,0x07,0x3e,0x37,0x50,0x42,0xbe,0x90,0xfd,0xb8,0xbd,0x8d,0x43,0x8f,0x3d,0xed,0x18,0x4c,0x3d,0x9a,0x07,0x62,0xbe,0xbf,0xbf,0x13,0xbe,0x34,0x07,0xe0,0xbc,0x0f,0x0f,0x01,0xbe,0xb7,0x50,0x25,0xbe,0xeb,0x79,0xc5,0x3d,0xe7,0x3a,0x4c,0x3e,0x2d,0x5e,0xcf,0x3c,0xb9,0x47,0x4d,0xbe,0xe2,0x76,0x27,0x3e,0x7c,0xa5,0x4c,0xbe,0x72,0x15,0x94,0xbd,0x68,0x14,0x71,0xbe,0x3d,0x2f,0x9d,0xbd,0x11,0x5e,0x43,0x3e,0x63,0x65,0xb5,0xbd,0x10,0x67,0x05,0xbe,0xe0,0xef,0x70,0x3e,0x4f,0xc2,0x07,0xbb,0x37,0xad,0x52,0xbd,0xdf,0x74,0x4f,0xbe,0xdc,0xe5,0xfd,0xbd,0xa9,0x2c,0x53,0xbe,0xd4,0xe4,0x25,0xbd,0xb0,0xef,0x6b,0x3e,0x58,0x1b,0x0d,0x3e,0x5f,0x62,0x22,0x3e,0x5e,0xed,0x51,0xbe,0x09,0xb8,0x14,0xbe,0x08,0x23,0xa3,0xbc,0xb8,0x3f,0x86,0x3d,0x5e,0x24,0x5c,0xbe,0x90,0x77,0x73,0xbd,0x2f,0xcc,0x51,0xbe,0x41,0x61,0x4c,0x3c,0x0f,0xdc,0x5c,0xbd,0x2b,0xa3,0x4e,0x3e,0x7c,0x03,0x93,0xbd,0x0e,0x5c,0x34,0x3d,0x0f,0x60,0xbc,0xbd,0x45,0xbf,0x94,0xbd,0x32,0xa2,0xbd,0xbc,0x7c,0x52,0x25,0xbe,0xb0,0x6d,0x00,0x3d,0xf8,0x39,0xee,0xbd,0x23,0x0c,0xb0,0x3d,0x94,0xdd,0x7f,0xbe,0xd8,0x7b,0x75,0x3e,0xa0,0x81,0x21,0x3e,0xd6,0x70,0x40,0xbe,0xd8,0xd7,0x70,0xbe,0xed,0xc5,0x7d,0xbe,0xf1,0x78,0x4a,0x3e,0x55,0x1f,0x4c,0xbe,0xb9,0x90,0x6b,0xbe,0xce,0x7b,0x14,0x3e,0x3f,0x06,0xb8,0xbc,0xad,0xb6,0xf7,0xbc,0x2b,0xa3,0x82,0xbd,0xa4,0x6c,0x57,0x3e,0x1c,0xdf,0x67,0x3e,0xab,0x0b,0xaf,0x3e,0x4e,0x90,0x09,0xbc,0x28,0x65,0x99,0x3e,0x7f,0x06,0xd9,0xbd,0x2a,0x21,0xf9,0x3d,0xd2,0x22,0xf3,0xbe,0xb0,0x05,0x89,0x3e,0xfc,0xca,0xcb,0x3e,0x0a,0x4d,0xab,0x3e,0x1b,0x5e,0x02,0xbe,0xc4,0x25,0x69,0xbc,0x85,0x72,0x74,0x3e,0x58,0x88,0x46,0xbe,0x90,0x51,0xf2,0xbd,0xe0,0x66,0x81,0x3e,0x11,0x55,0xa3,0xbd,0x49,0xe3,0xa9,0x3d,0xa0,0x50,0xea,0x3d,0x75,0x23,0x57,0xbd,0x2f,0x90,0x81,0x3e,0x82,0x47,0x22,0xbf,0xe4,0x51,0x55,0x3e,0x7c,0x85,0xc7,0xbe,0x29,0x86,0xb5,0xbc,0x63,0x27,0x7b,0xbe,0x33,0x37,0x00,0x3d,0xc8,0x23,0x68,0x3e,0x75,0x54,0xe4,0xbe,0x76,0x9b,0xb4,0x3d,0x42,0x9a,0xb0,0x3e,0xa1,0xaa,0xe2,0x3e,0x0b,0xc2,0x80,0x3d,0xc9,0x47,0x0a,0xbe,0xe2,0x37,0x93,0xbd,0x56,0x2a,0xb3,0x3e,0x4a,0xd1,0x60,0xbd,0x05,0x1b,0xd3,0xbd,0xce,0x33,0x97,0xc0,0x36,0x52,0x8f,0x3e,0x5b,0xe9,0x1c,0xbe,0xf2,0x96,0x0a,0xbe,0x48,0x8d,0x11,0xbf,0x76,0x8b,0xf3,0x3d,0xa9,0x7f,0xb0,0x3e,0xe0,0xa3,0x47,0x3e,0x29,0x99,0x83,0xbe,0x83,0xc5,0xe9,0x3e,0xcb,0x52,0x6f,0x3e,0x61,0x08,0x1c,0x3d,0x39,0xd7,0x82,0x3e,0x72,0x34,0x80,0x3e,0xaa,0x93,0xe0,0x3c,0x0f,0xb3,0x8f,0xbf,0x3f,0xb6,0x00,0xbf,0x49,0x13,0xa9,0xbd,0x03,0xbd,0xc9,0xbe,0x35,0x01,0x5a,0x3d,0x24,0xff,0x5b,0x3e,0x34,0x27,0xa3,0x3e,0xd3,0x12,0xc0,0x3b,0x5d,0x2e,0x63,0x3f,0x50,0xe0,0x98,0xbd,0x20,0x79,0xbd,0xbe,0x59,0x0e,0x6b,0x3e,0x4a,0x4f,0xdc,0xbe,0xe9,0x2f,0x3e,0xbd,0x8d,0xd1,0xa1,0x3e,0xc9,0x97,0xe4,0x3d,0xe5,0x49,0x94,0x3e,0x57,0xee,0x0d,0x3f,0xb2,0xb5,0x83,0xbc,0x45,0xb3,0xee,0xbd,0x47,0x86,0x4e,0xbd,0x71,0x8e,0xa7,0x3e,0xbd,0xbd,0x12,0xbe,0x62,0xdb,0x34,0x3e,0xf1,0x5a,0x73,0x3d,0x77,0xbb,0x9c,0x3b,0x6a,0xb9,0x08,0xbf,0x98,0xc9,0x1e,0x3e,0x65,0x56,0x01,0x3e,0x78,0xee,0x01,0x3f,0x8a,0x0b,0x90,0x3e,0x6a,0xfc,0x0c,0xbf,0x1d,0xe4,0x72,0x3f,0x61,0x24,0xb8,0xbd,0x75,0xf1,0x04,0x3f,0x9e,0x4b,0x0d,0xbf,0xa0,0x9b,0x7d,0x3d,0x40,0xb4,0x54,0x3f,0x0e,0x34,0x6a,0x3e,0xd6,0xa4,0x76,0x40,0xd7,0x48,0x3d,0x3e,0x61,0x1d,0xc1,0x3b,0x64,0x3c,0xb0,0xbe,0xdf,0x23,0x2f,0xbb,0xe1,0x7f,0x50,0x3f,0x6a,0x58,0x89,0x3e,0x01,0x0e,0x59,0xbd,0x38,0x48,0x05,0xbd,0x5b,0x26,0x57,0x3e,0xdc,0x99,0x9c,0x40,0x64,0x9e,0xa2,0xbe,0xfa,0x53,0xb1,0x3e,0x44,0x63,0x1f,0xbe,0xc5,0x4b,0x46,0x3f,0xaa,0x48,0x7c,0xbd,0x03,0x47,0x7c,0xbe,0xa2,0xcd,0x42,0xbd,0x12,0x8b,0x83,0x3e,0x3c,0x8d,0xc1,0xbe,0xc0,0x28,0x44,0xbe,0xe1,0x16,0x25,0xbd,0x01,0x84,0xda,0xbd,0x65,0xf0,0x81,0xbe,0x06,0x63,0x0d,0xbf,0x50,0x33,0x8c,0x3f,0x87,0x48,0x24,0x40,0xdf,0x0a,0xad,0x3e,0xcc,0x90,0x8f,0xbf,0xf0,0xd5,0x9f,0x3e,0x24,0x47,0x75,0xc0,0xfe,0x9b,0x02,0xbe,0x73,0x6b,0x0b,0x3f,0x5c,0xfd,0xc2,0xbf,0xe5,0xca,0x6c,0x3d,0x62,0x89,0xa5,0x3e,0x11,0xc6,0x11,0xbf,0x45,0x84,0x5c,0x3e,0x0f,0xb8,0x0d,0x3c,0x66,0xd0,0x11,0x3f,0x73,0x3f,0x02,0x3e,0x1b,0x57,0xba,0x3d,0x3c,0x02,0xb9,0x3e,0x94,0xe0,0x96,0x3e,0xd5,0x40,0x47,0x3e,0xe7,0xbf,0x78,0xbf,0x0a,0x8c,0xf4,0x3e,0x1a,0xc9,0xdd,0x3c,0xa4,0x96,0x3d,0xbe,0x07,0xf8,0x5f,0x3e,0x09,0xfb,0x7e,0x3e,0xd4,0xc4,0x8d,0x3e,0xd9,0xb2,0x85,0xbc,0x6a,0xc8,0xa5,0x3e,0x1e,0x3c,0x0a,0xbe,0xee,0x66,0x8c,0x3e,0xfa,0xdc,0xb0,0x3e,0x53,0x1b,0x12,0xbe,0x3d,0x63,0x4b,0x3e,0x74,0xaa,0xa6,0x3e,0xa7,0x41,0x7e,0xbe,0xa8,0x69,0x50,0x3e,0x30,0x13,0x18,0x3e,0xac,0xa6,0xf1,0x3e,0x2d,0xb8,0x1f,0x3f,0x87,0xed,0x14,0x3f,0xff,0xd1,0x2e,0xbe,0xb7,0xca,0xa7,0xbe,0xf6,0xfc,0x0a,0x3e,0xfc,0x6c,0xf6,0xbe,0xff,0x2e,0xad,0x3e,0x5e,0x57,0x05,0x3f,0x91,0x64,0x40,0xbf,0xad,0x6f,0xa2,0xbd,0xc2,0xbd,0x84,0xc0,0x02,0x4d,0x6d,0xba,0xc4,0xd7,0xf2,0xbd,0x98,0x5f,0x6a,0x3f,0x33,0x81,0xe3,0xbd,0xdc,0x3e,0xa6,0xbe,0x68,0xc0,0xc9,0x3e,0x01,0xec,0xbb,0x3e,0xae,0xee,0x0d,0xbd,0x63,0xa1,0x32,0xbf,0x3a,0xdb,0xbe,0xbe,0x49,0x45,0x6b,0xbd,0x8c,0x21,0x13,0xbe,0xc5,0x02,0x85,0xbd,0x07,0x88,0x43,0xbf,0x1e,0xcd,0xe7,0xbe,0xd9,0x9e,0x36,0x3e,0x43,0x47,0x90,0xbe,0x42,0xb9,0xa3,0x3e,0x23,0x61,0x6e,0x3d,0x13,0x3d,0x52,0xbe,0x03,0x7a,0xb0,0x3e,0xaf,0xf4,0x48,0x3e,0xce,0x54,0xc0,0x3e,0xc3,0x01,0xf6,0x3d,0x08,0xb6,0x08,0xbc,0x84,0x54,0x31,0x3b,0xa3,0xb0,0x02,0x3f,0xd9,0xe0,0x6b,0xbe,0x5e,0xcf,0x8f,0x3d,0xe8,0x4e,0x24,0xbf,0x11,0xf0,0x98,0xbf,0xab,0x37,0x53,0xc0,0xb4,0x58,0x7f,0xbe,0x73,0x7f,0x41,0x3f,0x3e,0xaf,0x91,0x3e,0xd3,0x88,0x0a,0xc0,0x98,0x45,0x8b,0xbe,0x57,0x35,0x03,0x3f,0x13,0xa8,0xbf,0xbf,0x72,0x5c,0x47,0x3d,0xdf,0x63,0xe5,0x3d,0x49,0x8e,0x6f,0x3e,0x4d,0x7f,0x71,0xbd,0xd1,0x67,0x23,0xbe,0x2d,0xda,0x33,0x3d,0xb5,0x37,0xcd,0x3e,0x7a,0x66,0x13,0xc0,0x01,0x6a,0x17,0xbd,0x95,0xd0,0xc3,0xbf,0xca,0x4f,0x53,0x3e,0x9f,0x70,0x37,0xbf,0x5c,0xf6,0x76,0x3e,0x42,0xd1,0x3f,0xbf,0x9f,0x82,0x1e,0x3f,0x38,0x80,0x8d,0x3f,0xe2,0x54,0xa1,0x3e,0x03,0xa3,0x0f,0xbf,0x79,0xcb,0x63,0x3f,0xe5,0xe4,0x1a,0xbe,0x8d,0x5c,0xa8,0x3e,0x3e,0x56,0x92,0xbd,0xad,0x72,0x43,0xbf,0x3c,0x17,0xcd,0xbc,0xe9,0x7e,0xfe,0xc0,0xb8,0xab,0x43,0x3d,0xd9,0x5b,0x66,0xbe,0x78,0x0e,0x27,0x40,0xe8,0x67,0xd1,0xbf,0x53,0xf0,0xbe,0xbd,0xe4,0x10,0x7e,0x3f,0x4c,0xa5,0x37,0xbd,0xb1,0xb0,0xa0,0x3e,0x00,0xff,0x24,0xbf,0x10,0x1f,0x83,0xbd,0xac,0x86,0xdd,0x3d,0x5f,0x4a,0x76,0x3f,0x52,0x9a,0xd7,0xbd,0xc4,0x43,0x8d,0xbf,0xd0,0x6e,0x5e,0xbc,0xb7,0x67,0x41,0x3f,0xcc,0xeb,0xd9,0xbd,0xf1,0xaf,0x78,0x3f,0x66,0x2b,0x44,0x3f,0x84,0x6c,0x6d,0xbd,0xb7,0xa1,0x7c,0x3e,0xe7,0x34,0xc0,0x3e,0x60,0xa0,0x42,0xbe,0xcc,0xf8,0x1a,0xbd,0x39,0xd1,0x8c,0x3e,0x4f,0xcf,0x65,0x3e,0x0b,0xb0,0x8d,0xbc,0xce,0xb9,0xa8,0x3e,0x13,0xf0,0xa8,0x3d,0x40,0xc1,0x56,0x3d,0xe6,0x02,0x1a,0xbc,0xfc,0x66,0x9f,0xbd,0xf6,0x1a,0x9a,0x3e,0xd3,0x7b,0xe7,0x3d,0x7f,0xb4,0xb4,0x3e,0x2d,0xe3,0xda,0xbe,0xbe,0xcf,0x98,0x3d,0x41,0xe1,0xbd,0x3d,0xc7,0x37,0x7c,0x3d,0x63,0x40,0x08,0xbd,0x65,0xaa,0xb8,0x3d,0xdc,0x1e,0xa1,0xbe,0xdb,0x89,0xa3,0x3e,0x6c,0x24,0x3e,0xbe,0x1f,0x9d,0x43,0x3d,0xf6,0x5b,0x89,0x3d,0x98,0xc8,0x5f,0xbf,0x7d,0xa3,0x80,0x3e,0x68,0x7f,0xf0,0x3c,0x94,0x8c,0x5f,0x3e,0x23,0x65,0xaa,0x3c,0x0b,0x56,0x25,0xbd,0x05,0xd1,0x04,0x3e,0x00,0xea,0x26,0xbf,0xc0,0x12,0x55,0x3e,0xef,0xa9,0x65,0x3c,0x5b,0xaf,0xb7,0x3b,0xd4,0xe8,0x45,0x3e,0x05,0x48,0x11,0x3e,0xc4,0xe6,0x00,0xbe,0x12,0x04,0x7a,0x3e,0x10,0x21,0x79,0x3d,0xa5,0x9f,0x8a,0x3c,0xef,0x11,0x95,0xc0,0xdf,0x4d,0x58,0x3e,0xb3,0xcf,0x19,0x3e,0x1c,0x5e,0xad,0xbd,0xa5,0x74,0xbc,0xbe,0xba,0xac,0x4f,0x3e,0xd6,0x19,0xa8,0x3e,0x6a,0xc6,0xbf,0xbd,0xba,0x84,0x92,0xbe,0x99,0xe1,0x08,0x3e,0x53,0x70,0xfa,0x3b,0xb1,0x64,0xd6,0x3d,0xb4,0x0b,0x10,0xbd,0xa8,0x1f,0x87,0x3e,0xc4,0x7d,0xf2,0x3d,0xf7,0xde,0x99,0xbf,0xf7,0xa5,0x8e,0xbe,0xa2,0xe7,0x70,0xbe,0xb8,0x75,0xc4,0xbe,0xe2,0x1a,0x8c,0x3d,0xe1,0xe5,0x8a,0x3d,0xf2,0x4c,0xfd,0x3d,0x73,0x8d,0xda,0x3e,0x5d,0x54,0x1e,0x3f,0xf1,0xf0,0x9d,0xbc,0x9c,0xef,0x73,0xbe,0x71,0x0d,0xa4,0x3e,0xfa,0xae,0xdf,0xbe,0xed,0x5a,0xa0,0x3d,0x6e,0x71,0x65,0xbd,0x54,0x24,0xb8,0x3d,0xe3,0x0e,0x91,0x3e,0xab,0x57,0x00,0x3f,0xa1,0xd2,0xb4,0xbd,0xb0,0xd1,0x94,0x3d,0x26,0x14,0x9b,0x3e,0x91,0x65,0x03,0x3f,0x98,0xa7,0x1b,0x3d,0x6a,0xc6,0x34,0xbe,0xa6,0xad,0x3c,0x3c,0xce,0x06,0x1a,0x3d,0x7d,0x43,0x00,0x3d,0x7d,0xc5,0xf6,0x3e,0xf1,0x16,0xbe,0x3d,0x52,0x05,0x6a,0xbd,0x44,0x1b,0xe5,0xbe,0x3b,0xac,0x27,0xbd,0x9e,0x6f,0x83,0x3f,0x53,0x17,0x80,0x3e,0xbe,0x08,0x03,0x3f,0xb2,0xf1,0x81,0x3e,0xb4,0xca,0x79,0xbd,0xb2,0x58,0xb3,0x3e,0x10,0xa9,0xf7,0xbd,0x84,0x85,0xa0,0x3f,0xfb,0x23,0xb7,0xbe,0x5f,0x36,0xa1,0x3d,0xc5,0x49,0xc0,0xbe,0xd6,0xe8,0x5d,0xbe,0x11,0x3e,0x6c,0xbe,0xcd,0xbd,0x6d,0xbd,0x3b,0xe0,0xc0,0x3e,0x97,0xe3,0xb4,0xbd,0xba,0xcd,0xcd,0x3d,0x11,0x1c,0xa8,0x40,0x46,0x65,0x69,0x3d,0xc3,0xbb,0x55,0x3e,0x94,0xe1,0x55,0xbc,0x8a,0xc1,0x6a,0x3f,0xb9,0xcb,0x35,0xbe,0xe2,0xed,0x63,0x3e,0xa9,0xaf,0x6f,0xbd,0xd3,0x6c,0x9c,0x3e,0xce,0xfd,0x92,0xbe,0xf4,0x06,0x1e,0xbf,0xe8,0xde,0xd6,0xbe,0x9a,0xa4,0x93,0xbd,0xd2,0xee,0x0f,0xbe,0x3a,0x3c,0xb9,0xbe,0x41,0x65,0x8d,0x3f,0xf0,0x4e,0x5b,0x3f,0xc0,0xde,0xba,0x3e,0x3e,0x55,0x13,0x3f,0xde,0xbd,0xab,0xbd,0xc6,0x98,0x51,0xbe,0x31,0x48,0x69,0xbd,0x1d,0x6a,0xff,0x3e,0xff,0x2b,0x25,0x3f,0xc6,0xdf,0x66,0xbd,0x38,0x20,0x32,0xbf,0x70,0x7b,0xa5,0x3d,0x0d,0x92,0x45,0x3f,0xdf,0x41,0x15,0xbf,0xd1,0x34,0xf2,0x3e,0x95,0x74,0xf9,0xbe,0xda,0x40,0x58,0xbf,0x64,0x51,0x28,0xc0,0x48,0x72,0x5a,0xbe,0x35,0x62,0x50,0x3e,0x99,0x45,0x8f,0x3e,0xc4,0x38,0xb8,0xbf,0x94,0xcd,0x0b,0xbf,0xcb,0x3f,0x24,0xbe,0x38,0x78,0x61,0xbf,0xd9,0x7f,0xd6,0xbd,0x3e,0x60,0x0c,0xbf,0xa9,0x10,0x49,0xbf,0xcf,0x47,0xb0,0x3e,0xf8,0x51,0x88,0xbd,0x87,0x65,0x0f,0xbf,0xe8,0x2e,0x9d,0xbe,0x59,0xfb,0xb9,0xbf,0x9a,0x9b,0xcf,0x3e,0xb6,0xa8,0x1a,0xbf,0x17,0x41,0x9d,0x3e,0x1e,0xc0,0xdd,0xbc,0x39,0xe2,0x9f,0x3e,0xa6,0xf7,0x18,0xbe,0x94,0x9a,0x5f,0xbf,0x93,0x60,0x51,0x3f,0x99,0x95,0x6d,0xbe,0xd5,0x5d,0xde,0xbe,0x88,0x46,0xbb,0x3e,0xab,0xaa,0xa9,0x3e,0x3a,0xfe,0x7d,0x3e,0x1e,0x53,0xaa,0xbd,0xcc,0x2b,0x25,0xbe,0x6c,0x2f,0x1f,0x3f,0x02,0xe4,0xd3,0xc0,0x4f,0x1c,0x27,0x3f,0x6d,0x68,0x87,0xbe,0x23,0xcd,0xc3,0x3f,0x34,0xf0,0x39,0xbf,0xb0,0x7a,0xc1,0x3b,0x35,0x51,0xe1,0x3e,0x3f,0x60,0x68,0x3d,0x69,0x7e,0xe7,0xbe,0x07,0x4a,0x93,0xbf,0x7e,0x9f,0x57,0x3f,0xf0,0xcd,0xca,0x3e,0x87,0x30,0x21,0x3f,0x5b,0x38,0x42,0x3d,0xa3,0x30,0x65,0xbf,0xa3,0xea,0x1d,0x3f,0x21,0x93,0x6d,0x3e,0xa8,0xf1,0xda,0x3e,0xf0,0x67,0xf2,0x3e,0x03,0x81,0x6a,0x3f,0xcd,0xea,0xf7,0x3e,0x35,0x2f,0x32,0x3f,0x79,0xbf,0x0b,0x3e,0x80,0x7a,0x82,0x3f,0x0c,0x72,0xd3,0xbe,0x6c,0x13,0xa8,0xbd,0x41,0xef,0x49,0xbe,0x6f,0x47,0x08,0xbd,0xbc,0x60,0x26,0xbd,0x4e,0x02,0x1a,0xbe,0x03,0x85,0x94,0xbb,0x78,0x63,0x05,0x3f,0xa9,0xab,0x6e,0x3e,0x8b,0xb3,0x86,0x3e,0xd2,0x06,0x2f,0xbd,0x7a,0x29,0x85,0xbe,0x13,0xb4,0x3f,0x3f,0xa4,0xa5,0xb6,0xbe,0x56,0x57,0xc3,0xbc,0xea,0xe4,0x7e,0x3e,0x53,0x27,0x5e,0x3e,0x97,0x3e,0xc1,0xbe,0x9a,0x49,0x1f,0xbe,0x31,0xa3,0xcd,0x3e,0xa6,0xfb,0x75,0x3e,0x49,0x67,0x28,0x3f,0x3b,0xe2,0xe4,0xbe,0xbe,0xb8,0xa1,0x3f,0x46,0x18,0xfa,0xbd,0xee,0x0c,0x5c,0x3f,0xfb,0x93,0x15,0x3c,0xa2,0x55,0xc8,0x3e,0x18,0x7e,0x31,0x3e,0xb5,0x45,0x97,0x3e,0x47,0x13,0xa2,0x3f,0x2e,0x75,0x1f,0xbf,0x44,0x56,0x4a,0xbd,0x62,0xdc,0x30,0xbe,0x33,0xe8,0x9a,0xbe,0x55,0x5f,0x80,0x3e,0xb6,0xc0,0xdd,0x3d,0x2a,0x6b,0x7c,0x3e,0xe2,0x8f,0x57,0x3d,0x45,0x31,0x81,0x3e,0x83,0xf4,0xae,0x40,0x4f,0x5f,0x8a,0x3e,0x5b,0x4c,0xc9,0x3a,0xbc,0xca,0x4e,0xbf,0x27,0x68,0x95,0x3f,0xcb,0x13,0x74,0xbe,0x02,0x7d,0xf3,0xbe,0xd8,0x32,0x37,0xbc,0xaf,0x6a,0x7f,0x3e,0x33,0x08,0x13,0x3e,0x9c,0xea,0x85,0xbe,0x87,0x50,0xce,0x3c,0x7d,0x58,0xfb,0xbe,0xac,0x43,0x8a,0x3e,0x90,0x52,0x75,0x3e,0x08,0xd5,0xa3,0x3f,0x5b,0xca,0x26,0x3f,0x7d,0x0b,0xb0,0x3e,0xe1,0xe2,0x58,0xbd,0xa9,0x02,0x56,0x3e,0xde,0xe5,0xbb,0x3d,0xa8,0xbf,0xf1,0x3d,0xb4,0x21,0x9b,0xbe,0x2d,0x6d,0xa0,0x3e,0xdc,0x73,0x2b,0x3e,0xeb,0x9b,0x9b,0xbe,0xe1,0x68,0x70,0x3e,0xad,0xc7,0x78,0xbe,0xbb,0x01,0xe3,0x3d,0xf9,0x60,0x84,0x3e,0xb2,0x7c,0x9f,0xbe,0x4d,0xfb,0xb8,0x3e,0xde,0x00,0x80,0x3e,0xfc,0x67,0xc8,0xbc,0x79,0xe2,0x1d,0xbe,0x71,0xe8,0xa7,0x3e,0xfc,0x4d,0xfa,0x3d,0x82,0xf3,0x6d,0xbe,0x44,0x23,0x96,0x3e,0xd5,0xb0,0x9e,0xbd,0x68,0x5e,0x08,0xbd,0x4d,0x5d,0x61,0x3d,0x88,0xd3,0xbb,0x3e,0x0d,0x91,0x82,0x3e,0xea,0x1f,0x05,0x3f,0x64,0xf3,0x01,0x3e,0x24,0xcd,0x0c,0xbe,0x28,0xd7,0x44,0x3f,0x58,0xe7,0xb2,0x3e,0x83,0x3a,0xc6,0x3e,0xd7,0x25,0xd1,0x3e,0xa0,0x50,0x15,0x3d,0xd0,0x4f,0x2b,0xbe,0x92,0xab,0xd9,0xbd,0xb2,0x77,0x29,0x3f,0xf3,0x51,0x04,0xbe,0x30,0x25,0x84,0x3d,0xaf,0x85,0x99,0xbe,0x1b,0x0e,0x7e,0xbd,0x6a,0x48,0x18,0xbe,0xf2,0x53,0xe7,0xbd,0x00,0xbf,0xc7,0x3e,0xc0,0x3c,0x17,0xbe,0x90,0xbd,0xee,0x3e,0x75,0x21,0x90,0x40,0x25,0x62,0xe1,0xbb,0x38,0xb3,0x50,0xbe,0x83,0x90,0xf2,0x3e,0xab,0x3f,0x2c,0x3f,0xc4,0x3b,0x0b,0xbc,0xe8,0x20,0x2f,0xbe,0x24,0x96,0xb1,0x3e,0xaa,0xa3,0xdc,0x3d,0xbb,0xfa,0x00,0xbf,0x10,0x91,0x85,0xbe,0x1a,0x06,0xf3,0xbd,0x6b,0x67,0x47,0xbe,0x4f,0x12,0x76,0x3e,0x24,0xaa,0xe3,0xbe,0xd2,0xf6,0x97,0x3f,0x84,0xf9,0xe5,0x3e,0x99,0x7b,0x14,0x3f,0x7b,0xb4,0x02,0x3f,0x55,0x59,0xef,0x3b,0x3f,0x5d,0x34,0xbe,0xfc,0xba,0x26,0x3e,0x03,0x12,0x96,0x3c,0x9e,0x7d,0x9d,0x3c,0xda,0xc6,0x0d,0x3e,0x9c,0xc2,0x12,0xbe,0x0d,0x5d,0x42,0x3e,0xda,0xf3,0x67,0xbb,0xc7,0x85,0xb0,0xbe,0xcb,0x4c,0x1d,0xbe,0x1b,0xec,0xd7,0xbe,0xd6,0x28,0x81,0x3e,0x13,0xdc,0xa8,0x3e,0xdf,0x9b,0x6b,0x3e,0x17,0x33,0xe6,0x3d,0x06,0x79,0xec,0xbe,0x7b,0xd4,0x8b,0x3e,0xe5,0x8b,0x01,0xbe,0xdd,0x2a,0x7b,0x3d,0x3c,0xba,0x47,0xbd,0x5c,0x27,0xbc,0xbe,0x43,0x19,0xf3,0xbd,0x9c,0xeb,0x39,0xbd,0x43,0xf4,0x59,0x3e,0xaa,0x1b,0x82,0xbe,0x74,0xa3,0x75,0xbe,0x3c,0xf8,0x6d,0x3d,0xd1,0x3a,0x94,0x3f,0x60,0xbb,0x31,0x3e,0xd2,0xf8,0xba,0x3e,0x74,0xf8,0x20,0x3e,0x34,0x9d,0xdd,0x3e,0xb4,0xaa,0x30,0x3f,0xea,0xc6,0x1f,0xbb,0xc7,0x40,0xf8,0xbe,0xf0,0xa6,0x16,0xbf,0x1b,0x73,0x4a,0x3e,0x9a,0x26,0x48,0x3e,0x90,0x80,0x14,0xbe,0x0d,0xdd,0xe7,0x3e,0x3d,0xd1,0xb3,0xbd,0x14,0x2f,0x59,0xbc,0xe1,0xdb,0xa0,0x3d,0xe0,0x25,0x6c,0xbe,0x52,0xd1,0x9f,0x40,0x8a,0x9f,0x53,0x3e,0x61,0x29,0x18,0x3e,0x30,0xac,0x4e,0xbf,0x6c,0x04,0xef,0x3e,0xe6,0xd2,0x48,0x3e,0x64,0x8b,0xa5,0xbe,0x12,0x41,0x47,0xbe,0x25,0xcb,0x02,0xbd,0x65,0x4c,0x50,0x3f,0x1e,0x12,0xf0,0x3d,0xe2,0xf8,0x7e,0x3e,0xc9,0x1e,0x02,0xbf,0x74,0x90,0x4c,0x3e,0xda,0x28,0x4f,0x3f,0xf8,0x7b,0x8c,0x3f,0x6c,0x28,0xe0,0x3d,0xaa,0x53,0x1e,0x3e,0x13,0xb1,0xa5,0xbd,0x30,0x24,0x23,0x3e,0x4d,0x15,0x26,0xbe,0xce,0x66,0x1c,0xbe,0xa2,0xbc,0x76,0xbf,0x03,0xae,0x0e,0xbf,0x1e,0x94,0x60,0xbe,0x54,0xb3,0x95,0xbe,0xb6,0x4f,0xbd,0xbb,0x97,0xd0,0xc5,0x3d,0xd3,0x5d,0xc5,0xbe,0x32,0x47,0xad,0x3e,0xce,0xca,0x72,0xbe,0xaf,0x98,0xcc,0x3e,0x23,0x94,0x33,0x3f,0xcd,0x0a,0x09,0xbe,0x36,0xe0,0x19,0xbe,0x8c,0xab,0x5e,0x3e,0x7c,0xc4,0xb7,0x3d,0xac,0xae,0xb8,0xbc,0xea,0x2c,0xc3,0x3e,0xda,0xa4,0x97,0xbe,0x65,0x65,0xb2,0x3d,0xbd,0x57,0xcf,0xbd,0xc9,0x94,0x1b,0xbf,0x25,0x6d,0xb9,0xbd,0xb0,0x2c,0x7f,0xbe,0xe4,0xfa,0xb7,0x3d,0xbd,0xdc,0x6b,0xbe,0xb9,0x1b,0x80,0x3e,0x87,0xc8,0x01,0x3f,0x76,0x78,0x50,0xbe,0xaf,0x3a,0xbf,0x3e,0xfd,0x1b,0xda,0x3d,0x93,0x80,0x6f,0x3c,0x60,0xc1,0x86,0x3d,0xf0,0x40,0xd5,0xbf,0x00,0xf8,0x3c,0xbf,0x30,0x39,0x01,0x3f,0x50,0xbe,0x54,0x3f,0xd7,0x33,0x89,0x3e,0xc8,0x14,0xc4,0x3e,0xa8,0x98,0x61,0xbe,0x47,0x2d,0xb6,0xbe,0xd2,0x3c,0xf9,0x3e,0x8c,0xc2,0x1e,0xbe,0xe5,0xc4,0x3f,0x40,0xce,0xce,0xcb,0x3d,0xdf,0xea,0xab,0xbf,0x69,0x5c,0x92,0xbf,0xce,0x74,0x00,0x3d,0xf3,0xaf,0x0d,0x3f,0x9f,0x8f,0x95,0x3d,0x16,0xd3,0x28,0xbf,0x56,0x68,0xeb,0xbe,0x47,0xd3,0x00,0x3f,0x69,0x0c,0x69,0x3f,0x16,0x54,0x07,0x3d,0x5b,0x69,0x83,0x3e,0x12,0xf8,0x3c,0xbe,0xcd,0xde,0x75,0x3f,0x27,0x2d,0x23,0x3f,0x4e,0x3f,0x4e,0xbf,0x0c,0xa8,0x86,0xbd,0x08,0x43,0x0a,0xbf,0x86,0x03,0x5d,0xbe,0x88,0x97,0x5b,0x3e,0x30,0xdb,0xd9,0xbc,0x54,0x26,0x73,0x3f,0x5d,0x98,0x53,0xbf,0x07,0xaa,0x8e,0x3e,0xe5,0xf6,0xca,0x3e,0x4c,0x1c,0xf9,0xbe,0xa3,0xab,0x9f,0x3b,0x5c,0xb4,0x78,0x3d,0xb4,0xcf,0xf8,0x3e,0x46,0x00,0xbc,0xbe,0x57,0xe3,0x13,0xbf,0x7d,0x09,0x80,0xbf,0x5a,0xd0,0x1c,0x3e,0x23,0xe7,0x01,0xbf,0x95,0x1e,0xa9,0xbe,0xf8,0x7a,0x51,0xbf,0x2f,0x68,0x12,0x3d,0x2d,0xb8,0x54,0xbe,0x03,0x72,0x50,0xbf,0x2f,0x8d,0x8f,0x3e,0xc3,0x80,0xc6,0x3e,0xfb,0x43,0x62,0x3e,0xbc,0xc1,0x93,0x3e,0xbf,0xb7,0x71,0xbf,0xb2,0x6b,0x28,0x3e,0x26,0x4e,0xb3,0x3e,0xe0,0x82,0x29,0xbf,0xbe,0x03,0xe5,0xbe,0x87,0x4f,0x05,0xbf,0x21,0x80,0x9e,0xbe,0xa0,0xbd,0x33,0xbe,0x72,0x88,0x19,0x3e,0x42,0x7a,0xea,0xbd,0xd7,0x9e,0x04,0x3f,0x4d,0x69,0x6b,0x3f,0x74,0x03,0x9a,0xbe,0x3f,0xdc,0x2b,0xbf,0xfc,0xc6,0xa2,0x3e,0x2e,0x5d,0x13,0x3e,0xca,0x41,0x80,0x3e,0x26,0x77,0x26,0xbe,0x03,0x9a,0x04,0xc0,0x05,0xdb,0xb3,0x3e,0x1c,0xb2,0x80,0xbf,0x4f,0x9d,0x94,0x3c,0x72,0xf0,0x18,0xc0,0x53,0x91,0xf0,0x3f,0x97,0x6e,0xad,0xbe,0x88,0xbb,0x5c,0xbf,0xe7,0x3b,0x03,0x3f,0x45,0xf4,0xb5,0xbc,0xb1,0x1a,0xa4,0x3d,0x2c,0x5a,0x04,0xbf,0x00,0xd7,0x27,0xbe,0xa9,0xf3,0x04,0xbc,0x35,0xda,0x10,0x3f,0xc0,0xde,0xe3,0xbb,0xe6,0x42,0x38,0xbf,0x83,0xeb,0xc0,0x3e,0xb8,0x17,0x49,0x3e,0x4a,0x12,0x92,0xbd,0x4b,0x40,0xcf,0x3e,0xd7,0xd1,0x27,0x3f,0x95,0x8f,0x95,0xbe,0x5d,0x6f,0x2a,0x3f,0xd4,0x11,0x09,0xbe,0xc1,0x8f,0x33,0x3f,0x5f,0xde,0x91,0xbe,0x22,0xb3,0xf7,0xbe,0x0d,0xe4,0xe9,0xbd,0x17,0x2b,0x8c,0xbd,0xdf,0x17,0x72,0x3e,0x33,0x7a,0xad,0xbd,0x07,0x4b,0x96,0xbe,0xb4,0x1d,0xe5,0x3e,0x8d,0x7a,0xce,0x3e,0x5e,0xbd,0xab,0xbb,0x4c,0xf5,0xab,0xbe,0x23,0x77,0x56,0x3e,0xd3,0xea,0xbd,0x3e,0x3c,0x8c,0x11,0x3d,0x86,0xa9,0x41,0x3e,0xa1,0x91,0xe1,0xbc,0xe4,0x0c,0x1f,0xbc,0x1a,0xd4,0x09,0xbf,0xb1,0xfc,0x82,0x3d,0xef,0x79,0x6e,0x3e,0x26,0xb7,0x35,0xbc,0xc4,0x6d,0xeb,0x3e,0x37,0x75,0x9d,0xbe,0x90,0xa7,0x63,0x3f,0x43,0x7d,0xfa,0x3c,0xbd,0x02,0x07,0x3f,0xa3,0x39,0x8d,0x3e,0x21,0xad,0xc3,0x3e,0xd1,0x91,0xef,0x3e,0x9e,0xbd,0x80,0x3e,0xfc,0x6a,0xac,0x3f,0xb2,0x07,0xee,0x3d,0x2d,0x91,0x27,0xbe,0x84,0x6b,0x9a,0xbd,0xe3,0xd6,0x28,0x3e,0xd8,0xcb,0x80,0xbe,0x70,0x7f,0xbb,0x3e,0xc4,0x2a,0xdd,0x3e,0x01,0x47,0x71,0x3e,0x85,0x18,0xee,0x3e,0x60,0x3e,0x9b,0x40,0xf2,0xa1,0x99,0x3e,0xc1,0x55,0xd7,0xbd,0x42,0xee,0x92,0xbc,0xe0,0xfe,0xde,0x3e,0x35,0xdd,0xb5,0xbd,0x9e,0xab,0xc8,0x3d,0xbc,0x1b,0xa2,0x3e,0x1f,0x44,0x14,0x3d,0xa4,0x80,0x38,0xbe,0xe6,0x3b,0x00,0xbf,0x61,0x3d,0x79,0xbd,0xda,0xc8,0x76,0xbe,0x42,0xf4,0x48,0x3e,0x05,0x81,0xd1,0xbe,0xd4,0xfe,0x8b,0x3f,0x71,0x45,0x98,0x3f,0x3f,0xc9,0xb5,0x3e,0x85,0x2d,0xca,0x3e,0xb2,0x56,0x8e,0x3e,0x38,0xf9,0xda,0xbe,0x45,0x38,0x4d,0x3d,0xbb,0xd8,0xab,0x3d,0x7d,0x90,0x98,0xbd,0x19,0x27,0xc1,0x3e,0xee,0x03,0x93,0x3e,0xff,0xa1,0x26,0x3e,0xdf,0xf4,0x26,0xbd,0x20,0xf8,0xba,0x3d,0x39,0xc6,0x41,0x3e,0xca,0x28,0x8a,0x3e,0x99,0xc6,0xbf,0x3d,0x9d,0x1b,0x54,0xbe,0x88,0x48,0x1c,0x3e,0x59,0x47,0x6d,0x3e,0x5b,0x3f,0xd8,0x3e,0x3f,0xc3,0x22,0xbe,0x18,0xbd,0xa0,0x3c,0x9c,0xcb,0x8a,0x3e,0xce,0x9c,0x63,0x3c,0x6e,0x63,0xc9,0xbd,0xe6,0x5b,0xee,0x3c,0x6b,0x67,0xd5,0xbe,0x9b,0x24,0xcf,0xbc,0x8a,0x02,0x27,0x3e,0xcd,0xc0,0x99,0xbe,0x09,0x2c,0x94,0x3e,0x30,0x20,0x26,0xbf,0x1f,0xb7,0x8b,0x3e,0x51,0x1d,0x89,0xbe,0xfd,0xf2,0xd0,0x3e,0x1f,0xeb,0xa2,0xbc,0xe8,0x16,0x0e,0xbf,0x72,0x76,0x3c,0xbe,0x66,0xb9,0x92,0xbf,0xdf,0x89,0xda,0x3e,0x99,0x0f,0xa3,0x3e,0x93,0x6d,0xfb,0xbd,0xf2,0x3a,0xd7,0x3c,0x69,0x84,0x2f,0x3e,0x6f,0x19,0xa1,0xbd,0x5f,0x38,0x03,0xbf,0x73,0x90,0xa4,0xbd,0x5e,0x75,0xb5,0x3d,0x29,0xc6,0xa1,0xc0,0x7a,0x2d,0x32,0xbe,0x5a,0xba,0x31,0x3e,0xec,0x46,0x6f,0x3e,0x5d,0xf4,0x05,0xbf,0x2f,0x60,0xdc,0x3d,0x83,0xc8,0x30,0x3e,0x20,0x51,0x3c,0x3e,0xbd,0xb7,0xb8,0xbe,0x76,0x70,0x0f,0xbe,0x1f,0x31,0x00,0x3e,0x7c,0xb6,0x9f,0xbd,0x27,0x3d,0x1b,0x3e,0xed,0x1c,0x77,0xbe,0xe7,0x32,0xf1,0x3d,0xe4,0xbd,0x7d,0xbf,0x1b,0xd6,0x12,0xbf,0x4d,0xb1,0x5e,0xbd,0xcc,0xec,0x1b,0xbc,0x65,0x51,0x23,0xbd,0x97,0xd9,0x38,0xbc,0x3f,0x2d,0x2d,0x3e,0x5f,0xdd,0x64,0x3e,0xc3,0xc2,0x4a,0x3f,0xb0,0xc5,0xf3,0xb9,0xd3,0xa2,0xb8,0xbe,0x9c,0x3f,0xa3,0x3e,0x16,0xb0,0x86,0x3d,0x3d,0x90,0x0b,0xbe,0x6e,0xb2,0x20,0x3d,0x3b,0x8d,0x8d,0xbe,0x36,0x5d,0x2f,0x3d,0xc9,0xa2,0xba,0x3e,0xb9,0xd8,0x13,0x3e,0x31,0xe6,0x0d,0x3d,0x9d,0xa5,0x0c,0x3f,0x1b,0x76,0x6d,0x3e,0x52,0x23,0x27,0xbd,0xb2,0x69,0x95,0x3e,0x96,0x82,0x61,0x3e,0xc9,0x92,0xed,0xbe,0xfc,0x55,0xad,0xbe,0x3d,0xd3,0xd0,0x3e,0x3e,0x89,0x54,0xbe,0x71,0x8a,0x3f,0x3e,0x27,0x8c,0xa7,0xbc,0xd7,0xee,0x6c,0xbe,0xe0,0x9f,0x47,0x3f,0x1a,0xa3,0x08,0x3e,0x7b,0x49,0xfd,0x3d,0x7a,0x00,0xfd,0x3c,0x7a,0x32,0x02,0x3e,0x7e,0xd4,0x0d,0x3f,0x3e,0x28,0x06,0xbe,0x21,0xa7,0xa9,0x3e,0x3b,0x6b,0xcd,0xbe,0x44,0xe9,0xd5,0x3d,0x6e,0xd1,0xee,0x3d,0x11,0xdd,0xcf,0x3c,0xae,0xf3,0x5a,0x3e,0xca,0x34,0x7f,0x3e,0x0c,0x82,0xb6,0x3d,0x46,0x04,0x1c,0x3e,0xe4,0xd5,0x3b,0xbe,0x27,0x90,0x9e,0x40,0xf6,0x6c,0x86,0x3d,0xb0,0x9a,0x7b,0x3e,0x09,0x47,0x18,0xbf,0x02,0xb7,0x51,0x3f,0xba,0xb1,0x44,0x3e,0xfa,0xc6,0x87,0xbd,0xa6,0x05,0x39,0xbd,0xcd,0xfe,0xfd,0x3c,0x07,0xb3,0x7a,0x3e,0x50,0x50,0x94,0xbd,0x3e,0x08,0x3a,0xbe,0x1e,0xf6,0x9e,0xbe,0x01,0x68,0x41,0xbd,0xdb,0xcd,0x28,0x3e,0xdd,0x5e,0x86,0x3f,0x82,0x28,0x15,0x3f,0x76,0xc4,0xb8,0x3e,0x45,0xf8,0x71,0x3e,0xfc,0x04,0x6e,0x3d,0x53,0x8a,0x16,0xbe,0x9f,0x66,0x8f,0x3d,0xbe,0x19,0xf7,0x3d,0x1a,0x3d,0x0e,0x3f,0x5a,0xa3,0x0f,0xbf,0x9f,0x9a,0x2a,0xbf,0x4d,0x5f,0xdc,0x3d,0x58,0xe0,0x2d,0xbf,0x0c,0x24,0x9b,0x3e,0x82,0xc6,0x8f,0x3d,0x39,0x6b,0x64,0xbe,0xe0,0xae,0x05,0x3f,0xf1,0xcb,0x3b,0x3f,0xe6,0x7d,0xb1,0x3d,0x1a,0x67,0x5a,0x3e,0x89,0x20,0x40,0xbe,0x05,0xfc,0x1e,0x3f,0x90,0xc2,0x1b,0xbe,0xa6,0x7e,0x12,0xbe,0xc2,0x3a,0x09,0x3f,0x5b,0xed,0xc4,0x3e,0x13,0x6b,0xb7,0xbe,0x22,0x25,0x82,0x3e,0x87,0x3a,0x7f,0x3d,0x36,0x51,0x01,0x3f,0x0e,0xd4,0xb7,0x3e,0x63,0x6a,0x54,0xbe,0x19,0x37,0x97,0x3f,0xd4,0x22,0x7b,0xbf,0xdc,0xeb,0x3d,0x3f,0x11,0x13,0xac,0xbf,0xf1,0x92,0x84,0x3e,0x83,0x53,0xab,0x3f,0x9c,0x71,0x08,0x3f,0x94,0xc7,0xbc,0x40,0x43,0xdd,0xc8,0xbf,0x82,0x07,0x61,0x3c,0x32,0xdd,0xad,0xbb,0xb8,0x55,0x2d,0xbe,0x4f,0xc1,0xf9,0x3f,0xa5,0x54,0x47,0x3e,0xec,0xce,0x40,0x3e,0x27,0x7c,0x80,0x3e,0xf9,0xab,0x3c,0x3e,0x9c,0x85,0xa9,0x40,0x91,0x63,0xd3,0x3d,0x92,0x31,0xfe,0x3c,0xd6,0x88,0xa1,0xbf,0x87,0xb4,0x56,0x3f,0xb7,0xdd,0xa0,0x3d,0x4d,0x31,0xf7,0xbe,0x1f,0x61,0x1e,0x3d,0x0b,0x3e,0x70,0x3d,0x5d,0xa3,0x18,0x3e,0xe4,0x1d,0x87,0x3d,0xea,0x17,0x9b,0x3e,0xc5,0xf8,0x33,0xbe,0x14,0xd8,0x05,0x3e,0x1c,0xfe,0x25,0x3f,0x9a,0x66,0xbf,0x3f,0xda,0xb6,0x8f,0x40,0x72,0x01,0xe1,0x3e,0x0d,0x2e,0x12,0xc0,0x9f,0xca,0x93,0x3d,0x55,0x40,0xe4,0xc0,0xe6,0x29,0x34,0xbe,0xc3,0xee,0x34,0xbe,0xd7,0x2c,0xc6,0xbd,0xef,0xda,0x11,0xbd,0x29,0xdd,0x91,0x3e,0xb0,0x97,0x4b,0x3e,0x30,0x04,0x6f,0xbe,0x2e,0x59,0x1f,0x3f,0x4c,0x52,0x35,0xbe,0xde,0xad,0x05,0xbb,0x2e,0x85,0x53,0x3e,0x55,0xdb,0x3f,0xbf,0xad,0x66,0x09,0x3e,0x88,0x1e,0xea,0x3b,0xd0,0x9f,0x85,0x3e,0x58,0xf9,0x19,0xbf,0xc3,0x2c,0x48,0xbc,0x23,0x32,0xba,0xbe,0x40,0x78,0xb8,0x3e,0xd2,0x2f,0x13,0xbe,0xe0,0xf7,0x79,0x3e,0x2b,0x9d,0x73,0xbe,0xed,0xec,0x45,0x3e,0xee,0xee,0xac,0x3c,0x13,0x6d,0x4d,0x3e,0xb3,0x2f,0xc8,0xbd,0xcc,0x07,0x81,0xbf,0x51,0xf0,0x6f,0xbe,0xf6,0xd3,0x4b,0x3e,0x90,0x54,0x83,0x3e,0x10,0xf1,0xe3,0xbc,0x4d,0x71,0x34,0x3d,0xa7,0x81,0xd6,0xbc,0x89,0xca,0x30,0x3e,0xe2,0x0f,0xa9,0x3e,0x7b,0xdc,0xfd,0x3d,0xa6,0xe7,0xe0,0x3e,0x19,0x41,0xe4,0xbc,0xb0,0xe2,0xa9,0x3e,0xcc,0x05,0xae,0xbe,0x6b,0x86,0xc3,0xbc,0xab,0x0f,0x2f,0x3e,0x76,0x94,0x1e,0xbe,0xec,0x17,0x73,0x3e,0x8f,0x24,0x75,0x3e,0x1a,0xa2,0x42,0xbe,0x75,0xd5,0x66,0xbf,0xee,0xb4,0x18,0xbe,0xa4,0x7c,0x43,0xbe,0x60,0xfa,0xb9,0xbe,0x26,0xe8,0x2e,0xbe,0xfa,0x9f,0xab,0xbe,0xa3,0x97,0x43,0x3f,0xbb,0xfe,0x9d,0x3e,0x30,0x64,0xa1,0xbc,0xf3,0x33,0xd8,0xbe,0x54,0xe1,0x9b,0x3e,0x9d,0x33,0x15,0x3f,0x7f,0xd9,0xd0,0xbf,0xb1,0xb5,0x8d,0x3d,0x61,0x10,0x43,0x3e,0x5d,0x4d,0xd6,0xbe,0xc4,0x9c,0xcb,0xbe,0xe6,0xfe,0xd3,0x3e,0x29,0x0d,0xae,0xbe,0x67,0x65,0xff,0x3e,0xd2,0x5c,0x68,0x3f,0x0f,0xf0,0xb5,0x3e,0x4b,0xd4,0xc8,0x3e,0xa3,0x6c,0x25,0xbf,0xf4,0x45,0x30,0xbc,0xf3,0xe6,0xfd,0x3e,0x99,0x1c,0x99,0x3e,0x34,0x19,0x10,0x3f,0x9d,0x5f,0x35,0xbe,0x34,0xb9,0x17,0x3f,0x12,0x82,0x3b,0xbd,0x8f,0xa1,0xd8,0x3d,0xa4,0x59,0x8e,0x3e,0x8a,0xd9,0x81,0x3e,0x5a,0xa2,0x92,0x3e,0x14,0x16,0x97,0xbe,0x8b,0x34,0xaa,0x3e,0xee,0xc8,0x6c,0x3e,0xfa,0x84,0x23,0x3f,0x4f,0xc9,0x09,0xbf,0xf6,0xd2,0x7b,0x3e,0x14,0x73,0x31,0xbe,0x77,0xdf,0x7b,0xbc,0xed,0x1c,0x09,0x3f,0x52,0x8b,0x40,0xbe,0xe9,0x90,0xdd,0x3e,0xf8,0xd0,0x1f,0xbd,0x1f,0xd2,0x05,0x3f,0x74,0xea,0x8c,0xbe,0x6f,0x6f,0xb4,0xbb,0x1d,0x9d,0x32,0xbe,0xe9,0x38,0x09,0x3d,0x8b,0x52,0xf8,0x3d,0xac,0x6a,0x51,0xbe,0x12,0xce,0xbb,0x3e,0x0e,0xe9,0xff,0xbe,0x54,0x37,0xcd,0x3e,0x36,0x67,0x15,0xbf,0x83,0xff,0x30,0x3e,0x73,0x96,0x73,0x3e,0x6e,0x33,0x1f,0x3c,0xea,0xf2,0xc7,0xbf,0x9e,0xe2,0x1b,0x3d,0x8f,0xe1,0xaf,0xbd,0xf4,0x4b,0x80,0xbf,0xed,0xe8,0xbf,0xbe,0xd0,0x52,0x42,0xbd,0xe1,0xc6,0x24,0xbf,0xbb,0xea,0xfe,0x3d,0xdf,0xf1,0x4e,0xbd,0x9e,0xc6,0xb3,0x3e,0x00,0x7f,0x77,0xbe,0x0f,0xf0,0x3f,0xbe,0x3b,0x38,0xdd,0xbe,0x9d,0x95,0xb1,0xbd,0x1d,0x86,0x43,0x3e,0xd3,0xcf,0x67,0xbf,0x0a,0xe8,0x3d,0x3e,0x4d,0x00,0x9e,0xbe,0xd2,0x57,0x74,0xbe,0xb0,0x40,0xfd,0xbe,0x36,0xeb,0xb8,0x3e,0x26,0xd0,0xbb,0xbd,0xc1,0x7f,0x87,0x40,0x56,0x36,0x01,0x3d,0x75,0x41,0xe3,0xbe,0x19,0x3c,0x0e,0xbf,0x41,0xfa,0x4f,0x40,0x89,0xc9,0x37,0x3e,0xde,0x67,0x2b,0xbe,0x39,0x27,0xc5,0xbb,0x53,0x6c,0x85,0xbf,0x1d,0x42,0xd0,0xbd,0x51,0x6b,0x34,0x3e,0x30,0xcc,0x26,0x3c,0xa8,0x3d,0x8e,0xbe,0x66,0x64,0x85,0x3d,0x66,0xa9,0x51,0xbe,0xcf,0x8a,0x03,0xc0,0x3f,0x68,0xfd,0xbf,0xf3,0x12,0x63,0xbe,0x10,0x3f,0xc9,0x3e,0x69,0xbf,0x2f,0xbe,0x33,0x48,0xdf,0x3e,0xab,0x50,0x94,0x3d,0x7d,0x26,0x31,0xc0,0x72,0xac,0x91,0x3d,0x8b,0xcd,0x3e,0xbe,0x5a,0xe9,0x9f,0x3d,0x21,0xf3,0x06,0x3e,0x69,0x02,0x00,0xbe,0xba,0x36,0xff,0x3e,0x65,0xab,0x2d,0x3e,0x31,0xec,0x38,0x3e,0xd1,0x5c,0x08,0xbe,0xb3,0xad,0xb0,0x3e,0x8b,0x70,0x7e,0x3e,0x42,0x04,0x32,0xbe,0x10,0xa0,0xb7,0xbe,0x65,0x73,0xf9,0x3f,0xf4,0x87,0x0d,0x3e,0xf1,0xf3,0x3d,0xbe,0xee,0x40,0x70,0x3e,0x61,0x0b,0x9f,0xbf,0xc7,0x50,0x55,0x3e,0xf1,0xf0,0x6c,0xbe,0x45,0xcc,0xf3,0xbc,0x83,0xa2,0x0e,0xc0,0xa2,0x2b,0xdc,0x3f,0x33,0x53,0xe6,0x3d,0xca,0x89,0x2e,0xc0,0x24,0x9a,0x35,0xc0,0xff,0x31,0x71,0x3d,0x1a,0xb3,0xf9,0x3e,0x51,0x40,0x8c,0xbe,0x46,0x6d,0xc1,0x3d,0x90,0xa1,0xd7,0x3d,0xa0,0xd7,0xa3,0x3e,0xe9,0x23,0x6b,0x3e,0x7a,0x40,0xcf,0xbe,0x75,0xcc,0x91,0x3d,0x23,0x6f,0x17,0x3e,0x40,0x41,0x79,0xbe,0x03,0xd4,0x89,0x3e,0x3b,0x44,0x99,0xbc,0xe9,0xa1,0xf7,0xbd,0x77,0x5e,0x0e,0xbe,0xbb,0x2c,0xad,0x3e,0x1b,0x22,0x1c,0x3f,0x25,0x4f,0x27,0xbe,0xef,0xed,0x89,0xbe,0x31,0x50,0x0f,0x3f,0xc7,0x0c,0xf2,0xbd,0x33,0x4d,0x3f,0xbe,0x9a,0xf0,0x41,0xbd,0x01,0xa0,0x09,0xbf,0x18,0x92,0xeb,0x3e,0xd1,0x07,0xc9,0xbf,0x53,0x46,0x9a,0x3d,0x6a,0xd5,0xe9,0x3d,0x35,0x53,0x49,0x3e,0xa5,0x5b,0xb1,0xbf,0xf1,0xb4,0x4a,0xbe,0x8e,0x9d,0x05,0x3d,0x0f,0x87,0xf4,0xbe,0x85,0xbb,0x47,0x3d,0x2a,0x18,0x84,0xbe,0x34,0x10,0x5c,0xbc,0x3e,0x1a,0x02,0x3e,0x2c,0xbb,0xe8,0x3e,0x4c,0x46,0x1d,0x3e,0xab,0xee,0x04,0xbf,0x7a,0x14,0x67,0xbf,0x5f,0xd5,0xaf,0x3e,0x82,0xfa,0xc6,0xbd,0xb1,0xc8,0xe6,0x3e,0x50,0x18,0x73,0x3e,0x7f,0xae,0x89,0xbd,0x17,0x5c,0xc7,0x3e,0x22,0xff,0x9f,0x3e,0xc3,0x38,0x35,0xbe,0x55,0x49,0xf0,0x3d,0x84,0xdc,0xfd,0x3e,0x0b,0xa5,0x1a,0x3e,0xbe,0xa3,0x07,0xbe,0xea,0x9d,0x3a,0x3d,0x4f,0x94,0xcf,0x3e,0xf3,0x0e,0x9c,0x3e,0x2b,0x3a,0x94,0x3d,0x8d,0x2d,0xb4,0xbf,0x27,0xb6,0xa1,0x3e,0xaf,0x1d,0x8a,0x3e,0x54,0xb0,0xf0,0xbe,0xde,0xb0,0x0c,0x3e,0x81,0x0e,0x7d,0xbd,0x0c,0x8c,0xe2,0x3d,0xa6,0x75,0x72,0xbb,0x79,0x58,0xf7,0xbd,0x94,0xce,0x30,0x3e,0xbc,0xdb,0x30,0x3e,0xae,0x6d,0xe5,0x3e,0xe8,0xca,0xd6,0xbc,0xd8,0x95,0xe4,0x3d,0xcb,0xc8,0x57,0x3e,0x38,0x51,0x15,0xbe,0xb9,0x82,0x78,0x3e,0xe8,0x20,0xd8,0x3e,0x3d,0x46,0x8a,0xbd,0x59,0xd7,0x87,0x3e,0x1c,0xb8,0xbb,0x3e,0xb6,0x87,0x34,0x3e,0xa2,0xbe,0x59,0xbe,0xb7,0x22,0x91,0xbc,0x7b,0x69,0xb6,0x3d,0xf5,0xfb,0xee,0x3c,0xba,0x8a,0x47,0x3d,0x7a,0x5a,0x33,0x3e,0x75,0xfc,0x29,0x3e,0x45,0x3e,0x0f,0x3d,0x27,0x76,0x86,0xbe,0x77,0x19,0xbe,0xbc,0xae,0x2b,0xe0,0x3d,0x07,0x1f,0x72,0xbe,0x65,0x86,0x4d,0xbe,0x8a,0xbb,0xb5,0xbd,0x61,0x7d,0x10,0xbe,0xef,0xd5,0x88,0xbe,0x52,0x5d,0x75,0xbe,0xc9,0xa4,0x27,0xbc,0xc4,0x39,0x16,0xbe,0xab,0x19,0x25,0xbe,0x7f,0xd5,0x98,0xbe,0x42,0x0e,0x3c,0xbd,0xa3,0xb1,0x42,0x3e,0x9e,0x3d,0x4c,0x3d,0x45,0x57,0x49,0x3e,0x89,0xc9,0x54,0xbe,0xe3,0xde,0xbe,0x3d,0x73,0xcc,0x55,0x3e,0x5e,0xbe,0x69,0xbe,0xda,0xeb,0x17,0xbe,0xcc,0x27,0xdf,0x3d,0x21,0x15,0x44,0xbd,0xb2,0x80,0x1a,0xbe,0xda,0xff,0x8f,0xbe,0x2f,0x2c,0x12,0xbe,0x2e,0x22,0x50,0xbe,0x81,0xac,0xe3,0x3d,0x6f,0x03,0x18,0x3e,0x0a,0x18,0xb0,0x3c,0x58,0x23,0xb3,0x3c,0xa6,0xab,0x00,0x3e,0xab,0xe7,0x66,0xbe,0xc2,0x37,0xfc,0x3d,0x7d,0xa3,0x42,0xbe,0x12,0x35,0xd6,0x3b,0x0f,0xdb,0x6c,0x3d,0xd4,0x1f,0x43,0x3e,0x97,0xca,0x84,0x3d,0x55,0xc7,0x00,0x3e,0x21,0xd8,0x08,0x3d,0x1d,0x40,0x40,0xbe,0xc0,0xfc,0x83,0xbe,0x7c,0xc0,0x47,0x3e,0x56,0x70,0x19,0x3e,0xcd,0x3f,0xb9,0xbd,0x0b,0xce,0x04,0x3e,0x77,0xed,0x77,0xbd,0xb3,0x93,0x1b,0xbe,0x05,0xb7,0xc0,0xbc,0x6c,0x83,0x3e,0x3e,0x74,0x53,0x29,0x3e,0x8f,0x90,0x1d,0xbd,0x9d,0xe8,0x0a,0xbe,0x05,0xb0,0x0a,0xbd,0x30,0x85,0xca,0xbd,0x3a,0x77,0xb1,0xba,0x00,0x52,0x0d,0xbe,0xe9,0xa6,0xb4,0xbd,0x25,0x0b,0xbe,0x3d,0x9a,0xdc,0x1d,0x3e,0xb8,0xe0,0xa1,0x3d,0xc0,0xf9,0xf3,0xbd,0x2b,0x54,0x1f,0xbe,0xcd,0x8c,0xf4,0x3d,0x52,0xdf,0x92,0xbd,0xbd,0x0d,0x97,0x3e,0x03,0x48,0x85,0x3e,0x68,0x4d,0x70,0x3e,0xfa,0x8d,0xa7,0xbe,0x00,0xc4,0x87,0xbd,0x7e,0x6a,0x48,0xbe,0x55,0xd6,0x62,0x3d,0x0c,0x0b,0x5a,0x3e,0x5f,0xb5,0xc0,0x3e,0x19,0x9c,0xc1,0xbe,0xda,0x97,0x75,0xbe,0x90,0xe0,0x33,0x3d,0x24,0x8d,0x01,0xbe,0x21,0xaa,0x32,0xbe,0x0a,0x91,0x3a,0xbf,0x0e,0x8e,0x84,0x3e,0x3f,0xf5,0xd3,0xbd,0xde,0x83,0xaf,0x3d,0x15,0x29,0x79,0xbe,0x85,0xdc,0x0a,0x3c,0xb6,0xd0,0x5d,0x3d,0x06,0xaa,0x49,0xbf,0x92,0x13,0xa4,0x3e,0x27,0x3a,0xaa,0x3e,0x20,0x2c,0x92,0x3e,0xae,0xb2,0x77,0xbd,0x1a,0xe3,0x21,0x3e,0xa3,0xac,0xd0,0x3d,0x53,0x7b,0x86,0xbe,0x74,0xf0,0x77,0x3e,0xf6,0xd5,0xfd,0x3d,0xbd,0xc9,0x97,0xc0,0x95,0x74,0x48,0x3e,0x58,0x42,0x2d,0xbe,0x49,0xd8,0x88,0xbc,0x10,0x55,0x23,0xbf,0x9a,0x5a,0x95,0x3e,0x16,0x19,0x9b,0x3e,0x6d,0x0d,0xe7,0x3d,0x67,0x1b,0x09,0xbe,0xf0,0x14,0x62,0x3e,0xc6,0x5d,0x7a,0x3d,0x8e,0x1e,0x67,0x3e,0xf3,0xff,0xce,0x3e,0x3d,0xfa,0x93,0xbc,0x6f,0x21,0x3b,0x3e,0x35,0xbd,0x54,0xbf,0x7d,0x13,0x15,0xbf,0xaf,0x2e,0xc9,0x3b,0xd2,0x92,0x42,0xbe,0xe1,0x00,0xda,0x3c,0x3f,0x27,0x9d,0x3e,0xe4,0xdb,0x7c,0x3e,0xa1,0x4c,0x82,0xbf,0x0c,0xfa,0x32,0xc1,0xec,0x25,0x9d,0x3e,0xf7,0xb1,0x5d,0x3e,0x47,0x65,0x06,0xbf,0xf6,0x38,0x7c,0x3f,0x0d,0x4f,0x6c,0x3e,0x4f,0xb0,0x53,0xbe,0x7c,0x6e,0xd9,0x3e,0x82,0xc0,0x00,0xbe,0x90,0x5b,0x8c,0x3b,0xd2,0x7e,0xed,0x3d,0x58,0x11,0x0b,0x3e,0xaf,0xa6,0x89,0xbf,0x8a,0x0a,0x3a,0xbd,0x6d,0xf6,0xa4,0x3e,0xca,0x3c,0xc3,0xbd,0x4e,0xd9,0x66,0xbc,0x1c,0xaa,0x95,0xbe,0xb3,0xea,0x04,0x3f,0x55,0xaa,0xc6,0xbd,0x43,0xd3,0x81,0xbe,0xb3,0xca,0x0a,0xbf,0x05,0x6e,0xfd,0xbd,0x0a,0xc4,0x92,0x3e,0xcb,0x92,0x32,0xbf,0xd5,0x5f,0x49,0xbf,0x4a,0x57,0x71,0xbe,0xf1,0xcc,0xc8,0x40,0x03,0x5c,0x60,0x3d,0xc5,0xee,0xe3,0xc0,0x32,0x46,0xf7,0x3d,0xeb,0x60,0xf2,0xc0,0xa6,0xe4,0xab,0x3f,0x20,0xf8,0x28,0xbe,0x35,0x39,0x40,0xbe,0x3c,0x81,0x65,0x3e,0x15,0x83,0x8b,0xc0,0x95,0xc6,0x9b,0xbc,0xc5,0x83,0x4a,0x3e,0xcc,0x93,0x37,0xbe,0x27,0x73,0x9f,0x3d,0x02,0x50,0x9c,0xc0,0xfb,0x27,0xe4,0x3d,0x82,0x28,0xf3,0xbb,0x43,0xd4,0x4b,0x3f,0x3e,0x15,0x3c,0xbf,0x92,0x55,0x69,0xbe,0x33,0x80,0x75,0x3e,0xf7,0xc9,0x42,0x3e,0xae,0xbf,0xd7,0x3d,0x6b,0x66,0xde,0xbe,0xd0,0x82,0xc6,0xbd,0xfd,0x06,0x35,0x3e,0x59,0xb5,0x75,0x3e,0x8b,0xcb,0x1e,0xbe,0x2b,0x69,0xcf,0xbe,0x13,0xf4,0x26,0xbf,0x58,0x9f,0xc6,0xc0,0x8b,0x9a,0x8e,0x3c,0x20,0x69,0xa2,0x3f,0xfd,0xa1,0x94,0x3e,0x0a,0x4a,0x0a,0x40,0x79,0x21,0x63,0x3b,0x4e,0xc8,0x6e,0x3e,0x19,0xc5,0x7a,0x3e,0x46,0x39,0x79,0x3e,0xa7,0xcd,0xa9,0x3d,0xe9,0x0d,0xe3,0x3e,0x49,0x67,0x91,0xbe,0x61,0x48,0x30,0x3e,0x0e,0x60,0xf6,0x3d,0x9a,0x0f,0x4c,0x3e,0x5e,0xe1,0xb5,0x3b,0x04,0xde,0x56,0x3e,0xa6,0xca,0xba,0x3c,0x7d,0x64,0x94,0xbe,0x5b,0x2c,0x39,0x3f,0xfa,0x75,0xbe,0xbd,0x17,0x07,0xe6,0x3e,0x02,0x40,0xc6,0x3e,0xce,0x29,0x23,0x3c,0xea,0x26,0x05,0x3d,0x4e,0x62,0x14,0x3d,0x6d,0x4f,0xbc,0x3a,0xe1,0xbb,0xba,0xbe,0x89,0xd2,0x00,0x3f,0xf0,0x05,0xb8,0xbd,0xa6,0xad,0x86,0xbd,0x21,0xdd,0x32,0xbf,0x50,0xdc,0xca,0x3e,0x4f,0xf8,0x15,0x3e,0x38,0xb9,0xf0,0x3e,0x54,0x73,0x8d,0xbe,0x18,0xa1,0x35,0xbc,0x5a,0x84,0x6e,0xbe,0x2a,0xfc,0x97,0x3c,0x29,0x12,0x54,0x3d,0xc2,0xc1,0x0e,0x3e,0x2c,0x0b,0x0d,0x3e,0xaf,0xef,0x6f,0x3e,0xfb,0xd2,0x5f,0x3e,0xe6,0x7d,0xaa,0x3e,0xce,0xc6,0xf6,0xbe,0x05,0x70,0xb1,0xbe,0xc8,0xa5,0xda,0x3d,0x30,0x1d,0xa0,0xc0,0x9f,0x74,0x9f,0xbd,0xa3,0xa2,0x07,0x3d,0x03,0xb4,0xfa,0x3e,0x24,0x19,0x06,0xbf,0x0e,0xc9,0x8e,0x3e,0x5e,0xda,0x82,0x3e,0xa0,0x87,0x7b,0x3e,0xcf,0x5e,0xe7,0xbd,0x24,0x62,0xfc,0xbe,0x46,0x08,0x2f,0xbe,0x13,0x79,0x98,0xbe,0xe2,0x8b,0xe9,0x3e,0x40,0x19,0xc5,0x3d,0x2f,0x85,0xcb,0xbe,0xcd,0xd5,0xa4,0xbf,0xa7,0x16,0x0c,0xbe,0x43,0xba,0x21,0xbc,0x36,0x86,0x4e,0x3e,0xe2,0xd5,0xa1,0x3d,0x3b,0xe5,0x41,0x3d,0x02,0x9c,0x63,0x3e,0x5a,0xfd,0xff,0xff,0x04,0x00,0x00,0x00,0x00,0x01,0x00,0x00,0x69,0xbd,0x50,0x3f,0xe9,0xaf,0xf9,0x3e,0x20,0x53,0x84,0xbe,0xd9,0x9c,0xb6,0x3e,0x8b,0x1e,0xe0,0xbe,0xa0,0x95,0x74,0x3e,0x39,0xa6,0xf4,0xbe,0x50,0xf9,0x56,0x3d,0xeb,0xcd,0xa5,0xbd,0x77,0x7f,0x39,0xbf,0x75,0xc0,0x1f,0x3f,0xe2,0xe9,0x08,0xbe,0xe8,0x3a,0x40,0x3d,0x95,0x94,0x1a,0xbf,0x44,0x57,0x3b,0xbf,0xf5,0xde,0xc4,0xbd,0xba,0xbc,0x06,0x3e,0x56,0xfd,0x20,0xbe,0xb5,0x23,0x53,0xc0,0xb5,0xd5,0x9c,0x3f,0x2a,0xd4,0xad,0xbe,0x13,0x4d,0xd4,0x3e,0x82,0x53,0x01,0xbe,0x02,0x5e,0x21,0x3f,0xac,0x5d,0xcc,0xbd,0x31,0x11,0xd5,0x3d,0xb2,0x8f,0x20,0xc0,0x6c,0xcc,0x84,0xbe,0x72,0xc5,0x99,0xbc,0x67,0x95,0x20,0x3e,0x54,0x0c,0x11,0x3e,0x6c,0xb4,0xc8,0x3e,0x84,0xda,0xe4,0x3e,0x06,0x56,0xc8,0x3f,0x82,0x73,0x93,0xbf,0x45,0x5b,0x32,0x3f,0x3e,0x6a,0x29,0xc0,0xfa,0x3b,0xce,0x3d,0x88,0x0d,0xad,0xbf,0xf2,0x0c,0xa4,0x3c,0x7d,0x34,0x5a,0xbf,0x76,0x3c,0x12,0x40,0xdc,0x08,0x3a,0xbf,0xe8,0x79,0x2f,0x40,0x23,0x27,0x84,0xbf,0x29,0x0b,0xb4,0x3f,0x6e,0x5b,0x55,0x40,0xb1,0x8c,0x75,0x40,0x7a,0x73,0x65,0x3f,0x1f,0x8f,0x20,0x40,0x04,0xd6,0xfc,0x3d,0xea,0xdb,0xba,0x3f,0xe9,0xc2,0x9f,0x3f,0x5a,0x92,0x21,0xbf,0x0e,0xb4,0xb2,0x3f,0x43,0x96,0x83,0x40,0x29,0xb8,0x8e,0xbf,0xb0,0xcb,0x8e,0xbf,0x69,0x3f,0x9b,0xbf,0x60,0x09,0x46,0xbf,0xe4,0x5f,0x98,0x3c,0xe6,0x0c,0x41,0xbf,0x85,0x99,0x2e,0xc0,0x09,0x7f,0x14,0xbf,0x66,0xfe,0xff,0xff,0x04,0x00,0x00,0x00,0x80,0x00,0x00,0x00,0x00,0x00,0x00,0x00,0x00,0x00,0x00,0x00,0x00,0x00,0x00,0x00,0x00,0x00,0x00,0x00,0x00,0x00,0x00,0x00,0x00,0x00,0x00,0x00,0x00,0x00,0x00,0x00,0x00,0x00,0x00,0x00,0x00,0x00,0x00,0x00,0x00,0x00,0x00,0x00,0x00,0x00,0x00,0x00,0x00,0x00,0x00,0x00,0x00,0x00,0x00,0x00,0x00,0x00,0x00,0x00,0x00,0x00,0x00,0x00,0x00,0x00,0x00,0x00,0x00,0x00,0x00,0x00,0x00,0x00,0x00,0x00,0x00,0x00,0x00,0x00,0x00,0x00,0x00,0x00,0x00,0x00,0x00,0x00,0x00,0x00,0x00,0x00,0x00,0x00,0x00,0x00,0x00,0x00,0x00,0x00,0x00,0x00,0x00,0x00,0x00,0x00,0x00,0x00,0x00,0x00,0x00,0x00,0x00,0x00,0x00,0x00,0x00,0x00,0x00,0x00,0x00,0x00,0x00,0x00,0x00,0x00,0x00,0x00,0x00,0x00,0x00,0x00,0xf2,0xfe,0xff,0xff,0x04,0x00,0x00,0x00,0x00,0x01,0x00,0x00,0xb7,0x41,0x0c,0x3f,0x4f,0xde,0xf0,0xbe,0x45,0x31,0x2c,0x3f,0xb6,0x51,0x1d,0xbf,0x6d,0xa6,0xa0,0xbd,0x35,0x77,0x23,0x3e,0x7d,0x0a,0x98,0xbe,0xaa,0x6b,0xcc,0x3e,0x27,0xed,0xbf,0x3e,0x72,0x18,0xf1,0xbe,0xa2,0xc0,0xc4,0xbe,0xb5,0xc7,0xf7,0x3e,0xc9,0xd4,0x8c,0xbe,0x98,0xe2,0xb2,0x3d,0xb2,0x58,0xd3,0x3e,0xfa,0x6b,0x99,0xbe,0xc4,0xe4,0xfb,0xbe,0xe2,0xaa,0xb7,0x3e,0xb2,0x2d,0x8d,0xbd,0xda,0x1c,0x1a,0xbf,0x82,0x57,0x0e,0xbf,0x44,0x7c,0xba,0x3d,0x05,0x6b,0x82,0x3d,0xbf,0x81,0xd6,0xbc,0xf6,0x48,0xa0,0xbe,0xf2,0xd5,0x92,0x3e,0x81,0xe8,0x0d,0x3f,0xea,0xd2,0x1a,0xbf,0x35,0xac,0x01,0xbf,0xd5,0xa6,0x88,0xbd,0x2a,0xf6,0x9e,0xbe,0x2c,0xdc,0x3d,0x3e,0x38,0xba,0x9a,0x3e,0x85,0xe0,0xe4,0xbe,0x98,0x2c,0x02,0xbe,0x0e,0x96,0x72,0xbe,0xa0,0x78,0xc4,0x3e,0x2c,0xaf,0x0b,0xbd,0x97,0xc0,0xc7,0xbe,0xe7,0xde,0x02,0x3f,0x36,0xa1,0x08,0xbe,0x37,0x4f,0xee,0x3e,0xb1,0x29,0x1e,0x3d,0x06,0x95,0xe5,0x3d,0x82,0x8c,0x0b,0x3f,0xdc,0x2d,0x3a,0xbf,0x30,0xd1,0x7f,0x3e,0x83,0xd1,0x0a,0x3e,0xea,0x0b,0xc4,0xbe,0xa0,0xa5,0xec,0x3e,0xce,0xc8,0xd2,0xbe,0x65,0x43,0x00,0xbf,0xa9,0xb4,0x24,0x3f,0x93,0x36,0xe2,0xbe,0xbb,0x80,0xfb,0xbd,0x32,0x7e,0xcc,0xbe,0x7f,0x6d,0xff,0x3e,0x8a,0xdb,0x90,0xbe,0xd1,0x43,0xfd,0xbb,0xe9,0x32,0x2d,0xbf,0xbd,0x88,0x72,0xbe,0x5c,0x80,0x08,0x3f,0x72,0xc2,0xc8,0x3d,0xaf,0xc5,0xd2,0xbe,0x00,0x00,0x06,0x00,0x08,0x00,0x04,0x00,0x06,0x00,0x00,0x00,0x04,0x00,0x00,0x00,0x0c,0x00,0x00,0x00,0xff,0xff,0xff,0xff,0x02,0x00,0x00,0x00,0x20,0x00,0x00,0x00,0x38,0xf7,0xff,0xff,0x3c,0xf7,0xff,0xff,0x0f,0x00,0x00,0x00,0x4d,0x4c,0x49,0x52,0x20,0x43,0x6f,0x6e,0x76,0x65,0x72,0x74,0x65,0x64,0x2e,0x00,0x01,0x00,0x00,0x00,0x14,0x00,0x00,0x00,0x00,0x00,0x0e,0x00,0x18,0x00,0x14,0x00,0x10,0x00,0x0c,0x00,0x08,0x00,0x04,0x00,0x0e,0x00,0x00,0x00,0x14,0x00,0x00,0x00,0x1c,0x00,0x00,0x00,0xcc,0x01,0x00,0x00,0xd0,0x01,0x00,0x00,0xd4,0x01,0x00,0x00,0x04,0x00,0x00,0x00,0x6d,0x61,0x69,0x6e,0x00,0x00,0x00,0x00,0x07,0x00,0x00,0x00,0x84,0x01,0x00,0x00,0x24,0x01,0x00,0x00,0xec,0x00,0x00,0x00,0xa0,0x00,0x00,0x00,0x78,0x00,0x00,0x00,0x3c,0x00,0x00,0x00,0x04,0x00,0x00,0x00,0x02,0xff,0xff,0xff,0x14,0x00,0x00,0x00,0x00,0x00,0x00,0x08,0x10,0x00,0x00,0x00,0x14,0x00,0x00,0x00,0x04,0x00,0x00,0x00,0xc8,0xf7,0xff,0xff,0x01,0x00,0x00,0x00,0x11,0x00,0x00,0x00,0x03,0x00,0x00,0x00,0x10,0x00,0x00,0x00,0x04,0x00,0x00,0x00,0x08,0x00,0x00,0x00,0x36,0xff,0xff,0xff,0x14,0x00,0x00,0x00,0x00,0x00,0x00,0x08,0x14,0x00,0x00,0x00,0x18,0x00,0x00,0x00,0x04,0x00,0x00,0x00,0xa2,0xff,0xff,0xff,0x00,0x00,0x00,0x01,0x01,0x00,0x00,0x00,0x10,0x00,0x00,0x00,0x03,0x00,0x00,0x00,0x0f,0x00,0x00,0x00,0x05,0x00,0x00,0x00,0x07,0x00,0x00,0x00,0x9e,0xff,0xff,0xff,0x0c,0x00,0x00,0x00,0x10,0x00,0x00,0x00,0x02,0x00,0x00,0x00,0x01,0x00,0x00,0x00,0x0f,0x00,0x00,0x00,0x02,0x00,0x00,0x00,0x0e,0x00,0x00,0x00,0x09,0x00,0x00,0x00,0x92,0xff,0xff,0xff,0x1c,0x00,0x00,0x00,0x00,0x00,0x00,0x0b,0x1c,0x00,0x00,0x00,0x20,0x00,0x00,0x00,0x03,0x00,0x00,0x00,0x00,0x00,0x06,0x00,0x08,0x00,0x07,0x00,0x06,0x00,0x00,0x00,0x00,0x00,0x00,0x01,0x01,0x00,0x00,0x00,0x0e,0x00,0x00,0x00,0x02,0x00,0x00,0x00,0x0d,0x00,0x00,0x00,0x06,0x00,0x00,0x00,0x00,0x00,0x0a,0x00,0x10,0x00,0x0c,0x00,0x08,0x00,0x04,0x00,0x0a,0x00,0x00,0x00,0x0c,0x00,0x00,0x00,0x10,0x00,0x00,0x00,0x02,0x00,0x00,0x00,0x01,0x00,0x00,0x00,0x0d,0x00,0x00,0x00,0x02,0x00,0x00,0x00,0x0c,0x00,0x00,0x00,0x01,0x00,0x00,0x00,0x00,0x00,0x0e,0x00,0x1a,0x00,0x14,0x00,0x10,0x00,0x0c,0x00,0x0b,0x00,0x04,0x00,0x0e,0x00,0x00,0x00,0x20,0x00,0x00,0x00,0x00,0x00,0x00,0x01,0x28,0x00,0x00,0x00,0x2c,0x00,0x00,0x00,0x01,0x00,0x00,0x00,0x00,0x00,0x0a,0x00,0x10,0x00,0x0f,0x00,0x08,0x00,0x04,0x00,0x0a,0x00,0x00,0x00,0x01,0x00,0x00,0x00,0x01,0x00,0x00,0x00,0x00,0x00,0x00,0x01,0x01,0x00,0x00,0x00,0x0c,0x00,0x00,0x00,0x03,0x00,0x00,0x00,0x0b,0x00,0x00,0x00,0x02,0x00,0x00,0x00,0x03,0x00,0x00,0x00,0x00,0x00,0x0e,0x00,0x14,0x00,0x00,0x00,0x10,0x00,0x0c,0x00,0x0b,0x00,0x04,0x00,0x0e,0x00,0x00,0x00,0x10,0x00,0x00,0x00,0x00,0x00,0x00,0x34,0x0c,0x00,0x00,0x00,0x10,0x00,0x00,0x00,0x2c,0xf9,0xff,0xff,0x01,0x00,0x00,0x00,0x0b,0x00,0x00,0x00,0x02,0x00,0x00,0x00,0x00,0x00,0x00,0x00,0x0a,0x00,0x00,0x00,0x01,0x00,0x00,0x00,0x11,0x00,0x00,0x00,0x01,0x00,0x00,0x00,0x00,0x00,0x00,0x00,0x12,0x00,0x00,0x00,0x20,0x06,0x00,0x00,0xc8,0x05,0x00,0x00,0x68,0x05,0x00,0x00,0x14,0x05,0x00,0x00,0xd4,0x04,0x00,0x00,0x94,0x04,0x00,0x00,0x50,0x04,0x00,0x00,0x14,0x04,0x00,0x00,0xd8,0x03,0x00,0x00,0x98,0x03,0x00,0x00,0x38,0x03,0x00,0x00,0xb8,0x02,0x00,0x00,0x44,0x02,0x00,0x00,0xd0,0x01,0x00,0x00,0x50,0x01,0x00,0x00,0xf0,0x00,0x00,0x00,0x60,0x00,0x00,0x00,0x04,0x00,0x00,0x00,0x3e,0xfa,0xff,0xff,0x00,0x00,0x00,0x01,0x14,0x00,0x00,0x00,0x1c,0x00,0x00,0x00,0x1c,0x00,0x00,0x00,0x12,0x00,0x00,0x00,0x34,0x00,0x00,0x00,0x02,0x00,0x00,0x00,0xff,0xff,0xff,0xff,0x02,0x00,0x00,0x00,0xc8,0xf9,0xff,0xff,0x1b,0x00,0x00,0x00,0x53,0x74,0x61,0x74,0x65,0x66,0x75,0x6c,0x50,0x61,0x72,0x74,0x69,0x74,0x69,0x6f,0x6e,0x65,0x64,0x43,0x61,0x6c,0x6c,0x5f,0x31,0x3a,0x30,0x00,0x02,0x00,0x00,0x00,0x01,0x00,0x00,0x00,0x02,0x00,0x00,0x00,0x96,0xfa,0xff,0xff,0x00,0x00,0x00,0x01,0x14,0x00,0x00,0x00,0x1c,0x00,0x00,0x00,0x1c,0x00,0x00,0x00,0x11,0x00,0x00,0x00,0x68,0x00,0x00,0x00,0x02,0x00,0x00,0x00,0xff,0xff,0xff,0xff,0x20,0x00,0x00,0x00,0x20,0xfa,0xff,0xff,0x4e,0x00,0x00,0x00,0x73,0x65,0x71,0x75,0x65,0x6e,0x74,0x69,0x61,0x6c,0x5f,0x31,0x2f,0x64,0x65,0x6e,0x73,0x65,0x5f,0x31,0x2f,0x4d,0x61,0x74,0x4d,0x75,0x6c,0x3b,0x73,0x65,0x71,0x75,0x65,0x6e,0x74,0x69,0x61,0x6c,0x5f,0x31,0x2f,0x64,0x65,0x6e,0x73,0x65,0x5f,0x31,0x2f,0x52,0x65,0x6c,0x75,0x3b,0x73,0x65,0x71,0x75,0x65,0x6e,0x74,0x69,0x61,0x6c,0x5f,0x31,0x2f,0x64,0x65,0x6e,0x73,0x65,0x5f,0x31,0x2f,0x41,0x64,0x64,0x00,0x00,0x02,0x00,0x00,0x00,0x01,0x00,0x00,0x00,0x20,0x00,0x00,0x00,0x22,0xfb,0xff,0xff,0x00,0x00,0x00,0x01,0x14,0x00,0x00,0x00,0x1c,0x00,0x00,0x00,0x1c,0x00,0x00,0x00,0x10,0x00,0x00,0x00,0x38,0x00,0x00,0x00,0x02,0x00,0x00,0x00,0xff,0xff,0xff,0xff,0x40,0x00,0x00,0x00,0xac,0xfa,0xff,0xff,0x1e,0x00,0x00,0x00,0x73,0x65,0x71,0x75,0x65,0x6e,0x74,0x69,0x61,0x6c,0x5f,0x31,0x2f,0x66,0x6c,0x61,0x74,0x74,0x65,0x6e,0x5f,0x31,0x2f,0x52,0x65,0x73,0x68,0x61,0x70,0x65,0x00,0x00,0x02,0x00,0x00,0x00,0x01,0x00,0x00,0x00,0x40,0x00,0x00,0x00,0x7e,0xfb,0xff,0xff,0x00,0x00,0x00,0x01,0x14,0x00,0x00,0x00,0x20,0x00,0x00,0x00,0x20,0x00,0x00,0x00,0x0f,0x00,0x00,0x00,0x54,0x00,0x00,0x00,0x03,0x00,0x00,0x00,0xff,0xff,0xff,0xff,0x02,0x00,0x00,0x00,0x20,0x00,0x00,0x00,0x0c,0xfb,0xff,0xff,0x34,0x00,0x00,0x00,0x73,0x65,0x71,0x75,0x65,0x6e,0x74,0x69,0x61,0x6c,0x5f,0x31,0x2f,0x63,0x6f,0x6e,0x76,0x31,0x64,0x5f,0x31,0x2f,0x52,0x65,0x6c,0x75,0x3b,0x73,0x65,0x71,0x75,0x65,0x6e,0x74,0x69,0x61,0x6c,0x5f,0x31,0x2f,0x63,0x6f,0x6e,0x76,0x31,0x64,0x5f,0x31,0x2f,0x61,0x64,0x64,0x00,0x00,0x00,0x00,0x03,0x00,0x00,0x00,0x01,0x00,0x00,0x00,0x02,0x00,0x00,0x00,0x20,0x00,0x00,0x00,0xfa,0xfb,0xff,0xff,0x00,0x00,0x00,0x01,0x14,0x00,0x00,0x00,0x20,0x00,0x00,0x00,0x20,0x00,0x00,0x00,0x0e,0x00,0x00,0x00,0x48,0x00,0x00,0x00,0x03,0x00,0x00,0x00,0xff,0xff,0xff,0xff,0x02,0x00,0x00,0x00,0x20,0x00,0x00,0x00,0x88,0xfb,0xff,0xff,0x29,0x00,0x00,0x00,0x73,0x65,0x71,0x75,0x65,0x6e,0x74,0x69,0x61,0x6c,0x5f,0x31,0x2f,0x63,0x6f,0x6e,0x76,0x31,0x64,0x5f,0x31,0x2f,0x63,0x6f,0x6e,0x76,0x6f,0x6c,0x75,0x74,0x69,0x6f,0x6e,0x2f,0x53,0x71,0x75,0x65,0x65,0x7a,0x65,0x00,0x00,0x00,0x03,0x00,0x00,0x00,0x01,0x00,0x00,0x00,0x02,0x00,0x00,0x00,0x20,0x00,0x00,0x00,0x6a,0xfc,0xff,0xff,0x00,0x00,0x00,0x01,0x14,0x00,0x00,0x00,0x24,0x00,0x00,0x00,0x24,0x00,0x00,0x00,0x0d,0x00,0x00,0x00,0x44,0x00,0x00,0x00,0x04,0x00,0x00,0x00,0xff,0xff,0xff,0xff,0x01,0x00,0x00,0x00,0x02,0x00,0x00,0x00,0x20,0x00,0x00,0x00,0xfc,0xfb,0xff,0xff,0x21,0x00,0x00,0x00,0x73,0x65,0x71,0x75,0x65,0x6e,0x74,0x69,0x61,0x6c,0x5f,0x31,0x2f,0x63,0x6f,0x6e,0x76,0x31,0x64,0x5f,0x31,0x2f,0x63,0x6f,0x6e,0x76,0x6f,0x6c,0x75,0x74,0x69,0x6f,0x6e,0x00,0x00,0x00,0x04,0x00,0x00,0x00,0x01,0x00,0x00,0x00,0x01,0x00,0x00,0x00,0x02,0x00,0x00,0x00,0x20,0x00,0x00,0x00,0xda,0xfc,0xff,0xff,0x00,0x00,0x00,0x01,0x14,0x00,0x00,0x00,0x24,0x00,0x00,0x00,0x24,0x00,0x00,0x00,0x0c,0x00,0x00,0x00,0x50,0x00,0x00,0x00,0x04,0x00,0x00,0x00,0xff,0xff,0xff,0xff,0x01,0x00,0x00,0x00,0x03,0x00,0x00,0x00,0x01,0x00,0x00,0x00,0x6c,0xfc,0xff,0xff,0x2c,0x00,0x00,0x00,0x73,0x65,0x71,0x75,0x65,0x6e,0x74,0x69,0x61,0x6c,0x5f,0x31,0x2f,0x63,0x6f,0x6e,0x76,0x31,0x64,0x5f,0x31,0x2f,0x63,0x6f,0x6e,0x76,0x6f,0x6c,0x75,0x74,0x69,0x6f,0x6e,0x2f,0x45,0x78,0x70,0x61,0x6e,0x64,0x44,0x69,0x6d,0x73,0x00,0x00,0x00,0x00,0x04,0x00,0x00,0x00,0x01,0x00,0x00,0x00,0x01,0x00,0x00,0x00,0x03,0x00,0x00,0x00,0x01,0x00,0x00,0x00,0xaa,0xfd,0xff,0xff,0x00,0x00,0x00,0x01,0x14,0x00,0x00,0x00,0x14,0x00,0x00,0x00,0x0b,0x00,0x00,0x00,0x00,0x00,0x00,0x02,0x40,0x00,0x00,0x00,0xd4,0xfc,0xff,0xff,0x30,0x00,0x00,0x00,0x73,0x65,0x71,0x75,0x65,0x6e,0x74,0x69,0x61,0x6c,0x5f,0x31,0x2f,0x63,0x6f,0x6e,0x76,0x31,0x64,0x5f,0x31,0x2f,0x63,0x6f,0x6e,0x76,0x6f,0x6c,0x75,0x74,0x69,0x6f,0x6e,0x2f,0x45,0x78,0x70,0x61,0x6e,0x64,0x44,0x69,0x6d,0x73,0x2f,0x64,0x69,0x6d,0x00,0x00,0x00,0x00,0x00,0x00,0x00,0x00,0x06,0xfe,0xff,0xff,0x00,0x00,0x00,0x01,0x14,0x00,0x00,0x00,0x14,0x00,0x00,0x00,0x0a,0x00,0x00,0x00,0x00,0x00,0x00,0x02,0x1c,0x00,0x00,0x00,0x30,0xfd,0xff,0xff,0x0f,0x00,0x00,0x00,0x61,0x72,0x69,0x74,0x68,0x2e,0x63,0x6f,0x6e,0x73,0x74,0x61,0x6e,0x74,0x38,0x00,0x01,0x00,0x00,0x00,0x02,0x00,0x00,0x00,0x9e,0xfe,0xff,0xff,0x00,0x00,0x00,0x01,0x10,0x00,0x00,0x00,0x10,0x00,0x00,0x00,0x09,0x00,0x00,0x00,0x1c,0x00,0x00,0x00,0x68,0xfd,0xff,0xff,0x0f,0x00,0x00,0x00,0x61,0x72,0x69,0x74,0x68,0x2e,0x63,0x6f,0x6e,0x73,0x74,0x61,0x6e,0x74,0x37,0x00,0x01,0x00,0x00,0x00,0x02,0x00,0x00,0x00,0xd6,0xfe,0xff,0xff,0x00,0x00,0x00,0x01,0x10,0x00,0x00,0x00,0x10,0x00,0x00,0x00,0x08,0x00,0x00,0x00,0x1c,0x00,0x00,0x00,0xa0,0xfd,0xff,0xff,0x0f,0x00,0x00,0x00,0x61,0x72,0x69,0x74,0x68,0x2e,0x63,0x6f,0x6e,0x73,0x74,0x61,0x6e,0x74,0x36,0x00,0x01,0x00,0x00,0x00,0x20,0x00,0x00,0x00,0x0e,0xff,0xff,0xff,0x00,0x00,0x00,0x01,0x10,0x00,0x00,0x00,0x10,0x00,0x00,0x00,0x07,0x00,0x00,0x00,0x1c,0x00,0x00,0x00,0xd8,0xfd,0xff,0xff,0x0f,0x00,0x00,0x00,0x61,0x72,0x69,0x74,0x68,0x2e,0x63,0x6f,0x6e,0x73,0x74,0x61,0x6e,0x74,0x35,0x00,0x03,0x00,0x00,0x00,0x01,0x00,0x00,0x00,0x01,0x00,0x00,0x00,0x20,0x00,0x00,0x00,0x4e,0xff,0xff,0xff,0x00,0x00,0x00,0x01,0x10,0x00,0x00,0x00,0x10,0x00,0x00,0x00,0x06,0x00,0x00,0x00,0x1c,0x00,0x00,0x00,0x18,0xfe,0xff,0xff,0x0f,0x00,0x00,0x00,0x61,0x72,0x69,0x74,0x68,0x2e,0x63,0x6f,0x6e,0x73,0x74,0x61,0x6e,0x74,0x34,0x00,0x02,0x00,0x00,0x00,0x20,0x00,0x00,0x00,0x40,0x00,0x00,0x00,0x8a,0xff,0xff,0xff,0x00,0x00,0x00,0x01,0x10,0x00,0x00,0x00,0x10,0x00,0x00,0x00,0x05,0x00,0x00,0x00,0x1c,0x00,0x00,0x00,0x54,0xfe,0xff,0xff,0x0f,0x00,0x00,0x00,0x61,0x72,0x69,0x74,0x68,0x2e,0x63,0x6f,0x6e,0x73,0x74,0x61,0x6e,0x74,0x33,0x00,0x02,0x00,0x00,0x00,0x02,0x00,0x00,0x00,0x20,0x00,0x00,0x00,0xc6,0xff,0xff,0xff,0x00,0x00,0x00,0x01,0x10,0x00,0x00,0x00,0x10,0x00,0x00,0x00,0x04,0x00,0x00,0x00,0x1c,0x00,0x00,0x00,0x90,0xfe,0xff,0xff,0x0f,0x00,0x00,0x00,0x61,0x72,0x69,0x74,0x68,0x2e,0x63,0x6f,0x6e,0x73,0x74,0x61,0x6e,0x74,0x32,0x00,0x01,0x00,0x00,0x00,0x20,0x00,0x00,0x00,0x00,0x00,0x16,0x00,0x18,0x00,0x14,0x00,0x00,0x00,0x10,0x00,0x0c,0x00,0x08,0x00,0x00,0x00,0x00,0x00,0x00,0x00,0x07,0x00,0x16,0x00,0x00,0x00,0x00,0x00,0x00,0x01,0x10,0x00,0x00,0x00,0x10,0x00,0x00,0x00,0x03,0x00,0x00,0x00,0x1c,0x00,0x00,0x00,0xe0,0xfe,0xff,0xff,0x0f,0x00,0x00,0x00,0x61,0x72,0x69,0x74,0x68,0x2e,0x63,0x6f,0x6e,0x73,0x74,0x61,0x6e,0x74,0x31,0x00,0x04,0x00,0x00,0x00,0x20,0x00,0x00,0x00,0x01,0x00,0x00,0x00,0x02,0x00,0x00,0x00,0x01,0x00,0x00,0x00,0x00,0x00,0x16,0x00,0x1c,0x00,0x18,0x00,0x17,0x00,0x10,0x00,0x0c,0x00,0x08,0x00,0x00,0x00,0x00,0x00,0x00,0x00,0x07,0x00,0x16,0x00,0x00,0x00,0x00,0x00,0x00,0x01,0x14,0x00,0x00,0x00,0x14,0x00,0x00,0x00,0x02,0x00,0x00,0x00,0x00,0x00,0x00,0x02,0x1c,0x00,0x00,0x00,0x40,0xff,0xff,0xff,0x0e,0x00,0x00,0x00,0x61,0x72,0x69,0x74,0x68,0x2e,0x63,0x6f,0x6e,0x73,0x74,0x61,0x6e,0x74,0x00,0x00,0x01,0x00,0x00,0x00,0x03,0x00,0x00,0x00,0x00,0x00,0x16,0x00,0x1c,0x00,0x18,0x00,0x00,0x00,0x14,0x00,0x10,0x00,0x0c,0x00,0x00,0x00,0x00,0x00,0x08,0x00,0x07,0x00,0x16,0x00,0x00,0x00,0x00,0x00,0x00,0x01,0x14,0x00,0x00,0x00,0x20,0x00,0x00,0x00,0x20,0x00,0x00,0x00,0x01,0x00,0x00,0x00,0x3c,0x00,0x00,0x00,0x03,0x00,0x00,0x00,0xff,0xff,0xff,0xff,0x03,0x00,0x00,0x00,0x01,0x00,0x00,0x00,0xa4,0xff,0xff,0xff,0x1e,0x00,0x00,0x00,0x73,0x65,0x72,0x76,0x69,0x6e,0x67,0x5f,0x64,0x65,0x66,0x61,0x75,0x6c,0x74,0x5f,0x6b,0x65,0x72,0x61,0x73,0x5f,0x74,0x65,0x6e,0x73,0x6f,0x72,0x3a,0x30,0x00,0x00,0x03,0x00,0x00,0x00,0x01,0x00,0x00,0x00,0x03,0x00,0x00,0x00,0x01,0x00,0x00,0x00,0x05,0x00,0x00,0x00,0x4c,0x00,0x00,0x00,0x30,0x00,0x00,0x00,0x20,0x00,0x00,0x00,0x18,0x00,0x00,0x00,0x04,0x00,0x00,0x00,0xd4,0xff,0xff,0xff,0x09,0x00,0x00,0x00,0x00,0x00,0x00,0x09,0x04,0x00,0x04,0x00,0x04,0x00,0x00,0x00,0xe8,0xff,0xff,0xff,0x16,0x00,0x00,0x00,0x00,0x00,0x00,0x16,0xf4,0xff,0xff,0xff,0x03,0x00,0x00,0x00,0x00,0x00,0x00,0x03,0x0c,0x00,0x0c,0x00,0x0b,0x00,0x00,0x00,0x00,0x00,0x04,0x00,0x0c,0x00,0x00,0x00,0x46,0x00,0x00,0x00,0x00,0x00,0x00,0x46};
const int g_model_len = 12072;

const float scaler_i_mean[] = { 5.0, 248.3426063712522, 313.0085390946502 };
const float scaler_i_scale[] = { 2.581988897471611, 155.15877544830198, 139.88528578741705 };
const float scaler_o_mean[] = { 2.75, 32.75 };
const float scaler_o_scale[] = { 1.7260262647673315, 5.261891294962297 };
#endif  // MODEL_H
