
#ifndef MODEL_H
#define MODEL_H

// MSE(Pos, Temp): [0.32745102 0.20406846]


const unsigned char g_model[] = {0x1c,0x00,0x00,0x00,0x54,0x46,0x4c,0x33,0x14,0x00,0x20,0x00,0x1c,0x00,0x18,0x00,0x14,0x00,0x10,0x00,0x0c,0x00,0x00,0x00,0x08,0x00,0x04,0x00,0x14,0x00,0x00,0x00,0x1c,0x00,0x00,0x00,0x8c,0x00,0x00,0x00,0xe4,0x00,0x00,0x00,0x04,0x26,0x00,0x00,0x14,0x26,0x00,0x00,0x98,0x2e,0x00,0x00,0x03,0x00,0x00,0x00,0x01,0x00,0x00,0x00,0x04,0x00,0x00,0x00,0xd6,0xd8,0xff,0xff,0x0c,0x00,0x00,0x00,0x1c,0x00,0x00,0x00,0x3c,0x00,0x00,0x00,0x0f,0x00,0x00,0x00,0x73,0x65,0x72,0x76,0x69,0x6e,0x67,0x5f,0x64,0x65,0x66,0x61,0x75,0x6c,0x74,0x00,0x01,0x00,0x00,0x00,0x04,0x00,0x00,0x00,0x90,0xff,0xff,0xff,0x11,0x00,0x00,0x00,0x04,0x00,0x00,0x00,0x08,0x00,0x00,0x00,0x6f,0x75,0x74,0x70,0x75,0x74,0x5f,0x30,0x00,0x00,0x00,0x00,0x01,0x00,0x00,0x00,0x04,0x00,0x00,0x00,0x8a,0xda,0xff,0xff,0x04,0x00,0x00,0x00,0x0c,0x00,0x00,0x00,0x6b,0x65,0x72,0x61,0x73,0x5f,0x74,0x65,0x6e,0x73,0x6f,0x72,0x00,0x00,0x00,0x00,0x02,0x00,0x00,0x00,0x34,0x00,0x00,0x00,0x04,0x00,0x00,0x00,0xdc,0xff,0xff,0xff,0x14,0x00,0x00,0x00,0x04,0x00,0x00,0x00,0x13,0x00,0x00,0x00,0x43,0x4f,0x4e,0x56,0x45,0x52,0x53,0x49,0x4f,0x4e,0x5f,0x4d,0x45,0x54,0x41,0x44,0x41,0x54,0x41,0x00,0x08,0x00,0x0c,0x00,0x08,0x00,0x04,0x00,0x08,0x00,0x00,0x00,0x13,0x00,0x00,0x00,0x04,0x00,0x00,0x00,0x13,0x00,0x00,0x00,0x6d,0x69,0x6e,0x5f,0x72,0x75,0x6e,0x74,0x69,0x6d,0x65,0x5f,0x76,0x65,0x72,0x73,0x69,0x6f,0x6e,0x00,0x15,0x00,0x00,0x00,0x1c,0x25,0x00,0x00,0x14,0x25,0x00,0x00,0xf8,0x24,0x00,0x00,0xe0,0x23,0x00,0x00,0x50,0x23,0x00,0x00,0x40,0x22,0x00,0x00,0x30,0x02,0x00,0x00,0xa0,0x01,0x00,0x00,0x10,0x01,0x00,0x00,0xf8,0x00,0x00,0x00,0xe0,0x00,0x00,0x00,0xcc,0x00,0x00,0x00,0xc4,0x00,0x00,0x00,0xbc,0x00,0x00,0x00,0xb4,0x00,0x00,0x00,0xac,0x00,0x00,0x00,0xa4,0x00,0x00,0x00,0x9c,0x00,0x00,0x00,0x94,0x00,0x00,0x00,0x74,0x00,0x00,0x00,0x04,0x00,0x00,0x00,0x5a,0xdb,0xff,0xff,0x04,0x00,0x00,0x00,0x60,0x00,0x00,0x00,0x10,0x00,0x00,0x00,0x00,0x00,0x00,0x00,0x08,0x00,0x0e,0x00,0x08,0x00,0x04,0x00,0x08,0x00,0x00,0x00,0x10,0x00,0x00,0x00,0x24,0x00,0x00,0x00,0x00,0x00,0x06,0x00,0x08,0x00,0x04,0x00,0x06,0x00,0x00,0x00,0x04,0x00,0x00,0x00,0x00,0x00,0x00,0x00,0x0c,0x00,0x18,0x00,0x14,0x00,0x10,0x00,0x0c,0x00,0x04,0x00,0x0c,0x00,0x00,0x00,0x81,0xdb,0xf2,0xa3,0xbb,0xed,0x47,0x42,0x02,0x00,0x00,0x00,0x02,0x00,0x00,0x00,0x04,0x00,0x00,0x00,0x06,0x00,0x00,0x00,0x32,0x2e,0x31,0x37,0x2e,0x30,0x00,0x00,0xc6,0xdb,0xff,0xff,0x04,0x00,0x00,0x00,0x10,0x00,0x00,0x00,0x31,0x2e,0x31,0x30,0x2e,0x30,0x00,0x00,0x00,0x00,0x00,0x00,0x00,0x00,0x00,0x00,0xfc,0xd2,0xff,0xff,0x00,0xd3,0xff,0xff,0x04,0xd3,0xff,0xff,0x08,0xd3,0xff,0xff,0x0c,0xd3,0xff,0xff,0x10,0xd3,0xff,0xff,0x14,0xd3,0xff,0xff,0xfe,0xdb,0xff,0xff,0x04,0x00,0x00,0x00,0x04,0x00,0x00,0x00,0xfd,0xff,0xff,0xff,0x0e,0xdc,0xff,0xff,0x04,0x00,0x00,0x00,0x08,0x00,0x00,0x00,0xff,0xff,0xff,0xff,0x40,0x00,0x00,0x00,0x22,0xdc,0xff,0xff,0x04,0x00,0x00,0x00,0x08,0x00,0x00,0x00,0x6b,0x3b,0xfb,0xbc,0x2a,0xa2,0x8d,0xbe,0x36,0xdc,0xff,0xff,0x04,0x00,0x00,0x00,0x80,0x00,0x00,0x00,0xc8,0x92,0x4b,0xbd,0xe7,0x48,0xe7,0xbd,0xe9,0xda,0x9b,0x3e,0x5d,0xd5,0x82,0x3d,0x94,0xa6,0x22,0x3d,0xd0,0x69,0xf4,0x3e,0xdc,0xbd,0x60,0x3e,0x23,0xad,0x27,0xbd,0xcc,0x04,0xb5,0x3e,0x4b,0xc6,0x0d,0x3e,0x1b,0x4a,0xcd,0xbb,0x02,0x54,0xf5,0x3d,0xe2,0x6b,0x88,0x3e,0xfa,0x1a,0x20,0xbe,0x68,0xf8,0x6a,0xbe,0x9f,0x0d,0x2d,0x3e,0x00,0x00,0x00,0x00,0x56,0x93,0x2c,0xbc,0x14,0x0b,0xf7,0xbb,0x13,0x08,0x2a,0x3e,0x54,0xf2,0x6e,0xbc,0xe0,0xc6,0x53,0xbd,0xe4,0xd7,0x56,0xbe,0x7a,0xf5,0x84,0xbe,0x14,0xd5,0xf2,0xbb,0xab,0x2d,0xdc,0x3e,0x45,0x99,0x31,0xbd,0x3d,0xd9,0x60,0xbd,0x00,0x00,0x00,0x00,0x81,0xf4,0xbf,0xbd,0x4a,0xd8,0x11,0xbc,0x52,0xb0,0xf2,0xbd,0xc2,0xdc,0xff,0xff,0x04,0x00,0x00,0x00,0x80,0x00,0x00,0x00,0x0d,0x9e,0x52,0x3e,0x06,0xb2,0xf2,0x3d,0xba,0x75,0xce,0xbe,0xf7,0x1c,0x58,0x3d,0xf0,0x7c,0xb4,0x3d,0x3c,0x3f,0xdd,0xbd,0xe3,0x54,0x24,0x3d,0xd0,0xa8,0x3a,0x3e,0x60,0xe7,0x0e,0x3d,0x4a,0x73,0x57,0x3d,0xc3,0x9e,0x14,0xbd,0x06,0x9a,0xc4,0x3d,0x02,0x4f,0x35,0xbd,0xb8,0x4d,0x22,0x3e,0x6b,0x63,0x09,0x3e,0x94,0x7a,0x0b,0xbf,0x95,0x47,0x1b,0xbe,0xa2,0xe3,0x22,0xbc,0x6e,0x41,0x99,0xb9,0x48,0xeb,0xad,0x3d,0x14,0xa2,0x53,0xbd,0x71,0xc6,0x1d,0x3d,0x58,0xbb,0x57,0x3e,0xe6,0x1b,0x4d,0x3e,0x9d,0x2c,0x5a,0x3e,0x14,0xe7,0xd9,0xbe,0xd3,0x05,0xc7,0xbe,0xe8,0x15,0x9d,0x3d,0x1a,0xae,0xc5,0xbe,0x5b,0x45,0x86,0xbe,0x97,0xd6,0x4f,0xbd,0x14,0x95,0x2a,0xbc,0x4e,0xdd,0xff,0xff,0x04,0x00,0x00,0x00,0x00,0x20,0x00,0x00,0x1c,0x63,0x6d,0x3d,0x3b,0x0b,0x71,0x3c,0xe6,0x56,0x64,0x3e,0x9b,0xa9,0xdf,0x3b,0xe5,0xf8,0xd0,0x3d,0x51,0x95,0x35,0xbd,0xb5,0x62,0xe8,0xbd,0x3e,0xc8,0xef,0x3d,0xfd,0xf4,0xf5,0xbd,0x4d,0x46,0xf0,0xbd,0x68,0xb3,0x24,0x3e,0xe9,0xb9,0xb6,0xbd,0x56,0xec,0x39,0xbe,0x97,0x6c,0x50,0xbe,0x83,0xa8,0xb6,0xbc,0x10,0x3f,0x66,0xbd,0x0a,0xd2,0xc8,0x3c,0xee,0x97,0xaf,0xbd,0xd8,0x4f,0x86,0xbd,0x01,0xc9,0xb9,0xbc,0x3c,0x65,0x2d,0x3e,0x40,0x63,0xc7,0xbd,0xd5,0x41,0xbc,0x3d,0xfb,0x33,0xc1,0x3d,0x8e,0xce,0xaa,0xbe,0xd7,0x5d,0xfa,0xbb,0xc0,0xa3,0xc5,0xbd,0xa0,0xc0,0x58,0xbe,0xc9,0x6d,0xb4,0x3c,0x60,0xc5,0x21,0xbe,0x7e,0x55,0x48,0xbd,0xba,0x0c,0x75,0xbe,0xb5,0xca,0x77,0xbe,0xc9,0xba,0xe0,0x3d,0xef,0x75,0x73,0xbe,0x81,0x6e,0xc2,0xbd,0x3c,0xd6,0x03,0x3e,0x81,0xbb,0x84,0xbe,0x60,0xbc,0x57,0xbe,0x6c,0xba,0x3e,0x3d,0x7d,0xc9,0x90,0xbe,0x03,0x8d,0x14,0xbe,0x8e,0x35,0x3c,0x3e,0x00,0xd7,0x1b,0xbe,0xae,0x8a,0xf9,0xbd,0x70,0x48,0xe7,0x3c,0x97,0x94,0xde,0x3d,0xe0,0x1a,0x80,0xbe,0x8d,0x00,0xec,0x3d,0xd4,0xb4,0x10,0x3e,0x94,0xc4,0x00,0xbe,0xc4,0x35,0x4a,0xbe,0x20,0x48,0x08,0xbe,0xcd,0x4c,0x9a,0x3d,0x05,0x65,0x16,0xbe,0xa0,0x89,0xd9,0x3d,0x3a,0xaf,0x79,0x3d,0x4d,0x34,0x4a,0x3d,0x78,0x72,0x7f,0xbe,0x29,0x3f,0x1d,0xbe,0x68,0x11,0x5b,0xbc,0xa3,0x8d,0x19,0xbe,0x7d,0xb1,0x6c,0x3e,0x3f,0x20,0x87,0xbe,0xa5,0x9a,0x24,0x3e,0x69,0xa0,0x4a,0xbd,0x90,0x9c,0x10,0xbf,0xb3,0xc4,0x0f,0xbf,0x90,0xba,0x71,0x3e,0x8d,0x99,0xa1,0xbe,0x60,0x5d,0x0c,0x3d,0x3f,0x6c,0x13,0x3e,0x72,0xd7,0xc3,0x3e,0x55,0x74,0x0c,0x3e,0xc4,0x1b,0x36,0x3e,0x2f,0x59,0x69,0xbc,0x6d,0xbf,0x0f,0xbe,0x01,0xc4,0x78,0xbc,0xbf,0x5d,0xcd,0xbe,0x31,0x7b,0x61,0x3e,0x30,0x87,0xa6,0x3e,0xc7,0xe2,0x12,0x3e,0xb1,0x67,0x0b,0x3e,0xbe,0xc3,0x8e,0x3e,0x38,0xa4,0x77,0xbe,0xe9,0xf1,0x03,0xbe,0x59,0x53,0xe2,0xbd,0x2e,0xb0,0x05,0x3e,0x4d,0x46,0xe8,0xba,0x58,0x61,0x51,0x3f,0xd4,0xc7,0x25,0x3e,0x7e,0xe5,0xde,0xbe,0x43,0xdc,0xcb,0xbe,0xba,0x1b,0x95,0x3e,0x03,0xc1,0x31,0xbe,0xf7,0x19,0x1a,0x3d,0x25,0xa0,0xbf,0x3e,0x5d,0xa5,0xce,0x3e,0x5f,0xed,0xc6,0xbd,0x94,0x27,0xb0,0x3e,0xd4,0x8b,0xad,0xbe,0xb1,0xff,0x0e,0x3e,0x8d,0x3f,0xbf,0x3d,0xf8,0x78,0x0e,0xbc,0x21,0xbf,0x3d,0xbe,0xe3,0xdc,0xf6,0xbe,0x93,0x3e,0xfa,0x3d,0x93,0x45,0xde,0x3e,0xb0,0x9f,0xf7,0x3d,0x93,0xdc,0x5c,0xbe,0x18,0xc5,0x2f,0xbe,0x67,0xb2,0xee,0x3f,0x7d,0x6f,0xcc,0xbc,0x92,0xcc,0x6e,0xbd,0x64,0x2b,0xaf,0x3e,0xae,0xab,0x6d,0x3e,0x1c,0xc6,0x96,0xbe,0xac,0xce,0xe3,0x3e,0x6b,0x8a,0x9e,0x3e,0x6d,0xfc,0x98,0xbe,0x23,0x74,0x0b,0xbf,0x54,0x92,0x61,0x3e,0x2a,0x8b,0xed,0x3e,0xbb,0xe6,0x6f,0x3e,0xc8,0x5d,0xdf,0xbe,0x4e,0x70,0xb6,0x3d,0x39,0xed,0x94,0xbe,0xbd,0x77,0xa1,0x3e,0x68,0x90,0x3a,0x3e,0xd8,0xb7,0x71,0xbe,0x6b,0x64,0x09,0xbe,0x08,0x0e,0xef,0xbd,0x87,0x1b,0x19,0x3e,0x7c,0x95,0xb2,0x3e,0xbe,0xa2,0x9d,0x3d,0xf5,0xbc,0x43,0x3d,0x4d,0xda,0xc8,0xbe,0x05,0x26,0xef,0xbd,0xa6,0xc6,0xde,0x3d,0x12,0xea,0x52,0xbf,0x17,0x6b,0x26,0xbe,0x65,0x5a,0xf6,0x3d,0xc1,0x05,0x51,0x3c,0x4f,0x85,0xda,0xbe,0x42,0x78,0x73,0x3d,0x63,0x88,0x73,0xbd,0xad,0x61,0xfc,0xbd,0x79,0x08,0x0a,0x3d,0x80,0xe8,0x89,0xbe,0xe8,0xf3,0xed,0x3d,0xba,0xd9,0x9e,0xbc,0x61,0x40,0xef,0x3e,0x8c,0x3e,0xa0,0x3e,0xc2,0x11,0x80,0xbf,0xd9,0x02,0x3f,0xbc,0xd8,0xaf,0x23,0xbf,0x1c,0xe2,0x09,0xbe,0xd6,0xb5,0x88,0xbe,0x5f,0xa6,0x20,0x3f,0x92,0xd6,0x23,0x3e,0xf0,0xb7,0xfb,0xbd,0x7b,0xe8,0xd5,0x3d,0xa0,0x39,0x33,0xbe,0x66,0xbb,0x13,0x3f,0xa2,0x7d,0x0c,0x3e,0x43,0x80,0x12,0xbe,0xf8,0x7d,0x1b,0xbe,0xca,0x4b,0x28,0x3e,0x9d,0x6b,0xbf,0x3e,0xb7,0x40,0x16,0xbd,0xce,0x27,0xa6,0xbd,0x85,0x5a,0x4c,0x3e,0x00,0x16,0x86,0x3e,0x21,0x91,0xa0,0xbd,0x94,0xb6,0x28,0x3e,0xb5,0x58,0x09,0xc0,0xda,0x56,0x6d,0x3e,0x33,0x4a,0x26,0x3e,0xdb,0xac,0x35,0xbe,0x11,0x22,0xad,0x3e,0x01,0x13,0x68,0x3d,0xb9,0x09,0x9a,0xbe,0x3d,0xc7,0x3e,0xbe,0x7f,0x5c,0xbb,0x3e,0xc5,0xf3,0xd7,0x3e,0xec,0x1a,0xb1,0xbe,0x01,0xec,0x12,0xbe,0x7a,0x85,0xe4,0x3e,0xfb,0x61,0x30,0x3d,0x70,0x00,0x0d,0xbc,0xc8,0x06,0xce,0x3d,0x9d,0x91,0x88,0xbe,0x8b,0xe4,0x75,0x3d,0x8c,0xc8,0x8d,0x3e,0x19,0x3a,0x04,0x3e,0x58,0xd7,0xbb,0xbf,0x8a,0xa2,0xce,0x3d,0x88,0x01,0x41,0xbd,0xa4,0xa4,0xa1,0x3d,0xdb,0x8e,0x87,0xbc,0x44,0x75,0xe6,0x3c,0x5b,0x13,0x63,0x3e,0xc5,0xa3,0xe7,0x3d,0x9e,0xcd,0x66,0x3f,0x01,0xd8,0x3f,0x3c,0x7a,0x3b,0x82,0xbf,0x7a,0x88,0x03,0xbf,0x62,0x1e,0x93,0x3d,0xf9,0x3e,0x34,0x3e,0x9f,0xf9,0x27,0xbd,0x0d,0xde,0xc4,0xbe,0xb3,0xf5,0x97,0x3e,0xb1,0xd2,0xa2,0xbd,0x24,0xdf,0x23,0x3d,0xe9,0x83,0x56,0x3b,0xd3,0x43,0xff,0x3d,0x7e,0xc6,0x55,0xbd,0x79,0x6c,0xbb,0xbe,0x3f,0x53,0x3f,0x3d,0xef,0x7d,0x2d,0xbf,0x91,0x85,0xbb,0xbe,0x74,0x17,0xb6,0x3e,0x88,0x63,0x2d,0xbe,0xc6,0xb5,0xb3,0x3c,0x98,0x46,0xb3,0x3e,0xb0,0x3a,0xdb,0xbd,0xe5,0x76,0x55,0xbe,0x64,0x53,0xbe,0x3f,0xf5,0x45,0x32,0xbe,0x81,0xc2,0xef,0x3b,0x69,0x57,0xae,0xbe,0xdb,0xa2,0x80,0xbe,0x6c,0x75,0x8a,0xbd,0x5c,0xca,0xf3,0xbe,0xcc,0x00,0x12,0x3d,0x0b,0x1e,0x27,0x3f,0x67,0x4f,0x81,0xbe,0xd3,0x9c,0x53,0xbe,0x6e,0xf4,0xb7,0x3e,0x45,0x47,0xd3,0x3f,0xfa,0x4e,0x42,0x3d,0x67,0x93,0x48,0x3e,0xfc,0x3e,0x88,0x3e,0x4b,0xaf,0x1b,0x3f,0x1c,0xd4,0xee,0xbc,0x70,0x50,0xe8,0x3d,0xf0,0x53,0xa6,0x3e,0xa3,0x74,0xe3,0xbe,0x41,0x05,0x06,0xbf,0xb0,0x99,0x1b,0xbf,0x6b,0xc9,0xaf,0x3e,0x50,0x60,0x88,0x3f,0x33,0x56,0x7d,0xbe,0x3e,0x53,0xd4,0x3d,0x4b,0x03,0xa4,0xbe,0x99,0xcf,0xc3,0x3d,0xc6,0xfc,0xdf,0x3e,0x49,0xf0,0x86,0x3e,0x22,0x17,0xbd,0xbc,0x79,0x6a,0x8c,0x3f,0x17,0xfc,0xb1,0xbc,0x5b,0x54,0x1f,0x3e,0x63,0x7c,0x39,0xbc,0x2e,0xa8,0x80,0xbe,0xfd,0x62,0x20,0xbe,0x85,0xae,0xa9,0xbe,0xf2,0x82,0x23,0xbe,0xbb,0xe7,0x23,0x3f,0x0e,0x5c,0x2a,0xbe,0x3c,0x2c,0x19,0x3e,0x01,0x9e,0x13,0x3f,0x0b,0x4d,0x61,0xbe,0x50,0x86,0xc8,0xbe,0xb4,0x6c,0x5a,0x3e,0x48,0x65,0x47,0xbe,0x41,0x5b,0x25,0x3e,0xe0,0xf0,0x15,0xbe,0xec,0xe8,0x4b,0x3e,0x85,0x04,0x8c,0x3e,0x8d,0x07,0xf6,0xbe,0x91,0x6f,0x2e,0xbe,0x9d,0xe6,0x31,0xc0,0x54,0x6d,0x95,0xbe,0x2b,0xcf,0x65,0x3f,0x32,0xe7,0xb7,0x3d,0x40,0x24,0x1f,0x3d,0x9d,0x8e,0x68,0xbf,0xf5,0xf0,0x52,0xbd,0xac,0xed,0x01,0xbf,0x2d,0xc4,0xae,0xbb,0x58,0x79,0x66,0xbe,0x92,0x96,0x19,0xc0,0xbe,0x6a,0x7e,0x3e,0xae,0x9a,0x39,0xbe,0xea,0x1c,0x35,0x3f,0x81,0x84,0x74,0x3e,0xb8,0x1c,0x34,0x3e,0x0a,0xb0,0x85,0x3e,0x45,0x02,0xdc,0xbd,0x16,0x84,0x80,0xbf,0xb0,0xb4,0x42,0x3e,0xa4,0x19,0x78,0x3e,0x48,0x4b,0xd3,0x3d,0x95,0xce,0xfb,0x3e,0x53,0xf9,0xd8,0x3e,0x75,0x0b,0x9e,0x3d,0x6b,0x58,0xb6,0xbd,0xfd,0x14,0x09,0xbe,0xd3,0x8e,0x5b,0xbe,0x31,0x7c,0x88,0x3d,0x54,0x61,0x73,0xbc,0x80,0x4e,0x3d,0x3f,0x59,0x4f,0x21,0x3f,0x79,0x97,0x9a,0x40,0x3a,0xf2,0xcc,0xbe,0xb2,0x59,0x79,0xbf,0xf3,0x2f,0xa1,0xbe,0xd3,0xba,0xea,0x3d,0xfe,0x50,0x99,0x3f,0x40,0x3f,0x15,0xbf,0x85,0x78,0xfb,0xbd,0x4b,0x57,0x57,0xbe,0x4e,0x08,0x98,0xbe,0xf1,0xd7,0x5d,0xbf,0x7c,0x75,0xe4,0x3e,0xf9,0xe0,0x48,0x3e,0x37,0x86,0x5a,0x3e,0x96,0x28,0xa2,0x3e,0xaf,0xad,0xbb,0xbe,0xd1,0xe8,0x35,0xbe,0x22,0xcc,0x81,0xbe,0x84,0x33,0x62,0xbe,0x0d,0x02,0x09,0xbe,0x29,0x49,0x37,0x3e,0xd7,0xd8,0x02,0x3d,0x61,0xf3,0x1c,0xbf,0x33,0x8b,0xee,0x3c,0x6e,0x06,0xbc,0x3d,0x56,0xda,0x12,0xbe,0x0c,0x49,0x2d,0xbe,0xdf,0x71,0x9f,0xbd,0x91,0xc3,0xf8,0xbd,0x01,0x93,0x0e,0x3e,0x93,0xec,0xd4,0x3e,0xab,0xfe,0x97,0x3e,0xdf,0x33,0x78,0x3e,0x74,0xc1,0xd2,0xbd,0xb7,0xec,0x5f,0xbf,0x6e,0xab,0x7e,0xbf,0x85,0x18,0xbb,0xbe,0x22,0x1e,0x32,0x3e,0x08,0x9f,0x8a,0xbd,0x56,0x37,0x4f,0x3e,0x6a,0x29,0xe1,0xbd,0x0e,0xa5,0x31,0xbf,0xef,0x41,0xbe,0x3f,0xbf,0xd9,0x74,0xbe,0x40,0x0d,0x36,0x3e,0x18,0xc5,0x10,0xbf,0x54,0x7c,0x89,0xbe,0x07,0xaf,0x0c,0x3d,0x6d,0xb7,0x93,0x3e,0xc4,0x8c,0x16,0xbe,0x85,0x99,0x49,0x3f,0x54,0xcf,0xbc,0x3d,0x96,0xa1,0x65,0x3d,0xd7,0x56,0xa7,0x3d,0xb2,0x2d,0x01,0xc0,0x2f,0x66,0x44,0xbf,0x5b,0xe1,0x61,0xbc,0xf4,0xe0,0xfc,0xbd,0x77,0x35,0x84,0x3e,0x4a,0x69,0x9f,0x3e,0xeb,0xcf,0x99,0x3d,0x38,0x2c,0xe9,0x3c,0x25,0x3a,0x77,0x3e,0x90,0x6c,0x88,0xbe,0xf8,0x8e,0x8c,0xbf,0x41,0x89,0x3c,0xbe,0x57,0x91,0x5d,0x3f,0x5e,0x00,0x82,0xbf,0xb8,0x1f,0x2e,0xbf,0xc6,0x94,0xf0,0xbe,0x3f,0x83,0x5b,0x3e,0xa4,0xc2,0x9a,0xbc,0x90,0xee,0x69,0xbc,0xcb,0x70,0x25,0xbd,0x27,0x20,0x2d,0xc0,0x44,0xbd,0x08,0xbe,0x7d,0x78,0x76,0x3e,0x0f,0x41,0xb3,0x3e,0x85,0xa2,0x22,0xbe,0xcc,0x20,0x24,0x3e,0x28,0x25,0x1f,0xbe,0x39,0xba,0x09,0x3e,0xea,0xb6,0x01,0xc0,0x9e,0x26,0x17,0x3e,0xf5,0x88,0x92,0xbd,0x3d,0xdd,0x13,0xbd,0xd5,0x0d,0x51,0xbe,0xfb,0x28,0x75,0x3e,0x78,0x4d,0xd4,0x3d,0x3a,0x78,0xcd,0x3d,0xbc,0x1c,0x86,0xbe,0xa7,0x44,0x0a,0xbe,0x55,0xa4,0x17,0x3e,0x03,0x26,0xbe,0xbe,0xfb,0xfd,0xc4,0x3e,0x27,0x4e,0xec,0x3e,0xa5,0x78,0xa0,0xbd,0x66,0xf5,0x2f,0x3e,0x6b,0xd5,0x31,0xc0,0xfa,0x23,0xa4,0x3d,0x13,0xfd,0x51,0x3e,0x1d,0xd3,0xbd,0x3e,0xc5,0x88,0x30,0xbe,0x9a,0x17,0x97,0x3e,0x9c,0xcd,0x7f,0xbe,0xda,0x19,0xc4,0x3e,0x6a,0xe1,0xf8,0x3e,0xa5,0x8c,0x2f,0xbb,0x1b,0x05,0xe0,0xbd,0x55,0xeb,0x26,0xbe,0x2e,0x2f,0x2f,0x3e,0x29,0x47,0x89,0x3d,0x05,0xa9,0xf6,0x3e,0xf8,0x14,0x79,0x3e,0x6f,0xce,0xa9,0x3c,0xeb,0xff,0xec,0x3d,0x29,0xd1,0xfa,0xbd,0x3c,0x65,0x83,0x3e,0xb3,0x07,0xeb,0xbf,0xae,0x1e,0xf9,0x3e,0x6d,0x98,0xb1,0x3d,0xae,0xce,0x86,0x3e,0xee,0xc4,0x84,0x3e,0xf2,0xad,0x88,0x3e,0x3a,0x54,0x63,0xbe,0xfa,0x39,0xbf,0xbe,0xaa,0xc6,0xab,0x3d,0x5b,0x2c,0x23,0xbe,0x6a,0x35,0xf1,0x3e,0xdc,0x03,0x5a,0x3e,0x2b,0xf8,0x67,0xbe,0xd6,0x9c,0x21,0x3e,0xdc,0x35,0xc0,0x3e,0x51,0x33,0xbd,0x3f,0x02,0x93,0x90,0x3e,0x12,0xd2,0xcc,0xbc,0x50,0x51,0x13,0x3d,0xd9,0xae,0xa2,0x3c,0x06,0x27,0x67,0x3f,0xcb,0x8e,0x5b,0x3e,0x23,0x2e,0x2a,0x3d,0x42,0x98,0x93,0xbd,0x55,0x6c,0x23,0x3f,0xfe,0xc3,0xdb,0x3e,0xf2,0x49,0xcd,0x3e,0x88,0x4b,0x87,0x3e,0xd1,0x87,0x39,0x3f,0x92,0x02,0x07,0x3e,0x4d,0xaf,0x20,0xbd,0xdf,0x64,0x9e,0xbe,0x55,0xa5,0x28,0xc0,0xf7,0x56,0xda,0x3e,0x5a,0xb5,0xa9,0xbc,0x53,0x1d,0x09,0xbe,0x4f,0x70,0x30,0x3c,0x2a,0xbe,0xb5,0x3d,0x84,0xec,0xbd,0xbd,0x84,0x18,0x26,0xbc,0xe1,0x21,0x87,0xbe,0xb8,0x70,0x08,0xbf,0x76,0x6d,0x7d,0x3e,0xbb,0x8b,0x6d,0xbe,0x00,0xf7,0xcd,0x3e,0x11,0xab,0x4b,0x3e,0xe4,0x00,0xe3,0x3e,0x3b,0x48,0x52,0x3f,0x22,0xc9,0x60,0x3d,0x6f,0x1a,0xa2,0x3e,0xb4,0x82,0xb4,0x3e,0x90,0x41,0x37,0xbd,0x14,0x27,0x2a,0x40,0x46,0xd9,0xc0,0xbe,0x93,0xc3,0x9d,0x3e,0xd2,0xbc,0x36,0xbf,0x52,0xf3,0xc6,0xbe,0x7d,0x6a,0x88,0xbe,0xe7,0x29,0xdd,0xbe,0x9b,0x41,0xae,0x3b,0xb5,0x6b,0x94,0x3f,0x7f,0x57,0x2c,0x3e,0x01,0xa4,0x2c,0xbd,0x7a,0x8b,0x94,0xbe,0x53,0xb7,0x15,0x40,0xca,0x9d,0xba,0xbd,0xb1,0x42,0x92,0xbe,0x59,0x13,0x82,0xbd,0x48,0x3b,0xfe,0x3e,0xb7,0x5f,0xd8,0x3d,0xd4,0x24,0xaa,0x3e,0x22,0xf6,0xb0,0x3e,0x35,0xc4,0xe4,0xbe,0x0c,0xed,0x27,0xbf,0x5d,0xd9,0x6f,0xbf,0x7f,0x94,0xac,0x3d,0x31,0x97,0x89,0x3f,0xd5,0x65,0x75,0x3d,0x40,0x35,0x4e,0x3e,0xbb,0xf3,0x14,0xbf,0xdd,0xda,0xb8,0x3e,0x19,0x8d,0x37,0xbe,0xd4,0x7b,0x4f,0xbe,0x8c,0x57,0x8f,0x3d,0x71,0x72,0xc4,0xbf,0xd5,0xf9,0x2c,0x3d,0x52,0xee,0xa8,0x3e,0x64,0xf2,0x4d,0x3e,0xdb,0x22,0xdc,0x3e,0xf9,0x7d,0x94,0x3e,0xd4,0xba,0xe9,0x3d,0x80,0x2e,0x5a,0x3e,0xf8,0x1d,0x27,0xbf,0x18,0x6f,0xca,0xbc,0xcf,0x73,0x2f,0x3d,0x90,0x47,0x3f,0x3e,0xec,0x74,0xc7,0xbe,0x9b,0x81,0x35,0x3d,0xf2,0x8b,0x68,0xbd,0xa0,0x1d,0xe3,0x3d,0x0f,0x32,0x09,0xbf,0xb6,0xe3,0xf0,0x3e,0xb3,0x86,0xba,0x3d,0x61,0x06,0xcf,0xbd,0x78,0xa2,0xb0,0x3e,0x1e,0x09,0x3a,0x3e,0xb0,0xd0,0xaf,0xbd,0xe4,0x38,0xca,0xbd,0xfa,0xda,0xbf,0xbf,0xd7,0x0e,0x13,0xbf,0xba,0x43,0x69,0x3e,0xfb,0x9a,0x00,0x3e,0x11,0x90,0xcf,0xb9,0x28,0xf7,0x01,0x3f,0xb6,0x21,0x62,0x3d,0xb9,0x90,0x8a,0xbe,0x8b,0xe4,0x02,0x40,0x43,0xcb,0x4a,0xbe,0xd3,0x68,0x91,0x3e,0xae,0xee,0x11,0xbf,0xec,0x9d,0xb9,0xbe,0x28,0x00,0x1b,0x3e,0x4a,0x98,0xdb,0xbd,0x9a,0x2d,0x45,0xbd,0x8e,0x79,0x54,0x3f,0xf5,0xd8,0x08,0x3e,0xab,0x4e,0xf4,0xbe,0x51,0x0f,0xbb,0x3b,0xee,0x39,0xbe,0xbf,0x8c,0x7f,0x71,0x3d,0x52,0x76,0xf1,0xbd,0x0e,0xa7,0x30,0x3e,0x42,0x72,0x02,0x3f,0xaa,0x08,0x4d,0x3e,0x44,0x19,0x4a,0x3e,0x6c,0x93,0xf9,0x3d,0x00,0x97,0xaf,0xbe,0xf1,0xe8,0xdb,0xbe,0x6a,0x66,0x14,0x3f,0xeb,0x30,0xf9,0x3d,0x7d,0x3c,0x7d,0x3f,0x04,0xcc,0x8c,0xbe,0x6b,0xdc,0x8e,0x3e,0x2f,0x86,0x27,0xbf,0x09,0x3d,0xae,0x3d,0x3e,0x5b,0xf0,0xbe,0x35,0x35,0x25,0x3e,0x3f,0xa0,0x24,0xbe,0xdb,0x29,0xc7,0xbf,0xa1,0xdc,0x81,0x3e,0xfb,0x60,0xef,0x3d,0x06,0x0e,0xa6,0x3e,0x3f,0x2c,0xa1,0xbd,0x4c,0x08,0x24,0x3d,0x1a,0x44,0xae,0x3d,0x35,0x64,0x80,0xbd,0xf0,0x32,0xcd,0x3d,0xac,0x65,0x29,0xbe,0x4f,0x49,0x57,0xbf,0x1f,0xc1,0x1f,0xbf,0x8f,0x6b,0xb2,0x3f,0xaa,0x0a,0xe5,0xbd,0x05,0x1e,0xd3,0x3c,0x29,0x3a,0x26,0xbe,0xb9,0x3d,0xe5,0xbe,0x82,0x99,0xdb,0x3d,0x50,0x43,0x8a,0x3d,0xcc,0x81,0x5e,0x3e,0x4a,0x9f,0xaf,0x3d,0x7d,0x6b,0x1a,0x3e,0xca,0x69,0xb2,0x3e,0x4a,0xcc,0x13,0x3d,0x9a,0xb2,0xc4,0xbe,0x8e,0x18,0x8f,0xbe,0xe9,0xbf,0x21,0x3d,0xa1,0x2d,0x8b,0xbe,0x4e,0xa1,0xca,0xbd,0x93,0xb9,0x6f,0x3f,0xaa,0xc9,0x54,0x3e,0xe8,0x19,0x77,0xbd,0x0e,0x4e,0xd2,0x3f,0x29,0x7c,0xf9,0xbe,0x0c,0x6b,0x5a,0x3d,0xb3,0xf5,0xdf,0xbe,0x82,0xb2,0xfc,0xbc,0x87,0x8f,0xbe,0x3d,0x31,0x6c,0x59,0xbe,0xfd,0xfd,0x5c,0x3d,0x14,0x1f,0x7e,0x3f,0x92,0xcb,0xde,0xbb,0xf0,0x3e,0xc0,0xbf,0x1e,0xe5,0xc6,0xbe,0x91,0xa5,0x86,0x3e,0x81,0x03,0x97,0x3d,0x6a,0x1e,0x2a,0xbe,0x5c,0xe2,0x7b,0x3e,0xec,0x84,0xb2,0x3f,0xc9,0x6d,0xab,0x3c,0xe2,0xe7,0x64,0x3d,0xd4,0xd2,0x45,0xbe,0xe4,0xb4,0xca,0xbe,0xae,0x8b,0xe4,0xbe,0x91,0xdb,0xdc,0x3e,0xd4,0xbc,0x12,0xbf,0xc2,0x2d,0x99,0x3f,0x04,0x17,0xad,0xbe,0xcf,0x3b,0x8b,0xbe,0x1e,0x72,0x01,0xbf,0x17,0xee,0x0a,0x3f,0x4d,0x0c,0xa6,0x3e,0xc3,0x3f,0x74,0x3e,0xc3,0x98,0xb6,0x3d,0xf1,0xac,0x53,0x3f,0x7d,0xa7,0xa3,0xbc,0xf4,0x6e,0x44,0x3e,0xe3,0x01,0x02,0xbf,0x6b,0xb7,0xbd,0x3c,0x54,0xe3,0x74,0x3e,0x1e,0x29,0x7d,0x3d,0x48,0x11,0x71,0x3e,0x25,0x7f,0xad,0x3f,0xed,0x7a,0xb4,0x3d,0xab,0xe1,0x79,0xbf,0x55,0x24,0x91,0xbf,0xea,0xdd,0x18,0xc0,0x4c,0xb6,0x4d,0x3e,0xa4,0xb4,0x48,0x3e,0x27,0x38,0x1d,0xbc,0x1f,0x15,0x14,0x3f,0xef,0x92,0x5c,0x3d,0x3c,0xe3,0x5b,0x3e,0x56,0x8b,0xa2,0x3c,0x5c,0x94,0x01,0xbf,0xc7,0x2b,0xb9,0xbe,0xb4,0x71,0xf9,0x3e,0x36,0x9a,0xd8,0xbe,0x96,0x2b,0x46,0x3f,0xeb,0x51,0x38,0x3e,0xb0,0x07,0xc1,0x3e,0xe8,0x42,0x8e,0xbd,0xfb,0x00,0x73,0x3b,0x04,0x9f,0xb2,0x3e,0xd9,0x9d,0xd9,0x3d,0xa2,0xa3,0x35,0x3e,0xfc,0x1c,0xdb,0x3f,0x61,0x4c,0xb8,0xbe,0xaa,0x6a,0x38,0x3e,0xfa,0xe3,0xb0,0x3e,0x28,0x56,0xfa,0x3c,0xee,0xf1,0x38,0xbe,0xbf,0xe5,0x92,0xbe,0x1e,0xcc,0x24,0xbe,0xf4,0x89,0x69,0x3f,0x33,0xf0,0xcd,0xbd,0x70,0x29,0xc7,0x3d,0xf0,0x23,0xf0,0xbd,0x53,0xe9,0xe2,0x3f,0x28,0x80,0x80,0xbd,0xb2,0x7d,0xc8,0x3d,0xbe,0x44,0xaa,0x3e,0x7d,0xf0,0x45,0x3e,0x16,0x41,0x0f,0xbe,0x7b,0x09,0x45,0x3e,0x25,0xc8,0xaf,0x3e,0x65,0x8e,0x03,0xbf,0x11,0xf3,0xdb,0xbe,0xca,0x5c,0x41,0xbf,0x2e,0x92,0x3d,0x3e,0x97,0x00,0x06,0x3f,0x56,0x02,0xa9,0x3d,0xe1,0xae,0x4a,0xbe,0xd3,0x13,0x8f,0xbe,0xc9,0x3e,0x93,0x3e,0x23,0x39,0x8b,0x3e,0x57,0x22,0xe6,0xbd,0x63,0x24,0x03,0x3d,0x55,0x31,0x3a,0x3f,0xf9,0x8f,0x7e,0xbe,0xbc,0xbc,0x99,0x3e,0x0d,0x12,0xef,0xbe,0x45,0xbe,0x13,0xbe,0x8e,0x69,0x7b,0xbd,0xa8,0xc5,0x9f,0xbe,0xa1,0x05,0x25,0x3e,0x5f,0xf5,0x46,0x3f,0x3f,0xcb,0x91,0xbd,0x6d,0x29,0x82,0xbe,0x7a,0xb2,0xaa,0x3e,0xa7,0x12,0x57,0xbe,0x84,0x37,0x07,0x3c,0xc9,0xff,0xe9,0xbd,0x15,0x7b,0x5b,0xc0,0x90,0x6f,0xba,0x3e,0x9e,0x3b,0x3b,0xbe,0xa4,0x39,0xc6,0x3e,0x70,0x04,0xcc,0x3d,0xab,0x95,0x8c,0xbc,0xbf,0xf7,0x7c,0x3e,0x35,0x24,0xb1,0xbf,0xc2,0x5b,0x90,0x3f,0x76,0x15,0x4b,0x3f,0xcd,0xa9,0x4b,0xbe,0xfe,0x83,0x9d,0xbd,0x46,0xac,0xa4,0xbf,0x37,0xc7,0x59,0xbe,0x87,0xc2,0xe1,0xbd,0x02,0x56,0xac,0x3d,0xe5,0xdc,0xae,0xbd,0x0c,0x09,0x20,0xbf,0x53,0x13,0xac,0x3e,0x63,0x6a,0x7c,0x3e,0xdf,0x1f,0x49,0x3e,0x99,0xbd,0xf1,0x3d,0x32,0xcf,0x83,0x3d,0xab,0x6d,0x27,0x3c,0x9f,0x2f,0x65,0x3e,0x4c,0xed,0x14,0xbf,0x00,0xce,0x2f,0xbe,0xfe,0x08,0x43,0xbd,0x02,0x29,0x83,0x3e,0xda,0xb8,0x42,0xbe,0xd0,0xa0,0x00,0x3c,0xc2,0x5e,0x19,0x3e,0x62,0x6d,0x78,0xbe,0x10,0x57,0x97,0x3e,0x2f,0x81,0xa4,0x3e,0x12,0xbc,0x79,0x3e,0x72,0xab,0x97,0x3e,0xc4,0xe7,0xb9,0x3e,0xb0,0x39,0x09,0x3f,0xb8,0x14,0xec,0x3e,0x45,0xaf,0x31,0xc0,0xa1,0xf2,0x0e,0xbf,0xce,0x5c,0x69,0xbd,0x77,0xe6,0x08,0x3e,0x94,0x20,0xc8,0x3e,0x37,0x7c,0x12,0xbd,0xe1,0xc6,0x86,0x3e,0x2f,0x3a,0x19,0xbe,0x84,0x85,0xdf,0x3c,0x45,0x57,0xac,0xbd,0x1d,0xcf,0x33,0x3e,0x26,0xd6,0x15,0x3d,0x84,0x8e,0xb8,0x3e,0xdf,0xed,0x31,0x3c,0xb9,0x69,0x87,0xbe,0x99,0x3e,0x3f,0xbe,0x12,0x36,0xb2,0x3d,0x37,0xe6,0x06,0xbf,0x8f,0x91,0x9b,0xbe,0x0f,0xa9,0xc1,0x3d,0x39,0xe1,0x33,0x3e,0x96,0x7f,0xb1,0xbe,0xb1,0x69,0x9f,0xbd,0x4d,0x8f,0x1f,0x3e,0x3e,0x7f,0x28,0xbe,0x21,0x01,0x32,0x3d,0xe3,0x75,0xc0,0xbd,0x62,0xa2,0xed,0x3d,0x9e,0xff,0x67,0x3e,0x25,0xe5,0x31,0x3e,0xcc,0xbc,0xdc,0x3e,0x6c,0x16,0x1d,0xbf,0x9a,0x4f,0x06,0xbe,0xd7,0x5e,0x09,0xbf,0xae,0x2f,0x6e,0xbd,0xa5,0x3b,0x91,0xbe,0xfc,0x60,0x19,0x3f,0xf8,0xbb,0xc5,0xbd,0xbf,0x56,0x77,0x3d,0x7e,0x10,0x53,0xbe,0xac,0xe7,0x24,0xbd,0x34,0x87,0xf3,0x3e,0x18,0x9a,0xcf,0x3e,0xf5,0xde,0x42,0xbe,0x98,0x02,0x85,0xbe,0xec,0xf2,0x56,0xbd,0xcd,0x10,0x68,0x3e,0x36,0x6a,0xc6,0x3e,0x9e,0x08,0x8a,0x3e,0xc9,0x4b,0xcc,0x3d,0x18,0x9a,0x08,0x3e,0x91,0x44,0xa4,0x3e,0xc6,0x6e,0xe3,0xbd,0xc0,0x6c,0x03,0xc0,0xc8,0x0b,0x02,0xbe,0x86,0x75,0x4c,0x3e,0x94,0xdc,0x6f,0xbd,0x89,0x58,0xb1,0x3e,0x94,0x25,0x30,0x3e,0x27,0x39,0x22,0xbe,0xb0,0x21,0x0a,0xbd,0x0a,0x8c,0xaa,0x3c,0x10,0x04,0x40,0x3e,0xe7,0xa3,0x70,0xbe,0x5c,0x87,0x52,0xbe,0x68,0xbe,0x7e,0x3e,0xd9,0xe1,0x59,0x3e,0xa6,0xf9,0xfe,0x3d,0x59,0xc6,0xed,0xbd,0x41,0x47,0xb7,0xbd,0xff,0x1d,0x46,0x3e,0xfc,0x49,0x45,0x3e,0x3d,0x11,0xe6,0x3e,0x11,0xb0,0xad,0x3c,0xf7,0xe6,0xfd,0xba,0xc3,0x8e,0x44,0x3d,0xe8,0x89,0x81,0x3d,0x26,0x54,0xf3,0xbd,0x60,0x33,0x60,0x3e,0x71,0x71,0x28,0xbc,0xa2,0xd9,0x24,0x3e,0xdc,0xb4,0xd6,0x3d,0x0d,0x46,0x27,0x3e,0x2e,0x40,0xd5,0x3e,0xf2,0xb5,0xd3,0x3e,0x91,0x71,0x12,0x3f,0xe2,0x50,0x54,0x3e,0x52,0xf0,0x93,0x3c,0xbc,0x42,0xfb,0x3d,0xa2,0xab,0xb7,0x3d,0xb5,0x72,0x7d,0x3e,0xb1,0xaf,0x8d,0xbc,0x8c,0xee,0xc4,0xbd,0x32,0x95,0x80,0x3c,0xf4,0x8e,0x12,0x3e,0xd0,0x56,0x8d,0xbe,0x89,0xd9,0x0f,0x3e,0x2b,0x7a,0x5f,0x3c,0x46,0xdb,0x26,0x3f,0x7d,0xbe,0x0c,0xbd,0xc4,0x98,0xaf,0xbd,0x39,0x44,0xb2,0x3e,0xc4,0x8c,0x61,0xbe,0xd2,0x51,0x01,0xbe,0xbb,0xbb,0x6f,0x3e,0x19,0x5b,0x1e,0xbf,0x92,0xe9,0x78,0x3e,0x31,0xa8,0xc3,0x3e,0x9f,0x96,0x83,0x3e,0x02,0x7a,0x56,0x3e,0x58,0xff,0x0e,0x3d,0xfa,0x78,0x45,0xbe,0x1b,0xa8,0xca,0xbd,0xd7,0x3d,0xa1,0xbe,0x6e,0x1a,0x61,0xbd,0xba,0x52,0x2c,0x3d,0x31,0xae,0x4b,0xbc,0x48,0xd8,0x0b,0x40,0x34,0x8e,0xe5,0x3e,0xfb,0x9c,0xc8,0x3d,0x79,0x13,0x30,0x3e,0x1a,0xbe,0xc8,0x3c,0xaf,0x4d,0x10,0x3e,0xeb,0x06,0xb9,0x3e,0xca,0x0d,0x24,0xbc,0x2e,0x7d,0x92,0x3d,0x12,0x3a,0xad,0x3e,0x6c,0x1f,0xf4,0xbe,0x66,0x6f,0x65,0x3e,0xff,0xd7,0x38,0xbe,0x93,0x5e,0xef,0x3d,0x30,0x50,0xee,0x3d,0xe5,0x8e,0xf4,0xbe,0xdc,0x99,0x78,0x3e,0x98,0xe6,0x47,0xbc,0x74,0xab,0x60,0x3e,0xef,0x0b,0xd2,0x3e,0x1b,0x48,0x27,0x3e,0xc5,0x8b,0x94,0x3d,0x6f,0x2a,0x94,0x3e,0x17,0xa9,0x0d,0xbe,0xd0,0x58,0x92,0x3e,0x48,0x51,0xac,0x3e,0xf3,0xdf,0x6d,0x3d,0x08,0x2b,0x48,0x3e,0x84,0xe1,0x61,0x3e,0x68,0xd1,0x0a,0xbe,0x1a,0x32,0x42,0x3d,0xa8,0xc4,0xa4,0x3e,0x3e,0x4a,0x11,0x3f,0xa8,0x14,0x56,0xbd,0x77,0xd0,0x6b,0x3e,0x54,0x13,0xd2,0x3e,0x91,0x70,0xa2,0x3c,0x2a,0x68,0x3c,0x3e,0xe3,0x8c,0x0e,0xbe,0x22,0xe8,0x38,0x3e,0x84,0xd9,0xe0,0xbd,0xea,0x84,0xc6,0x3d,0x19,0xe5,0x81,0xbe,0x21,0x7f,0xe8,0x3e,0x57,0xcd,0xaf,0x3e,0x07,0x78,0xd2,0x3e,0xe1,0x52,0x71,0x3e,0x24,0x68,0x0d,0x3e,0x13,0xf3,0xd2,0x3e,0xea,0xc7,0x01,0xbe,0x07,0x91,0xa3,0x3d,0x4a,0x41,0x92,0x3c,0x00,0xfa,0x13,0xbf,0x2d,0x40,0x3c,0xbc,0xca,0xc7,0x72,0x3e,0x4f,0x9e,0xb1,0x3d,0x78,0x24,0x2e,0x3d,0xe5,0x6f,0x99,0x3d,0xe2,0x6c,0x1b,0x3e,0x20,0xd8,0x1b,0xbe,0xa5,0x19,0x74,0xbe,0x9c,0xfa,0x62,0xbe,0x3b,0xf1,0xb1,0x3d,0x4e,0xac,0x6a,0x3e,0x3d,0x9b,0x15,0x40,0x2b,0xd1,0x21,0x3d,0x05,0x04,0xe8,0x3d,0x0a,0x5b,0xeb,0x3d,0x3c,0x85,0xda,0x3d,0x7c,0x48,0x2a,0xbc,0x05,0xdc,0x78,0x3e,0x35,0xb6,0x91,0x3e,0x78,0x33,0xde,0xbd,0xf4,0x6a,0x0f,0x3e,0xc1,0xd4,0x3d,0xbf,0x5b,0x8b,0x17,0x3e,0x7e,0x1e,0x77,0xbe,0xcd,0x29,0x2c,0x3d,0xa5,0xed,0xc2,0x3d,0x67,0x8b,0x9c,0xbe,0xe7,0x52,0xb0,0x3d,0x6c,0x87,0xba,0x3e,0x52,0x1f,0x4b,0x3d,0x22,0x1f,0x86,0x3c,0x8c,0x86,0xa7,0x3d,0x88,0x04,0x40,0x3d,0x2f,0x35,0x13,0x3d,0x04,0xbd,0xa0,0xbd,0xef,0xc5,0x88,0x3e,0xcd,0xe9,0x34,0x3c,0x26,0xfc,0xbe,0x3e,0xce,0x9d,0x81,0x3d,0x36,0x77,0x5b,0x3f,0xb7,0xfd,0xbc,0x3d,0x66,0xd5,0x63,0xbe,0x3f,0x6a,0x25,0xbf,0x73,0x53,0x2a,0xc0,0x6c,0xb8,0x2a,0xbd,0x4e,0x9c,0x2a,0xbd,0x6a,0x0e,0x8a,0xbe,0x63,0x1a,0x2a,0x3e,0x31,0xee,0x45,0x3e,0xa9,0x66,0x82,0x3e,0x5f,0xf6,0x88,0x3e,0x12,0x11,0xd8,0x3c,0x53,0x37,0x87,0x3d,0xa6,0xb1,0x43,0xbd,0xbe,0xcd,0x0d,0xbf,0xa7,0x2c,0x36,0x3d,0xc9,0xf5,0x89,0xbe,0x9c,0x6e,0xc3,0xbd,0xc7,0x2a,0x40,0x3d,0x11,0x43,0x82,0xbe,0xa7,0x7e,0x0c,0x3f,0xf8,0x9b,0xd2,0x3d,0x10,0x19,0xe0,0xbe,0xf2,0x64,0x0f,0x40,0x2b,0x34,0x84,0xbe,0xf4,0xf7,0x40,0x3c,0xb9,0xcd,0x76,0xbe,0x7f,0x4f,0xa4,0xbe,0xb5,0x87,0x54,0xbe,0x37,0xeb,0xd0,0xbd,0x56,0x4d,0x9c,0xbe,0xb3,0x8d,0x8c,0x3f,0x30,0xb3,0xcc,0x3d,0x57,0x9e,0x85,0xbd,0x51,0x29,0x1d,0xbe,0xc6,0x2f,0x28,0xbd,0x07,0xab,0xf3,0xbe,0x19,0x61,0x16,0x3d,0x13,0xe7,0x47,0x3e,0xa1,0x57,0xa8,0x3e,0x42,0x2d,0xe1,0x3d,0xd5,0x00,0xbf,0x3d,0x1b,0x2f,0x4a,0xbb,0xf6,0xaf,0xb4,0x3b,0xb7,0xc2,0x05,0xbf,0x8b,0x09,0x65,0xbf,0x84,0x04,0x3a,0x3e,0x6d,0x45,0x7e,0x3f,0x36,0x53,0xd0,0xbe,0xce,0x38,0x88,0xbe,0x3e,0xfa,0x85,0xbe,0xd1,0xad,0x4d,0x3e,0x68,0x17,0xc3,0x3d,0x98,0xcd,0x0d,0x3e,0x34,0x09,0x2f,0x3e,0x40,0xc4,0x45,0x3d,0xd0,0xf1,0x40,0x3e,0xc0,0x25,0xb7,0xbc,0xf8,0x94,0xdc,0xbd,0xa8,0x29,0xf5,0x3d,0x80,0x0c,0xc8,0x3c,0x28,0x56,0xe5,0x3d,0x40,0x44,0x41,0xbe,0xc0,0x2d,0x92,0xbc,0xb8,0x58,0x87,0x3d,0x20,0x49,0x35,0x3e,0xc8,0xf8,0x1f,0x3e,0x58,0x97,0xa2,0x3d,0x40,0xa0,0xe1,0xbc,0xb0,0x61,0x0a,0xbe,0xc0,0x2c,0x8c,0xbd,0x80,0xc0,0x5d,0xbc,0xe4,0x26,0x17,0xbe,0x94,0xc4,0x66,0x3e,0x80,0xf0,0xe1,0xbc,0xac,0x9c,0x78,0xbe,0x60,0x1e,0x73,0xbe,0x08,0x52,0x4c,0xbe,0x04,0x81,0x16,0xbe,0x30,0xf7,0xe2,0xbd,0xd0,0x0f,0x5a,0xbd,0x80,0x2c,0x58,0x3e,0xf0,0x94,0x59,0xbe,0x90,0x51,0x24,0xbe,0x68,0xf2,0xf4,0xbd,0x5c,0xfd,0x33,0xbe,0x30,0x3d,0x5c,0x3d,0x28,0xe2,0xbf,0xbd,0xe0,0x75,0xd1,0x3c,0xe0,0x8d,0x16,0xbe,0x28,0x62,0x02,0xbe,0x48,0xfe,0x73,0xbe,0x2c,0x40,0x2c,0xbe,0x00,0x84,0x99,0x3a,0x40,0x95,0x53,0xbc,0xe8,0x11,0xc3,0xbd,0x00,0xb1,0xee,0xbc,0x18,0x57,0xd5,0xbd,0x60,0xa3,0xb8,0x3c,0xb8,0x03,0xb2,0xbd,0x00,0x92,0x5b,0xbe,0x80,0xae,0xe3,0xbd,0xa4,0x47,0x7f,0xbe,0x30,0x4b,0x96,0xbd,0x98,0x72,0xe9,0xbd,0x90,0x2d,0x6f,0xbe,0xc0,0x37,0x0b,0x3e,0x00,0x20,0x87,0xbc,0x00,0x24,0xf9,0x3a,0x2c,0x4e,0x64,0xbe,0x9c,0x6a,0x1c,0x3e,0x80,0xe2,0xfa,0xbc,0xec,0xe2,0x20,0x3e,0x38,0x6a,0x8b,0x3d,0x48,0x99,0xc1,0x3d,0x7c,0xb6,0x56,0xbe,0x00,0x70,0x33,0xbe,0xe0,0xc3,0x40,0xbd,0x00,0x98,0x86,0xb9,0x73,0x6f,0xf6,0x3d,0x44,0x0b,0x4f,0xbe,0xca,0x90,0x10,0x3c,0xe3,0xa5,0xc0,0x3d,0xb3,0xa9,0x2f,0xbe,0x41,0x5a,0xd5,0xbd,0x14,0xfb,0xd4,0xbd,0x10,0x2c,0xdc,0x3d,0x34,0x59,0xf1,0xbd,0x39,0xbb,0x78,0x3e,0x5c,0x0c,0x87,0x3c,0xf2,0x27,0x57,0xbd,0x4c,0xaa,0x63,0xbd,0x98,0x25,0x16,0x3e,0x54,0xa8,0x24,0x3e,0x10,0xdc,0x1f,0x3e,0xd6,0x93,0xa0,0x3d,0x35,0xc3,0xc6,0xbc,0x90,0x47,0xf5,0xbd,0x90,0x23,0x69,0xbe,0xb4,0x68,0x13,0xbd,0x55,0xd4,0x52,0xbd,0xd9,0x85,0xa8,0x3d,0x0a,0x75,0x56,0xbe,0x8a,0x38,0x2e,0x3d,0xdf,0x62,0xc6,0x3d,0x54,0x7e,0x3d,0xbe,0xd0,0x60,0xcc,0xbd,0xfc,0xda,0xaf,0x3d,0x27,0x2c,0x21,0xbe,0x21,0xc6,0xe4,0xbd,0x20,0x6c,0xca,0x3c,0xa5,0xc4,0x03,0x3d,0x30,0x0e,0x08,0xbe,0x68,0x52,0x5f,0x3e,0x8e,0x88,0xbf,0x3d,0x14,0x96,0x0e,0xbe,0x53,0x0d,0x30,0xbe,0xc8,0xbf,0x70,0x3e,0xe0,0x25,0xe8,0x3d,0xc1,0x84,0x15,0x3d,0xae,0x5e,0x05,0x3e,0x2b,0xee,0x01,0xbe,0xdc,0x13,0x23,0x3d,0xf4,0xf8,0x78,0xbe,0xd8,0x7b,0xa8,0xbd,0xe7,0x83,0xd1,0xbc,0xe2,0x2e,0x74,0xbd,0xf3,0x0e,0x4b,0x3e,0x02,0x33,0xe2,0xbd,0x9c,0x3e,0x78,0xbe,0x1d,0x62,0x5d,0x3e,0xf0,0xb4,0x46,0xbe,0xd4,0x66,0x17,0xbe,0xfc,0xf3,0x18,0xbe,0x9d,0xb4,0x40,0xbe,0x1f,0xc7,0xd0,0x3d,0xba,0xb4,0x4b,0xbc,0x48,0x89,0xf3,0xbd,0xe8,0x26,0x38,0xbe,0x08,0x31,0x41,0x3e,0x97,0x96,0x97,0x3c,0x0c,0x03,0x5c,0xbe,0x40,0xab,0xd5,0xbc,0x48,0x6e,0x8e,0xbd,0xe0,0xd7,0xad,0xbd,0xc0,0xd2,0x9f,0x3c,0xff,0x7a,0x4b,0x3d,0x38,0x5c,0xe9,0xbd,0x40,0x28,0x66,0x3c,0x18,0x5c,0xcc,0xbd,0xd8,0x90,0x47,0x3e,0x80,0x1e,0x20,0x3e,0xb4,0xbd,0x6c,0xbe,0x5b,0x91,0xd2,0x3d,0xac,0x9e,0xd3,0xbd,0xea,0xd4,0x76,0x3e,0x80,0xe3,0x4d,0x3d,0x90,0xed,0x4a,0xbe,0x52,0x4d,0x87,0xbc,0xeb,0xb7,0x90,0xbd,0xc4,0xd8,0x0c,0xbe,0x08,0xe5,0xc1,0xbd,0x80,0xa3,0x2c,0x3d,0x30,0xb4,0xdc,0x3d,0xdd,0xec,0xe9,0xbd,0x40,0x04,0x91,0x3d,0xcb,0xf0,0x37,0x3e,0x48,0x40,0xdb,0x3d,0xc0,0xed,0xea,0x3c,0xc0,0xdf,0xd2,0xbd,0xa0,0x37,0x06,0x3d,0x8a,0x9a,0xde,0xbd,0x69,0x46,0x08,0xbe,0xec,0xa5,0x55,0xbe,0x60,0xc5,0xf2,0xbd,0x24,0xec,0x0e,0x3e,0x50,0x08,0xdf,0xbd,0xa0,0x95,0x43,0xbe,0x14,0x15,0x87,0x3d,0x40,0xdb,0x0c,0xbe,0xf8,0x58,0x59,0x3e,0x80,0x59,0xab,0x3c,0xe0,0xb8,0x6d,0xbd,0x58,0x27,0xc0,0xbd,0x68,0x77,0xa6,0xbd,0xc3,0x3a,0x5b,0xbe,0xcb,0x42,0xd2,0xbc,0x5b,0x8b,0x82,0x3d,0x44,0xb8,0x73,0x3e,0x08,0xf9,0x5a,0xbe,0x9f,0xf5,0xea,0xbd,0x1e,0x89,0x94,0xbd,0xd0,0xc5,0x00,0xbd,0xd0,0xac,0xdc,0x3d,0x00,0x8f,0x09,0xbe,0xe0,0xbd,0x49,0xbd,0xf9,0x7d,0x28,0x3e,0x00,0x17,0x93,0x3c,0x4c,0x6c,0x0b,0x3d,0x80,0x43,0xe4,0x3b,0x40,0x13,0x5a,0x3d,0xa8,0x7b,0xea,0x3d,0x94,0x46,0x6f,0x3e,0x55,0xc0,0x12,0xbe,0x8a,0xeb,0x0f,0x3e,0x36,0x0d,0x11,0x3c,0xfc,0x5a,0x05,0xbf,0x5e,0x11,0x00,0xc0,0x27,0x9a,0xba,0x3e,0xb6,0x44,0x22,0xbe,0xff,0xa4,0x4a,0x3e,0x63,0x82,0xae,0x3d,0x1d,0xe6,0x5a,0x3e,0xd8,0x51,0x36,0x3e,0x99,0x0a,0x1c,0x3e,0xd9,0x3d,0x06,0xbf,0xed,0xa7,0x43,0xbe,0xf1,0x2c,0x09,0xbf,0x17,0xfc,0x57,0xbf,0xf8,0xf0,0x80,0xbf,0xbb,0xc0,0x85,0x3b,0x6d,0x7a,0xde,0xbd,0x9c,0x5c,0x6f,0xbe,0xb3,0x0e,0x56,0x3e,0xd7,0x13,0x2c,0x3e,0xce,0x68,0x73,0xbe,0x07,0x72,0xf4,0x3a,0xfb,0xfd,0xbf,0x3e,0x98,0x99,0xd4,0x3e,0x5f,0xc8,0xfe,0x3e,0x06,0xcb,0xb5,0xbe,0x83,0x88,0xdd,0xbf,0xa8,0x15,0x3d,0xbf,0xec,0xf5,0x27,0xbe,0x47,0x06,0x46,0x3e,0x9a,0xc3,0x99,0xbe,0xd2,0x8a,0x16,0x3f,0x8b,0x47,0x43,0xbe,0x95,0x9f,0xbb,0xbc,0xb8,0xdd,0xed,0x3f,0x10,0x71,0xe7,0xbd,0xa3,0xd9,0xd6,0x3c,0x90,0xf2,0x15,0x3d,0xa3,0x87,0xab,0x3c,0x87,0x39,0x3d,0xbd,0xc7,0x86,0xe3,0xbd,0x32,0x79,0x3f,0xbe,0x7b,0xd5,0x51,0x3f,0x35,0x8c,0xb2,0x3c,0x31,0x95,0x1d,0xbf,0x80,0x2e,0x02,0xbe,0x6d,0x5d,0xf7,0xbe,0x37,0x84,0xa9,0x3d,0x7a,0x69,0x54,0x3e,0xd9,0x86,0x4e,0x3e,0x75,0x53,0x50,0x3f,0xd1,0x34,0xb1,0xbd,0x1e,0x03,0x3c,0xbe,0x3a,0x86,0x6b,0x3e,0x47,0x26,0xba,0xbe,0xfa,0xae,0xb7,0xbe,0x9f,0x26,0x51,0x3e,0x84,0xb5,0x73,0x3e,0xd6,0x12,0x9e,0x3f,0xb8,0xbe,0x9a,0xbe,0x8f,0x9b,0x4c,0xbe,0xc4,0x25,0xb1,0x3e,0xd6,0x16,0x08,0x3f,0xb4,0x88,0x09,0xbf,0xbc,0x1f,0xda,0xbd,0x42,0xd5,0xa7,0x3f,0x52,0x1e,0x8c,0xbe,0x4b,0x12,0xc2,0x3e,0xd4,0x77,0x01,0xbf,0x85,0x22,0x60,0x3e,0x29,0xa1,0x97,0xbd,0x0e,0x3e,0xbf,0x3d,0x5a,0xc1,0xbc,0x3e,0x5c,0xae,0x18,0x3e,0xec,0x8b,0x8e,0x3d,0xfa,0x3a,0xac,0x3e,0x6b,0x3e,0x55,0xbe,0x62,0x96,0x79,0xbf,0x6c,0x60,0xab,0xbf,0x01,0xee,0x19,0x3f,0x7c,0xaa,0x05,0x3d,0xa8,0x1b,0x12,0xbe,0x21,0x95,0x22,0xbe,0x51,0x33,0x04,0x3c,0xf7,0x62,0xbb,0x3d,0xb2,0xd2,0x83,0xbb,0xa4,0xfe,0xb6,0xbe,0x37,0x5c,0x25,0x3d,0x37,0x80,0x86,0x3e,0x03,0x9c,0xd7,0xbd,0x0a,0xfd,0xc6,0x3e,0xda,0xa9,0xe8,0x3f,0x47,0x0c,0x09,0x3f,0x4b,0x4b,0x9f,0xbf,0x36,0x22,0xb3,0xbd,0x58,0xcc,0x24,0x3f,0x36,0x4d,0xd0,0x3c,0x9f,0x65,0xf2,0xbf,0xe1,0xdc,0x03,0x40,0x14,0xa3,0x51,0xbe,0xda,0xdc,0x0a,0x3f,0xbe,0x19,0xd2,0xbd,0x4c,0x5f,0xd6,0xbe,0x7c,0xe4,0x85,0xbd,0xc0,0x6d,0xaf,0xbe,0x91,0x53,0x31,0xbe,0x62,0x60,0x5f,0x3f,0x2d,0x46,0x58,0xbe,0x60,0x10,0xad,0xbe,0xd0,0xb2,0x95,0xbe,0x61,0x58,0x18,0x3f,0xdd,0xd1,0xb8,0xbe,0x9a,0x65,0x11,0xbd,0x28,0xbb,0x49,0x3e,0xca,0xd5,0x54,0x3e,0x8e,0x92,0x0b,0x3e,0xd1,0x5f,0xe3,0x3d,0x1f,0x3e,0x88,0x3e,0x4c,0x82,0x75,0xbe,0x6e,0x12,0xf9,0xbe,0x56,0x23,0x84,0xbe,0xaa,0x84,0x33,0x3f,0x3c,0x83,0xbd,0x3f,0xa2,0x39,0xb2,0xc0,0xd9,0x43,0xb1,0xbd,0xf0,0xba,0x3f,0xbf,0x85,0x17,0xaf,0x3e,0x9e,0x89,0x33,0xbe,0x15,0x2a,0xd1,0x3d,0x32,0xb3,0x0b,0x3e,0x74,0xc2,0x8a,0xbd,0x2c,0x78,0x07,0x3e,0x80,0xc3,0x07,0x3d,0x62,0x25,0x1f,0x3e,0xb1,0x16,0xa8,0x3d,0xb6,0xbe,0x49,0xbe,0xdd,0xec,0x75,0xbe,0xb3,0x34,0x11,0xbd,0x94,0x19,0x90,0x3d,0xce,0x69,0x30,0xbe,0x88,0x8e,0x53,0x3d,0x48,0xf0,0x9b,0x3d,0xfb,0x12,0x2e,0x3d,0x9a,0xcd,0x16,0xbe,0xcb,0xf8,0x09,0xbe,0xa8,0xbd,0xb4,0xbd,0x32,0x31,0x8f,0xbd,0xbb,0x95,0xc8,0xbd,0x62,0x0b,0x8f,0x3d,0x8f,0x86,0x22,0xbe,0xbd,0xc8,0x75,0xbd,0x07,0xd0,0x0f,0x3e,0xdc,0xe9,0x18,0x3e,0x00,0xc8,0x58,0x3e,0x8e,0x32,0xdf,0x3c,0xbc,0x0b,0x2c,0x3e,0x70,0xd5,0xe8,0x3d,0x5c,0x4e,0xe4,0x3d,0xf5,0x66,0x22,0xbe,0x6f,0xf1,0x48,0xbd,0x1f,0x23,0x49,0x3e,0xd8,0xf4,0xde,0x3d,0x44,0x84,0x3c,0xbe,0xf0,0xc9,0xfd,0xbd,0x4c,0x6e,0x75,0x3d,0x73,0xf2,0x92,0xbe,0x27,0x04,0x74,0xbe,0x41,0xa0,0xc4,0xbd,0xeb,0x12,0x1e,0x3e,0x3e,0xff,0xc2,0xbd,0xcb,0xad,0x27,0x3e,0x3e,0xdd,0x8a,0xbe,0x0b,0xe9,0x97,0xbd,0x8e,0xaf,0x18,0xbd,0xef,0xf8,0x68,0x3d,0x23,0x08,0xae,0xbd,0x06,0x90,0x4a,0xbd,0xcd,0x82,0x82,0x3d,0x4a,0xef,0x82,0x3d,0xef,0xe6,0x24,0x3e,0xfc,0xae,0x9a,0x3c,0xb8,0x57,0x73,0xbd,0xa6,0xb4,0x63,0xbe,0x7c,0xa3,0x2e,0xbc,0xe8,0x9c,0x17,0xbe,0x68,0x3c,0xe3,0xbd,0x22,0xc6,0x3a,0xbe,0xd5,0xfa,0x51,0xbd,0x7b,0x84,0x2b,0xbe,0x1f,0x4a,0x8a,0x39,0x61,0xa7,0xdf,0xbd,0x42,0xfd,0xaa,0xbc,0x02,0x34,0xa5,0x3e,0x8a,0xe5,0xe5,0x3e,0x3c,0xdb,0xda,0x3e,0xbc,0x65,0x48,0x3d,0x14,0x53,0xa7,0xbc,0x3f,0x9b,0x82,0xbe,0x91,0xa9,0x6b,0x3e,0x7c,0x15,0xb7,0x3e,0x77,0x8e,0xa8,0x3d,0xfe,0xe6,0x11,0x3e,0xe3,0x5e,0x8e,0x3e,0x56,0x60,0xd4,0xbc,0xc9,0x55,0xc9,0xbc,0x89,0x42,0xe0,0x3e,0x7f,0x18,0x0c,0x3f,0xca,0x99,0xab,0x3e,0xf2,0x2b,0x98,0xbd,0x09,0xee,0x42,0x3e,0xfb,0xfb,0xad,0x3d,0xdf,0x4c,0x88,0x3e,0x45,0x55,0x84,0x3e,0xd9,0x82,0x15,0x3e,0x41,0x17,0x8a,0xbe,0x06,0x3b,0x8f,0xbe,0xa6,0x95,0x38,0xbe,0x4f,0x74,0xc6,0x3d,0x43,0xc7,0xab,0x3e,0xbd,0x63,0xfd,0x3e,0x05,0x92,0x09,0x3e,0xda,0xa1,0xd9,0xbd,0x43,0xb7,0xe4,0x3d,0x53,0x70,0x0c,0xbc,0x2a,0x49,0x12,0xbd,0xee,0x29,0xa2,0x3e,0x52,0xec,0x5b,0xbf,0x02,0x9f,0x24,0x3e,0x4c,0x87,0xfe,0x3e,0xde,0x59,0x72,0xbc,0x6f,0xff,0xfd,0x3d,0xe2,0xa6,0x3d,0xbd,0xd4,0x31,0x04,0x3d,0xc8,0x9d,0xca,0xbc,0xa9,0xce,0x0e,0xbe,0x91,0x23,0x0b,0xbe,0x18,0x73,0x59,0x3d,0xf8,0x6c,0x0e,0x3d,0x0e,0xb4,0x1a,0x40,0x7f,0xc5,0x94,0x3e,0x43,0x48,0xa2,0xbd,0xac,0xf7,0x58,0x3e,0x3c,0x9b,0x9a,0x3c,0xb3,0xe4,0xc5,0xbd,0x8e,0x43,0x39,0x3e,0x53,0x11,0x39,0x3e,0x6b,0x2e,0x90,0x3e,0x1d,0x2d,0x8f,0x3e,0x64,0x31,0x28,0xbf,0x9f,0xcb,0x8f,0x3e,0x2d,0x30,0xac,0xbe,0x0d,0x18,0x01,0x3d,0xd6,0x38,0x32,0x3e,0x76,0xa9,0xe4,0xbd,0xcd,0xd5,0x29,0xbd,0xb4,0x81,0xc4,0xbe,0xda,0xc2,0xb7,0x3e,0x55,0x2f,0x8f,0x3f,0x89,0x0a,0x56,0x3e,0x5c,0x34,0x4f,0x3d,0x77,0xff,0xb0,0xbb,0x83,0x63,0x90,0xbe,0x62,0x65,0x9d,0x3e,0xcc,0x2f,0x19,0x3f,0x98,0xc8,0x29,0x3f,0xb5,0xb2,0x3d,0x3e,0x26,0x0b,0x5a,0x3f,0x0d,0xf0,0x84,0x3d,0x07,0x94,0xcd,0xbe,0x96,0xc9,0x23,0xbe,0xfa,0xaf,0x11,0x3f,0xec,0x72,0x4d,0x3e,0x28,0xc8,0xc5,0x3d,0x60,0x3b,0x88,0x3d,0x66,0xb1,0x0f,0xbe,0xb6,0x9f,0x7d,0xbe,0xd0,0x9e,0x42,0x3d,0x28,0x6c,0x2f,0xbd,0x7b,0x60,0xb2,0xbd,0xbc,0x03,0x59,0xbe,0xe1,0xda,0x88,0xbd,0xbd,0x8f,0x8b,0x3e,0x03,0xf8,0x22,0x3f,0xcb,0x9e,0x82,0xbe,0x19,0x77,0x78,0x3e,0x5d,0x17,0x98,0xc0,0xee,0x25,0x46,0x3e,0x95,0x1d,0x2b,0x3e,0x8e,0xba,0x7f,0x3e,0xa3,0x0c,0xb7,0xbf,0x91,0x28,0x1e,0x3f,0xa4,0x6c,0xef,0xbe,0xf5,0xda,0x35,0x3d,0x7a,0x1a,0xe2,0xbb,0x28,0xc7,0xce,0xbc,0x45,0x64,0xad,0xbd,0xd7,0x3f,0x83,0xbe,0xe1,0xa8,0x10,0xbd,0x1f,0xe7,0x32,0xbe,0x9f,0xf4,0x40,0xbe,0x8a,0xcc,0x81,0xbe,0x5d,0x6b,0x7d,0xbe,0xd4,0xed,0xf0,0x3f,0x25,0xe7,0xbf,0xbd,0xc8,0xf9,0x25,0x3e,0xf5,0xec,0x65,0x3e,0x91,0x83,0xb2,0x3d,0xe2,0xb3,0xc6,0xbd,0x86,0x23,0x0b,0x3e,0x03,0x76,0x09,0x3f,0x53,0x39,0x81,0xbe,0xee,0xd3,0xd4,0xbe,0xba,0xd9,0x5e,0xbe,0xe6,0x29,0x1b,0x3f,0xbe,0x19,0x8c,0xbe,0x0d,0x8f,0x17,0xc0,0x99,0xe0,0xfb,0xbe,0x65,0xef,0xbc,0xbd,0xc8,0x97,0x8d,0x3d,0x00,0x9c,0x07,0x3a,0x14,0xd1,0x09,0x3e,0xbf,0xff,0xed,0x3c,0xc0,0x3c,0x70,0x3c,0x67,0xe2,0x4d,0xbe,0xe2,0x8f,0x7c,0xbe,0x90,0x8f,0xb2,0x3d,0x38,0x63,0x77,0x3e,0x2c,0xa4,0x86,0xbd,0xd6,0x13,0x85,0x3d,0xa2,0x69,0x29,0x3d,0x50,0xa4,0x71,0xbd,0x32,0x15,0x60,0x3d,0x98,0x55,0x35,0xbe,0xc2,0x7e,0x88,0x3d,0xa7,0x44,0x3d,0xbe,0xbc,0x60,0x6a,0xbe,0xfa,0x05,0x77,0xbe,0x78,0x76,0x9a,0x3d,0x08,0xd1,0x75,0xbe,0xc0,0x1d,0x59,0xbc,0xcf,0xea,0x05,0xbe,0xf1,0xdd,0xf3,0xbd,0x60,0x3a,0xd0,0x3d,0x78,0xac,0x4d,0xbe,0x88,0x5f,0x83,0xbe,0xb8,0x8a,0x70,0x3e,0xec,0x2b,0x21,0xbe,0xad,0xfc,0x59,0x3e,0xf3,0x3d,0x80,0xbe,0x47,0x22,0xca,0xbd,0xa0,0x06,0x99,0x3c,0x3e,0xff,0x13,0x3e,0xaa,0x0b,0xfb,0xbd,0xfb,0x66,0x2a,0x3e,0x5f,0x1b,0x49,0x3d,0xf8,0x33,0x35,0x3e,0x5f,0xdb,0xe8,0xbb,0x40,0x97,0xc7,0x3c,0xb5,0xb9,0x8c,0xbc,0x2e,0x03,0x1a,0x3d,0x13,0x74,0xac,0xbd,0xf3,0xb2,0x21,0x3e,0xc4,0x38,0xba,0x3d,0xb9,0xfc,0xc8,0xbd,0x64,0x21,0x49,0x3e,0x20,0x19,0xf0,0xbd,0xec,0x12,0x3d,0xbe,0xe4,0xe9,0x03,0x3d,0x1d,0x9b,0xc4,0x3d,0x98,0x92,0x79,0xbe,0xa5,0xe2,0xde,0xbd,0x56,0x46,0x1b,0x3e,0x96,0x81,0xf5,0x3d,0xab,0x3a,0xd7,0x3c,0xf8,0x78,0xcf,0xbd,0x10,0x77,0x87,0xbd,0x9f,0x2f,0x35,0x3e,0x40,0x95,0xdf,0xbc,0x03,0xee,0xea,0xbd,0xf5,0x02,0x7b,0xbe,0xf5,0xf3,0x96,0x3d,0xb2,0x2b,0xdf,0xbd,0xb0,0xb0,0x30,0xbd,0xc3,0x9b,0x20,0x3f,0xf7,0xa5,0xad,0xbe,0x04,0xb2,0x21,0xbe,0x80,0x91,0xfa,0xbe,0x9c,0xec,0x1f,0xc0,0xf0,0x65,0x12,0xc0,0xa3,0x1f,0x07,0xbf,0x4b,0x43,0x49,0xc0,0x1c,0xd3,0xfe,0xc0,0x49,0xa0,0xb9,0xc0,0x1a,0xff,0x0d,0xbf,0x13,0x17,0x8e,0xbf,0xac,0xcc,0x4a,0xbf,0x9e,0xae,0xf0,0x3d,0xff,0xcb,0x8c,0xbe,0x69,0xfb,0xdd,0xbf,0xc0,0x00,0xf0,0x3c,0x6f,0x37,0x8e,0x3f,0x13,0xd8,0x89,0xbe,0x51,0x01,0x25,0x3f,0xd4,0x2f,0x91,0x3e,0x00,0xca,0xfd,0xbc,0x81,0xd3,0xe3,0xbe,0xf5,0xff,0x9f,0x3d,0x99,0x16,0xc0,0xbe,0x42,0x36,0x2b,0xbe,0x09,0xe7,0x18,0xbe,0x47,0x0c,0xc5,0xbf,0x8f,0x54,0x02,0x3d,0xc7,0x76,0x62,0xbe,0x35,0xcc,0x84,0xc0,0x42,0x26,0x35,0x3e,0x6d,0xe9,0xe0,0x3e,0x95,0x3a,0xec,0xbf,0xd0,0xca,0x53,0x3d,0x9e,0x13,0x7f,0x3f,0x58,0x17,0x30,0x40,0x9f,0x96,0x90,0xbe,0x2c,0x70,0xca,0x3d,0x99,0x3d,0x19,0x40,0x39,0xc2,0x75,0x40,0x8f,0x3b,0xa5,0xbf,0xfd,0x11,0x07,0x40,0x6d,0x87,0x87,0x3f,0x0e,0xeb,0x51,0x3f,0x7e,0x01,0x3b,0x3e,0x7d,0x72,0x29,0xbd,0x28,0x96,0x23,0xc0,0x5c,0x49,0x11,0xbe,0x68,0x20,0x07,0x3f,0xfc,0xfd,0x0b,0x3d,0xe3,0x57,0xa4,0x3e,0x2f,0x17,0x4e,0xbf,0x4c,0xa1,0xbd,0xbf,0x20,0x44,0xf3,0xbf,0x4f,0x7e,0xf1,0x3e,0x0e,0xea,0x01,0x3f,0xcb,0x65,0x0b,0xbe,0xa0,0x30,0x85,0x3b,0xa8,0x30,0xab,0x3f,0x2f,0x66,0x94,0x3d,0x89,0xad,0xa0,0xbe,0xc3,0x31,0xaa,0x3e,0x08,0x0c,0x86,0x3e,0x89,0x67,0x0a,0xbe,0x49,0xcb,0x69,0xbe,0x26,0x6d,0x42,0xbe,0x00,0x62,0x84,0xbd,0x91,0x1e,0xb8,0xbc,0x67,0xd2,0x8e,0x3c,0xbd,0xa3,0x33,0xbc,0x3d,0xc4,0x12,0xbe,0xfa,0xae,0x11,0xbd,0x8e,0xdb,0x42,0x3e,0x3b,0x82,0x0c,0xbe,0x34,0x5d,0x26,0x3e,0x6f,0x55,0xca,0xbb,0xf2,0x3b,0x61,0xbe,0x81,0x24,0x51,0xbe,0x77,0xa5,0x4f,0x3e,0x52,0xa5,0x2f,0x3e,0x7f,0x86,0x6b,0xbe,0x85,0x86,0x07,0xbe,0xb6,0xfe,0x6b,0xbe,0xe2,0xc0,0xc5,0xbd,0xfd,0x30,0x2e,0xbe,0xe7,0x52,0xca,0x3d,0x78,0x3b,0x4a,0x3c,0x98,0xa4,0x17,0xbe,0xfa,0x41,0x16,0x3e,0xd7,0x03,0x1c,0xbe,0xe8,0x38,0x41,0x3e,0x9c,0x81,0x1e,0xbc,0x36,0x10,0x5b,0xbe,0x13,0x84,0x2b,0x3e,0x88,0x55,0x36,0xbe,0xbf,0xa6,0x8a,0x3d,0x79,0x99,0x15,0xbe,0x66,0x3c,0x96,0x3c,0xa0,0x65,0x5a,0xbd,0x0f,0xdb,0x2c,0xbe,0xc4,0x80,0x27,0xbd,0xaf,0x72,0xe3,0x3d,0x1f,0xd1,0x23,0x3e,0xbd,0x06,0x88,0xbe,0xce,0x8f,0x95,0xbd,0x62,0x5a,0x15,0xbe,0xcf,0x35,0x90,0xbe,0xd8,0x9e,0xb1,0x3d,0x9f,0x83,0x10,0x3e,0x76,0xb9,0x47,0x3d,0x9c,0x65,0x76,0xbe,0x31,0x2e,0x0f,0x3e,0xd7,0x7c,0x1e,0xbe,0x19,0xf4,0x35,0x3d,0x74,0x16,0x60,0xbe,0x6b,0x99,0xca,0xbd,0x59,0xf1,0x76,0x3c,0x5a,0xb7,0xbf,0xbd,0x12,0xf5,0x37,0x3e,0x17,0x3f,0xae,0xbd,0xd5,0xf7,0x28,0xbd,0xbf,0x96,0x66,0x3d,0x87,0xc0,0x17,0xbe,0x84,0x4f,0xe5,0x3d,0x33,0x67,0x86,0xbe,0x2e,0x5c,0x3c,0x3e,0x33,0xbc,0x44,0xbe,0x98,0xdb,0x06,0x3e,0x3c,0xd3,0xbd,0x3e,0x12,0x30,0xe7,0x3e,0x43,0x84,0xd0,0x3f,0x8f,0x3a,0x03,0xbe,0x34,0x83,0x41,0x3e,0x6f,0xaf,0xbf,0xbe,0xdc,0x61,0xea,0x3c,0xb2,0x0b,0x58,0x3e,0x6f,0x23,0x65,0xbe,0x08,0x0f,0x0d,0xbe,0xf6,0xb6,0x10,0x3f,0xb8,0x99,0xf1,0xbd,0xe8,0xec,0xbc,0x3d,0xa4,0xe5,0x28,0x3f,0x5f,0xd3,0xb1,0xbf,0x7e,0xff,0xcf,0xbd,0x8b,0xe8,0x9e,0xbc,0x4a,0x8c,0x53,0xbf,0x20,0x81,0x1f,0x3e,0xde,0x36,0x39,0x3e,0xee,0x61,0xba,0x3e,0xa0,0x78,0xa0,0x3e,0x70,0x23,0x6f,0xbe,0x11,0xae,0x54,0xbe,0x57,0xb2,0x8a,0xbe,0x10,0xd7,0x12,0xbe,0x24,0xe4,0x7c,0x3f,0x01,0xcb,0xac,0x3e,0x06,0xc9,0xf7,0x3d,0x74,0x67,0xa8,0xbd,0x98,0xe1,0x82,0x3e,0x55,0x3e,0x08,0xbf,0xdf,0x31,0x0d,0xbe,0x50,0x4b,0x93,0x3e,0x45,0x2e,0xda,0xbe,0x5a,0xbf,0xf2,0x3e,0x4c,0x37,0x48,0x3d,0xb8,0xa9,0x86,0xbe,0x41,0x11,0x83,0x3d,0x61,0x2e,0xf6,0xbd,0x06,0x97,0x97,0x3e,0xec,0x5e,0x6d,0x3d,0xe8,0x98,0x38,0xbe,0x44,0x37,0xa5,0xbd,0xaa,0x2a,0x43,0xbe,0xdb,0x51,0x3f,0xbe,0x7c,0x7f,0xe9,0x40,0xbb,0x41,0xc6,0x3e,0x1f,0x42,0x23,0x3e,0x51,0x81,0x8d,0xbe,0x68,0xde,0x06,0xbf,0x1e,0x59,0x2c,0x3e,0x96,0xdb,0xae,0x3e,0xf4,0xa3,0xa6,0x3d,0x84,0xfd,0xd2,0x3d,0xca,0x2e,0x9b,0x3e,0x9d,0xe6,0x11,0xbf,0x8b,0xcb,0x9f,0x3d,0x2e,0x47,0x5a,0xbd,0x0b,0x6c,0x71,0xbc,0x08,0x2e,0x9d,0x3e,0xff,0x73,0xd3,0xbe,0xeb,0x7c,0x22,0xbf,0xd0,0x67,0x33,0xbd,0x80,0x3c,0xf6,0x3b,0x2c,0x8f,0x40,0xbe,0x38,0xdc,0x16,0x3e,0x68,0x33,0x49,0xbe,0x64,0x0d,0x67,0x3e,0xf8,0x00,0x8a,0xbd,0xa0,0xd8,0x42,0xbe,0x00,0xac,0x4f,0x3d,0x60,0x03,0x78,0xbd,0x50,0x36,0xcc,0x3d,0x20,0x7f,0xce,0x3c,0xb0,0x0d,0x21,0xbd,0x78,0xfc,0x05,0xbe,0xe0,0x54,0x03,0x3e,0xa4,0x2c,0x30,0xbe,0x18,0x89,0x0f,0xbe,0x50,0xe9,0x6a,0xbe,0xf8,0x00,0x34,0x3e,0x00,0x8e,0xfe,0x3c,0x7c,0x0b,0x46,0x3e,0xc0,0x4e,0x8a,0xbc,0x10,0x84,0x7f,0xbe,0x80,0xe1,0x0b,0xbe,0x00,0xd1,0x5e,0xbd,0xd0,0x90,0x73,0xbe,0x48,0x58,0x81,0xbd,0x00,0x48,0x97,0xbd,0x70,0xc6,0xea,0xbd,0xec,0xad,0x52,0xbe,0x1c,0xc1,0x51,0x3e,0x60,0x5a,0x33,0x3e,0x28,0x42,0x3d,0xbe,0x4c,0x8e,0x4a,0xbe,0xac,0xe1,0x06,0x3e,0xd0,0xca,0x48,0x3e,0xb0,0x15,0x52,0x3d,0xb0,0x62,0xc6,0xbd,0xa0,0x2a,0xb7,0xbd,0x40,0xef,0x0c,0xbe,0x48,0x57,0x05,0x3e,0xd4,0x48,0x61,0xbe,0xb0,0x83,0x18,0xbd,0x88,0x52,0xb9,0x3d,0xe8,0x96,0xee,0xbd,0x48,0xe4,0x49,0xbe,0x40,0xca,0xe3,0xbd,0xe8,0xe8,0x73,0xbe,0x78,0x36,0x5d,0xbe,0x10,0xa9,0x39,0x3d,0x28,0xf2,0x42,0xbe,0x00,0xa4,0x57,0x3c,0xc0,0x30,0x24,0xbd,0xe0,0x14,0xe3,0x3d,0x60,0x21,0xd7,0xbd,0x90,0xea,0x12,0xbd,0x40,0x3c,0x32,0xbd,0x58,0x36,0x5b,0xbe,0x20,0x16,0x5b,0xbd,0x80,0x26,0xf5,0x3c,0x78,0x85,0xf5,0x3d,0x40,0xd7,0x4a,0x3c,0x44,0x8b,0x31,0x3e,0x34,0x31,0x14,0xbe,0xdc,0xc2,0x7e,0x3d,0xa9,0xf5,0x60,0x3e,0x66,0x26,0x44,0x3e,0x9b,0x5e,0xdf,0x3e,0x8b,0x79,0x8f,0x3d,0x65,0xeb,0x91,0x3e,0x78,0xb0,0x86,0xbe,0x67,0x4b,0x7b,0xbc,0xaa,0x2d,0x99,0x3d,0x86,0xb7,0x3b,0xbe,0x6a,0x94,0x1c,0xbe,0x2f,0xc0,0x15,0xbe,0xb9,0x79,0xef,0xbd,0x01,0x46,0xed,0x3e,0x4a,0xf5,0x50,0x3f,0x09,0xa7,0xaa,0xbd,0x83,0x97,0xb1,0x3d,0x06,0xa7,0x4c,0x3e,0xdf,0x3d,0x1b,0x3f,0x2a,0xac,0x89,0xbe,0x93,0xf8,0xb6,0x3d,0x82,0x2f,0x2f,0x3d,0x7b,0xac,0x20,0xbe,0xeb,0x49,0x79,0xbe,0x14,0xa6,0x8a,0xbe,0x1c,0x08,0x91,0xbe,0x03,0x0a,0x29,0x3d,0x3e,0x2d,0x96,0xbc,0x48,0xda,0x90,0x3e,0x6c,0x36,0xac,0x3d,0x6c,0xf7,0x29,0xbd,0x87,0x0b,0xb8,0x3e,0x29,0xaa,0x96,0xbe,0x33,0xe5,0x36,0x3e,0x53,0x33,0xe5,0x3d,0x71,0x81,0x93,0xbd,0xc2,0xaf,0x80,0x3e,0xa3,0x59,0xde,0xbc,0xf7,0x07,0xf7,0x3b,0xb3,0xf0,0xe1,0x3d,0xff,0x50,0x1d,0x3e,0x57,0x60,0x8e,0x3c,0x84,0xc2,0x48,0x3e,0x2e,0x8c,0xcd,0xbe,0xeb,0xdf,0xf9,0x3d,0x6e,0x1a,0x07,0xbe,0x71,0x43,0x5a,0xbe,0xf8,0xeb,0xad,0x3f,0x25,0x38,0xa2,0x3e,0x66,0x6b,0xf6,0xbd,0xe5,0xa7,0x0c,0x3d,0xa0,0x66,0x07,0x3e,0xa1,0x99,0x6c,0x3e,0x3d,0x6e,0xbc,0x3e,0xf4,0xc9,0xa1,0x3e,0x00,0x53,0x86,0x3e,0x38,0x53,0x4d,0x3e,0xbf,0x2f,0x04,0xbf,0xf5,0x7a,0x90,0x3d,0x69,0x9e,0x0e,0x3e,0x2d,0xe5,0xa5,0x3d,0x9b,0x6b,0x94,0x3d,0x18,0x70,0xec,0xbe,0xf3,0x0a,0x92,0xbd,0xe1,0x8e,0x14,0xbe,0xf7,0x39,0xea,0x3d,0x44,0x30,0xe9,0x3e,0x69,0x61,0x85,0x3e,0x3d,0x51,0x74,0xbe,0x69,0xff,0xcc,0x3d,0x39,0xf4,0x17,0x3e,0x42,0xac,0xad,0xbd,0xac,0xa4,0xc1,0x3d,0xe0,0xf2,0x9f,0x3c,0xa7,0xcf,0x4b,0x3e,0x22,0xce,0xdc,0xbe,0xa0,0x8c,0x75,0x3e,0xd3,0x7e,0x6e,0x3f,0xb4,0x2c,0x89,0x3f,0x2c,0x1f,0x04,0xbe,0x69,0xc5,0x60,0x3c,0x58,0xb9,0xb9,0x3c,0xd4,0x65,0x27,0x3f,0x20,0x02,0xd0,0xbd,0xee,0x49,0x59,0x3e,0x76,0x85,0xa9,0x3e,0x7f,0x57,0xa3,0x3d,0xb2,0x32,0x96,0xbd,0x6d,0xe5,0x24,0x3d,0x14,0xce,0x64,0xbe,0x2a,0x22,0x82,0x3e,0x10,0x38,0x89,0xbd,0x60,0xde,0xf8,0x3e,0x36,0xda,0xd1,0x3c,0x81,0xb2,0xa9,0xbd,0x68,0xbb,0x28,0x3f,0xdf,0x05,0x3b,0xbe,0x32,0xf8,0x3d,0x3e,0xba,0x7e,0x89,0x3e,0x43,0x9e,0x82,0x3e,0x4d,0xa5,0x17,0x3c,0x94,0x89,0x86,0x3e,0xd8,0x8e,0x0d,0xbe,0x2e,0xb9,0x96,0x3e,0x5a,0x8c,0x87,0x3e,0x97,0xba,0xd4,0x3d,0xb1,0x3a,0xca,0xbd,0xbb,0x8c,0xb5,0xbc,0x9a,0xed,0xf6,0xbd,0x2a,0x2f,0x18,0x3e,0x19,0x2c,0x07,0xbf,0xcd,0x07,0xa5,0x3f,0x2e,0x63,0x19,0x3e,0x20,0xce,0xb1,0xbc,0xc2,0xa6,0xcf,0x3e,0xb1,0x8e,0x0a,0x3f,0x4b,0x12,0xc7,0x3d,0x49,0xbc,0x67,0x3c,0x69,0xb3,0xb2,0xbd,0x58,0x03,0xee,0x3e,0x4c,0xfa,0xca,0x3e,0xfa,0x12,0xed,0xbe,0x58,0xe4,0x15,0xbd,0xc2,0x46,0xa9,0x3c,0xd8,0x1d,0x94,0x3e,0x71,0x07,0xa5,0x3e,0xea,0xb3,0x91,0xbe,0xef,0x72,0xd6,0x3c,0x64,0x23,0x5b,0x3e,0x71,0x5c,0x1b,0xbf,0x7a,0xcc,0x9b,0x3d,0xa6,0xa1,0x42,0x3f,0x25,0x42,0x01,0x3e,0x90,0x26,0x98,0x3e,0x93,0x61,0x1b,0xbf,0xc2,0x92,0x90,0x3f,0xa0,0x29,0x49,0x3f,0x8a,0xa8,0x2d,0x3d,0xc5,0xa2,0xbc,0x3d,0x81,0x6e,0x8d,0x3e,0x67,0x51,0xcc,0xbc,0xd8,0x3a,0xc9,0xbd,0xc8,0x7f,0xb0,0xbd,0xfb,0x40,0x25,0xc0,0xb3,0xf1,0x27,0x3c,0x70,0xe5,0x86,0x3e,0xf1,0x5e,0xde,0xbe,0x65,0x84,0x86,0xbc,0x78,0x9d,0x17,0xbf,0x81,0x92,0x7b,0xbf,0xfe,0x53,0x1b,0xbf,0x35,0x08,0x17,0xbf,0xcf,0xec,0x47,0xbf,0x63,0xe7,0x1b,0x3e,0xe8,0xed,0x24,0xbe,0xd6,0x33,0x58,0x3f,0x62,0x6a,0xb6,0x3e,0xe4,0xc4,0x2e,0x3e,0x48,0xf4,0x0f,0x3e,0xb3,0x41,0xf5,0x3c,0x5e,0x8b,0x42,0x3f,0x4d,0x6a,0xed,0xbe,0x4a,0x3c,0x44,0xbe,0xd0,0xaf,0x09,0x40,0xb5,0x70,0x78,0x3f,0x1e,0xea,0x33,0xbf,0xe2,0x91,0xd9,0xbe,0xd5,0xc5,0xb7,0x3e,0x4a,0x30,0xc9,0xbf,0x79,0xf5,0x21,0x40,0xf1,0x52,0xdc,0x3c,0x0e,0x27,0x68,0x3f,0xb9,0x3b,0xe4,0x3e,0xf7,0x67,0x7b,0xbe,0x0b,0x86,0x3d,0xbe,0x4e,0xe9,0x0b,0x3f,0x2c,0x58,0x85,0xbd,0xa1,0x58,0xa6,0xbd,0x58,0x55,0x9c,0x3d,0xe5,0xda,0x08,0x3f,0x0b,0xeb,0x9c,0xbc,0x5e,0xe9,0xd3,0xbe,0x20,0x3c,0xb4,0xbe,0xc3,0xa6,0x5d,0xbf,0x8a,0x53,0x63,0xbf,0x5e,0x5e,0xb7,0xbd,0xd3,0xf2,0x81,0x3e,0x17,0x67,0xaf,0x3f,0xa9,0xbe,0x15,0x3e,0x2f,0x8f,0x1c,0xc0,0x37,0xa6,0x9f,0x3f,0x8d,0x65,0x85,0x3e,0x5a,0xfd,0xff,0xff,0x04,0x00,0x00,0x00,0x00,0x01,0x00,0x00,0x11,0xd5,0x6b,0x3e,0x70,0xe5,0x06,0xbf,0x3b,0xb5,0xea,0xbd,0x90,0x26,0x11,0x40,0x4d,0x8a,0xfc,0xbf,0x99,0x97,0x8d,0x3e,0x68,0x3d,0xae,0x3f,0x24,0xb1,0x43,0xbf,0x10,0x2e,0xa9,0x3e,0x8f,0xe7,0xc3,0x3f,0x69,0xad,0xbc,0x3f,0x9d,0x1b,0x5f,0x3e,0xdd,0x0e,0x96,0xbd,0x55,0x6f,0x78,0xbe,0x0f,0x44,0xbf,0xbe,0x7d,0x73,0x8c,0x3f,0x36,0x2d,0x54,0x3e,0xcb,0x92,0xa5,0xbd,0x87,0x0a,0x40,0x3e,0xaf,0x18,0x3e,0x3f,0x09,0x12,0x77,0x40,0xca,0x4d,0x18,0x3e,0x51,0x8e,0xdf,0xbe,0xc5,0xbf,0x01,0x40,0x0b,0xdd,0xca,0x3c,0xef,0x11,0x2e,0x3c,0x50,0x96,0x18,0x3e,0x5e,0x34,0x1f,0xbf,0x13,0x10,0x8b,0xbe,0x7f,0x9c,0x0f,0xbe,0x0d,0xd4,0x07,0xbf,0x3a,0xc2,0x3c,0xc0,0x1b,0x8d,0x45,0x3e,0xc0,0x89,0x39,0x3f,0x4e,0xc9,0x4d,0xbf,0xfe,0x4a,0x0a,0x3f,0x27,0x01,0xdb,0xbf,0xe3,0xdc,0xe4,0xbf,0xb2,0x84,0xe4,0xbf,0xcd,0x75,0x82,0x3f,0x22,0x87,0xd7,0xbf,0xcb,0xad,0xc5,0xbf,0xbe,0x19,0x31,0x40,0x21,0x67,0xb6,0xbe,0x1d,0xa1,0x28,0xbf,0xea,0x98,0xc3,0x3e,0x9e,0x97,0x0d,0x3f,0xa4,0x1d,0x27,0x40,0xa4,0x7f,0xfb,0x3d,0xfe,0x1f,0x05,0x3e,0x28,0xca,0x5c,0x3e,0xea,0x09,0x3b,0x40,0x0d,0xa9,0x8c,0x40,0xef,0xe2,0xe0,0x3d,0x84,0x43,0x5f,0x3f,0x0b,0xb1,0x25,0x40,0xe5,0xf7,0x15,0x3e,0x15,0x38,0x60,0xc0,0x0d,0x72,0xa3,0x3d,0x0c,0x7a,0x6d,0xbf,0x96,0xc6,0x3f,0x3e,0xd2,0xab,0xb8,0x3d,0x71,0x3d,0xfd,0x3c,0x3c,0xd2,0x88,0x40,0x66,0xfe,0xff,0xff,0x04,0x00,0x00,0x00,0x80,0x00,0x00,0x00,0x00,0x00,0x00,0x00,0x00,0x00,0x00,0x00,0x00,0x00,0x00,0x00,0x00,0x00,0x00,0x00,0x00,0x00,0x00,0x00,0x00,0x00,0x00,0x00,0x00,0x00,0x00,0x00,0x00,0x00,0x00,0x00,0x00,0x00,0x00,0x00,0x00,0x00,0x00,0x00,0x00,0x00,0x00,0x00,0x00,0x00,0x00,0x00,0x00,0x00,0x00,0x00,0x00,0x00,0x00,0x00,0x00,0x00,0x00,0x00,0x00,0x00,0x00,0x00,0x00,0x00,0x00,0x00,0x00,0x00,0x00,0x00,0x00,0x00,0x00,0x00,0x00,0x00,0x00,0x00,0x00,0x00,0x00,0x00,0x00,0x00,0x00,0x00,0x00,0x00,0x00,0x00,0x00,0x00,0x00,0x00,0x00,0x00,0x00,0x00,0x00,0x00,0x00,0x00,0x00,0x00,0x00,0x00,0x00,0x00,0x00,0x00,0x00,0x00,0x00,0x00,0x00,0x00,0x00,0x00,0x00,0x00,0x00,0x00,0x00,0x00,0x00,0x00,0xf2,0xfe,0xff,0xff,0x04,0x00,0x00,0x00,0x00,0x01,0x00,0x00,0xbd,0xb9,0xff,0x3e,0xf7,0xd7,0x38,0xbf,0xa0,0x87,0x9c,0x3e,0xd3,0x38,0x51,0xbe,0x95,0x04,0x66,0x3e,0x80,0x12,0x14,0x3e,0xc2,0x1a,0x0c,0x3f,0x7f,0x56,0x0e,0xbf,0xe8,0x93,0x9a,0xbe,0xe6,0x6f,0xcd,0x3e,0x6b,0xa9,0xc8,0x3e,0x41,0xe8,0x5c,0xbe,0x23,0xf2,0x96,0xbe,0x55,0x81,0x98,0x3e,0x92,0xfa,0x8c,0xbe,0x50,0x9a,0xe8,0x3e,0x13,0x47,0x8e,0xbe,0xab,0xda,0x01,0x3f,0xae,0xc8,0xe1,0xbe,0x63,0x3a,0x1c,0x3f,0xcb,0xad,0x96,0xbd,0x82,0x98,0x9f,0x3d,0xd8,0xe0,0x0d,0x3f,0x8a,0x8b,0xff,0xbe,0x81,0x2d,0xe1,0xbd,0xf0,0xb6,0xe0,0x3d,0xba,0x87,0xba,0xbe,0x03,0x5f,0x6c,0x3e,0xe1,0x57,0xf0,0xbe,0x28,0x6c,0x9f,0x3e,0xc2,0x7e,0x0a,0xbf,0x0f,0x18,0x6e,0x3a,0xa1,0x98,0x62,0xbe,0x9b,0xef,0xd4,0x3e,0x87,0x5f,0xcc,0xbb,0x8c,0x21,0x11,0x3c,0x9f,0xee,0xbc,0xbe,0xc9,0x8d,0x38,0xbd,0x44,0xa3,0xc0,0x3e,0x13,0x79,0xf4,0xbe,0xed,0x66,0xc4,0x3d,0x14,0x0b,0xea,0xbd,0x4f,0x5b,0x7d,0x3e,0x0b,0x18,0x60,0xbe,0xf5,0xd0,0xce,0x3e,0x6d,0xc8,0x66,0xbe,0xcb,0x6f,0xaa,0xbe,0xb8,0x21,0xce,0x3e,0xdc,0xcb,0x02,0xbf,0xbf,0x70,0x1a,0x3f,0x44,0x72,0x96,0xbe,0x1c,0xa9,0x10,0x3f,0x83,0xf3,0x0d,0xbf,0x0d,0x1b,0xa2,0xbe,0x16,0x39,0x26,0x3f,0xd6,0xb6,0x1d,0xbf,0x16,0x86,0x5d,0x3e,0x00,0x6e,0xe7,0x3d,0xf0,0x6e,0x37,0x3c,0x4d,0x89,0xc5,0x3e,0x2b,0xd1,0x0e,0xbf,0x1d,0x89,0x23,0x3f,0xa5,0xb9,0x90,0x3d,0x12,0xe7,0xe2,0xbe,0x00,0x00,0x06,0x00,0x08,0x00,0x04,0x00,0x06,0x00,0x00,0x00,0x04,0x00,0x00,0x00,0x0c,0x00,0x00,0x00,0xff,0xff,0xff,0xff,0x02,0x00,0x00,0x00,0x20,0x00,0x00,0x00,0x38,0xf7,0xff,0xff,0x3c,0xf7,0xff,0xff,0x0f,0x00,0x00,0x00,0x4d,0x4c,0x49,0x52,0x20,0x43,0x6f,0x6e,0x76,0x65,0x72,0x74,0x65,0x64,0x2e,0x00,0x01,0x00,0x00,0x00,0x14,0x00,0x00,0x00,0x00,0x00,0x0e,0x00,0x18,0x00,0x14,0x00,0x10,0x00,0x0c,0x00,0x08,0x00,0x04,0x00,0x0e,0x00,0x00,0x00,0x14,0x00,0x00,0x00,0x1c,0x00,0x00,0x00,0xcc,0x01,0x00,0x00,0xd0,0x01,0x00,0x00,0xd4,0x01,0x00,0x00,0x04,0x00,0x00,0x00,0x6d,0x61,0x69,0x6e,0x00,0x00,0x00,0x00,0x07,0x00,0x00,0x00,0x84,0x01,0x00,0x00,0x24,0x01,0x00,0x00,0xec,0x00,0x00,0x00,0xa0,0x00,0x00,0x00,0x78,0x00,0x00,0x00,0x3c,0x00,0x00,0x00,0x04,0x00,0x00,0x00,0x02,0xff,0xff,0xff,0x14,0x00,0x00,0x00,0x00,0x00,0x00,0x08,0x10,0x00,0x00,0x00,0x14,0x00,0x00,0x00,0x04,0x00,0x00,0x00,0xc8,0xf7,0xff,0xff,0x01,0x00,0x00,0x00,0x11,0x00,0x00,0x00,0x03,0x00,0x00,0x00,0x10,0x00,0x00,0x00,0x04,0x00,0x00,0x00,0x08,0x00,0x00,0x00,0x36,0xff,0xff,0xff,0x14,0x00,0x00,0x00,0x00,0x00,0x00,0x08,0x14,0x00,0x00,0x00,0x18,0x00,0x00,0x00,0x04,0x00,0x00,0x00,0xa2,0xff,0xff,0xff,0x00,0x00,0x00,0x01,0x01,0x00,0x00,0x00,0x10,0x00,0x00,0x00,0x03,0x00,0x00,0x00,0x0f,0x00,0x00,0x00,0x05,0x00,0x00,0x00,0x07,0x00,0x00,0x00,0x9e,0xff,0xff,0xff,0x0c,0x00,0x00,0x00,0x10,0x00,0x00,0x00,0x02,0x00,0x00,0x00,0x01,0x00,0x00,0x00,0x0f,0x00,0x00,0x00,0x02,0x00,0x00,0x00,0x0e,0x00,0x00,0x00,0x09,0x00,0x00,0x00,0x92,0xff,0xff,0xff,0x1c,0x00,0x00,0x00,0x00,0x00,0x00,0x0b,0x1c,0x00,0x00,0x00,0x20,0x00,0x00,0x00,0x03,0x00,0x00,0x00,0x00,0x00,0x06,0x00,0x08,0x00,0x07,0x00,0x06,0x00,0x00,0x00,0x00,0x00,0x00,0x01,0x01,0x00,0x00,0x00,0x0e,0x00,0x00,0x00,0x02,0x00,0x00,0x00,0x0d,0x00,0x00,0x00,0x06,0x00,0x00,0x00,0x00,0x00,0x0a,0x00,0x10,0x00,0x0c,0x00,0x08,0x00,0x04,0x00,0x0a,0x00,0x00,0x00,0x0c,0x00,0x00,0x00,0x10,0x00,0x00,0x00,0x02,0x00,0x00,0x00,0x01,0x00,0x00,0x00,0x0d,0x00,0x00,0x00,0x02,0x00,0x00,0x00,0x0c,0x00,0x00,0x00,0x01,0x00,0x00,0x00,0x00,0x00,0x0e,0x00,0x1a,0x00,0x14,0x00,0x10,0x00,0x0c,0x00,0x0b,0x00,0x04,0x00,0x0e,0x00,0x00,0x00,0x20,0x00,0x00,0x00,0x00,0x00,0x00,0x01,0x28,0x00,0x00,0x00,0x2c,0x00,0x00,0x00,0x01,0x00,0x00,0x00,0x00,0x00,0x0a,0x00,0x10,0x00,0x0f,0x00,0x08,0x00,0x04,0x00,0x0a,0x00,0x00,0x00,0x01,0x00,0x00,0x00,0x01,0x00,0x00,0x00,0x00,0x00,0x00,0x01,0x01,0x00,0x00,0x00,0x0c,0x00,0x00,0x00,0x03,0x00,0x00,0x00,0x0b,0x00,0x00,0x00,0x02,0x00,0x00,0x00,0x03,0x00,0x00,0x00,0x00,0x00,0x0e,0x00,0x14,0x00,0x00,0x00,0x10,0x00,0x0c,0x00,0x0b,0x00,0x04,0x00,0x0e,0x00,0x00,0x00,0x10,0x00,0x00,0x00,0x00,0x00,0x00,0x34,0x0c,0x00,0x00,0x00,0x10,0x00,0x00,0x00,0x2c,0xf9,0xff,0xff,0x01,0x00,0x00,0x00,0x0b,0x00,0x00,0x00,0x02,0x00,0x00,0x00,0x00,0x00,0x00,0x00,0x0a,0x00,0x00,0x00,0x01,0x00,0x00,0x00,0x11,0x00,0x00,0x00,0x01,0x00,0x00,0x00,0x00,0x00,0x00,0x00,0x12,0x00,0x00,0x00,0x20,0x06,0x00,0x00,0xc8,0x05,0x00,0x00,0x68,0x05,0x00,0x00,0x14,0x05,0x00,0x00,0xd4,0x04,0x00,0x00,0x94,0x04,0x00,0x00,0x50,0x04,0x00,0x00,0x14,0x04,0x00,0x00,0xd8,0x03,0x00,0x00,0x98,0x03,0x00,0x00,0x38,0x03,0x00,0x00,0xb8,0x02,0x00,0x00,0x44,0x02,0x00,0x00,0xd0,0x01,0x00,0x00,0x50,0x01,0x00,0x00,0xf0,0x00,0x00,0x00,0x60,0x00,0x00,0x00,0x04,0x00,0x00,0x00,0x3e,0xfa,0xff,0xff,0x00,0x00,0x00,0x01,0x14,0x00,0x00,0x00,0x1c,0x00,0x00,0x00,0x1c,0x00,0x00,0x00,0x12,0x00,0x00,0x00,0x34,0x00,0x00,0x00,0x02,0x00,0x00,0x00,0xff,0xff,0xff,0xff,0x02,0x00,0x00,0x00,0xc8,0xf9,0xff,0xff,0x1b,0x00,0x00,0x00,0x53,0x74,0x61,0x74,0x65,0x66,0x75,0x6c,0x50,0x61,0x72,0x74,0x69,0x74,0x69,0x6f,0x6e,0x65,0x64,0x43,0x61,0x6c,0x6c,0x5f,0x31,0x3a,0x30,0x00,0x02,0x00,0x00,0x00,0x01,0x00,0x00,0x00,0x02,0x00,0x00,0x00,0x96,0xfa,0xff,0xff,0x00,0x00,0x00,0x01,0x14,0x00,0x00,0x00,0x1c,0x00,0x00,0x00,0x1c,0x00,0x00,0x00,0x11,0x00,0x00,0x00,0x68,0x00,0x00,0x00,0x02,0x00,0x00,0x00,0xff,0xff,0xff,0xff,0x20,0x00,0x00,0x00,0x20,0xfa,0xff,0xff,0x4e,0x00,0x00,0x00,0x73,0x65,0x71,0x75,0x65,0x6e,0x74,0x69,0x61,0x6c,0x5f,0x31,0x2f,0x64,0x65,0x6e,0x73,0x65,0x5f,0x31,0x2f,0x4d,0x61,0x74,0x4d,0x75,0x6c,0x3b,0x73,0x65,0x71,0x75,0x65,0x6e,0x74,0x69,0x61,0x6c,0x5f,0x31,0x2f,0x64,0x65,0x6e,0x73,0x65,0x5f,0x31,0x2f,0x52,0x65,0x6c,0x75,0x3b,0x73,0x65,0x71,0x75,0x65,0x6e,0x74,0x69,0x61,0x6c,0x5f,0x31,0x2f,0x64,0x65,0x6e,0x73,0x65,0x5f,0x31,0x2f,0x41,0x64,0x64,0x00,0x00,0x02,0x00,0x00,0x00,0x01,0x00,0x00,0x00,0x20,0x00,0x00,0x00,0x22,0xfb,0xff,0xff,0x00,0x00,0x00,0x01,0x14,0x00,0x00,0x00,0x1c,0x00,0x00,0x00,0x1c,0x00,0x00,0x00,0x10,0x00,0x00,0x00,0x38,0x00,0x00,0x00,0x02,0x00,0x00,0x00,0xff,0xff,0xff,0xff,0x40,0x00,0x00,0x00,0xac,0xfa,0xff,0xff,0x1e,0x00,0x00,0x00,0x73,0x65,0x71,0x75,0x65,0x6e,0x74,0x69,0x61,0x6c,0x5f,0x31,0x2f,0x66,0x6c,0x61,0x74,0x74,0x65,0x6e,0x5f,0x31,0x2f,0x52,0x65,0x73,0x68,0x61,0x70,0x65,0x00,0x00,0x02,0x00,0x00,0x00,0x01,0x00,0x00,0x00,0x40,0x00,0x00,0x00,0x7e,0xfb,0xff,0xff,0x00,0x00,0x00,0x01,0x14,0x00,0x00,0x00,0x20,0x00,0x00,0x00,0x20,0x00,0x00,0x00,0x0f,0x00,0x00,0x00,0x54,0x00,0x00,0x00,0x03,0x00,0x00,0x00,0xff,0xff,0xff,0xff,0x02,0x00,0x00,0x00,0x20,0x00,0x00,0x00,0x0c,0xfb,0xff,0xff,0x34,0x00,0x00,0x00,0x73,0x65,0x71,0x75,0x65,0x6e,0x74,0x69,0x61,0x6c,0x5f,0x31,0x2f,0x63,0x6f,0x6e,0x76,0x31,0x64,0x5f,0x31,0x2f,0x52,0x65,0x6c,0x75,0x3b,0x73,0x65,0x71,0x75,0x65,0x6e,0x74,0x69,0x61,0x6c,0x5f,0x31,0x2f,0x63,0x6f,0x6e,0x76,0x31,0x64,0x5f,0x31,0x2f,0x61,0x64,0x64,0x00,0x00,0x00,0x00,0x03,0x00,0x00,0x00,0x01,0x00,0x00,0x00,0x02,0x00,0x00,0x00,0x20,0x00,0x00,0x00,0xfa,0xfb,0xff,0xff,0x00,0x00,0x00,0x01,0x14,0x00,0x00,0x00,0x20,0x00,0x00,0x00,0x20,0x00,0x00,0x00,0x0e,0x00,0x00,0x00,0x48,0x00,0x00,0x00,0x03,0x00,0x00,0x00,0xff,0xff,0xff,0xff,0x02,0x00,0x00,0x00,0x20,0x00,0x00,0x00,0x88,0xfb,0xff,0xff,0x29,0x00,0x00,0x00,0x73,0x65,0x71,0x75,0x65,0x6e,0x74,0x69,0x61,0x6c,0x5f,0x31,0x2f,0x63,0x6f,0x6e,0x76,0x31,0x64,0x5f,0x31,0x2f,0x63,0x6f,0x6e,0x76,0x6f,0x6c,0x75,0x74,0x69,0x6f,0x6e,0x2f,0x53,0x71,0x75,0x65,0x65,0x7a,0x65,0x00,0x00,0x00,0x03,0x00,0x00,0x00,0x01,0x00,0x00,0x00,0x02,0x00,0x00,0x00,0x20,0x00,0x00,0x00,0x6a,0xfc,0xff,0xff,0x00,0x00,0x00,0x01,0x14,0x00,0x00,0x00,0x24,0x00,0x00,0x00,0x24,0x00,0x00,0x00,0x0d,0x00,0x00,0x00,0x44,0x00,0x00,0x00,0x04,0x00,0x00,0x00,0xff,0xff,0xff,0xff,0x01,0x00,0x00,0x00,0x02,0x00,0x00,0x00,0x20,0x00,0x00,0x00,0xfc,0xfb,0xff,0xff,0x21,0x00,0x00,0x00,0x73,0x65,0x71,0x75,0x65,0x6e,0x74,0x69,0x61,0x6c,0x5f,0x31,0x2f,0x63,0x6f,0x6e,0x76,0x31,0x64,0x5f,0x31,0x2f,0x63,0x6f,0x6e,0x76,0x6f,0x6c,0x75,0x74,0x69,0x6f,0x6e,0x00,0x00,0x00,0x04,0x00,0x00,0x00,0x01,0x00,0x00,0x00,0x01,0x00,0x00,0x00,0x02,0x00,0x00,0x00,0x20,0x00,0x00,0x00,0xda,0xfc,0xff,0xff,0x00,0x00,0x00,0x01,0x14,0x00,0x00,0x00,0x24,0x00,0x00,0x00,0x24,0x00,0x00,0x00,0x0c,0x00,0x00,0x00,0x50,0x00,0x00,0x00,0x04,0x00,0x00,0x00,0xff,0xff,0xff,0xff,0x01,0x00,0x00,0x00,0x03,0x00,0x00,0x00,0x01,0x00,0x00,0x00,0x6c,0xfc,0xff,0xff,0x2c,0x00,0x00,0x00,0x73,0x65,0x71,0x75,0x65,0x6e,0x74,0x69,0x61,0x6c,0x5f,0x31,0x2f,0x63,0x6f,0x6e,0x76,0x31,0x64,0x5f,0x31,0x2f,0x63,0x6f,0x6e,0x76,0x6f,0x6c,0x75,0x74,0x69,0x6f,0x6e,0x2f,0x45,0x78,0x70,0x61,0x6e,0x64,0x44,0x69,0x6d,0x73,0x00,0x00,0x00,0x00,0x04,0x00,0x00,0x00,0x01,0x00,0x00,0x00,0x01,0x00,0x00,0x00,0x03,0x00,0x00,0x00,0x01,0x00,0x00,0x00,0xaa,0xfd,0xff,0xff,0x00,0x00,0x00,0x01,0x14,0x00,0x00,0x00,0x14,0x00,0x00,0x00,0x0b,0x00,0x00,0x00,0x00,0x00,0x00,0x02,0x40,0x00,0x00,0x00,0xd4,0xfc,0xff,0xff,0x30,0x00,0x00,0x00,0x73,0x65,0x71,0x75,0x65,0x6e,0x74,0x69,0x61,0x6c,0x5f,0x31,0x2f,0x63,0x6f,0x6e,0x76,0x31,0x64,0x5f,0x31,0x2f,0x63,0x6f,0x6e,0x76,0x6f,0x6c,0x75,0x74,0x69,0x6f,0x6e,0x2f,0x45,0x78,0x70,0x61,0x6e,0x64,0x44,0x69,0x6d,0x73,0x2f,0x64,0x69,0x6d,0x00,0x00,0x00,0x00,0x00,0x00,0x00,0x00,0x06,0xfe,0xff,0xff,0x00,0x00,0x00,0x01,0x14,0x00,0x00,0x00,0x14,0x00,0x00,0x00,0x0a,0x00,0x00,0x00,0x00,0x00,0x00,0x02,0x1c,0x00,0x00,0x00,0x30,0xfd,0xff,0xff,0x0f,0x00,0x00,0x00,0x61,0x72,0x69,0x74,0x68,0x2e,0x63,0x6f,0x6e,0x73,0x74,0x61,0x6e,0x74,0x38,0x00,0x01,0x00,0x00,0x00,0x02,0x00,0x00,0x00,0x9e,0xfe,0xff,0xff,0x00,0x00,0x00,0x01,0x10,0x00,0x00,0x00,0x10,0x00,0x00,0x00,0x09,0x00,0x00,0x00,0x1c,0x00,0x00,0x00,0x68,0xfd,0xff,0xff,0x0f,0x00,0x00,0x00,0x61,0x72,0x69,0x74,0x68,0x2e,0x63,0x6f,0x6e,0x73,0x74,0x61,0x6e,0x74,0x37,0x00,0x01,0x00,0x00,0x00,0x02,0x00,0x00,0x00,0xd6,0xfe,0xff,0xff,0x00,0x00,0x00,0x01,0x10,0x00,0x00,0x00,0x10,0x00,0x00,0x00,0x08,0x00,0x00,0x00,0x1c,0x00,0x00,0x00,0xa0,0xfd,0xff,0xff,0x0f,0x00,0x00,0x00,0x61,0x72,0x69,0x74,0x68,0x2e,0x63,0x6f,0x6e,0x73,0x74,0x61,0x6e,0x74,0x36,0x00,0x01,0x00,0x00,0x00,0x20,0x00,0x00,0x00,0x0e,0xff,0xff,0xff,0x00,0x00,0x00,0x01,0x10,0x00,0x00,0x00,0x10,0x00,0x00,0x00,0x07,0x00,0x00,0x00,0x1c,0x00,0x00,0x00,0xd8,0xfd,0xff,0xff,0x0f,0x00,0x00,0x00,0x61,0x72,0x69,0x74,0x68,0x2e,0x63,0x6f,0x6e,0x73,0x74,0x61,0x6e,0x74,0x35,0x00,0x03,0x00,0x00,0x00,0x01,0x00,0x00,0x00,0x01,0x00,0x00,0x00,0x20,0x00,0x00,0x00,0x4e,0xff,0xff,0xff,0x00,0x00,0x00,0x01,0x10,0x00,0x00,0x00,0x10,0x00,0x00,0x00,0x06,0x00,0x00,0x00,0x1c,0x00,0x00,0x00,0x18,0xfe,0xff,0xff,0x0f,0x00,0x00,0x00,0x61,0x72,0x69,0x74,0x68,0x2e,0x63,0x6f,0x6e,0x73,0x74,0x61,0x6e,0x74,0x34,0x00,0x02,0x00,0x00,0x00,0x20,0x00,0x00,0x00,0x40,0x00,0x00,0x00,0x8a,0xff,0xff,0xff,0x00,0x00,0x00,0x01,0x10,0x00,0x00,0x00,0x10,0x00,0x00,0x00,0x05,0x00,0x00,0x00,0x1c,0x00,0x00,0x00,0x54,0xfe,0xff,0xff,0x0f,0x00,0x00,0x00,0x61,0x72,0x69,0x74,0x68,0x2e,0x63,0x6f,0x6e,0x73,0x74,0x61,0x6e,0x74,0x33,0x00,0x02,0x00,0x00,0x00,0x02,0x00,0x00,0x00,0x20,0x00,0x00,0x00,0xc6,0xff,0xff,0xff,0x00,0x00,0x00,0x01,0x10,0x00,0x00,0x00,0x10,0x00,0x00,0x00,0x04,0x00,0x00,0x00,0x1c,0x00,0x00,0x00,0x90,0xfe,0xff,0xff,0x0f,0x00,0x00,0x00,0x61,0x72,0x69,0x74,0x68,0x2e,0x63,0x6f,0x6e,0x73,0x74,0x61,0x6e,0x74,0x32,0x00,0x01,0x00,0x00,0x00,0x20,0x00,0x00,0x00,0x00,0x00,0x16,0x00,0x18,0x00,0x14,0x00,0x00,0x00,0x10,0x00,0x0c,0x00,0x08,0x00,0x00,0x00,0x00,0x00,0x00,0x00,0x07,0x00,0x16,0x00,0x00,0x00,0x00,0x00,0x00,0x01,0x10,0x00,0x00,0x00,0x10,0x00,0x00,0x00,0x03,0x00,0x00,0x00,0x1c,0x00,0x00,0x00,0xe0,0xfe,0xff,0xff,0x0f,0x00,0x00,0x00,0x61,0x72,0x69,0x74,0x68,0x2e,0x63,0x6f,0x6e,0x73,0x74,0x61,0x6e,0x74,0x31,0x00,0x04,0x00,0x00,0x00,0x20,0x00,0x00,0x00,0x01,0x00,0x00,0x00,0x02,0x00,0x00,0x00,0x01,0x00,0x00,0x00,0x00,0x00,0x16,0x00,0x1c,0x00,0x18,0x00,0x17,0x00,0x10,0x00,0x0c,0x00,0x08,0x00,0x00,0x00,0x00,0x00,0x00,0x00,0x07,0x00,0x16,0x00,0x00,0x00,0x00,0x00,0x00,0x01,0x14,0x00,0x00,0x00,0x14,0x00,0x00,0x00,0x02,0x00,0x00,0x00,0x00,0x00,0x00,0x02,0x1c,0x00,0x00,0x00,0x40,0xff,0xff,0xff,0x0e,0x00,0x00,0x00,0x61,0x72,0x69,0x74,0x68,0x2e,0x63,0x6f,0x6e,0x73,0x74,0x61,0x6e,0x74,0x00,0x00,0x01,0x00,0x00,0x00,0x03,0x00,0x00,0x00,0x00,0x00,0x16,0x00,0x1c,0x00,0x18,0x00,0x00,0x00,0x14,0x00,0x10,0x00,0x0c,0x00,0x00,0x00,0x00,0x00,0x08,0x00,0x07,0x00,0x16,0x00,0x00,0x00,0x00,0x00,0x00,0x01,0x14,0x00,0x00,0x00,0x20,0x00,0x00,0x00,0x20,0x00,0x00,0x00,0x01,0x00,0x00,0x00,0x3c,0x00,0x00,0x00,0x03,0x00,0x00,0x00,0xff,0xff,0xff,0xff,0x03,0x00,0x00,0x00,0x01,0x00,0x00,0x00,0xa4,0xff,0xff,0xff,0x1e,0x00,0x00,0x00,0x73,0x65,0x72,0x76,0x69,0x6e,0x67,0x5f,0x64,0x65,0x66,0x61,0x75,0x6c,0x74,0x5f,0x6b,0x65,0x72,0x61,0x73,0x5f,0x74,0x65,0x6e,0x73,0x6f,0x72,0x3a,0x30,0x00,0x00,0x03,0x00,0x00,0x00,0x01,0x00,0x00,0x00,0x03,0x00,0x00,0x00,0x01,0x00,0x00,0x00,0x05,0x00,0x00,0x00,0x4c,0x00,0x00,0x00,0x30,0x00,0x00,0x00,0x20,0x00,0x00,0x00,0x18,0x00,0x00,0x00,0x04,0x00,0x00,0x00,0xd4,0xff,0xff,0xff,0x09,0x00,0x00,0x00,0x00,0x00,0x00,0x09,0x04,0x00,0x04,0x00,0x04,0x00,0x00,0x00,0xe8,0xff,0xff,0xff,0x16,0x00,0x00,0x00,0x00,0x00,0x00,0x16,0xf4,0xff,0xff,0xff,0x03,0x00,0x00,0x00,0x00,0x00,0x00,0x03,0x0c,0x00,0x0c,0x00,0x0b,0x00,0x00,0x00,0x00,0x00,0x04,0x00,0x0c,0x00,0x00,0x00,0x46,0x00,0x00,0x00,0x00,0x00,0x00,0x46};
const int g_model_len = 12072;

const float scaler_i_mean[] = { 2.5, 290.53132716049384, 326.13930041152264 };
const float scaler_i_scale[] = { 1.2909944487358056, 168.19845825436093, 158.96131197097725 };
const float scaler_o_mean[] = { 2.75, 32.75 };
const float scaler_o_scale[] = { 1.7260262647673315, 5.261891294962297 };
#endif  // MODEL_H
