unsigned char pos_prediction_model_tflite[] = {
  0x1c, 0x00, 0x00, 0x00, 0x54, 0x46, 0x4c, 0x33, 0x14, 0x00, 0x20, 0x00,
  0x1c, 0x00, 0x18, 0x00, 0x14, 0x00, 0x10, 0x00, 0x0c, 0x00, 0x00, 0x00,
  0x08, 0x00, 0x04, 0x00, 0x14, 0x00, 0x00, 0x00, 0x1c, 0x00, 0x00, 0x00,
  0x94, 0x00, 0x00, 0x00, 0xec, 0x00, 0x00, 0x00, 0x04, 0x27, 0x00, 0x00,
  0x14, 0x27, 0x00, 0x00, 0x24, 0x2c, 0x00, 0x00, 0x03, 0x00, 0x00, 0x00,
  0x01, 0x00, 0x00, 0x00, 0x10, 0x00, 0x00, 0x00, 0x00, 0x00, 0x0a, 0x00,
  0x10, 0x00, 0x0c, 0x00, 0x08, 0x00, 0x04, 0x00, 0x0a, 0x00, 0x00, 0x00,
  0x0c, 0x00, 0x00, 0x00, 0x1c, 0x00, 0x00, 0x00, 0x38, 0x00, 0x00, 0x00,
  0x0f, 0x00, 0x00, 0x00, 0x73, 0x65, 0x72, 0x76, 0x69, 0x6e, 0x67, 0x5f,
  0x64, 0x65, 0x66, 0x61, 0x75, 0x6c, 0x74, 0x00, 0x01, 0x00, 0x00, 0x00,
  0x04, 0x00, 0x00, 0x00, 0x94, 0xff, 0xff, 0xff, 0x09, 0x00, 0x00, 0x00,
  0x04, 0x00, 0x00, 0x00, 0x07, 0x00, 0x00, 0x00, 0x64, 0x65, 0x6e, 0x73,
  0x65, 0x5f, 0x35, 0x00, 0x01, 0x00, 0x00, 0x00, 0x04, 0x00, 0x00, 0x00,
  0x8a, 0xd9, 0xff, 0xff, 0x04, 0x00, 0x00, 0x00, 0x0d, 0x00, 0x00, 0x00,
  0x64, 0x65, 0x6e, 0x73, 0x65, 0x5f, 0x33, 0x5f, 0x69, 0x6e, 0x70, 0x75,
  0x74, 0x00, 0x00, 0x00, 0x02, 0x00, 0x00, 0x00, 0x34, 0x00, 0x00, 0x00,
  0x04, 0x00, 0x00, 0x00, 0xdc, 0xff, 0xff, 0xff, 0x0c, 0x00, 0x00, 0x00,
  0x04, 0x00, 0x00, 0x00, 0x13, 0x00, 0x00, 0x00, 0x43, 0x4f, 0x4e, 0x56,
  0x45, 0x52, 0x53, 0x49, 0x4f, 0x4e, 0x5f, 0x4d, 0x45, 0x54, 0x41, 0x44,
  0x41, 0x54, 0x41, 0x00, 0x08, 0x00, 0x0c, 0x00, 0x08, 0x00, 0x04, 0x00,
  0x08, 0x00, 0x00, 0x00, 0x0b, 0x00, 0x00, 0x00, 0x04, 0x00, 0x00, 0x00,
  0x13, 0x00, 0x00, 0x00, 0x6d, 0x69, 0x6e, 0x5f, 0x72, 0x75, 0x6e, 0x74,
  0x69, 0x6d, 0x65, 0x5f, 0x76, 0x65, 0x72, 0x73, 0x69, 0x6f, 0x6e, 0x00,
  0x0d, 0x00, 0x00, 0x00, 0x14, 0x26, 0x00, 0x00, 0x0c, 0x26, 0x00, 0x00,
  0xf8, 0x25, 0x00, 0x00, 0x60, 0x25, 0x00, 0x00, 0x50, 0x24, 0x00, 0x00,
  0x40, 0x21, 0x00, 0x00, 0x30, 0x01, 0x00, 0x00, 0xa0, 0x00, 0x00, 0x00,
  0x98, 0x00, 0x00, 0x00, 0x90, 0x00, 0x00, 0x00, 0x88, 0x00, 0x00, 0x00,
  0x68, 0x00, 0x00, 0x00, 0x04, 0x00, 0x00, 0x00, 0x3a, 0xda, 0xff, 0xff,
  0x04, 0x00, 0x00, 0x00, 0x54, 0x00, 0x00, 0x00, 0x0c, 0x00, 0x00, 0x00,
  0x08, 0x00, 0x0e, 0x00, 0x08, 0x00, 0x04, 0x00, 0x08, 0x00, 0x00, 0x00,
  0x10, 0x00, 0x00, 0x00, 0x24, 0x00, 0x00, 0x00, 0x00, 0x00, 0x06, 0x00,
  0x08, 0x00, 0x04, 0x00, 0x06, 0x00, 0x00, 0x00, 0x04, 0x00, 0x00, 0x00,
  0x00, 0x00, 0x00, 0x00, 0x00, 0x00, 0x0a, 0x00, 0x10, 0x00, 0x0c, 0x00,
  0x08, 0x00, 0x04, 0x00, 0x0a, 0x00, 0x00, 0x00, 0x02, 0x00, 0x00, 0x00,
  0x02, 0x00, 0x00, 0x00, 0x04, 0x00, 0x00, 0x00, 0x06, 0x00, 0x00, 0x00,
  0x32, 0x2e, 0x31, 0x35, 0x2e, 0x30, 0x00, 0x00, 0x9a, 0xda, 0xff, 0xff,
  0x04, 0x00, 0x00, 0x00, 0x10, 0x00, 0x00, 0x00, 0x31, 0x2e, 0x35, 0x2e,
  0x30, 0x00, 0x00, 0x00, 0x00, 0x00, 0x00, 0x00, 0x00, 0x00, 0x00, 0x00,
  0xa8, 0xd5, 0xff, 0xff, 0xac, 0xd5, 0xff, 0xff, 0xb0, 0xd5, 0xff, 0xff,
  0xc2, 0xda, 0xff, 0xff, 0x04, 0x00, 0x00, 0x00, 0x80, 0x00, 0x00, 0x00,
  0x8a, 0x39, 0x0a, 0x3f, 0xbb, 0x08, 0x47, 0x3e, 0xfb, 0x6b, 0x7e, 0x3e,
  0x17, 0xbf, 0x8a, 0x3e, 0x82, 0x91, 0xad, 0x3e, 0x8e, 0xc2, 0xa7, 0xbe,
  0x89, 0x30, 0xb0, 0x3e, 0xf5, 0x39, 0x6b, 0x3e, 0x15, 0xab, 0xde, 0x3e,
  0x98, 0x8d, 0x99, 0xbe, 0x55, 0x89, 0xdb, 0x3e, 0xbd, 0xc0, 0x6a, 0xbe,
  0xa8, 0x24, 0x97, 0x3e, 0x3a, 0xb7, 0x3d, 0x3f, 0x7b, 0x39, 0x03, 0x3f,
  0xd6, 0x15, 0xb9, 0xbd, 0x12, 0x45, 0xed, 0xbe, 0xb1, 0x35, 0x85, 0xbe,
  0x06, 0xb7, 0x4d, 0xbe, 0x0d, 0x71, 0xa3, 0xbe, 0x9e, 0xfc, 0xd0, 0xbe,
  0x25, 0x27, 0x92, 0xbd, 0x4a, 0xf9, 0xf6, 0x3e, 0xf4, 0x02, 0x84, 0xbe,
  0xa3, 0x7d, 0xb1, 0x3e, 0xd0, 0xfb, 0x93, 0x3e, 0x90, 0x6e, 0x88, 0x3e,
  0xe3, 0xa5, 0x28, 0xbf, 0xa0, 0x58, 0x3a, 0x3e, 0xba, 0xfb, 0x43, 0xbe,
  0x64, 0xcd, 0xc8, 0xbe, 0x13, 0xab, 0xfd, 0x3e, 0x4e, 0xdb, 0xff, 0xff,
  0x04, 0x00, 0x00, 0x00, 0x00, 0x20, 0x00, 0x00, 0xc3, 0x9a, 0x25, 0x3e,
  0x31, 0x45, 0x98, 0xbe, 0x37, 0xa1, 0x85, 0x3c, 0x17, 0xff, 0x6c, 0xbc,
  0xef, 0xea, 0x01, 0x3f, 0x5d, 0x4f, 0x0e, 0x3f, 0x77, 0x63, 0x9c, 0x3e,
  0x5c, 0xcc, 0x6c, 0x3d, 0x1b, 0x12, 0x2c, 0x3d, 0x32, 0xc6, 0x01, 0x3e,
  0x60, 0x77, 0x83, 0x3e, 0xa3, 0xdc, 0xdc, 0xbe, 0xee, 0xa7, 0x67, 0xbd,
  0x6a, 0x39, 0xe9, 0x3d, 0x52, 0x7d, 0xd2, 0x3d, 0x50, 0xfc, 0x3b, 0x3e,
  0xeb, 0x13, 0x63, 0xbe, 0xca, 0x60, 0x77, 0x3d, 0x49, 0x5b, 0x30, 0xbe,
  0xf5, 0x29, 0xe8, 0xbd, 0xa0, 0x9a, 0x04, 0x3d, 0x6b, 0xbb, 0x57, 0x3e,
  0x8d, 0x99, 0x95, 0xbd, 0x13, 0xa8, 0x45, 0x3e, 0x2b, 0xee, 0x7a, 0xbe,
  0x43, 0x91, 0xb9, 0x3d, 0x1d, 0xca, 0x39, 0xbc, 0x99, 0x9b, 0xd9, 0x3e,
  0xf1, 0xeb, 0xdb, 0x3d, 0x11, 0x2d, 0xb7, 0x3e, 0xb5, 0xd0, 0x45, 0x3a,
  0xce, 0x0f, 0x13, 0x3f, 0xb1, 0x43, 0x7f, 0x3d, 0xe5, 0x47, 0x25, 0xbe,
  0x45, 0x44, 0x95, 0x3d, 0xb7, 0x89, 0xa4, 0x3c, 0x23, 0xca, 0x7c, 0x3e,
  0x08, 0x92, 0x8a, 0x3e, 0x64, 0x4b, 0xf5, 0xbe, 0x39, 0xb7, 0xfb, 0x3b,
  0x1f, 0x66, 0x86, 0xbc, 0x7c, 0xef, 0xf0, 0xbd, 0xbf, 0x50, 0x54, 0xbe,
  0x56, 0xb0, 0x7c, 0x3d, 0xe2, 0xcb, 0xf2, 0xbe, 0xe5, 0xba, 0xf4, 0xbd,
  0x2c, 0x9d, 0x74, 0xbe, 0x33, 0x54, 0x05, 0x3e, 0xe1, 0x20, 0x9f, 0xbe,
  0xfa, 0x16, 0x07, 0x3e, 0x25, 0x3a, 0x5d, 0x3d, 0xb0, 0xf7, 0x1c, 0x3e,
  0x01, 0xf6, 0x6f, 0xbe, 0x49, 0xc6, 0xde, 0xbd, 0xb9, 0x8d, 0x37, 0xbe,
  0xcf, 0x29, 0xaf, 0x3d, 0xd1, 0x87, 0x56, 0xbd, 0xe0, 0xda, 0x66, 0xbe,
  0xfe, 0x7c, 0xc3, 0xbd, 0x12, 0x89, 0x6a, 0xbb, 0x82, 0xd0, 0x23, 0x3e,
  0xba, 0x7e, 0x1a, 0xbe, 0xcb, 0x2b, 0x01, 0x3f, 0x68, 0x23, 0x3a, 0xbf,
  0xf8, 0x41, 0xb8, 0x3d, 0x0d, 0x16, 0x84, 0xbe, 0xfa, 0x79, 0x47, 0xbd,
  0xb1, 0x12, 0x5e, 0x3b, 0x98, 0x33, 0x1d, 0x3e, 0x22, 0xf1, 0x00, 0x3f,
  0x02, 0x34, 0x98, 0x3e, 0x40, 0x50, 0x35, 0x3d, 0x5b, 0xe4, 0xbb, 0xbe,
  0x45, 0x0c, 0xc9, 0x3d, 0x60, 0x52, 0x05, 0x3e, 0xe6, 0xf0, 0x91, 0x3c,
  0x6d, 0x0f, 0x7d, 0x3e, 0x30, 0xac, 0x61, 0xbd, 0x29, 0xaa, 0x96, 0x3c,
  0x17, 0x8a, 0x60, 0x3e, 0xad, 0xd2, 0x31, 0x3d, 0x70, 0xc6, 0x99, 0x3e,
  0xed, 0xc5, 0x94, 0xbd, 0x54, 0xb3, 0x14, 0x3e, 0x36, 0xa6, 0xb5, 0x3e,
  0x70, 0xbe, 0x7f, 0x3e, 0xea, 0x38, 0x60, 0x3e, 0xbd, 0x06, 0x0b, 0x3e,
  0x92, 0x25, 0x7a, 0xbc, 0x7e, 0x8f, 0xbd, 0x3a, 0x4d, 0xbf, 0x30, 0x3e,
  0x91, 0x5c, 0x27, 0x3e, 0x04, 0x18, 0xea, 0xbc, 0xc2, 0x85, 0x5f, 0xbb,
  0x46, 0x41, 0xe3, 0x3c, 0x78, 0x14, 0x9d, 0x3c, 0x1a, 0x92, 0x03, 0xbe,
  0x01, 0xe6, 0x4a, 0xbe, 0x75, 0x60, 0x92, 0x3e, 0xb1, 0x38, 0x93, 0x3d,
  0x5b, 0x14, 0xda, 0x3d, 0xa5, 0x39, 0x8d, 0x3e, 0xb4, 0x43, 0x43, 0xbe,
  0x3a, 0xbf, 0x67, 0x3e, 0xff, 0x87, 0x27, 0xbd, 0x6b, 0xca, 0x1f, 0x3e,
  0x49, 0xd2, 0x55, 0xbd, 0xce, 0x2e, 0x8e, 0x3d, 0x14, 0x7d, 0x27, 0xbd,
  0x68, 0xfd, 0x1f, 0xbc, 0x63, 0x70, 0x47, 0xbd, 0xdd, 0x91, 0x4f, 0xbe,
  0x81, 0x89, 0xfe, 0x3d, 0x76, 0x97, 0x60, 0x3e, 0xf3, 0x67, 0x74, 0xbe,
  0xcc, 0x46, 0x84, 0x3e, 0x11, 0x46, 0x3d, 0x3e, 0xf1, 0xf6, 0x16, 0x3e,
  0x73, 0xf0, 0x63, 0xbe, 0x21, 0x61, 0xa4, 0x3e, 0x9a, 0xa7, 0xd0, 0x3b,
  0xaa, 0x83, 0x17, 0xbe, 0x43, 0x06, 0xc1, 0xbd, 0x6f, 0xff, 0x8b, 0x3e,
  0xb1, 0x09, 0x02, 0xbe, 0x1e, 0x13, 0x7c, 0x3e, 0x72, 0xaf, 0x5b, 0x3d,
  0x30, 0x8f, 0x9b, 0xbe, 0x50, 0x53, 0x73, 0x3e, 0x3c, 0x3b, 0x26, 0x3e,
  0x29, 0x4f, 0x81, 0xbe, 0x9c, 0x3b, 0xd7, 0xbd, 0x5d, 0x01, 0x1c, 0x3e,
  0x72, 0x0d, 0x64, 0x3e, 0x06, 0x8b, 0xd0, 0x3d, 0xaf, 0x22, 0x4a, 0xbe,
  0x6a, 0x1a, 0x8c, 0xbe, 0x1e, 0x7d, 0xcf, 0x3e, 0xdf, 0x26, 0x71, 0x3e,
  0xb4, 0xbb, 0xb7, 0xbe, 0x5a, 0x8d, 0xa7, 0x3e, 0xf5, 0xe7, 0xb6, 0xbd,
  0x01, 0xd7, 0x67, 0xbe, 0x8e, 0x97, 0x79, 0x3e, 0x7e, 0x96, 0x83, 0xbe,
  0xe4, 0xf4, 0x94, 0x3e, 0xe4, 0x97, 0x71, 0x3e, 0x1b, 0xdb, 0x98, 0xbd,
  0x56, 0x0b, 0x3a, 0x3d, 0x69, 0xc4, 0x8d, 0x3e, 0x51, 0xb5, 0x6c, 0xbd,
  0x25, 0x59, 0x51, 0xbe, 0xb5, 0x63, 0xbd, 0x3b, 0xb6, 0xea, 0x14, 0x3e,
  0xf4, 0x53, 0x3f, 0xbe, 0x64, 0x12, 0x9d, 0x3e, 0x3c, 0xa0, 0xdb, 0xbc,
  0xb4, 0x63, 0xe4, 0x3c, 0xc1, 0xe1, 0x85, 0x3e, 0x48, 0x2a, 0x00, 0x3f,
  0x39, 0x12, 0x15, 0x3e, 0xac, 0xd6, 0xd0, 0xbc, 0x60, 0xe3, 0x97, 0x3e,
  0xa0, 0xce, 0xdd, 0x3d, 0xd6, 0xc8, 0x44, 0x3e, 0xc8, 0x85, 0x1b, 0xbe,
  0x0a, 0x4d, 0xa9, 0xbe, 0x8b, 0x18, 0x9b, 0x3e, 0x1c, 0xaa, 0x4e, 0xbd,
  0xf4, 0xcf, 0x09, 0x3e, 0x2f, 0xad, 0x85, 0xbe, 0xd1, 0x4f, 0xf8, 0x3d,
  0x47, 0xbc, 0xf0, 0xbd, 0x5c, 0xfe, 0x59, 0xbe, 0xf3, 0xa9, 0x5d, 0xbe,
  0x44, 0x88, 0x1c, 0xbd, 0x6d, 0x3c, 0xac, 0xbe, 0x94, 0x3a, 0x1c, 0x3f,
  0x11, 0xab, 0xca, 0x3c, 0x52, 0x07, 0xee, 0x3d, 0x5d, 0x37, 0x51, 0xbb,
  0x6e, 0x70, 0x91, 0x3c, 0xbf, 0x73, 0x28, 0xbd, 0x96, 0xfb, 0x49, 0x3e,
  0x1d, 0x3c, 0x45, 0x3e, 0xa6, 0xb1, 0x4f, 0x3e, 0xbe, 0xd2, 0xfc, 0xbd,
  0x55, 0x85, 0xbd, 0x3d, 0x0c, 0xd9, 0x64, 0x3e, 0x59, 0x2e, 0x4a, 0xbe,
  0x0d, 0x2d, 0xb0, 0x3e, 0x60, 0xb4, 0x70, 0xbe, 0x18, 0x87, 0x84, 0x3e,
  0xeb, 0xc8, 0xd6, 0xbd, 0xe0, 0x78, 0x25, 0xbe, 0xec, 0xf2, 0x96, 0x3d,
  0x9d, 0x25, 0x35, 0x3e, 0x1e, 0xb6, 0x71, 0x3e, 0x1b, 0x64, 0x0d, 0x3e,
  0x33, 0x4f, 0x2f, 0x3d, 0x90, 0x24, 0xb9, 0xbe, 0x04, 0x31, 0xed, 0x3e,
  0xc1, 0x62, 0x26, 0xbe, 0xfe, 0x4f, 0x96, 0xbe, 0x9b, 0xd1, 0x72, 0x3e,
  0xc2, 0xe3, 0x9f, 0x3e, 0x32, 0xb9, 0x69, 0xbe, 0x6e, 0x78, 0x4a, 0x3e,
  0x87, 0x3f, 0x68, 0xbd, 0x2a, 0x72, 0x40, 0xbe, 0x8b, 0x64, 0x62, 0x3c,
  0x99, 0xf7, 0xa2, 0x3e, 0xdf, 0xa9, 0xe8, 0x3e, 0xfd, 0xe9, 0x8e, 0x3e,
  0x27, 0x17, 0x84, 0x3e, 0x53, 0xc8, 0x3e, 0x3e, 0xc8, 0x79, 0x7b, 0xbe,
  0xef, 0xd3, 0x35, 0xbe, 0x42, 0x43, 0x1c, 0x3e, 0x75, 0x86, 0x9f, 0x3e,
  0xe1, 0xac, 0xa9, 0x3e, 0xa3, 0x7c, 0x5d, 0x3c, 0x98, 0xa9, 0xbe, 0x3c,
  0x58, 0xcf, 0xb5, 0x3e, 0x18, 0xd0, 0xc6, 0x3d, 0x55, 0x10, 0xc2, 0xbd,
  0xfd, 0xf1, 0x40, 0x3e, 0x42, 0x7b, 0x1c, 0xbe, 0x46, 0x72, 0x1d, 0x3e,
  0x56, 0xfa, 0x30, 0xbe, 0xb7, 0xe9, 0x46, 0xbe, 0xf7, 0xdf, 0x4f, 0x3e,
  0x5f, 0xdc, 0xa4, 0x3d, 0x8f, 0xaf, 0x95, 0xbd, 0x87, 0x89, 0x8c, 0xbe,
  0x44, 0x81, 0xb4, 0x3d, 0x01, 0x77, 0xc6, 0xbe, 0x0d, 0x12, 0x55, 0xbe,
  0x5e, 0xf3, 0xde, 0xbd, 0xbf, 0xd9, 0x48, 0x3b, 0x61, 0x75, 0xd9, 0xbe,
  0x47, 0xdd, 0x4e, 0x3e, 0x34, 0x34, 0x3c, 0xbe, 0xbb, 0xeb, 0x9f, 0x3e,
  0xb8, 0x41, 0x59, 0xbc, 0x20, 0x9f, 0xa5, 0x3c, 0x72, 0xb2, 0xee, 0xbe,
  0x54, 0x17, 0xb5, 0x3e, 0x43, 0xc0, 0x3b, 0x3e, 0x2f, 0x23, 0x22, 0x3e,
  0x50, 0x37, 0xf6, 0xbd, 0x5f, 0x76, 0xea, 0xbc, 0x22, 0x6b, 0xad, 0x3d,
  0xbe, 0x78, 0x46, 0xbe, 0xd6, 0xc1, 0x55, 0x3e, 0xf5, 0xaa, 0x28, 0xbf,
  0xb4, 0x34, 0x45, 0x3e, 0xdc, 0x1b, 0x10, 0xbe, 0xe0, 0xdb, 0xae, 0x3d,
  0xa8, 0x7c, 0x3f, 0xbe, 0x70, 0x4b, 0x84, 0xbd, 0xf0, 0x78, 0x5a, 0x3e,
  0xf4, 0x71, 0x3e, 0xbe, 0xf0, 0x69, 0x7c, 0xbe, 0x90, 0x43, 0x36, 0xbe,
  0xa0, 0x13, 0xd4, 0xbd, 0xbc, 0x7d, 0x65, 0xbe, 0x40, 0x32, 0xf3, 0x3c,
  0xc0, 0x2c, 0x44, 0x3d, 0x90, 0xb5, 0x66, 0x3d, 0x10, 0x84, 0x2c, 0xbd,
  0x90, 0xf8, 0xea, 0x3d, 0x1c, 0xa6, 0x5f, 0x3e, 0xe0, 0x37, 0x74, 0xbe,
  0xac, 0x71, 0x14, 0x3e, 0xcc, 0x8e, 0x13, 0xbe, 0xd0, 0xc2, 0xc0, 0x3d,
  0x9c, 0x4e, 0x42, 0xbe, 0xc0, 0x8a, 0x7a, 0xbc, 0xf8, 0x5d, 0x0e, 0xbe,
  0x1c, 0x43, 0x6e, 0xbe, 0x80, 0x16, 0xd1, 0xbb, 0x10, 0x60, 0x3d, 0xbe,
  0x80, 0xb4, 0x49, 0xbd, 0x80, 0xc0, 0x91, 0xbd, 0x60, 0x79, 0x4b, 0xbe,
  0x88, 0x3e, 0xe3, 0x3d, 0x80, 0x43, 0x66, 0xbd, 0xe4, 0x42, 0x4f, 0xbe,
  0x20, 0x1a, 0x53, 0x3d, 0xa0, 0x71, 0x87, 0xbd, 0x80, 0x4a, 0x6f, 0xbc,
  0x58, 0xe6, 0x46, 0xbe, 0x88, 0xfb, 0x3e, 0x3e, 0x1c, 0xdb, 0x40, 0x3e,
  0xc8, 0xd7, 0xf3, 0xbd, 0x08, 0x59, 0xe3, 0x3d, 0xc0, 0xfd, 0x1b, 0xbd,
  0xe8, 0x9b, 0x4a, 0x3e, 0x40, 0x85, 0xf3, 0xbd, 0x00, 0x20, 0xe4, 0xb8,
  0x60, 0x1c, 0xef, 0x3c, 0xc0, 0x25, 0xbc, 0x3d, 0x00, 0x82, 0xd1, 0xbc,
  0x70, 0x41, 0x1a, 0xbe, 0x20, 0xb7, 0x37, 0x3d, 0x00, 0x8f, 0x35, 0x3c,
  0xec, 0x6f, 0x7b, 0xbe, 0x18, 0x63, 0xe2, 0x3d, 0x28, 0x66, 0xb7, 0xbd,
  0xac, 0x66, 0x14, 0xbe, 0x80, 0x90, 0x90, 0x3b, 0x08, 0x8d, 0x0d, 0x3e,
  0x5c, 0xa7, 0x2d, 0xbe, 0x38, 0x64, 0x80, 0xbd, 0x50, 0x45, 0x2b, 0xbd,
  0x08, 0x48, 0xc7, 0xbd, 0x88, 0xda, 0x1d, 0x3e, 0x90, 0x93, 0x6d, 0xbd,
  0x84, 0xed, 0x7c, 0xbe, 0x3f, 0x65, 0x98, 0xbe, 0xc2, 0x97, 0x7e, 0xbb,
  0xee, 0xa1, 0xd5, 0x3d, 0xcd, 0x68, 0x62, 0x3c, 0xd3, 0x0f, 0x71, 0xbd,
  0x49, 0x81, 0xee, 0xbe, 0xe7, 0xb8, 0x64, 0xbe, 0x18, 0x39, 0xa7, 0x3b,
  0x36, 0xeb, 0x9d, 0x3e, 0xa5, 0x46, 0x0e, 0xbe, 0x40, 0x3c, 0x7d, 0x3d,
  0x42, 0x6a, 0x7f, 0x3e, 0xb2, 0x5f, 0x03, 0xbe, 0x73, 0x24, 0x83, 0xbd,
  0xc4, 0xb1, 0x43, 0x3e, 0x30, 0x56, 0xae, 0xbe, 0x4d, 0x14, 0x38, 0x3e,
  0x6b, 0x0e, 0x35, 0xbd, 0x3b, 0x1b, 0x42, 0x3d, 0xd7, 0x7c, 0x24, 0x3d,
  0xaa, 0xda, 0x85, 0xbe, 0x29, 0x64, 0x5c, 0xbe, 0xcd, 0xff, 0xb6, 0x3d,
  0xb5, 0x67, 0x18, 0x3e, 0x9c, 0x35, 0xbf, 0xbd, 0xa7, 0x53, 0x1f, 0x3e,
  0x13, 0x9f, 0x2e, 0x3e, 0x88, 0x34, 0x87, 0xbe, 0x81, 0xdb, 0xee, 0x3c,
  0x61, 0x75, 0x40, 0xbe, 0xf4, 0x4b, 0x0c, 0x3d, 0x5d, 0x60, 0x21, 0xbe,
  0x46, 0xf9, 0x5a, 0x3e, 0x0b, 0x2c, 0x11, 0xbe, 0xf2, 0x43, 0x16, 0xbe,
  0x4a, 0x3b, 0x17, 0x3e, 0x04, 0xd1, 0x8b, 0xbe, 0x69, 0xb7, 0x1e, 0x3e,
  0x7e, 0x1c, 0x54, 0x3e, 0x9f, 0x3f, 0xd6, 0x3d, 0x0c, 0xa9, 0x5d, 0xbe,
  0x73, 0x84, 0x0f, 0x3d, 0x80, 0x35, 0x9c, 0x3e, 0x36, 0x2a, 0x3c, 0x3e,
  0xc6, 0x79, 0xc7, 0x3d, 0xb8, 0x84, 0x54, 0xbd, 0x2c, 0x22, 0xb3, 0xbd,
  0xa9, 0xdd, 0x39, 0x3e, 0x10, 0x81, 0x6e, 0x3e, 0xcc, 0x8d, 0xa0, 0xbd,
  0xc1, 0x25, 0x06, 0x3e, 0xeb, 0x30, 0xab, 0xbb, 0x51, 0xe7, 0x82, 0x3b,
  0xbe, 0xd0, 0xb0, 0xbd, 0xfb, 0x2d, 0xc8, 0x3e, 0xfe, 0x2d, 0x33, 0xbc,
  0x69, 0x4f, 0x62, 0x3b, 0xe9, 0xda, 0xee, 0x3d, 0xda, 0x9c, 0x95, 0x3e,
  0x44, 0x26, 0x65, 0xbe, 0xb8, 0x28, 0x81, 0x3d, 0x06, 0xc4, 0xc4, 0xbd,
  0xe0, 0xa1, 0x35, 0xbe, 0x5c, 0x6c, 0x1f, 0x3e, 0x7a, 0x91, 0x91, 0xbc,
  0x78, 0xd2, 0xc4, 0x3d, 0x55, 0xcb, 0x5c, 0x3e, 0x27, 0x35, 0xaa, 0x3d,
  0xa8, 0x07, 0x29, 0x3d, 0x8b, 0x8c, 0x34, 0x3e, 0x4f, 0x4b, 0x18, 0x3d,
  0x4d, 0xcd, 0x55, 0xbd, 0xa7, 0x58, 0x25, 0xbd, 0x64, 0x19, 0xb8, 0xbd,
  0x2b, 0xca, 0x37, 0xbe, 0xeb, 0x29, 0x8f, 0xbe, 0xad, 0x04, 0x13, 0xbd,
  0x08, 0x76, 0x4a, 0x3e, 0x4c, 0x52, 0x7a, 0x3e, 0xa6, 0x33, 0x72, 0x3d,
  0xe2, 0xc5, 0x44, 0xbe, 0xae, 0x89, 0x6f, 0x3e, 0x43, 0x45, 0x13, 0x3e,
  0x1b, 0x7b, 0x4e, 0x3c, 0x89, 0xcb, 0x10, 0x3e, 0x97, 0x8f, 0x64, 0x3d,
  0xf7, 0x08, 0x9c, 0x3d, 0x1e, 0x4f, 0x26, 0x3e, 0x73, 0x9f, 0x88, 0x3d,
  0x46, 0x19, 0x4e, 0xbd, 0xff, 0xd0, 0x8b, 0x3e, 0xe9, 0xa6, 0xfe, 0x3d,
  0xc7, 0x18, 0x90, 0x3e, 0xa7, 0x4c, 0x6c, 0xbd, 0xdc, 0x7b, 0x86, 0xbd,
  0xcb, 0x2a, 0xba, 0x3e, 0x65, 0x72, 0x59, 0x3e, 0x08, 0x15, 0xbd, 0xbd,
  0x70, 0x2d, 0xd7, 0x3e, 0x73, 0x34, 0x8a, 0x3d, 0x9d, 0x28, 0x89, 0x3e,
  0xce, 0xec, 0x9e, 0xbd, 0x0e, 0x0e, 0x28, 0xbe, 0xa5, 0xd6, 0x28, 0x3e,
  0x7a, 0xe8, 0x26, 0x3e, 0x8f, 0x04, 0x52, 0x3e, 0x9f, 0xf1, 0xdc, 0x3d,
  0xb4, 0x81, 0x82, 0x3d, 0x62, 0xdb, 0x9c, 0xbe, 0x42, 0x52, 0x92, 0x3d,
  0x08, 0xa0, 0x25, 0x3e, 0x70, 0x40, 0xd3, 0xbd, 0x0c, 0x80, 0xca, 0xbd,
  0x06, 0x19, 0xd9, 0x3e, 0xcb, 0x11, 0x9f, 0xbe, 0x88, 0x4d, 0xa2, 0x3e,
  0xf8, 0x1a, 0xd5, 0xbc, 0xe5, 0xae, 0x2a, 0x3e, 0x9c, 0x47, 0xae, 0xbe,
  0x1f, 0x1f, 0x0b, 0x3e, 0xc2, 0x17, 0x13, 0x3e, 0x75, 0x58, 0x06, 0x3e,
  0x56, 0x8a, 0x90, 0xbe, 0x6a, 0x8b, 0x10, 0x3e, 0x5b, 0xf0, 0xa8, 0x3d,
  0xb3, 0xa9, 0x1e, 0xbd, 0x01, 0x5c, 0x86, 0x3e, 0x7c, 0x61, 0xf1, 0xbe,
  0x76, 0xe5, 0xa8, 0x3e, 0xfb, 0xb2, 0xb8, 0xbd, 0xdf, 0x8e, 0x9a, 0x3d,
  0x5a, 0x97, 0xff, 0xbd, 0x29, 0xe1, 0xc1, 0x3c, 0x94, 0x44, 0x14, 0x3f,
  0x2a, 0xea, 0x41, 0x3d, 0xfd, 0x76, 0x14, 0xbe, 0x03, 0xf6, 0xd0, 0xbe,
  0x01, 0xcc, 0xc0, 0x3e, 0x3b, 0x0b, 0x08, 0xbe, 0xdb, 0x10, 0x0e, 0xbf,
  0x89, 0x08, 0x06, 0x3c, 0xc7, 0x64, 0x9c, 0x3d, 0x00, 0x32, 0xfc, 0x3d,
  0xee, 0xe9, 0xd1, 0x3e, 0xff, 0x50, 0x3d, 0x3c, 0x71, 0x6c, 0x0c, 0x3e,
  0x4a, 0x02, 0xde, 0xbd, 0xeb, 0x96, 0xda, 0xbd, 0x5a, 0x73, 0xf0, 0x3e,
  0xf2, 0xd6, 0x21, 0xbe, 0xee, 0x1f, 0x92, 0xbd, 0x06, 0x88, 0xf4, 0x3d,
  0x8d, 0x4a, 0x92, 0xbe, 0x97, 0x30, 0x4b, 0xbe, 0xb7, 0x62, 0xe5, 0xbd,
  0x54, 0x4f, 0xcb, 0x3d, 0xd6, 0xda, 0x05, 0x3e, 0x1d, 0xce, 0x8e, 0xbd,
  0x9a, 0x5d, 0x0d, 0xbd, 0x89, 0xd5, 0x2b, 0x3e, 0x6e, 0xfb, 0xda, 0xbc,
  0xc8, 0x04, 0xd7, 0x3d, 0xe2, 0xab, 0xdc, 0x3e, 0xf5, 0x95, 0x14, 0x3e,
  0xa7, 0x28, 0x2c, 0x3d, 0x4d, 0xb5, 0x3e, 0xbe, 0xc0, 0xc8, 0xfe, 0xbe,
  0x66, 0x15, 0xef, 0x3d, 0xf9, 0x8e, 0x14, 0xbe, 0xb6, 0xde, 0x5c, 0xbd,
  0x34, 0x7f, 0xad, 0xbe, 0xf0, 0xfd, 0x3f, 0x3e, 0x0b, 0x50, 0x11, 0xbe,
  0x90, 0xb2, 0x94, 0x3d, 0xfe, 0xcc, 0x7a, 0x3c, 0x52, 0xda, 0x8c, 0x3e,
  0x89, 0xf3, 0x61, 0xbe, 0xa0, 0x7b, 0xa2, 0x3e, 0x90, 0x8c, 0x12, 0x3e,
  0x64, 0x0f, 0x01, 0x3d, 0x33, 0xb0, 0xaa, 0x3d, 0xdb, 0xb2, 0x48, 0xbe,
  0x08, 0x9d, 0x92, 0xbc, 0xb1, 0xeb, 0x27, 0xbc, 0x03, 0x8f, 0xcf, 0x3d,
  0x08, 0x7b, 0x14, 0x3e, 0x7b, 0x77, 0x0b, 0xbe, 0xc9, 0xe8, 0xdc, 0x3d,
  0xb2, 0xf7, 0x6c, 0x3e, 0xbf, 0x57, 0x1c, 0x3e, 0x66, 0xdb, 0xb9, 0x3e,
  0x67, 0xde, 0x0e, 0xbe, 0x0e, 0xae, 0x1d, 0x3e, 0xc8, 0xb7, 0x80, 0xbe,
  0xaf, 0x9f, 0x6d, 0x3c, 0x25, 0x12, 0xed, 0xbd, 0x4c, 0x7d, 0x8d, 0x3e,
  0x48, 0xfb, 0x24, 0x3e, 0x1a, 0x37, 0xe4, 0x3a, 0x7d, 0xb1, 0x8c, 0x3e,
  0x13, 0xb9, 0x78, 0xbe, 0x08, 0x66, 0x6e, 0x3d, 0x59, 0x2b, 0xdf, 0xbd,
  0x8c, 0x46, 0xeb, 0xbe, 0xe0, 0x09, 0x40, 0x3e, 0xb7, 0xda, 0x01, 0x3e,
  0x24, 0xc5, 0xc5, 0xbd, 0x00, 0xfc, 0x86, 0x3e, 0x46, 0x35, 0x87, 0xbd,
  0x10, 0x87, 0x31, 0x3e, 0xa5, 0xbe, 0x59, 0x3e, 0xf3, 0x61, 0x1b, 0x3e,
  0x50, 0xa8, 0x06, 0x3e, 0xf1, 0xa7, 0x34, 0x3e, 0x80, 0xf8, 0x76, 0x3b,
  0x41, 0x37, 0x79, 0xbd, 0xbc, 0x4d, 0x9b, 0xbe, 0x07, 0x9f, 0x62, 0x3e,
  0x02, 0xaf, 0x4b, 0xbe, 0xfc, 0x9c, 0x98, 0x3e, 0x8b, 0x61, 0x17, 0x3c,
  0x81, 0x0f, 0x96, 0xbd, 0x15, 0xba, 0xbb, 0x3d, 0xed, 0xca, 0xc1, 0x3e,
  0x6e, 0x37, 0x4c, 0xbc, 0xcd, 0x78, 0x3f, 0xbe, 0x6a, 0xf0, 0xa6, 0x3e,
  0x31, 0x30, 0x56, 0xbe, 0x3d, 0x82, 0x9d, 0xbd, 0x70, 0x91, 0x3d, 0x3e,
  0x64, 0x89, 0xe2, 0xbe, 0xf8, 0x96, 0x79, 0x3c, 0x5c, 0xcd, 0x0c, 0xbe,
  0x7b, 0xa7, 0xe6, 0x3d, 0x70, 0xa7, 0x72, 0xbe, 0x3b, 0x22, 0xbf, 0x3d,
  0x19, 0x26, 0xeb, 0xbe, 0x2a, 0xc1, 0xb3, 0xbb, 0x54, 0xc2, 0xfa, 0x3d,
  0xf1, 0x7e, 0x00, 0x3d, 0x2a, 0xed, 0xe4, 0xbe, 0x2a, 0x4b, 0xb7, 0x3e,
  0x20, 0x7d, 0x90, 0xbe, 0x8a, 0x28, 0x25, 0x3c, 0x24, 0xe4, 0x31, 0x3e,
  0x52, 0xd0, 0x83, 0x3e, 0x1e, 0x4a, 0x8c, 0xbe, 0x0c, 0x52, 0x24, 0x3e,
  0x83, 0x2b, 0x3b, 0x3e, 0xa7, 0xef, 0x2f, 0xbe, 0x89, 0xd7, 0x2c, 0xbe,
  0x4b, 0x0e, 0x9e, 0x3e, 0xd0, 0xb0, 0xe5, 0x3d, 0xc7, 0x25, 0x29, 0x3e,
  0xcd, 0x45, 0x88, 0x3e, 0x2a, 0x35, 0x13, 0xbf, 0xf2, 0x03, 0x72, 0xbe,
  0x2d, 0x4f, 0x06, 0x3e, 0xb1, 0x18, 0x6e, 0xbe, 0x80, 0x5d, 0xd4, 0xbc,
  0x1f, 0x3d, 0x03, 0xbe, 0xbb, 0xa6, 0x60, 0x3e, 0x3a, 0x92, 0x88, 0xbd,
  0x77, 0x96, 0x73, 0xbe, 0x38, 0x1d, 0x6f, 0x3e, 0xc4, 0xef, 0x33, 0xbe,
  0x87, 0xe1, 0x8c, 0xbd, 0x47, 0x42, 0xf0, 0x3d, 0xdb, 0x59, 0xd2, 0x3d,
  0xc4, 0x29, 0x79, 0xbe, 0x9a, 0x50, 0xe7, 0xbd, 0x82, 0x4f, 0x69, 0xbe,
  0xf0, 0x0d, 0x00, 0xbe, 0x64, 0x18, 0x66, 0x3e, 0xa3, 0x8a, 0x78, 0x3d,
  0xce, 0x22, 0x2b, 0xbe, 0xf9, 0x5e, 0x2b, 0x3e, 0x38, 0x4d, 0xbc, 0x3d,
  0x60, 0x9e, 0xcd, 0xbd, 0xe2, 0x9d, 0xe2, 0xbd, 0x00, 0xbb, 0x6f, 0x3d,
  0x2c, 0x28, 0x1b, 0x3e, 0x80, 0x11, 0xec, 0xbb, 0x20, 0xf7, 0x22, 0xbe,
  0xaf, 0x80, 0xa2, 0xbb, 0x88, 0x95, 0xa7, 0x3c, 0xf8, 0x6c, 0xcd, 0x3d,
  0x55, 0x98, 0x69, 0x3d, 0xf8, 0x36, 0xa7, 0x3d, 0x60, 0xf5, 0x00, 0xbe,
  0xe4, 0x0f, 0x06, 0x3e, 0x0e, 0x3c, 0xfc, 0x3d, 0x0e, 0xbe, 0x2e, 0x3e,
  0x00, 0x4b, 0x38, 0x3c, 0xac, 0x12, 0xa8, 0xbd, 0xad, 0x60, 0xfe, 0xbd,
  0x74, 0xb7, 0x4d, 0xbe, 0x3e, 0xce, 0xa2, 0x3c, 0xfc, 0x71, 0x11, 0xbe,
  0x53, 0x9b, 0x13, 0x3e, 0xab, 0x96, 0x7f, 0xbe, 0x28, 0x5d, 0xc1, 0x3d,
  0xd9, 0xf3, 0x28, 0xbe, 0xd3, 0xc8, 0xc0, 0xbd, 0xc0, 0x08, 0x73, 0x3d,
  0x1c, 0x51, 0xc9, 0x3c, 0x6d, 0x6e, 0x54, 0xbe, 0x9c, 0x3e, 0x15, 0x3e,
  0xeb, 0xed, 0xd4, 0xbd, 0x41, 0x9e, 0xb9, 0x3b, 0x13, 0x98, 0x9a, 0x3d,
  0xe3, 0x38, 0x7a, 0xbe, 0xc9, 0xef, 0x86, 0x3d, 0x40, 0x4a, 0x05, 0xbd,
  0x20, 0x1a, 0x01, 0xbd, 0x76, 0x96, 0x4a, 0xbe, 0xbe, 0x1f, 0x05, 0x3d,
  0x1b, 0x38, 0x2f, 0x3e, 0xca, 0x01, 0x5f, 0x3c, 0x16, 0x88, 0xb1, 0xbd,
  0x06, 0xec, 0x6d, 0x3e, 0x0f, 0xe9, 0x72, 0x3d, 0xe7, 0xbf, 0x23, 0x3e,
  0x7c, 0x03, 0x81, 0xbd, 0xac, 0xf3, 0x9d, 0x3e, 0x7d, 0xf5, 0x04, 0x3e,
  0xfa, 0xab, 0xb6, 0x3c, 0xca, 0xd6, 0x00, 0x3e, 0x3d, 0x8f, 0x8c, 0xbd,
  0x99, 0x82, 0xac, 0xbc, 0x88, 0x23, 0x07, 0x3e, 0x6f, 0x78, 0x16, 0xbe,
  0x68, 0x44, 0xcb, 0x3d, 0xd6, 0x83, 0x6d, 0x3e, 0xfe, 0x2d, 0xb4, 0x3d,
  0x09, 0x6a, 0xb7, 0x3e, 0xb3, 0xb2, 0x04, 0x3e, 0xd7, 0x9a, 0xda, 0x3d,
  0x61, 0x43, 0x1f, 0xbd, 0x9c, 0x72, 0xa2, 0x3e, 0xfd, 0xfb, 0x06, 0x3e,
  0x0d, 0xb7, 0x79, 0x3e, 0x63, 0x8f, 0x40, 0x3d, 0x25, 0x83, 0x1a, 0xbe,
  0x5f, 0xc8, 0xa4, 0xbd, 0xae, 0x43, 0x63, 0x3e, 0x4d, 0xeb, 0x2c, 0xbd,
  0x7b, 0x9c, 0xcc, 0xbc, 0x63, 0x55, 0x3c, 0x3e, 0x7d, 0x50, 0xb6, 0x3d,
  0x92, 0xe6, 0x87, 0x3d, 0xdd, 0x45, 0x1b, 0x3d, 0x6f, 0x70, 0x0c, 0x3e,
  0xcd, 0x1e, 0xb7, 0xbd, 0x47, 0x9e, 0x83, 0x3d, 0x45, 0x54, 0x71, 0xbe,
  0xc6, 0xd5, 0xa5, 0xbc, 0x39, 0x01, 0x2b, 0x3e, 0x48, 0xf2, 0xd4, 0xbe,
  0x7b, 0x83, 0x24, 0x3e, 0xc2, 0x5b, 0xf3, 0x3d, 0xca, 0xa2, 0x8b, 0xbd,
  0x98, 0x6a, 0x73, 0xbe, 0xd0, 0x3f, 0x29, 0xbe, 0x42, 0xbe, 0x15, 0xbe,
  0x69, 0x8d, 0xf9, 0xbd, 0xd7, 0xad, 0x5e, 0xbe, 0xb8, 0xac, 0x86, 0x3e,
  0x8b, 0xe5, 0xa2, 0x3d, 0x77, 0x51, 0xbe, 0x3e, 0x41, 0x0d, 0x93, 0x3d,
  0xaf, 0xf5, 0x86, 0xbd, 0x79, 0x16, 0x51, 0x3e, 0xca, 0x23, 0xaa, 0x3d,
  0x01, 0x45, 0xa0, 0xbe, 0xe1, 0x93, 0x96, 0x3e, 0x50, 0xce, 0x27, 0x3e,
  0x0c, 0x67, 0x2d, 0xbe, 0x11, 0xdd, 0xa9, 0xbe, 0x0c, 0x71, 0x60, 0x3c,
  0x38, 0x00, 0x2a, 0xbd, 0x1c, 0x92, 0x6e, 0x3e, 0xc8, 0x11, 0x05, 0x3e,
  0x9f, 0xfe, 0xa7, 0xbe, 0xcc, 0xf3, 0xc1, 0x3d, 0x8e, 0x0f, 0x06, 0xbd,
  0xa2, 0x3f, 0x1d, 0x3d, 0xc2, 0x37, 0xff, 0x3d, 0xcf, 0xa5, 0xcb, 0xbd,
  0x75, 0x78, 0x4b, 0xbe, 0x37, 0x25, 0xfb, 0xbc, 0xb8, 0x42, 0x18, 0xbd,
  0x02, 0x00, 0xb1, 0xbd, 0x11, 0x0c, 0x0d, 0x3e, 0x72, 0x0e, 0x1d, 0xbe,
  0x13, 0xd7, 0xd6, 0x3c, 0xb8, 0x6b, 0x28, 0xbe, 0xd4, 0x47, 0x2f, 0x3e,
  0xb0, 0xa8, 0xed, 0xbd, 0x76, 0xc9, 0x81, 0xbe, 0xad, 0x0d, 0x97, 0x3d,
  0x6b, 0x2f, 0x03, 0x3e, 0x1f, 0x9b, 0x15, 0x3e, 0x9d, 0x4a, 0x13, 0x3e,
  0xf5, 0xd8, 0x37, 0x3e, 0x4a, 0x84, 0x2a, 0xbe, 0xde, 0xe6, 0x50, 0xbe,
  0xa5, 0xab, 0x51, 0x3e, 0x2e, 0x7f, 0x79, 0x3c, 0x97, 0x65, 0xef, 0xbb,
  0x30, 0x3c, 0x6d, 0xbe, 0x90, 0x26, 0x00, 0x3e, 0x8f, 0x31, 0xe6, 0x3d,
  0x4f, 0xc0, 0x9c, 0xbd, 0xc7, 0x0a, 0x0f, 0xbe, 0xe3, 0x5b, 0x28, 0x3c,
  0x63, 0x5d, 0xf5, 0xbd, 0x5c, 0xe6, 0x20, 0x3e, 0x99, 0x12, 0xe2, 0xbd,
  0xae, 0x49, 0x39, 0x3d, 0xb8, 0xf9, 0x02, 0x3e, 0x00, 0xb5, 0x66, 0xbe,
  0xf5, 0x94, 0x4b, 0x3d, 0x8e, 0xce, 0x0c, 0xbd, 0x5e, 0x16, 0x11, 0xbe,
  0x3d, 0x79, 0x9e, 0xbd, 0x4d, 0x3a, 0x1e, 0x3e, 0x4d, 0xc4, 0x4b, 0xbe,
  0x24, 0xfd, 0x22, 0x3d, 0x88, 0x45, 0xec, 0x3d, 0x8b, 0x3e, 0x8d, 0x3b,
  0x52, 0xc0, 0x9d, 0x3d, 0x1f, 0xb8, 0xf1, 0x3d, 0x1d, 0xe5, 0x1b, 0x3d,
  0xa1, 0x43, 0x5e, 0xbe, 0xcb, 0xc0, 0x3b, 0x3e, 0x81, 0x5c, 0xe7, 0x3d,
  0xe2, 0x8e, 0x37, 0x3d, 0x9a, 0xd5, 0x0c, 0xbe, 0x98, 0x24, 0xb7, 0x3d,
  0xc6, 0x36, 0x6e, 0xbe, 0xdc, 0x20, 0x65, 0x3e, 0x01, 0x49, 0xc3, 0xbb,
  0xaa, 0xf5, 0x32, 0x3e, 0x3d, 0xd1, 0x79, 0x3d, 0xa2, 0x3c, 0x17, 0xbe,
  0x5d, 0xfb, 0xc2, 0xbd, 0x4b, 0x55, 0x57, 0xbe, 0x6d, 0x51, 0x7e, 0x3e,
  0xb7, 0xb7, 0x1f, 0x3e, 0x28, 0x71, 0xdb, 0x3d, 0x16, 0x2b, 0xa7, 0x3d,
  0x8a, 0x28, 0x56, 0xbd, 0xbb, 0xf9, 0xa7, 0x3e, 0x75, 0x6b, 0x0c, 0x3e,
  0xca, 0x21, 0x44, 0x3e, 0xe3, 0x22, 0x80, 0xbe, 0x47, 0x0c, 0x21, 0xbc,
  0xa0, 0xca, 0xa0, 0xbd, 0xd0, 0x94, 0x99, 0xbc, 0xff, 0xa1, 0xf3, 0xbc,
  0x89, 0xad, 0x16, 0xbd, 0x09, 0x2a, 0x0f, 0xbe, 0xfa, 0x92, 0x2f, 0x3e,
  0x36, 0xd8, 0xb7, 0xbd, 0x35, 0xd3, 0x68, 0x3d, 0x73, 0xa5, 0x8a, 0x3e,
  0xc2, 0x7c, 0xcc, 0xbd, 0x32, 0xe3, 0x1a, 0x3e, 0x7c, 0xec, 0x2f, 0xbe,
  0x9d, 0x17, 0xf8, 0x3d, 0x78, 0x8e, 0xbc, 0x3d, 0x5f, 0xe6, 0x53, 0xbe,
  0xc5, 0x76, 0x9b, 0xbd, 0xef, 0x40, 0x56, 0xbe, 0x64, 0x18, 0xb2, 0x3d,
  0xdb, 0x17, 0x2f, 0x3b, 0x23, 0xbf, 0x1d, 0x3e, 0x4d, 0x55, 0x2d, 0x3d,
  0xde, 0x03, 0xdd, 0x3e, 0x01, 0xc2, 0x37, 0x3e, 0xba, 0x5f, 0x4a, 0x3e,
  0x2f, 0xc9, 0x20, 0x3e, 0x65, 0x09, 0x2b, 0x3e, 0x34, 0xdf, 0xe8, 0xbd,
  0x16, 0x62, 0x73, 0xbd, 0x0f, 0x22, 0x1c, 0xbe, 0xb1, 0xd0, 0x98, 0x3e,
  0x8d, 0x84, 0x42, 0xbe, 0x47, 0x03, 0x4f, 0x3d, 0xa1, 0x80, 0x43, 0x3d,
  0x23, 0xc4, 0x1a, 0x3d, 0xb5, 0x3c, 0xbe, 0xbd, 0x9c, 0xac, 0x7f, 0x3e,
  0xec, 0x19, 0xe6, 0x3d, 0x92, 0xb8, 0x96, 0x3d, 0xe9, 0x5e, 0x29, 0x3d,
  0x5f, 0xe0, 0xdb, 0x3d, 0x49, 0xac, 0xd8, 0x3c, 0x7e, 0xc8, 0xb6, 0x3e,
  0xf1, 0x0b, 0xda, 0xbd, 0x04, 0xb2, 0xcb, 0x3d, 0xa1, 0x32, 0xea, 0xbe,
  0xfd, 0xa8, 0x33, 0xbd, 0x4e, 0x25, 0x2d, 0xbd, 0x26, 0xf7, 0x42, 0x3e,
  0x90, 0x36, 0x94, 0xbe, 0x19, 0xf2, 0x6b, 0x3d, 0x04, 0x65, 0x8b, 0x3e,
  0xe2, 0xa6, 0x60, 0x3e, 0x85, 0xe7, 0x0a, 0x3e, 0x2d, 0x71, 0xaf, 0xbd,
  0x80, 0x6d, 0xb2, 0x3e, 0x87, 0xe4, 0x7e, 0xbe, 0x45, 0x4a, 0xf0, 0x3c,
  0xd8, 0xf3, 0x70, 0x3e, 0xf6, 0x4f, 0x05, 0x3f, 0x48, 0x44, 0xc4, 0x3e,
  0xd0, 0xb2, 0x92, 0x3e, 0x90, 0x9c, 0x91, 0xbc, 0x8b, 0x95, 0x3e, 0xbe,
  0x2f, 0x3d, 0x15, 0x3e, 0x67, 0x14, 0x1a, 0xbe, 0xf6, 0x98, 0x1f, 0xbe,
  0x5b, 0x2b, 0xd2, 0x3d, 0x0f, 0x9b, 0x56, 0xbd, 0xbd, 0x25, 0x81, 0xbe,
  0x36, 0x28, 0xc4, 0x3d, 0x07, 0xfd, 0xe5, 0x3b, 0xc3, 0xfe, 0x46, 0xbe,
  0x15, 0x05, 0xad, 0x3e, 0xfa, 0x5b, 0x2b, 0x3e, 0xff, 0xcb, 0x5c, 0x3e,
  0x29, 0x6f, 0xec, 0x3d, 0x16, 0x90, 0x79, 0x3e, 0xe2, 0xd8, 0x9d, 0xbd,
  0x5d, 0x54, 0x98, 0xbe, 0xf1, 0x51, 0xb3, 0xbc, 0xe7, 0x91, 0xed, 0x3d,
  0xd2, 0x04, 0x9f, 0x3e, 0xac, 0x8e, 0x48, 0x3e, 0xb0, 0x5b, 0xa1, 0x3e,
  0x95, 0x0b, 0x67, 0xbd, 0x39, 0xb0, 0x05, 0x3f, 0x38, 0x37, 0x2c, 0xbe,
  0x85, 0x50, 0xd6, 0x3c, 0xd1, 0x3f, 0x1f, 0x3e, 0xe9, 0x07, 0x9c, 0xbe,
  0xea, 0x52, 0xdf, 0x3e, 0xc4, 0x51, 0x94, 0xbd, 0x2f, 0x66, 0x84, 0xbe,
  0xde, 0x27, 0x08, 0x3e, 0x2f, 0x93, 0x4a, 0xbe, 0xa1, 0xd9, 0x97, 0x3e,
  0x64, 0x41, 0x7a, 0xbe, 0x46, 0xf7, 0x2c, 0xbe, 0xec, 0xa2, 0x87, 0xbd,
  0x8a, 0xe9, 0xb2, 0xbd, 0xba, 0x1f, 0xa3, 0xbd, 0xb7, 0x5e, 0x5f, 0xbd,
  0xfc, 0x90, 0x3d, 0xbe, 0x33, 0xb5, 0xd2, 0x3e, 0x90, 0xba, 0xb8, 0x3d,
  0xbe, 0x40, 0x42, 0x3d, 0x4d, 0xed, 0x6e, 0xbd, 0x19, 0x2f, 0xe4, 0xbd,
  0x29, 0x16, 0xc6, 0xbe, 0x6b, 0xb5, 0xb6, 0x3e, 0xa5, 0xde, 0xb6, 0x3b,
  0x57, 0xfa, 0xc5, 0xbd, 0xc1, 0x28, 0x23, 0xbe, 0x93, 0xec, 0xe3, 0xbd,
  0x84, 0xb4, 0x59, 0x3e, 0xfe, 0x91, 0x18, 0xbe, 0xd5, 0xf9, 0xf2, 0x3e,
  0xe3, 0x0e, 0x0c, 0xbf, 0x1a, 0x81, 0x15, 0xbd, 0x7b, 0x3e, 0x6b, 0xbd,
  0xf6, 0xbd, 0x37, 0xbe, 0xfa, 0x8f, 0xc5, 0xbd, 0xb5, 0x02, 0x9f, 0x3e,
  0xd3, 0x91, 0x16, 0x3f, 0xfb, 0x92, 0xe5, 0x3e, 0xab, 0x11, 0xe2, 0xbb,
  0x04, 0x28, 0xb0, 0xbe, 0x6f, 0x8b, 0x12, 0x3d, 0x2d, 0x1b, 0x14, 0xbd,
  0xd1, 0xb6, 0x87, 0xbd, 0x57, 0x0f, 0x58, 0x3e, 0xef, 0xcb, 0x6b, 0x3e,
  0x85, 0xbc, 0xea, 0x3d, 0x7a, 0x96, 0x9c, 0x3c, 0x18, 0xa4, 0xe2, 0x3d,
  0x6b, 0xac, 0x6d, 0x3c, 0x0d, 0x08, 0x81, 0xbc, 0x74, 0xd4, 0x95, 0xbd,
  0x18, 0x0a, 0x02, 0x3e, 0x37, 0xcd, 0x3a, 0xbe, 0x98, 0x3a, 0xad, 0xbc,
  0x8d, 0xde, 0x0c, 0xbe, 0xfa, 0x45, 0xcf, 0xbd, 0x38, 0x4e, 0xf8, 0x39,
  0xe2, 0xae, 0xe7, 0x3d, 0x9f, 0xe8, 0x2c, 0x3e, 0xe2, 0xbc, 0x09, 0xbd,
  0xbb, 0xcc, 0xc6, 0xbd, 0xe4, 0xa5, 0x0e, 0x3e, 0xa7, 0xd8, 0xb0, 0x3e,
  0x6b, 0x4d, 0x30, 0x3e, 0xd8, 0x1a, 0x64, 0x3c, 0x33, 0xac, 0xcc, 0x3e,
  0xe6, 0xec, 0x0a, 0x3d, 0x2f, 0xf9, 0x1a, 0x3e, 0x0e, 0xfb, 0x05, 0x3e,
  0xa3, 0x03, 0xfd, 0xbd, 0xbe, 0x33, 0x89, 0x3e, 0x72, 0x22, 0x95, 0x3e,
  0x04, 0xb1, 0x37, 0xbe, 0xf1, 0xfc, 0x47, 0x3e, 0xe4, 0x2b, 0xf2, 0x3d,
  0x81, 0x34, 0x85, 0xbe, 0xd4, 0x12, 0x6e, 0x3e, 0x29, 0xfe, 0xa2, 0x3b,
  0x22, 0x3d, 0x5c, 0x3d, 0x88, 0x24, 0x14, 0x3d, 0x45, 0x5f, 0x81, 0x3d,
  0xc7, 0x21, 0x85, 0xbe, 0x95, 0xd7, 0x0b, 0xbe, 0xd3, 0x93, 0x3b, 0x3e,
  0x41, 0x74, 0xd8, 0xbc, 0xcb, 0x49, 0xb2, 0xbe, 0x60, 0xd8, 0xb0, 0x3e,
  0x6e, 0xe2, 0x94, 0x3e, 0x81, 0xd7, 0x4d, 0xbe, 0xa0, 0x32, 0xbc, 0x3c,
  0x8e, 0x6f, 0xd3, 0xbd, 0xc6, 0xcd, 0x5f, 0x3c, 0x44, 0x96, 0x64, 0xbb,
  0x7d, 0xd0, 0x17, 0x3e, 0x3b, 0xb0, 0x48, 0xbe, 0x20, 0xc0, 0x49, 0x3a,
  0x84, 0x4b, 0x15, 0x3e, 0xe4, 0x70, 0xad, 0x3d, 0x78, 0xc9, 0xaa, 0x3d,
  0x4b, 0x52, 0xaf, 0xbd, 0x0e, 0x99, 0x2e, 0xbe, 0x72, 0x27, 0x39, 0x3e,
  0x80, 0x60, 0xdb, 0x3c, 0xbe, 0x51, 0x7e, 0xbd, 0x00, 0x91, 0x05, 0xbb,
  0x8c, 0xb2, 0xd9, 0xbd, 0xd3, 0x14, 0x62, 0x3e, 0x7a, 0xea, 0x55, 0xbb,
  0xf4, 0x2c, 0x5e, 0xbe, 0xd6, 0x83, 0xc0, 0x3d, 0xe1, 0x13, 0x79, 0xbc,
  0x4c, 0x45, 0x7d, 0xbe, 0x01, 0x90, 0xd6, 0x3c, 0x6d, 0x5a, 0xcb, 0x3d,
  0x53, 0x44, 0x0f, 0xbe, 0x65, 0xe9, 0x2b, 0xbe, 0xa0, 0x52, 0xef, 0xbc,
  0xe4, 0xfb, 0x59, 0xbe, 0x33, 0xdf, 0xf8, 0xbd, 0x84, 0x36, 0x44, 0x3e,
  0x9c, 0xdd, 0x4b, 0xbe, 0x60, 0x82, 0x2b, 0xbe, 0xe0, 0x7a, 0x4d, 0x3d,
  0xdd, 0x8c, 0xbd, 0x3d, 0xd0, 0x0a, 0x6e, 0xbe, 0xf8, 0x0a, 0xae, 0x3d,
  0x4c, 0xfe, 0x69, 0x3c, 0x90, 0x78, 0x5b, 0x3d, 0xf8, 0xb6, 0x8a, 0x3d,
  0x18, 0xf8, 0x9b, 0xbd, 0xa7, 0x93, 0x0f, 0x3e, 0x8f, 0x12, 0xf4, 0x3c,
  0x40, 0xb3, 0x1b, 0xbd, 0x97, 0x30, 0x29, 0x3d, 0xb0, 0x28, 0xe4, 0x3d,
  0x00, 0xbd, 0xe7, 0x3b, 0x0e, 0xcb, 0x60, 0x3e, 0x78, 0x2f, 0xb8, 0x3d,
  0xfc, 0x5a, 0x13, 0x3d, 0x47, 0x30, 0x8f, 0xbd, 0xc0, 0xae, 0x1c, 0x3c,
  0xa5, 0xaf, 0x16, 0xbe, 0xec, 0x53, 0x6c, 0xbe, 0xdc, 0x6b, 0x2a, 0x3e,
  0xab, 0x92, 0xe3, 0x3d, 0x89, 0x6f, 0x46, 0xbe, 0xb8, 0x68, 0xe9, 0xbd,
  0x8d, 0x12, 0x2f, 0xbe, 0x00, 0xe4, 0xea, 0xbd, 0xcc, 0xec, 0x8f, 0xbd,
  0xb7, 0x73, 0x8a, 0x3d, 0x12, 0xc0, 0x09, 0x3e, 0xb0, 0xf9, 0x6c, 0xbd,
  0x43, 0x74, 0x14, 0xbd, 0x1e, 0x54, 0xbb, 0xbc, 0x67, 0xb9, 0x45, 0x3e,
  0x09, 0x40, 0x28, 0xbd, 0xbb, 0xb8, 0xba, 0xbd, 0x20, 0x5e, 0xb4, 0xbd,
  0x5f, 0x45, 0x8d, 0xbe, 0x60, 0x9d, 0x9d, 0x3e, 0x5f, 0x53, 0x9b, 0x3e,
  0xa1, 0xf3, 0x93, 0x3e, 0xeb, 0xe1, 0x89, 0xbe, 0xbd, 0x68, 0xc3, 0xbe,
  0xf9, 0x26, 0xae, 0xbd, 0x0c, 0x8e, 0xcf, 0xbd, 0x2a, 0x88, 0xde, 0x3e,
  0xb8, 0x5a, 0x9a, 0xbe, 0xd4, 0x34, 0x6d, 0xbd, 0xcd, 0x96, 0x01, 0x3f,
  0x22, 0x65, 0xa5, 0xbd, 0x60, 0x0e, 0xf5, 0x3d, 0x65, 0x60, 0xf3, 0x3d,
  0x9b, 0x5b, 0x4d, 0x3b, 0x64, 0x4a, 0xe0, 0x3d, 0x24, 0x09, 0x80, 0xbc,
  0xc4, 0xc2, 0x05, 0x3c, 0x94, 0xcd, 0xf2, 0x3b, 0x64, 0xd2, 0x5a, 0xbe,
  0x8b, 0x27, 0xd4, 0x3d, 0x36, 0x65, 0x03, 0xbe, 0x6d, 0x72, 0x74, 0x3e,
  0xa6, 0xb9, 0xa8, 0x3e, 0xc7, 0x23, 0x35, 0x3e, 0x37, 0x01, 0x10, 0xbe,
  0x17, 0x97, 0x88, 0xbe, 0x46, 0xd5, 0x49, 0xbe, 0x63, 0x0a, 0xb4, 0xbd,
  0xd4, 0xc8, 0xca, 0x3d, 0xb6, 0xa8, 0xf9, 0xbe, 0x13, 0xbb, 0xa2, 0x3e,
  0x51, 0xf3, 0xa7, 0x3e, 0x40, 0x20, 0xfb, 0xbc, 0x80, 0x14, 0x10, 0xbd,
  0x3c, 0x05, 0x9a, 0xbe, 0x01, 0x6c, 0xa0, 0xbd, 0x0d, 0x05, 0x49, 0x3e,
  0xc1, 0x10, 0x45, 0x3e, 0xf3, 0x5f, 0x07, 0xbe, 0x25, 0x38, 0x45, 0xbe,
  0xcd, 0xf2, 0x44, 0x3e, 0x24, 0xe2, 0x8b, 0x3e, 0x7c, 0x34, 0x95, 0xbd,
  0xec, 0xc1, 0x51, 0x3e, 0x83, 0x33, 0x1a, 0xbe, 0xa4, 0xba, 0x6d, 0x3e,
  0xf3, 0xb2, 0xc7, 0x3e, 0xfb, 0x3e, 0xfa, 0xbd, 0xf3, 0x04, 0x03, 0x3e,
  0x14, 0xaa, 0x58, 0x3d, 0x1d, 0x8a, 0x71, 0x3d, 0x19, 0x41, 0x1b, 0x3e,
  0x16, 0xc5, 0x13, 0x3e, 0xb0, 0xf6, 0x90, 0xbe, 0x55, 0xad, 0xa8, 0xbc,
  0xe5, 0x56, 0x11, 0x3e, 0xc2, 0xe8, 0xbd, 0x3e, 0x17, 0xd1, 0x14, 0x3e,
  0x61, 0xf1, 0x6f, 0x3c, 0x6e, 0xc5, 0x62, 0x3e, 0x2b, 0x47, 0xf9, 0xbe,
  0x9e, 0x3a, 0x98, 0x3e, 0x13, 0x37, 0x6d, 0xbe, 0xcd, 0xb1, 0x5e, 0xbe,
  0xa3, 0xd2, 0xf0, 0x3d, 0x7f, 0xaa, 0x9d, 0xbd, 0x74, 0xf6, 0xb3, 0x3d,
  0xd1, 0x6a, 0xc0, 0xbd, 0xe0, 0x1c, 0x8d, 0x3d, 0x79, 0xbc, 0xd9, 0x3c,
  0x98, 0x1d, 0x2c, 0x3d, 0x60, 0x76, 0xcc, 0xbd, 0xf2, 0x6a, 0x85, 0xbe,
  0x77, 0x39, 0xe2, 0xbc, 0xd7, 0x18, 0x1a, 0x3e, 0x9d, 0xe2, 0x45, 0xbe,
  0xa4, 0xe0, 0xa3, 0x3d, 0xab, 0x24, 0x45, 0xbd, 0xce, 0xbf, 0x0c, 0xbe,
  0xda, 0x02, 0x9c, 0x3d, 0xce, 0xd7, 0x40, 0x3e, 0xe3, 0x3d, 0x45, 0xbe,
  0xa5, 0xd9, 0xfd, 0x3d, 0x00, 0x69, 0xa2, 0xbc, 0x90, 0xb7, 0x23, 0x3d,
  0x2d, 0x84, 0x7e, 0xbe, 0x29, 0xae, 0x36, 0x3e, 0xa7, 0xe1, 0x77, 0xbd,
  0xe0, 0x41, 0x35, 0xbd, 0xe3, 0x35, 0x00, 0xbe, 0x8b, 0xd3, 0x51, 0x3e,
  0x3d, 0x94, 0xde, 0x3d, 0xc1, 0x05, 0xcf, 0xbc, 0x57, 0x2b, 0x02, 0xbe,
  0xf8, 0x04, 0xad, 0xbd, 0x68, 0xc0, 0xcb, 0xbd, 0x25, 0x05, 0x55, 0x3e,
  0xbc, 0xe8, 0x3a, 0x3e, 0x7d, 0x11, 0x11, 0x3d, 0xed, 0xf7, 0xb2, 0x3d,
  0xe6, 0xcf, 0x97, 0x3d, 0x3e, 0x81, 0x5c, 0x3d, 0xaf, 0xd9, 0x10, 0x3e,
  0x96, 0x9b, 0x4f, 0x3e, 0xf6, 0xa6, 0x03, 0xbe, 0x0f, 0x87, 0x1a, 0x3e,
  0xc9, 0x0c, 0xcd, 0x3d, 0x1c, 0xf5, 0x03, 0xbe, 0x61, 0xc8, 0x49, 0x3e,
  0x73, 0x3d, 0xaa, 0xbd, 0xb5, 0x10, 0x06, 0xbe, 0x80, 0x41, 0x0d, 0xbe,
  0xf5, 0xe5, 0xf5, 0xbc, 0xb8, 0x8a, 0x88, 0xbd, 0xf1, 0xa7, 0x1a, 0xbe,
  0x13, 0xf0, 0x88, 0xbe, 0x97, 0x90, 0x6a, 0x3e, 0x44, 0xc5, 0x5e, 0xbd,
  0x86, 0xfd, 0xd0, 0xbd, 0xe0, 0x52, 0x3a, 0x3e, 0xce, 0xe6, 0x8a, 0x3d,
  0x5d, 0x8a, 0x83, 0xbd, 0x74, 0x4c, 0x23, 0x3e, 0xe9, 0xd4, 0x92, 0x3d,
  0xa5, 0xc4, 0xed, 0xbd, 0x2b, 0x9a, 0x5b, 0x3e, 0x87, 0x74, 0x5b, 0xbe,
  0x4f, 0x68, 0xcf, 0xbd, 0xaf, 0x8f, 0xd2, 0xbd, 0xd8, 0x02, 0x4b, 0xbe,
  0x56, 0xbe, 0x97, 0xbd, 0x0e, 0x4a, 0x5b, 0x3e, 0x4b, 0x11, 0x03, 0xbe,
  0x76, 0xb3, 0xde, 0xbd, 0x2a, 0x87, 0xd3, 0xbd, 0x7b, 0x98, 0x83, 0xbd,
  0x1d, 0xd7, 0x06, 0x3e, 0x29, 0xdf, 0xd7, 0x3d, 0xba, 0x44, 0x14, 0x3b,
  0xc5, 0x09, 0x03, 0x3e, 0xd8, 0x01, 0x9b, 0xbd, 0xe1, 0xcf, 0xf1, 0x3d,
  0x98, 0x23, 0x78, 0x3e, 0xcd, 0x9d, 0x9f, 0x3d, 0x8d, 0xde, 0x4c, 0x3d,
  0xfc, 0xa3, 0x87, 0xbd, 0xad, 0x33, 0x80, 0xbe, 0xa4, 0x6d, 0x5a, 0xbe,
  0xf0, 0xc9, 0xa1, 0xbd, 0x51, 0xc8, 0x2e, 0x3c, 0x27, 0x68, 0x9e, 0x3d,
  0xd0, 0xde, 0x30, 0xbe, 0xe0, 0xfd, 0x8e, 0x3d, 0x23, 0x5c, 0xc4, 0xbd,
  0x02, 0xb3, 0x80, 0x3a, 0x16, 0x76, 0x07, 0x3e, 0x42, 0x67, 0x55, 0x3d,
  0xeb, 0x12, 0x6c, 0xbd, 0xd8, 0xbf, 0xf9, 0xbd, 0x70, 0xfe, 0x34, 0xbe,
  0x01, 0x86, 0xf9, 0x3c, 0xfa, 0x68, 0x06, 0xbe, 0xcc, 0x6b, 0x55, 0x3d,
  0xb4, 0x73, 0x41, 0x3e, 0x19, 0x4a, 0x22, 0x3e, 0xa5, 0x25, 0x00, 0x3d,
  0x50, 0x5e, 0x4d, 0xbe, 0x37, 0xdc, 0xd1, 0xbd, 0x20, 0xee, 0xe1, 0xbc,
  0x71, 0x5c, 0x70, 0xbe, 0x09, 0x56, 0xd3, 0x3c, 0x94, 0x62, 0x01, 0x3e,
  0x19, 0x49, 0x01, 0x3e, 0x34, 0xbc, 0x4b, 0xbe, 0x00, 0xe7, 0x0d, 0x3e,
  0x61, 0x2c, 0x1e, 0x3e, 0x4f, 0xb3, 0x80, 0xbe, 0x94, 0x4c, 0x3b, 0x3e,
  0xc7, 0x37, 0x56, 0x3e, 0x23, 0x28, 0xfe, 0x3d, 0x35, 0xce, 0x00, 0xbe,
  0x08, 0x02, 0x62, 0xbe, 0x16, 0xec, 0x40, 0x3e, 0x54, 0x32, 0xa4, 0x3d,
  0x86, 0x34, 0x84, 0xbe, 0xd6, 0x08, 0x64, 0x3e, 0xcb, 0xbe, 0x16, 0x3e,
  0xb8, 0x2a, 0x35, 0xbc, 0x05, 0xad, 0x66, 0xbe, 0xf6, 0xc2, 0x77, 0x3d,
  0xe7, 0x91, 0xcd, 0xbd, 0x19, 0x42, 0x9a, 0x3d, 0xe7, 0x15, 0x57, 0xbe,
  0xcd, 0x0e, 0x01, 0x3e, 0xa6, 0xc0, 0x00, 0x3d, 0x52, 0x0c, 0x51, 0xbe,
  0x71, 0xf0, 0xa0, 0x3d, 0x43, 0x6e, 0xae, 0xbd, 0x33, 0x17, 0x7d, 0x3d,
  0x5c, 0x29, 0x8d, 0xbe, 0x54, 0x04, 0xb2, 0x3d, 0x67, 0x27, 0x37, 0x3e,
  0x11, 0x47, 0xac, 0xbe, 0xe6, 0xd4, 0xf4, 0x3d, 0x85, 0x3c, 0x4f, 0x3e,
  0x81, 0xfd, 0x1c, 0xbe, 0xeb, 0x3b, 0xd9, 0x3b, 0x48, 0xfd, 0x90, 0x3d,
  0x0f, 0xfc, 0xe4, 0x3c, 0x6b, 0xe0, 0xd5, 0xbd, 0x85, 0xa4, 0xd9, 0xbc,
  0xa0, 0xfe, 0x12, 0x3e, 0xb9, 0xb9, 0x34, 0xbd, 0xbe, 0x35, 0xd5, 0xbb,
  0x03, 0xff, 0x74, 0x3d, 0x55, 0x9c, 0x23, 0xbd, 0x4e, 0x46, 0x52, 0x3e,
  0x95, 0x6e, 0x2b, 0xbe, 0xd6, 0xb0, 0x08, 0xbe, 0xcf, 0x5b, 0x3c, 0xbe,
  0x37, 0x9e, 0x72, 0x3e, 0x4b, 0x4c, 0xd9, 0x3d, 0xfe, 0xc4, 0xde, 0x3c,
  0x65, 0xea, 0x3a, 0x3e, 0x9d, 0x51, 0x95, 0xbe, 0xfc, 0xb4, 0x89, 0x3e,
  0xaa, 0xfb, 0x6b, 0xbe, 0x7b, 0xcf, 0x0e, 0x3e, 0xfb, 0x38, 0x0e, 0x3e,
  0xc3, 0x21, 0x13, 0xbe, 0x63, 0xd0, 0xbf, 0xbd, 0x80, 0x9f, 0x06, 0x3e,
  0x9f, 0xf5, 0x96, 0x3e, 0x15, 0xb6, 0xac, 0x3b, 0x13, 0x92, 0x8d, 0x3e,
  0x04, 0x37, 0x62, 0x3e, 0xe1, 0xe5, 0xfe, 0xbc, 0x4c, 0xbc, 0x49, 0x3e,
  0xe7, 0xdc, 0x75, 0xbd, 0x76, 0x80, 0xcf, 0xbd, 0x54, 0xab, 0xd9, 0x3d,
  0xa1, 0xa0, 0x23, 0xbe, 0x9b, 0xb1, 0xf8, 0xbc, 0x2e, 0x00, 0xa9, 0x3b,
  0x0e, 0x78, 0x48, 0x3e, 0xd6, 0x67, 0x9e, 0xbd, 0x6c, 0xb5, 0xea, 0x3d,
  0x36, 0x80, 0x34, 0x3e, 0x26, 0x0f, 0x32, 0x3e, 0x0a, 0x99, 0x89, 0xbe,
  0x2f, 0x6c, 0x36, 0x3d, 0xf9, 0x3a, 0x67, 0xbd, 0xa3, 0xe6, 0x59, 0xbd,
  0xc4, 0xb1, 0xca, 0x3e, 0x6c, 0x12, 0x96, 0x3c, 0xc9, 0xfc, 0x1d, 0x3e,
  0x63, 0x4f, 0xde, 0x3d, 0xa1, 0x1d, 0x2c, 0x3e, 0x26, 0x0d, 0x12, 0xbe,
  0x07, 0x0b, 0x48, 0xbd, 0xe0, 0x21, 0xf2, 0xbd, 0x90, 0xed, 0x12, 0xbe,
  0x73, 0xed, 0x6e, 0xbd, 0x9e, 0x9d, 0xb5, 0xbe, 0xbc, 0xc8, 0x98, 0xbd,
  0x7a, 0xd9, 0x8b, 0x3e, 0xc1, 0x77, 0xab, 0xbe, 0x8d, 0x3a, 0xe5, 0xbc,
  0xcd, 0x33, 0x75, 0x3e, 0x96, 0xb9, 0x0b, 0xbe, 0x54, 0xa8, 0x91, 0x3d,
  0x6e, 0x24, 0x09, 0x3e, 0x55, 0xa0, 0xf7, 0xbd, 0x5a, 0xae, 0xcb, 0x3d,
  0x82, 0xfc, 0x84, 0xbe, 0x0c, 0x9d, 0x31, 0x3e, 0x31, 0xe8, 0x20, 0xbe,
  0x8f, 0xa5, 0x23, 0x3d, 0xab, 0xc7, 0x89, 0x3d, 0x43, 0x77, 0xb7, 0x3d,
  0x09, 0x23, 0x5d, 0xbe, 0x60, 0x55, 0x13, 0x3e, 0x70, 0x66, 0x20, 0xbe,
  0x7b, 0x5d, 0xa0, 0x3d, 0x02, 0xa1, 0x45, 0x3e, 0x59, 0x98, 0x76, 0xbe,
  0x08, 0x19, 0x6f, 0x3d, 0x2a, 0x90, 0x7a, 0xbd, 0x58, 0x8c, 0xd5, 0xbd,
  0x43, 0x47, 0x5a, 0x3e, 0x7f, 0x4b, 0x73, 0xbc, 0xfa, 0x55, 0x91, 0x3d,
  0x6f, 0xd7, 0xd0, 0x3e, 0x0c, 0x51, 0x6f, 0xbe, 0xb4, 0x4b, 0xff, 0x3d,
  0xc9, 0x46, 0x07, 0x3d, 0x75, 0x73, 0xe5, 0x3d, 0x72, 0xfb, 0x71, 0xbe,
  0x7f, 0x7f, 0xab, 0x3e, 0xc6, 0xc0, 0x0f, 0x3d, 0x98, 0x81, 0xce, 0x3d,
  0xae, 0x6d, 0x28, 0x3e, 0x20, 0xd9, 0xea, 0x3d, 0xf3, 0xaa, 0x04, 0xbe,
  0x90, 0xfe, 0x32, 0x3c, 0x5b, 0xe9, 0xa6, 0x3d, 0xe7, 0x40, 0xd8, 0x3d,
  0xc9, 0x7e, 0x34, 0x3e, 0xda, 0x39, 0x7f, 0x3e, 0x15, 0x66, 0x54, 0xbd,
  0x28, 0x04, 0x04, 0x3e, 0x85, 0x97, 0x96, 0x3d, 0xda, 0x22, 0xcb, 0x3d,
  0x50, 0x2d, 0x2d, 0x3c, 0xde, 0x78, 0x1a, 0xbe, 0x08, 0x45, 0xcd, 0x3d,
  0xcd, 0x27, 0x74, 0xbe, 0x19, 0x8d, 0xbe, 0x3e, 0x98, 0xb5, 0xfb, 0xbd,
  0x4c, 0xad, 0x2c, 0x3e, 0xd1, 0x91, 0x74, 0x3e, 0xb8, 0x7e, 0xbc, 0xbd,
  0xc0, 0x64, 0xac, 0xbc, 0xc0, 0x14, 0x1d, 0x3c, 0x08, 0xa1, 0x4d, 0xbe,
  0x60, 0x85, 0x7e, 0xbd, 0x6f, 0x1b, 0x2a, 0x3e, 0x9e, 0xe5, 0xaf, 0xbd,
  0x70, 0x81, 0x2a, 0x3e, 0x4c, 0x51, 0x36, 0x3c, 0xeb, 0xa1, 0x6c, 0xbe,
  0xa0, 0xf2, 0xf5, 0x3d, 0x07, 0x7a, 0x81, 0x3d, 0x86, 0x6c, 0x44, 0xbe,
  0x16, 0xe5, 0xaf, 0xbd, 0x33, 0x6a, 0xd1, 0xbd, 0x00, 0x45, 0xa9, 0x3d,
  0x07, 0x89, 0xb7, 0x3d, 0x58, 0x56, 0xdf, 0xbd, 0xe9, 0xac, 0x04, 0x3e,
  0xd2, 0xa0, 0xce, 0x3d, 0x80, 0x83, 0x84, 0x3d, 0x98, 0xd4, 0x2a, 0x3e,
  0xb4, 0x10, 0x73, 0xbe, 0xc3, 0x3c, 0xb6, 0x3d, 0x57, 0xcb, 0x5b, 0xbe,
  0x50, 0x19, 0x77, 0xbd, 0x84, 0x61, 0x49, 0xbe, 0xc0, 0xa7, 0x20, 0x3c,
  0x36, 0x5a, 0x60, 0x3d, 0xe6, 0x06, 0x98, 0xbd, 0xb9, 0x0d, 0x08, 0x3e,
  0x4a, 0x44, 0x95, 0x3c, 0x20, 0xd0, 0x0e, 0xbe, 0xb0, 0xe7, 0x0d, 0xbe,
  0xde, 0x40, 0xd0, 0x3d, 0x9d, 0x77, 0x24, 0xbe, 0x89, 0xcb, 0x57, 0xbe,
  0x82, 0x1c, 0xb1, 0xbd, 0xfc, 0x1c, 0x3f, 0x3e, 0x1b, 0xfc, 0x16, 0xbe,
  0x50, 0x75, 0x0d, 0xbe, 0x23, 0x34, 0xdc, 0xbd, 0xd1, 0x51, 0x0c, 0xbe,
  0xa0, 0x82, 0x98, 0xbc, 0x4c, 0x1e, 0x72, 0xbe, 0x27, 0x11, 0x20, 0xbe,
  0xd2, 0xdd, 0xd2, 0xbd, 0xac, 0xc6, 0x5e, 0xbe, 0x2d, 0x66, 0x28, 0x3e,
  0xd4, 0x64, 0x7e, 0xbe, 0x80, 0xa2, 0x43, 0x3e, 0x41, 0x3d, 0x03, 0xbc,
  0x38, 0x48, 0xa4, 0xbd, 0xfe, 0xc4, 0x07, 0x3e, 0xdf, 0x07, 0x0f, 0x3e,
  0x27, 0xbd, 0x55, 0xbe, 0xb0, 0x8a, 0x2f, 0x3e, 0x0c, 0x6e, 0x0a, 0x3e,
  0xa0, 0xa6, 0xf1, 0x3d, 0xcf, 0xd3, 0x79, 0xbe, 0x80, 0xd9, 0x92, 0xbd,
  0x69, 0x69, 0x12, 0xbd, 0xe0, 0x33, 0x12, 0xbd, 0x7b, 0x01, 0x36, 0x3d,
  0x5e, 0x2b, 0x5b, 0xbe, 0x88, 0x39, 0xb7, 0x3e, 0x69, 0x12, 0x42, 0x3e,
  0x4e, 0xb2, 0x2c, 0x3e, 0xcc, 0x5b, 0x12, 0xbe, 0x42, 0xfe, 0xc8, 0x3d,
  0xf1, 0xa4, 0xb1, 0x3e, 0xc1, 0xdd, 0xe8, 0x3d, 0x27, 0x9e, 0x95, 0xb9,
  0xf5, 0xe3, 0xfa, 0x3c, 0x8f, 0x87, 0x7d, 0x3c, 0xe2, 0x9f, 0x92, 0x3e,
  0xdf, 0xc1, 0xf4, 0x3e, 0xe8, 0xd8, 0x57, 0x3e, 0x94, 0x07, 0x9c, 0x3d,
  0x09, 0x2c, 0x14, 0xbe, 0x20, 0x80, 0x72, 0x3d, 0x3d, 0x43, 0xaf, 0x3e,
  0x85, 0xfa, 0xb7, 0x3d, 0x37, 0xa8, 0xfa, 0x3d, 0x78, 0x51, 0x30, 0x3e,
  0x8e, 0xfa, 0x80, 0xbe, 0x2f, 0x5f, 0x0b, 0xbe, 0xd0, 0xf0, 0xa8, 0x3d,
  0x22, 0x96, 0xb1, 0x3e, 0x75, 0x0c, 0xaa, 0x3e, 0x66, 0xc0, 0xfc, 0x3d,
  0x12, 0x47, 0x64, 0x3c, 0x40, 0x6f, 0x8f, 0x3e, 0xc5, 0x74, 0xab, 0x3d,
  0x85, 0x2c, 0x81, 0x3d, 0x53, 0xf1, 0xc3, 0x3e, 0xc3, 0x4e, 0xf7, 0x3c,
  0x69, 0x71, 0x9a, 0x3e, 0xc3, 0x14, 0x12, 0x3e, 0xc1, 0x0f, 0x87, 0xbe,
  0x74, 0x79, 0x3a, 0x3e, 0xce, 0x52, 0x07, 0xbc, 0xcc, 0xec, 0x90, 0xbd,
  0x75, 0xbb, 0xd7, 0xbd, 0x57, 0x8c, 0x3a, 0xbe, 0x77, 0xd8, 0x9d, 0xbd,
  0x06, 0x39, 0x58, 0x3e, 0x05, 0x0f, 0x6d, 0xbe, 0xbe, 0xc0, 0x53, 0x3e,
  0x96, 0x1c, 0x8d, 0xbe, 0x44, 0x90, 0xd9, 0x3e, 0x89, 0xab, 0xa0, 0xbe,
  0x8f, 0xff, 0xbb, 0xbd, 0x5a, 0x5a, 0xca, 0xbd, 0x37, 0x54, 0x32, 0x3e,
  0xf6, 0xaa, 0xcd, 0xbe, 0x32, 0xfc, 0x51, 0x3e, 0xf4, 0xe0, 0x4e, 0x3e,
  0x73, 0x11, 0x75, 0x3e, 0x2e, 0x51, 0x96, 0xbe, 0xeb, 0x88, 0x0e, 0xbe,
  0x0b, 0x91, 0xb8, 0x3d, 0xe4, 0xa2, 0xdd, 0xbd, 0xa0, 0xe1, 0xc2, 0x3e,
  0x9a, 0x6b, 0x89, 0xbe, 0x11, 0xc5, 0xc2, 0xbd, 0xc6, 0x0b, 0x79, 0xbd,
  0x19, 0x04, 0x0a, 0xbe, 0x4e, 0x09, 0x41, 0xbe, 0x53, 0x15, 0xa4, 0xbe,
  0x34, 0x21, 0xb3, 0xbd, 0x52, 0x5e, 0xc6, 0x3b, 0xa1, 0x15, 0xd5, 0x3d,
  0xee, 0xf1, 0xf5, 0x3d, 0xcc, 0xdd, 0xd9, 0xbe, 0xc9, 0x33, 0x31, 0xbd,
  0x18, 0xcf, 0x91, 0x3e, 0x98, 0x46, 0x58, 0xbe, 0x85, 0xa8, 0x04, 0xbe,
  0x52, 0x39, 0x43, 0x3e, 0x92, 0xee, 0xec, 0xbe, 0xd2, 0xaf, 0x12, 0x3e,
  0xd1, 0xfb, 0x23, 0xbd, 0x31, 0xe0, 0x11, 0x3e, 0x57, 0x0a, 0x4e, 0x3e,
  0xf3, 0xe3, 0x68, 0xbe, 0xfc, 0xa1, 0x17, 0xbd, 0x4b, 0x60, 0xb8, 0x3d,
  0x82, 0x52, 0xc0, 0xbc, 0x35, 0x0e, 0x53, 0x3d, 0x61, 0x76, 0x89, 0xbc,
  0x07, 0x3e, 0x04, 0x3d, 0x0d, 0x2b, 0xdb, 0xbc, 0x1a, 0xde, 0x22, 0x3e,
  0x5d, 0x1e, 0x52, 0xbe, 0xbd, 0x8e, 0xad, 0xbd, 0xdc, 0xa4, 0xfa, 0xbd,
  0xf6, 0xf5, 0x9b, 0x3e, 0x05, 0xfa, 0xe5, 0x3d, 0xd2, 0xfc, 0x22, 0xbe,
  0x26, 0x4c, 0x1f, 0x3e, 0xf8, 0xbd, 0x30, 0xbe, 0x78, 0x67, 0x1f, 0x3e,
  0xfb, 0xb2, 0xda, 0x3e, 0x4c, 0xe6, 0x81, 0xba, 0x38, 0xf9, 0xf3, 0x3c,
  0x2b, 0xe5, 0x89, 0xbe, 0xb7, 0x42, 0xaa, 0x3d, 0x73, 0xeb, 0x48, 0x3e,
  0x4f, 0x4a, 0x13, 0x3e, 0x80, 0x5f, 0x0f, 0x3e, 0x68, 0x70, 0x2e, 0x3e,
  0x84, 0x99, 0x42, 0xbe, 0x5d, 0x4c, 0x93, 0x3e, 0xe2, 0xac, 0xc9, 0xbe,
  0x20, 0x36, 0xdd, 0xbc, 0xf3, 0xcf, 0x73, 0x3d, 0xad, 0xf4, 0x5b, 0x3e,
  0x99, 0x0e, 0xb0, 0x3d, 0x0d, 0xad, 0xeb, 0x3e, 0xe6, 0x1a, 0xc4, 0x3d,
  0xc3, 0x65, 0xd9, 0xbd, 0x9f, 0x97, 0x9d, 0xbd, 0x73, 0x58, 0x69, 0x3d,
  0x1c, 0x2e, 0xb9, 0xbc, 0x90, 0xeb, 0x1f, 0x3e, 0xae, 0xe9, 0x7b, 0x3e,
  0x9c, 0x10, 0xd5, 0xbe, 0x95, 0x95, 0x3b, 0x3e, 0x45, 0xaf, 0x38, 0x3e,
  0x2b, 0x5b, 0x8a, 0x3d, 0xe5, 0x07, 0x27, 0x3e, 0x39, 0xfe, 0xbf, 0x3d,
  0x21, 0xbf, 0x77, 0x3d, 0x44, 0x72, 0x02, 0x3f, 0xfc, 0x5d, 0x83, 0x3e,
  0x03, 0xf6, 0x8a, 0x3e, 0xda, 0x63, 0x35, 0xbe, 0x40, 0xe7, 0x90, 0x3e,
  0x49, 0x09, 0x3b, 0xbc, 0x44, 0x74, 0x8a, 0x3d, 0x94, 0x69, 0x42, 0x3e,
  0xd9, 0x59, 0xfe, 0xbd, 0xd7, 0x05, 0x25, 0x3e, 0x9f, 0x1c, 0xf8, 0x3d,
  0x85, 0xec, 0x5a, 0x3e, 0xfe, 0x11, 0x26, 0x3e, 0xa2, 0xe5, 0xec, 0xbd,
  0x64, 0x68, 0xb5, 0xbd, 0xc7, 0xf0, 0xf3, 0x3c, 0x22, 0xfa, 0x98, 0xbd,
  0x0f, 0x8f, 0x04, 0xbb, 0x46, 0xf3, 0xdf, 0xbd, 0x5c, 0x86, 0xb6, 0x3d,
  0xe7, 0xff, 0x02, 0x3d, 0x15, 0xd0, 0x55, 0xbd, 0x45, 0xd8, 0x6b, 0x3e,
  0xd2, 0x14, 0x35, 0x3c, 0x89, 0x99, 0x8f, 0xbd, 0x4c, 0x36, 0x20, 0x3d,
  0x45, 0x3f, 0x50, 0x3d, 0xf8, 0x9b, 0xf3, 0x3d, 0xd8, 0x80, 0x87, 0xbd,
  0x72, 0x78, 0xe1, 0x3d, 0xba, 0x54, 0x72, 0x3d, 0x09, 0x58, 0x83, 0x3d,
  0x71, 0x60, 0xed, 0x3d, 0xc3, 0xbf, 0x5a, 0xbd, 0x45, 0xb8, 0x83, 0x3e,
  0x0d, 0x92, 0x31, 0x3e, 0x04, 0x79, 0x20, 0xbd, 0x02, 0xdf, 0x4e, 0x3e,
  0x3c, 0xb0, 0x16, 0xbd, 0xf9, 0x43, 0x39, 0x3d, 0xca, 0x2a, 0x7b, 0xbd,
  0xa0, 0x05, 0xa9, 0x3c, 0x13, 0xd2, 0x1f, 0x3e, 0x51, 0x30, 0xb7, 0xbe,
  0xec, 0x3b, 0xcc, 0x3e, 0x67, 0x72, 0x98, 0xbd, 0x5f, 0xe0, 0x0a, 0x3e,
  0x67, 0xfc, 0xf0, 0x3d, 0xf3, 0x08, 0x18, 0x3e, 0x6f, 0x4f, 0x6d, 0xbd,
  0xb3, 0x89, 0xe8, 0x3d, 0xcd, 0x9d, 0x55, 0x3d, 0xe3, 0x48, 0xc3, 0xbd,
  0xf8, 0x4d, 0x8e, 0xbe, 0xc4, 0x44, 0x3b, 0x3e, 0x39, 0x90, 0x09, 0x3e,
  0x57, 0xeb, 0x31, 0xbc, 0x9b, 0x1e, 0x7f, 0x3e, 0xf7, 0x63, 0x6e, 0xbd,
  0xd7, 0x1b, 0xd9, 0xbd, 0x15, 0x4a, 0x53, 0xbe, 0x01, 0x59, 0x19, 0x3d,
  0x44, 0x0b, 0xc2, 0x3d, 0x6d, 0x8e, 0x97, 0x3e, 0xef, 0x95, 0x0b, 0x3f,
  0x30, 0xde, 0x9b, 0x3e, 0x04, 0x7b, 0xf4, 0xbd, 0xc0, 0x1d, 0xaf, 0x3d,
  0x68, 0xe4, 0x9a, 0x3e, 0x06, 0x6e, 0x25, 0x3e, 0x40, 0xfc, 0xa1, 0xbc,
  0x6f, 0xb9, 0x98, 0x3e, 0x7b, 0xe6, 0xc4, 0x3d, 0x38, 0xa0, 0xbb, 0x3d,
  0x31, 0x77, 0xc2, 0x3e, 0x41, 0x01, 0x1d, 0xbe, 0xae, 0x85, 0x1e, 0x3e,
  0xe3, 0x99, 0x3a, 0x3e, 0xac, 0x7e, 0xad, 0x3e, 0x6b, 0xfc, 0xd4, 0x3e,
  0x4f, 0xd2, 0x1e, 0x3e, 0xdb, 0x38, 0x35, 0xbe, 0xe8, 0xa0, 0x3d, 0xbe,
  0x98, 0x8d, 0x06, 0xbe, 0x30, 0x9a, 0xe7, 0x3d, 0x4f, 0x80, 0xa2, 0xbb,
  0xd2, 0x09, 0x6e, 0x3e, 0x8f, 0xe4, 0x80, 0x3c, 0x26, 0x34, 0x95, 0xbd,
  0x5f, 0xc0, 0xe1, 0x3d, 0xfb, 0xa6, 0xcc, 0x3d, 0x91, 0x8f, 0x1e, 0xbe,
  0x88, 0xeb, 0x24, 0x3b, 0x1a, 0xfa, 0x71, 0x3e, 0x03, 0xbe, 0x46, 0xbe,
  0x6d, 0x1a, 0xcc, 0x3e, 0x01, 0x12, 0x64, 0xbd, 0x1f, 0xc8, 0xe2, 0xbe,
  0xe6, 0xbe, 0x7f, 0x3d, 0x01, 0x17, 0x1a, 0x3e, 0xdb, 0xbd, 0xc5, 0x3c,
  0x07, 0x2b, 0x12, 0xbd, 0xca, 0x1e, 0x11, 0x3d, 0xce, 0xe6, 0xc7, 0x3c,
  0xf4, 0x16, 0x2d, 0x3e, 0xa8, 0xd1, 0x49, 0xbe, 0x04, 0x24, 0xd2, 0xbd,
  0x09, 0xe2, 0x14, 0xbd, 0xd7, 0x8a, 0xdf, 0x3e, 0x54, 0xc8, 0x4f, 0xbe,
  0x1e, 0x4c, 0x27, 0xbd, 0x79, 0x4d, 0xeb, 0x3d, 0x21, 0x37, 0x0b, 0x3e,
  0x35, 0x74, 0xc8, 0xbe, 0x4e, 0xc4, 0x9d, 0x3d, 0x4b, 0x65, 0x11, 0x3e,
  0x83, 0x80, 0x2b, 0xbe, 0x2a, 0xaf, 0xdb, 0xbd, 0x6c, 0x73, 0x72, 0x3e,
  0x46, 0x54, 0x7a, 0x3d, 0x5c, 0x57, 0xbb, 0x3b, 0x72, 0x6a, 0x14, 0x3f,
  0xf5, 0x3b, 0x1b, 0xbf, 0x16, 0x6f, 0x05, 0x3e, 0xba, 0xc2, 0x13, 0x3d,
  0xe4, 0xcc, 0xa9, 0xbd, 0x48, 0xe5, 0x92, 0x3d, 0x79, 0x21, 0x5a, 0x3e,
  0x1c, 0x44, 0x0f, 0x3f, 0x5e, 0x9c, 0x81, 0x3d, 0x51, 0x2a, 0x29, 0xbe,
  0x4d, 0xbe, 0x82, 0xbd, 0xe6, 0xad, 0x95, 0x3e, 0x6b, 0x0c, 0x99, 0xbc,
  0x33, 0x4b, 0x9f, 0x3d, 0x99, 0x3f, 0x93, 0x3e, 0x88, 0xb1, 0x7c, 0x3c,
  0xeb, 0xf9, 0x9a, 0x3d, 0x43, 0xc4, 0xea, 0x3e, 0xf1, 0xe9, 0x84, 0x3c,
  0xbc, 0xfb, 0x06, 0x3e, 0xd4, 0xa9, 0x0c, 0xbe, 0x7e, 0xf6, 0x8d, 0xbd,
  0x39, 0x8b, 0x28, 0x3c, 0x2c, 0x01, 0x0c, 0x3c, 0x27, 0x17, 0x2d, 0x3e,
  0xd5, 0xb8, 0x45, 0x3e, 0xff, 0xd2, 0x48, 0xbe, 0xc2, 0xdd, 0x4a, 0x3e,
  0xa0, 0x92, 0x48, 0xbe, 0xed, 0xd2, 0xba, 0xbb, 0x94, 0xec, 0x9b, 0x3d,
  0x27, 0xa4, 0xa4, 0xbd, 0xb5, 0x60, 0x3d, 0x3d, 0x51, 0x8d, 0xef, 0x3e,
  0xc1, 0x17, 0x89, 0x3e, 0xdc, 0x51, 0x25, 0xbd, 0xcc, 0xcc, 0xf3, 0x3d,
  0xd7, 0x81, 0x50, 0x3c, 0x34, 0x4a, 0xda, 0x3d, 0x50, 0xae, 0xe6, 0x3d,
  0xc5, 0xae, 0xa2, 0xbe, 0xae, 0x6c, 0xa8, 0x3d, 0xa3, 0xa6, 0x5f, 0x3e,
  0xb0, 0xe0, 0xc6, 0xbd, 0x97, 0x1e, 0xf7, 0xbd, 0xf2, 0x16, 0x57, 0xbe,
  0x79, 0xb7, 0x02, 0xbe, 0x9d, 0xf3, 0x33, 0x3e, 0x67, 0x2c, 0xd7, 0x3d,
  0xff, 0xad, 0xa1, 0x3d, 0x3b, 0xc3, 0x85, 0xbe, 0x1c, 0x0f, 0xd1, 0x3e,
  0x08, 0xc3, 0x06, 0x3d, 0x72, 0x90, 0x9c, 0x3e, 0x36, 0x5c, 0x92, 0xbd,
  0xb2, 0x49, 0x03, 0x39, 0x96, 0x18, 0x0d, 0x3d, 0xb0, 0x71, 0x7c, 0x3e,
  0x33, 0x0f, 0x5f, 0x3e, 0x5c, 0x1b, 0x86, 0x3e, 0x8f, 0x0f, 0x0a, 0xbe,
  0xfe, 0xb8, 0x42, 0x3e, 0x35, 0xa2, 0x09, 0x3e, 0x4e, 0x75, 0x18, 0xbe,
  0xf6, 0x90, 0xae, 0x3d, 0x7c, 0x80, 0x02, 0xbf, 0x9a, 0xeb, 0x06, 0x3e,
  0x33, 0x10, 0xae, 0xbd, 0x81, 0x99, 0x88, 0x3e, 0xc2, 0xd9, 0x1c, 0x3d,
  0xaf, 0x91, 0x91, 0xbe, 0x69, 0xa6, 0xfb, 0xbe, 0xf4, 0x56, 0x87, 0xbe,
  0x0a, 0x7b, 0xf2, 0x3d, 0x52, 0x59, 0x9f, 0x3e, 0xd7, 0x6b, 0xbd, 0xbe,
  0xe6, 0xb4, 0x1a, 0x3e, 0x2e, 0xd6, 0xa3, 0x3e, 0x52, 0x9a, 0xfb, 0x3d,
  0x08, 0xc9, 0xcc, 0x3d, 0x08, 0xac, 0x61, 0x3e, 0x42, 0xff, 0x42, 0xbc,
  0x86, 0x3e, 0x5c, 0x3e, 0x59, 0x64, 0x33, 0xbe, 0x15, 0x74, 0x35, 0x3e,
  0x26, 0x78, 0x35, 0x3d, 0x95, 0x6a, 0x88, 0xbe, 0xbc, 0x87, 0x46, 0xbe,
  0x17, 0x62, 0x92, 0xba, 0x68, 0x38, 0x40, 0x3d, 0x98, 0x66, 0xcc, 0x3d,
  0xfe, 0x45, 0xb0, 0xbd, 0x80, 0xeb, 0x20, 0xbe, 0x84, 0x37, 0x4e, 0xbc,
  0xab, 0x01, 0xc5, 0x3c, 0x25, 0xde, 0x05, 0x3c, 0xea, 0xf5, 0xde, 0xbd,
  0x4f, 0xc0, 0x5e, 0xbe, 0xf4, 0x1f, 0x84, 0x3e, 0x5a, 0xf4, 0xe5, 0xbd,
  0xf3, 0x12, 0xa3, 0xbe, 0x84, 0xd6, 0x60, 0x3e, 0xc4, 0x7a, 0x1c, 0x3e,
  0x7b, 0x1a, 0x79, 0x3e, 0xf5, 0x66, 0xb9, 0x3d, 0xa7, 0xc5, 0x3a, 0x3e,
  0xc5, 0x7b, 0x29, 0x3e, 0x8a, 0xab, 0x10, 0xbe, 0x8e, 0x49, 0x5f, 0x3e,
  0xe4, 0xec, 0xeb, 0xbd, 0x17, 0xe8, 0x29, 0x3e, 0x6b, 0x1c, 0x14, 0x3e,
  0x78, 0x28, 0x89, 0x3e, 0xfc, 0x01, 0xad, 0x3e, 0x5c, 0xac, 0x9c, 0x3e,
  0x31, 0x6b, 0xce, 0xbe, 0x25, 0x80, 0x75, 0x3e, 0x3b, 0x5a, 0x64, 0x3e,
  0xd8, 0xb7, 0x6f, 0xbd, 0x2d, 0x66, 0x54, 0x3e, 0xf2, 0x4a, 0xc2, 0x3e,
  0x22, 0x8e, 0x32, 0xbe, 0x42, 0x70, 0x5f, 0xbe, 0x2f, 0x81, 0x13, 0xbe,
  0x53, 0x4c, 0x6e, 0x3e, 0x72, 0xa6, 0x39, 0x3e, 0x79, 0x67, 0x38, 0x3d,
  0xa9, 0xdc, 0x5b, 0xbd, 0xdb, 0x47, 0x4d, 0xbe, 0xd6, 0x75, 0xb1, 0x3e,
  0x18, 0xfc, 0x61, 0x3e, 0xda, 0xed, 0x5a, 0x3e, 0x41, 0x0f, 0xfb, 0x3d,
  0xc0, 0x00, 0xb6, 0xbd, 0xf5, 0x35, 0x66, 0x3d, 0x25, 0xc6, 0xdc, 0x3e,
  0x14, 0x97, 0xda, 0x3e, 0xc0, 0xb1, 0x81, 0x3e, 0x9b, 0xa1, 0xf6, 0x3c,
  0xb0, 0xb5, 0xf3, 0x3d, 0x39, 0xd3, 0x80, 0x3e, 0x63, 0xd1, 0x19, 0xbe,
  0xb5, 0xc3, 0x20, 0x3e, 0x89, 0xdb, 0x76, 0x3e, 0x52, 0x5c, 0x39, 0x3e,
  0xb2, 0x49, 0xe8, 0x3e, 0x1e, 0xd4, 0xfc, 0x3d, 0x31, 0x26, 0x8d, 0x3e,
  0x5f, 0xf4, 0xc0, 0x3d, 0x8f, 0x57, 0x37, 0x3d, 0x96, 0x2f, 0xf6, 0xbc,
  0x3b, 0x17, 0x10, 0x3e, 0x85, 0x7f, 0xfd, 0x3d, 0x63, 0xf8, 0x4e, 0xbd,
  0x67, 0xc6, 0x5f, 0x3d, 0x4b, 0x60, 0xc8, 0x3d, 0x3a, 0x6a, 0x58, 0x3e,
  0xc5, 0xe2, 0xba, 0x3c, 0x0b, 0x3c, 0xd9, 0xbb, 0xc5, 0x2e, 0x95, 0x3e,
  0x31, 0xee, 0x51, 0x3d, 0x01, 0xac, 0x01, 0x3e, 0x26, 0xb6, 0xa5, 0xbc,
  0x78, 0xd7, 0x82, 0x3e, 0x2c, 0xd7, 0x98, 0x3d, 0x51, 0x44, 0xbb, 0xbd,
  0x84, 0x69, 0x34, 0x3e, 0x57, 0x4b, 0x01, 0xbe, 0x89, 0x34, 0x54, 0xbe,
  0x17, 0x3b, 0xbb, 0xbd, 0x35, 0xae, 0x46, 0x3e, 0xfc, 0x79, 0x94, 0x3d,
  0x61, 0x3e, 0xc7, 0x3d, 0x5d, 0x5e, 0x5e, 0x3e, 0xcc, 0x15, 0x49, 0xbe,
  0xbc, 0x2e, 0xc8, 0xbd, 0x63, 0x94, 0x80, 0xbe, 0x9f, 0x19, 0xfa, 0xbd,
  0x79, 0x92, 0x21, 0xbe, 0x21, 0xe4, 0xd0, 0x3e, 0xa3, 0x30, 0x10, 0xbe,
  0xd8, 0x81, 0xc2, 0x3d, 0xc7, 0x7a, 0xb2, 0x3d, 0xfd, 0xae, 0xfa, 0xbd,
  0x55, 0xce, 0xe0, 0xbe, 0xfe, 0xd7, 0x92, 0x3e, 0x3a, 0x54, 0xb5, 0xba,
  0x2d, 0x9c, 0xc7, 0x3d, 0x5b, 0x8f, 0x5e, 0xbe, 0xf3, 0xd6, 0x98, 0x3e,
  0x29, 0x9f, 0x45, 0xbe, 0x63, 0x76, 0x68, 0x3e, 0xf5, 0x52, 0x4b, 0x3e,
  0x94, 0x0a, 0xf4, 0xbe, 0xf4, 0x69, 0x9e, 0x3d, 0x67, 0x60, 0x30, 0x3e,
  0x5e, 0x61, 0x9f, 0xbd, 0xed, 0x61, 0x8f, 0x3c, 0xfc, 0x3e, 0x5a, 0x3e,
  0x83, 0x00, 0x5d, 0xbe, 0xd7, 0xc9, 0xd9, 0xbd, 0x89, 0x15, 0x1a, 0x3c,
  0x45, 0x4b, 0x84, 0x3d, 0x29, 0xd3, 0x44, 0x3e, 0x87, 0x39, 0x07, 0xbe,
  0x30, 0xe1, 0x3f, 0xbb, 0x4a, 0x42, 0x74, 0x3e, 0x5c, 0x70, 0xd6, 0xbd,
  0xc2, 0xc9, 0x94, 0xbd, 0xcf, 0x4b, 0x8e, 0x3c, 0x20, 0x84, 0xd8, 0x3d,
  0x0e, 0xab, 0x2f, 0xbe, 0xe5, 0x08, 0x66, 0x3d, 0xe5, 0x3e, 0xf7, 0x3c,
  0x82, 0x85, 0x59, 0x3e, 0x71, 0x49, 0x01, 0x3e, 0x8e, 0x58, 0x2c, 0x3e,
  0x50, 0xf7, 0x48, 0xbe, 0xc3, 0xcb, 0x57, 0x3e, 0xc1, 0x90, 0x86, 0xbc,
  0x70, 0xf6, 0x69, 0x3e, 0x00, 0x6c, 0xfa, 0x3d, 0x14, 0x38, 0x1d, 0x3e,
  0xd1, 0xfc, 0x58, 0x3e, 0x93, 0x4b, 0x46, 0xbe, 0xea, 0x2e, 0xfa, 0xbd,
  0x2b, 0xf8, 0x69, 0xbc, 0xda, 0x32, 0x6d, 0xbe, 0x14, 0x49, 0x80, 0xbe,
  0xc7, 0x4c, 0xcf, 0xbd, 0x92, 0xd7, 0xf5, 0xbd, 0x17, 0x6b, 0x21, 0xbe,
  0x25, 0xb6, 0x93, 0x3c, 0xef, 0x42, 0xa7, 0x3d, 0xeb, 0x30, 0x9e, 0x3d,
  0x9d, 0x87, 0x08, 0x3e, 0x69, 0xb9, 0xdb, 0x3d, 0xcb, 0x06, 0x4a, 0xbe,
  0xc9, 0x56, 0x69, 0x3d, 0x98, 0x06, 0x5e, 0xbe, 0x1f, 0x39, 0xb3, 0xbd,
  0x37, 0xbc, 0x70, 0x3d, 0x26, 0xae, 0xf0, 0xba, 0x4f, 0xcb, 0xd3, 0x3d,
  0x1d, 0xdf, 0xb2, 0xbd, 0x92, 0x5b, 0xd9, 0xbd, 0xcf, 0xe1, 0xc4, 0xbd,
  0xa4, 0x9d, 0xeb, 0xbc, 0x4b, 0xb1, 0x21, 0xbe, 0xcb, 0xdf, 0x60, 0xbe,
  0x76, 0x6a, 0x23, 0xbe, 0xef, 0x73, 0x18, 0x3e, 0x06, 0xaf, 0xaa, 0x3b,
  0x7b, 0xc5, 0x73, 0xbe, 0xce, 0x6a, 0x28, 0x3e, 0x9a, 0xe6, 0xa4, 0x3d,
  0xaa, 0x33, 0x2c, 0xbe, 0x9a, 0xd8, 0xf0, 0xbc, 0x11, 0xf8, 0x7f, 0x3d,
  0x50, 0x1d, 0x0d, 0x3d, 0x82, 0x41, 0x10, 0x3e, 0xfa, 0x6c, 0x49, 0x3e,
  0xf8, 0x08, 0x23, 0xbe, 0x22, 0x09, 0xaa, 0xbc, 0x7c, 0xbc, 0x21, 0x3d,
  0xf0, 0xba, 0xd8, 0x3b, 0x54, 0x06, 0x10, 0x3e, 0xe2, 0x79, 0xee, 0xbc,
  0x58, 0x43, 0x94, 0xbb, 0x74, 0xbd, 0x95, 0xbd, 0xc0, 0x68, 0x25, 0xbe,
  0x42, 0x4f, 0x07, 0x3e, 0x0c, 0x63, 0x7a, 0xbc, 0x58, 0x3b, 0xe6, 0x3d,
  0xce, 0x86, 0x8c, 0x3b, 0x2f, 0x03, 0x81, 0x3e, 0xeb, 0x60, 0x06, 0x3e,
  0x3d, 0xc1, 0x24, 0x3e, 0x7f, 0xb9, 0x11, 0x3e, 0xaf, 0x52, 0x34, 0x3e,
  0xfc, 0xa8, 0xc8, 0xbd, 0x29, 0xf4, 0x48, 0xbe, 0x41, 0x24, 0x53, 0x3d,
  0x66, 0x56, 0x51, 0xbe, 0xbd, 0x63, 0x47, 0x3e, 0x5e, 0x6c, 0x6b, 0xbe,
  0xcf, 0xbf, 0xea, 0x3d, 0x97, 0xf2, 0x7a, 0xbd, 0x0d, 0x76, 0xa3, 0xbd,
  0x03, 0xa6, 0x3f, 0x3e, 0x27, 0x51, 0x28, 0x3e, 0x04, 0xa8, 0xa6, 0x3d,
  0xaa, 0x8b, 0x19, 0x3e, 0xd1, 0x71, 0x18, 0x3e, 0xfe, 0xd9, 0x2e, 0x3e,
  0xd0, 0x0d, 0xda, 0xbd, 0x26, 0x39, 0x1c, 0x3e, 0x55, 0x64, 0xa2, 0xbd,
  0x32, 0x92, 0xfc, 0x3d, 0x84, 0x57, 0xf9, 0x3d, 0x86, 0xd4, 0x6a, 0x3e,
  0xf5, 0x27, 0x43, 0x3d, 0xca, 0x5e, 0x77, 0x3e, 0x2c, 0xfe, 0xce, 0x3b,
  0x93, 0x3d, 0x6b, 0xbe, 0xb4, 0xe3, 0x06, 0xbe, 0x64, 0x72, 0x39, 0x3e,
  0xd3, 0xc9, 0xa4, 0xbd, 0x38, 0xf9, 0x49, 0x3e, 0xd0, 0xac, 0x35, 0xbb,
  0x98, 0x8c, 0xd2, 0x3d, 0x9f, 0x19, 0x77, 0xbe, 0x48, 0xac, 0x17, 0xbe,
  0x4a, 0x6c, 0x77, 0xbe, 0x72, 0x84, 0x12, 0xbe, 0x66, 0x70, 0x9e, 0x3d,
  0x55, 0xdb, 0xa6, 0x3e, 0xc6, 0xc6, 0xc7, 0xbd, 0x71, 0x21, 0x79, 0xbe,
  0x71, 0x89, 0xc3, 0x3c, 0x1d, 0x0d, 0x26, 0xbe, 0x4f, 0xce, 0x93, 0xbd,
  0x52, 0x9a, 0x24, 0x3c, 0x73, 0x19, 0x89, 0x3d, 0x4f, 0x98, 0x7f, 0x3e,
  0x2f, 0xc5, 0x5a, 0x3d, 0xf9, 0xd0, 0x6d, 0x3e, 0x45, 0xea, 0x0f, 0x3e,
  0x66, 0x68, 0xa2, 0x3e, 0x64, 0xcc, 0xff, 0x3d, 0x33, 0xae, 0x98, 0xbe,
  0xcd, 0xbe, 0xa8, 0x3e, 0x62, 0xf6, 0x44, 0xbd, 0x56, 0x05, 0x94, 0xbe,
  0xe5, 0xfc, 0x06, 0x3d, 0xee, 0x22, 0x42, 0x3e, 0xf7, 0x82, 0x8b, 0x3e,
  0x22, 0x18, 0x8d, 0x3e, 0x9b, 0x10, 0xf9, 0x3c, 0x3e, 0x3b, 0x31, 0xbe,
  0xe9, 0x9d, 0xf0, 0x3d, 0x6c, 0xd9, 0xac, 0x3e, 0xde, 0x59, 0xf9, 0xbd,
  0xe9, 0xf1, 0x13, 0xbe, 0x1d, 0xec, 0x4a, 0x3e, 0xc1, 0x4f, 0x8d, 0xbd,
  0x03, 0xf9, 0x75, 0xbe, 0x82, 0x18, 0x59, 0x3e, 0x5d, 0xd1, 0x18, 0xbd,
  0xc0, 0x19, 0x11, 0xbc, 0xae, 0xb6, 0x25, 0x3b, 0xce, 0xb0, 0x31, 0xbe,
  0xba, 0xa1, 0x04, 0x3e, 0x58, 0xbf, 0xe4, 0x3e, 0x00, 0xd0, 0x4a, 0x3d,
  0x5b, 0xf9, 0x9f, 0x3c, 0x33, 0x44, 0x71, 0x3e, 0x32, 0xe2, 0xac, 0x3d,
  0x18, 0x38, 0xa4, 0x3e, 0x1c, 0x82, 0x05, 0x3e, 0x91, 0x0e, 0x5c, 0xbe,
  0x5c, 0x49, 0x6a, 0x3e, 0x00, 0x88, 0xd9, 0xbd, 0xad, 0x93, 0xf2, 0x3d,
  0x43, 0x9d, 0x0a, 0x3e, 0x6b, 0xcb, 0xc3, 0x3d, 0x4a, 0x4b, 0x90, 0xbe,
  0xd7, 0x77, 0x47, 0x3e, 0xc1, 0x2b, 0x63, 0x3d, 0xdd, 0xd8, 0xea, 0x3b,
  0x7e, 0x38, 0x9b, 0xbe, 0xdd, 0x4d, 0xd0, 0x3c, 0xa0, 0x03, 0x0c, 0x3e,
  0x75, 0xef, 0x7c, 0x3e, 0xd2, 0xdf, 0x5c, 0xbe, 0xbe, 0x00, 0x70, 0x3e,
  0x07, 0xa2, 0x30, 0x3d, 0xb0, 0x40, 0x82, 0xbd, 0x8e, 0x34, 0x24, 0xbe,
  0x62, 0x8f, 0x67, 0x3e, 0x3b, 0x26, 0x30, 0xbd, 0x0a, 0xdb, 0xac, 0x3e,
  0x8c, 0xc0, 0x2b, 0x3e, 0x64, 0xd7, 0x4b, 0xbe, 0x5f, 0x8c, 0x84, 0x3e,
  0xb1, 0xfc, 0xa8, 0xbe, 0x5a, 0xfb, 0xff, 0xff, 0x04, 0x00, 0x00, 0x00,
  0x00, 0x03, 0x00, 0x00, 0xbc, 0xba, 0x2a, 0xbe, 0xcb, 0xe4, 0xc2, 0x3c,
  0x75, 0x68, 0x9c, 0x3e, 0x87, 0x8a, 0xa7, 0x3e, 0x0b, 0x0c, 0x21, 0xbe,
  0x87, 0x50, 0xcc, 0x3d, 0xd8, 0xbd, 0x8a, 0x3d, 0x43, 0x50, 0x90, 0xbe,
  0x2e, 0xe1, 0xd1, 0xbd, 0xba, 0x14, 0x1c, 0xbe, 0xe8, 0xd3, 0x17, 0x3e,
  0xb7, 0xfe, 0xcf, 0xbc, 0x14, 0x14, 0x9d, 0xbd, 0xe8, 0xba, 0xc0, 0x3e,
  0xa8, 0x6c, 0x68, 0xbe, 0x10, 0xef, 0xcd, 0xbd, 0xe8, 0x17, 0x50, 0x3e,
  0xf4, 0x1f, 0xbf, 0xbd, 0x8c, 0x8b, 0x85, 0x3e, 0xcc, 0xe2, 0x6c, 0x3d,
  0x5b, 0x5e, 0xc8, 0xbe, 0x95, 0xb5, 0x2f, 0x3e, 0x7b, 0x3b, 0xf6, 0x3d,
  0xad, 0xd4, 0xe2, 0x3d, 0xb7, 0xbd, 0x9c, 0x3e, 0xf2, 0x7e, 0x69, 0x3d,
  0xb1, 0x8d, 0x5e, 0xbe, 0x2c, 0x2f, 0x71, 0xbe, 0x03, 0xe3, 0xea, 0x3e,
  0xe1, 0x2d, 0x46, 0xbe, 0xda, 0xc3, 0x62, 0x3e, 0x9a, 0x8b, 0x60, 0x3d,
  0x68, 0xcd, 0x8d, 0xbc, 0xa2, 0x00, 0x25, 0x3e, 0x8a, 0x2b, 0x31, 0xbe,
  0x36, 0xa4, 0x14, 0x3d, 0xb0, 0x46, 0x38, 0x3e, 0x1b, 0x32, 0xc7, 0xbc,
  0xbc, 0xe7, 0x74, 0xbe, 0x25, 0xd6, 0xb1, 0xbd, 0xbf, 0xac, 0x81, 0x3e,
  0x0b, 0x80, 0xf4, 0x3d, 0x44, 0xec, 0x9e, 0x3c, 0xb2, 0xc7, 0xb0, 0xbe,
  0x1f, 0x7d, 0xd0, 0xbd, 0x85, 0xf1, 0x2b, 0xbe, 0x93, 0xa9, 0x54, 0x3e,
  0x62, 0x7c, 0x44, 0xbd, 0xb1, 0xb5, 0x13, 0xbe, 0xd5, 0x8e, 0x1f, 0xbe,
  0x67, 0x5f, 0x06, 0xbd, 0x15, 0x86, 0xe7, 0x3d, 0x9a, 0x25, 0xd2, 0xbd,
  0x1d, 0x99, 0xf1, 0xbd, 0xe5, 0x66, 0x54, 0x3e, 0x66, 0xc2, 0xa1, 0x3e,
  0x19, 0xf3, 0x9c, 0x3b, 0x3c, 0x32, 0x9a, 0x3e, 0xfa, 0x29, 0x1a, 0xbe,
  0x01, 0x16, 0x5a, 0xbe, 0xed, 0x97, 0x35, 0x3e, 0xed, 0xd5, 0x2b, 0x3d,
  0x17, 0x9f, 0x87, 0xbe, 0x53, 0xf7, 0x2a, 0xbd, 0x0a, 0x6c, 0x22, 0x3d,
  0x39, 0x05, 0x50, 0xbe, 0x29, 0x93, 0x7b, 0xbe, 0xa1, 0x4a, 0x93, 0xbc,
  0x42, 0x59, 0x38, 0xbe, 0x0b, 0xdf, 0x31, 0x3e, 0x53, 0x5e, 0xb3, 0xbd,
  0x5a, 0xfe, 0x1b, 0x3e, 0x96, 0xfb, 0x8d, 0x3e, 0x5b, 0xdc, 0xc3, 0x3d,
  0x5b, 0xf2, 0x8a, 0xbe, 0x12, 0xaa, 0xbd, 0x3b, 0x66, 0x3e, 0x7f, 0xbe,
  0x87, 0xcf, 0xb4, 0xbe, 0xeb, 0xd1, 0x76, 0xbe, 0x9a, 0x5a, 0xb7, 0x3c,
  0xa5, 0x47, 0x22, 0xbe, 0xf5, 0x3b, 0x0e, 0xbd, 0xc0, 0x06, 0x3b, 0x3e,
  0x4e, 0x98, 0x4d, 0xbe, 0x1f, 0x42, 0xdd, 0xbd, 0x9f, 0xe1, 0x94, 0x3e,
  0x3b, 0x0e, 0xc6, 0x3d, 0x1b, 0x7f, 0x14, 0xbd, 0x29, 0xc9, 0x58, 0x3e,
  0x0d, 0xac, 0x80, 0x3c, 0x8f, 0x52, 0x3c, 0x3e, 0xd2, 0xb6, 0x37, 0x3e,
  0x93, 0x73, 0x6f, 0x3e, 0x02, 0x1e, 0xa5, 0xbe, 0x32, 0x27, 0xd6, 0x3e,
  0x13, 0xdf, 0xf6, 0xbd, 0xc1, 0x3b, 0xfb, 0xbd, 0x07, 0x59, 0x78, 0xbd,
  0x78, 0xdd, 0x51, 0xbe, 0x83, 0x3c, 0xde, 0xbd, 0x63, 0xe7, 0x3f, 0xbe,
  0x5f, 0xfe, 0xda, 0xbd, 0x7b, 0xe5, 0x7c, 0xbe, 0xdd, 0xef, 0xb6, 0x3e,
  0xa9, 0x81, 0xef, 0xbd, 0xb3, 0x88, 0x5c, 0x3e, 0xf4, 0x7b, 0x3f, 0xbe,
  0xe9, 0xe5, 0x38, 0x3e, 0xcb, 0x15, 0xe5, 0xbd, 0xf9, 0xaf, 0x45, 0x3e,
  0x1c, 0xe5, 0x94, 0xbd, 0x1a, 0x24, 0xbc, 0xbc, 0x0c, 0xbf, 0xcd, 0xbd,
  0x37, 0x85, 0x6f, 0xbe, 0x68, 0xb7, 0x4a, 0x3e, 0xa1, 0x43, 0x12, 0xbe,
  0x45, 0xde, 0x30, 0x3d, 0xa2, 0x76, 0x3b, 0x3e, 0x83, 0x6f, 0xc7, 0xbc,
  0xb4, 0x97, 0x84, 0xbe, 0xb6, 0xd6, 0x16, 0xbd, 0xd7, 0xaf, 0x50, 0xbe,
  0x18, 0xc1, 0x88, 0xbe, 0x21, 0xa4, 0x26, 0x3d, 0x7b, 0x54, 0x8d, 0x3e,
  0x81, 0xb1, 0xa5, 0xbc, 0xfb, 0xf6, 0x7d, 0xbe, 0x95, 0xf3, 0x9a, 0xbe,
  0x02, 0x99, 0xa5, 0x3d, 0x94, 0x91, 0x31, 0x3e, 0x1b, 0x8e, 0xd6, 0xbc,
  0x76, 0x87, 0x55, 0x3e, 0x98, 0x21, 0x59, 0xbe, 0xc7, 0x3e, 0xec, 0xbd,
  0x6f, 0x8f, 0xf8, 0x3d, 0x59, 0xcb, 0x75, 0xbe, 0x7d, 0x5a, 0x42, 0xbe,
  0x47, 0x2b, 0xc0, 0xbe, 0x61, 0xab, 0x90, 0x3e, 0xb7, 0xe6, 0x74, 0x3d,
  0x4e, 0x38, 0x1c, 0xbd, 0xa2, 0xc6, 0x29, 0x3e, 0x8b, 0xf1, 0xf6, 0x3d,
  0xdf, 0xd3, 0x8d, 0x3e, 0x49, 0xa8, 0x84, 0xbe, 0xfd, 0xe4, 0x9f, 0xbe,
  0xb0, 0xcd, 0x88, 0x3e, 0x7d, 0x06, 0x85, 0xbd, 0xc0, 0xed, 0x4a, 0x3e,
  0x60, 0x78, 0x26, 0xbe, 0x39, 0xf2, 0x87, 0x3e, 0xdd, 0xd7, 0x47, 0xbe,
  0x2b, 0xa0, 0x21, 0x3d, 0xf9, 0x51, 0x40, 0x3c, 0xee, 0xd8, 0xe5, 0x3d,
  0xfc, 0x13, 0xb5, 0xbe, 0x4a, 0x39, 0x3d, 0x3e, 0xc2, 0x8f, 0xe8, 0xbc,
  0x52, 0xf0, 0x83, 0x3e, 0x44, 0x3a, 0x67, 0x3e, 0xd8, 0xe6, 0x25, 0x3e,
  0x9d, 0x1b, 0xe9, 0xbd, 0x42, 0xfa, 0xd5, 0x3e, 0x01, 0x19, 0x37, 0xbe,
  0xf7, 0xe2, 0x55, 0xbc, 0x8e, 0xb4, 0xa0, 0xbc, 0xc0, 0xc7, 0x73, 0x3e,
  0x5b, 0x87, 0x1a, 0xbe, 0xc8, 0xf2, 0x53, 0x3e, 0x87, 0x5b, 0xa2, 0xbd,
  0x8b, 0x09, 0x65, 0xbe, 0x25, 0x82, 0x9b, 0xbe, 0x53, 0x71, 0xc6, 0xbc,
  0xb5, 0x4a, 0x5d, 0xbd, 0xab, 0xbd, 0x60, 0xbe, 0xfb, 0x5b, 0x01, 0xbe,
  0x74, 0x3c, 0xe1, 0x3d, 0x43, 0xd8, 0x6d, 0x3e, 0xc4, 0xac, 0xa9, 0xbd,
  0x25, 0xbd, 0x7e, 0xbe, 0xcc, 0xb7, 0x8e, 0x3d, 0xa7, 0x3b, 0x6c, 0x3e,
  0xcc, 0x67, 0xd7, 0x3c, 0x08, 0x47, 0xa4, 0x3e, 0x90, 0x4d, 0x7e, 0x3e,
  0x30, 0xdf, 0x4c, 0x3b, 0x18, 0x9b, 0xc4, 0xbd, 0xc3, 0xf9, 0xce, 0x3e,
  0x89, 0x05, 0xad, 0xbe, 0xc6, 0x44, 0xc1, 0x3c, 0x3c, 0x17, 0xaf, 0xbe,
  0x3d, 0x9b, 0x99, 0x3e, 0x66, 0xfe, 0xff, 0xff, 0x04, 0x00, 0x00, 0x00,
  0x00, 0x01, 0x00, 0x00, 0xbe, 0x84, 0xf1, 0x3d, 0xa8, 0xda, 0x7a, 0x3d,
  0x29, 0xf8, 0x7e, 0x3d, 0xa0, 0x30, 0x29, 0xbd, 0xdf, 0x95, 0x2c, 0x3e,
  0xa9, 0x8e, 0x1a, 0xbc, 0x3f, 0xa2, 0xc6, 0x3d, 0x90, 0xbb, 0xac, 0x3d,
  0x8e, 0xf7, 0xfd, 0xbd, 0x5e, 0xc6, 0x03, 0xbb, 0xb1, 0xa3, 0xf1, 0x3d,
  0xf2, 0xf4, 0x4e, 0x3d, 0x3b, 0x98, 0xee, 0x3d, 0x24, 0x8a, 0x0d, 0x3e,
  0x92, 0xf5, 0xbc, 0x3d, 0xfb, 0xbf, 0x15, 0x3e, 0x5d, 0x63, 0xca, 0x3d,
  0x8d, 0xdb, 0xce, 0x3d, 0xb1, 0x41, 0x3f, 0x3d, 0xf3, 0x2b, 0x87, 0x3d,
  0x2f, 0xc5, 0x86, 0x3d, 0x18, 0x79, 0x56, 0xbc, 0x70, 0x5b, 0x40, 0x3d,
  0x2f, 0xdb, 0x11, 0x3d, 0xc6, 0xe2, 0xce, 0xbd, 0xf8, 0x20, 0x5c, 0x3d,
  0x0e, 0x74, 0x8a, 0xbb, 0xe6, 0x9f, 0xf5, 0x3d, 0xd1, 0x4c, 0x5d, 0x3d,
  0xa2, 0x00, 0x2b, 0xbd, 0x3e, 0x4a, 0x5c, 0x3d, 0x3b, 0x54, 0xc9, 0x3d,
  0x97, 0x72, 0xf9, 0x3d, 0xa5, 0xec, 0xc9, 0xbc, 0xdd, 0x55, 0x55, 0x3d,
  0x22, 0x10, 0x06, 0x3d, 0x18, 0xbd, 0xbd, 0xba, 0x36, 0xdc, 0xac, 0x3d,
  0xa4, 0xd0, 0xa4, 0xbd, 0x3c, 0xad, 0x0d, 0x3e, 0xfc, 0x14, 0x05, 0x3e,
  0x5f, 0x09, 0x5b, 0x3a, 0x09, 0x07, 0xcd, 0x3d, 0x04, 0x2d, 0x12, 0x3d,
  0x4f, 0xe8, 0x05, 0xbd, 0x41, 0x2c, 0xe2, 0x3d, 0x17, 0xfa, 0xb2, 0xbd,
  0x54, 0x79, 0x9c, 0x3d, 0xc8, 0xbd, 0xdf, 0x3b, 0x73, 0x1b, 0x94, 0x3d,
  0xf1, 0x40, 0xe5, 0x3d, 0x25, 0xd7, 0xde, 0x3d, 0xbd, 0x88, 0x9f, 0x3c,
  0x04, 0xc6, 0xd8, 0x3d, 0xba, 0x06, 0x78, 0x3b, 0xa8, 0x4d, 0x1f, 0x3e,
  0xc6, 0xf3, 0xf8, 0x3d, 0xab, 0xaf, 0xcc, 0x3d, 0xbb, 0x1d, 0x7c, 0x3b,
  0x38, 0x3a, 0x02, 0x3e, 0x13, 0xb1, 0x0f, 0x3e, 0x86, 0x80, 0xed, 0xbc,
  0x82, 0x77, 0x00, 0x3e, 0xd3, 0x96, 0xe4, 0x3d, 0x72, 0xff, 0xff, 0xff,
  0x04, 0x00, 0x00, 0x00, 0x80, 0x00, 0x00, 0x00, 0xd6, 0x80, 0xd9, 0x3d,
  0x8f, 0xa6, 0xc6, 0x3d, 0x1f, 0x07, 0xcf, 0x3d, 0x5a, 0xeb, 0xae, 0x3d,
  0x00, 0x00, 0x00, 0x00, 0x60, 0x83, 0x8f, 0xbd, 0x98, 0xf2, 0xa8, 0x3d,
  0xa4, 0xe1, 0xc4, 0x3d, 0x3f, 0x48, 0x8f, 0x3d, 0x3d, 0x90, 0x55, 0xbc,
  0x1c, 0x51, 0xc6, 0x3d, 0xd1, 0xd8, 0x05, 0xbd, 0x1d, 0xb1, 0xc6, 0x3d,
  0xa2, 0xaf, 0xd3, 0x3d, 0xd6, 0xf7, 0xb2, 0x3d, 0x49, 0xfd, 0x26, 0xbc,
  0x21, 0x5f, 0x54, 0x3b, 0x91, 0x9e, 0x23, 0xbd, 0xfe, 0xbe, 0xf7, 0xbc,
  0x32, 0x60, 0x93, 0xbc, 0x0f, 0x88, 0x49, 0xbd, 0x2e, 0x9d, 0x1c, 0xbc,
  0x3f, 0xf6, 0xc8, 0x3d, 0xf5, 0x56, 0x7f, 0xbd, 0x40, 0xc8, 0xd4, 0x3d,
  0x11, 0x54, 0x12, 0x3e, 0x24, 0x5a, 0xd0, 0x3d, 0x0d, 0x22, 0x7d, 0x3c,
  0x30, 0xd9, 0xb6, 0x3d, 0x09, 0x93, 0x03, 0xbd, 0x5f, 0x05, 0x80, 0xbc,
  0xd1, 0xf3, 0xa9, 0x3d, 0x00, 0x00, 0x06, 0x00, 0x08, 0x00, 0x04, 0x00,
  0x06, 0x00, 0x00, 0x00, 0x04, 0x00, 0x00, 0x00, 0x04, 0x00, 0x00, 0x00,
  0xf3, 0xc8, 0x9d, 0x3d, 0x08, 0xfb, 0xff, 0xff, 0x0c, 0xfb, 0xff, 0xff,
  0x0f, 0x00, 0x00, 0x00, 0x4d, 0x4c, 0x49, 0x52, 0x20, 0x43, 0x6f, 0x6e,
  0x76, 0x65, 0x72, 0x74, 0x65, 0x64, 0x2e, 0x00, 0x01, 0x00, 0x00, 0x00,
  0x14, 0x00, 0x00, 0x00, 0x00, 0x00, 0x0e, 0x00, 0x18, 0x00, 0x14, 0x00,
  0x10, 0x00, 0x0c, 0x00, 0x08, 0x00, 0x04, 0x00, 0x0e, 0x00, 0x00, 0x00,
  0x14, 0x00, 0x00, 0x00, 0x1c, 0x00, 0x00, 0x00, 0xd8, 0x00, 0x00, 0x00,
  0xdc, 0x00, 0x00, 0x00, 0xe0, 0x00, 0x00, 0x00, 0x04, 0x00, 0x00, 0x00,
  0x6d, 0x61, 0x69, 0x6e, 0x00, 0x00, 0x00, 0x00, 0x03, 0x00, 0x00, 0x00,
  0x80, 0x00, 0x00, 0x00, 0x38, 0x00, 0x00, 0x00, 0x04, 0x00, 0x00, 0x00,
  0x9a, 0xff, 0xff, 0xff, 0x10, 0x00, 0x00, 0x00, 0x00, 0x00, 0x00, 0x08,
  0x0c, 0x00, 0x00, 0x00, 0x10, 0x00, 0x00, 0x00, 0x84, 0xfb, 0xff, 0xff,
  0x01, 0x00, 0x00, 0x00, 0x09, 0x00, 0x00, 0x00, 0x03, 0x00, 0x00, 0x00,
  0x08, 0x00, 0x00, 0x00, 0x06, 0x00, 0x00, 0x00, 0x01, 0x00, 0x00, 0x00,
  0xca, 0xff, 0xff, 0xff, 0x10, 0x00, 0x00, 0x00, 0x00, 0x00, 0x00, 0x08,
  0x10, 0x00, 0x00, 0x00, 0x14, 0x00, 0x00, 0x00, 0xba, 0xff, 0xff, 0xff,
  0x00, 0x00, 0x00, 0x01, 0x01, 0x00, 0x00, 0x00, 0x08, 0x00, 0x00, 0x00,
  0x03, 0x00, 0x00, 0x00, 0x07, 0x00, 0x00, 0x00, 0x05, 0x00, 0x00, 0x00,
  0x02, 0x00, 0x00, 0x00, 0x00, 0x00, 0x0e, 0x00, 0x16, 0x00, 0x00, 0x00,
  0x10, 0x00, 0x0c, 0x00, 0x0b, 0x00, 0x04, 0x00, 0x0e, 0x00, 0x00, 0x00,
  0x18, 0x00, 0x00, 0x00, 0x00, 0x00, 0x00, 0x08, 0x18, 0x00, 0x00, 0x00,
  0x1c, 0x00, 0x00, 0x00, 0x00, 0x00, 0x06, 0x00, 0x08, 0x00, 0x07, 0x00,
  0x06, 0x00, 0x00, 0x00, 0x00, 0x00, 0x00, 0x01, 0x01, 0x00, 0x00, 0x00,
  0x07, 0x00, 0x00, 0x00, 0x03, 0x00, 0x00, 0x00, 0x00, 0x00, 0x00, 0x00,
  0x04, 0x00, 0x00, 0x00, 0x03, 0x00, 0x00, 0x00, 0x01, 0x00, 0x00, 0x00,
  0x09, 0x00, 0x00, 0x00, 0x01, 0x00, 0x00, 0x00, 0x00, 0x00, 0x00, 0x00,
  0x0a, 0x00, 0x00, 0x00, 0xa4, 0x03, 0x00, 0x00, 0x34, 0x03, 0x00, 0x00,
  0xc4, 0x02, 0x00, 0x00, 0x6c, 0x02, 0x00, 0x00, 0x20, 0x02, 0x00, 0x00,
  0xd4, 0x01, 0x00, 0x00, 0x88, 0x01, 0x00, 0x00, 0xf4, 0x00, 0x00, 0x00,
  0x60, 0x00, 0x00, 0x00, 0x04, 0x00, 0x00, 0x00, 0x9a, 0xfc, 0xff, 0xff,
  0x00, 0x00, 0x00, 0x01, 0x14, 0x00, 0x00, 0x00, 0x1c, 0x00, 0x00, 0x00,
  0x1c, 0x00, 0x00, 0x00, 0x0a, 0x00, 0x00, 0x00, 0x34, 0x00, 0x00, 0x00,
  0x02, 0x00, 0x00, 0x00, 0xff, 0xff, 0xff, 0xff, 0x01, 0x00, 0x00, 0x00,
  0x84, 0xfc, 0xff, 0xff, 0x19, 0x00, 0x00, 0x00, 0x53, 0x74, 0x61, 0x74,
  0x65, 0x66, 0x75, 0x6c, 0x50, 0x61, 0x72, 0x74, 0x69, 0x74, 0x69, 0x6f,
  0x6e, 0x65, 0x64, 0x43, 0x61, 0x6c, 0x6c, 0x3a, 0x30, 0x00, 0x00, 0x00,
  0x02, 0x00, 0x00, 0x00, 0x01, 0x00, 0x00, 0x00, 0x01, 0x00, 0x00, 0x00,
  0xf2, 0xfc, 0xff, 0xff, 0x00, 0x00, 0x00, 0x01, 0x14, 0x00, 0x00, 0x00,
  0x1c, 0x00, 0x00, 0x00, 0x1c, 0x00, 0x00, 0x00, 0x09, 0x00, 0x00, 0x00,
  0x6c, 0x00, 0x00, 0x00, 0x02, 0x00, 0x00, 0x00, 0xff, 0xff, 0xff, 0xff,
  0x20, 0x00, 0x00, 0x00, 0xdc, 0xfc, 0xff, 0xff, 0x52, 0x00, 0x00, 0x00,
  0x73, 0x65, 0x71, 0x75, 0x65, 0x6e, 0x74, 0x69, 0x61, 0x6c, 0x5f, 0x31,
  0x2f, 0x64, 0x65, 0x6e, 0x73, 0x65, 0x5f, 0x34, 0x2f, 0x4d, 0x61, 0x74,
  0x4d, 0x75, 0x6c, 0x3b, 0x73, 0x65, 0x71, 0x75, 0x65, 0x6e, 0x74, 0x69,
  0x61, 0x6c, 0x5f, 0x31, 0x2f, 0x64, 0x65, 0x6e, 0x73, 0x65, 0x5f, 0x34,
  0x2f, 0x52, 0x65, 0x6c, 0x75, 0x3b, 0x73, 0x65, 0x71, 0x75, 0x65, 0x6e,
  0x74, 0x69, 0x61, 0x6c, 0x5f, 0x31, 0x2f, 0x64, 0x65, 0x6e, 0x73, 0x65,
  0x5f, 0x34, 0x2f, 0x42, 0x69, 0x61, 0x73, 0x41, 0x64, 0x64, 0x00, 0x00,
  0x02, 0x00, 0x00, 0x00, 0x01, 0x00, 0x00, 0x00, 0x20, 0x00, 0x00, 0x00,
  0x82, 0xfd, 0xff, 0xff, 0x00, 0x00, 0x00, 0x01, 0x14, 0x00, 0x00, 0x00,
  0x1c, 0x00, 0x00, 0x00, 0x1c, 0x00, 0x00, 0x00, 0x08, 0x00, 0x00, 0x00,
  0x6c, 0x00, 0x00, 0x00, 0x02, 0x00, 0x00, 0x00, 0xff, 0xff, 0xff, 0xff,
  0x40, 0x00, 0x00, 0x00, 0x6c, 0xfd, 0xff, 0xff, 0x52, 0x00, 0x00, 0x00,
  0x73, 0x65, 0x71, 0x75, 0x65, 0x6e, 0x74, 0x69, 0x61, 0x6c, 0x5f, 0x31,
  0x2f, 0x64, 0x65, 0x6e, 0x73, 0x65, 0x5f, 0x33, 0x2f, 0x4d, 0x61, 0x74,
  0x4d, 0x75, 0x6c, 0x3b, 0x73, 0x65, 0x71, 0x75, 0x65, 0x6e, 0x74, 0x69,
  0x61, 0x6c, 0x5f, 0x31, 0x2f, 0x64, 0x65, 0x6e, 0x73, 0x65, 0x5f, 0x33,
  0x2f, 0x52, 0x65, 0x6c, 0x75, 0x3b, 0x73, 0x65, 0x71, 0x75, 0x65, 0x6e,
  0x74, 0x69, 0x61, 0x6c, 0x5f, 0x31, 0x2f, 0x64, 0x65, 0x6e, 0x73, 0x65,
  0x5f, 0x33, 0x2f, 0x42, 0x69, 0x61, 0x73, 0x41, 0x64, 0x64, 0x00, 0x00,
  0x02, 0x00, 0x00, 0x00, 0x01, 0x00, 0x00, 0x00, 0x40, 0x00, 0x00, 0x00,
  0x7e, 0xfe, 0xff, 0xff, 0x00, 0x00, 0x00, 0x01, 0x10, 0x00, 0x00, 0x00,
  0x10, 0x00, 0x00, 0x00, 0x07, 0x00, 0x00, 0x00, 0x28, 0x00, 0x00, 0x00,
  0xec, 0xfd, 0xff, 0xff, 0x1b, 0x00, 0x00, 0x00, 0x73, 0x65, 0x71, 0x75,
  0x65, 0x6e, 0x74, 0x69, 0x61, 0x6c, 0x5f, 0x31, 0x2f, 0x64, 0x65, 0x6e,
  0x73, 0x65, 0x5f, 0x35, 0x2f, 0x4d, 0x61, 0x74, 0x4d, 0x75, 0x6c, 0x00,
  0x02, 0x00, 0x00, 0x00, 0x01, 0x00, 0x00, 0x00, 0x20, 0x00, 0x00, 0x00,
  0xc6, 0xfe, 0xff, 0xff, 0x00, 0x00, 0x00, 0x01, 0x10, 0x00, 0x00, 0x00,
  0x10, 0x00, 0x00, 0x00, 0x06, 0x00, 0x00, 0x00, 0x28, 0x00, 0x00, 0x00,
  0x34, 0xfe, 0xff, 0xff, 0x1b, 0x00, 0x00, 0x00, 0x73, 0x65, 0x71, 0x75,
  0x65, 0x6e, 0x74, 0x69, 0x61, 0x6c, 0x5f, 0x31, 0x2f, 0x64, 0x65, 0x6e,
  0x73, 0x65, 0x5f, 0x34, 0x2f, 0x4d, 0x61, 0x74, 0x4d, 0x75, 0x6c, 0x00,
  0x02, 0x00, 0x00, 0x00, 0x20, 0x00, 0x00, 0x00, 0x40, 0x00, 0x00, 0x00,
  0x0e, 0xff, 0xff, 0xff, 0x00, 0x00, 0x00, 0x01, 0x10, 0x00, 0x00, 0x00,
  0x10, 0x00, 0x00, 0x00, 0x05, 0x00, 0x00, 0x00, 0x28, 0x00, 0x00, 0x00,
  0x7c, 0xfe, 0xff, 0xff, 0x1b, 0x00, 0x00, 0x00, 0x73, 0x65, 0x71, 0x75,
  0x65, 0x6e, 0x74, 0x69, 0x61, 0x6c, 0x5f, 0x31, 0x2f, 0x64, 0x65, 0x6e,
  0x73, 0x65, 0x5f, 0x33, 0x2f, 0x4d, 0x61, 0x74, 0x4d, 0x75, 0x6c, 0x00,
  0x02, 0x00, 0x00, 0x00, 0x40, 0x00, 0x00, 0x00, 0x03, 0x00, 0x00, 0x00,
  0x56, 0xff, 0xff, 0xff, 0x00, 0x00, 0x00, 0x01, 0x10, 0x00, 0x00, 0x00,
  0x10, 0x00, 0x00, 0x00, 0x04, 0x00, 0x00, 0x00, 0x38, 0x00, 0x00, 0x00,
  0xc4, 0xfe, 0xff, 0xff, 0x2b, 0x00, 0x00, 0x00, 0x73, 0x65, 0x71, 0x75,
  0x65, 0x6e, 0x74, 0x69, 0x61, 0x6c, 0x5f, 0x31, 0x2f, 0x64, 0x65, 0x6e,
  0x73, 0x65, 0x5f, 0x33, 0x2f, 0x42, 0x69, 0x61, 0x73, 0x41, 0x64, 0x64,
  0x2f, 0x52, 0x65, 0x61, 0x64, 0x56, 0x61, 0x72, 0x69, 0x61, 0x62, 0x6c,
  0x65, 0x4f, 0x70, 0x00, 0x01, 0x00, 0x00, 0x00, 0x40, 0x00, 0x00, 0x00,
  0xaa, 0xff, 0xff, 0xff, 0x00, 0x00, 0x00, 0x01, 0x10, 0x00, 0x00, 0x00,
  0x10, 0x00, 0x00, 0x00, 0x03, 0x00, 0x00, 0x00, 0x38, 0x00, 0x00, 0x00,
  0x18, 0xff, 0xff, 0xff, 0x2b, 0x00, 0x00, 0x00, 0x73, 0x65, 0x71, 0x75,
  0x65, 0x6e, 0x74, 0x69, 0x61, 0x6c, 0x5f, 0x31, 0x2f, 0x64, 0x65, 0x6e,
  0x73, 0x65, 0x5f, 0x34, 0x2f, 0x42, 0x69, 0x61, 0x73, 0x41, 0x64, 0x64,
  0x2f, 0x52, 0x65, 0x61, 0x64, 0x56, 0x61, 0x72, 0x69, 0x61, 0x62, 0x6c,
  0x65, 0x4f, 0x70, 0x00, 0x01, 0x00, 0x00, 0x00, 0x20, 0x00, 0x00, 0x00,
  0x00, 0x00, 0x16, 0x00, 0x18, 0x00, 0x14, 0x00, 0x00, 0x00, 0x10, 0x00,
  0x0c, 0x00, 0x08, 0x00, 0x00, 0x00, 0x00, 0x00, 0x00, 0x00, 0x07, 0x00,
  0x16, 0x00, 0x00, 0x00, 0x00, 0x00, 0x00, 0x01, 0x10, 0x00, 0x00, 0x00,
  0x10, 0x00, 0x00, 0x00, 0x02, 0x00, 0x00, 0x00, 0x38, 0x00, 0x00, 0x00,
  0x84, 0xff, 0xff, 0xff, 0x2b, 0x00, 0x00, 0x00, 0x73, 0x65, 0x71, 0x75,
  0x65, 0x6e, 0x74, 0x69, 0x61, 0x6c, 0x5f, 0x31, 0x2f, 0x64, 0x65, 0x6e,
  0x73, 0x65, 0x5f, 0x35, 0x2f, 0x42, 0x69, 0x61, 0x73, 0x41, 0x64, 0x64,
  0x2f, 0x52, 0x65, 0x61, 0x64, 0x56, 0x61, 0x72, 0x69, 0x61, 0x62, 0x6c,
  0x65, 0x4f, 0x70, 0x00, 0x01, 0x00, 0x00, 0x00, 0x01, 0x00, 0x00, 0x00,
  0x00, 0x00, 0x16, 0x00, 0x1c, 0x00, 0x18, 0x00, 0x00, 0x00, 0x14, 0x00,
  0x10, 0x00, 0x0c, 0x00, 0x00, 0x00, 0x00, 0x00, 0x08, 0x00, 0x07, 0x00,
  0x16, 0x00, 0x00, 0x00, 0x00, 0x00, 0x00, 0x01, 0x14, 0x00, 0x00, 0x00,
  0x20, 0x00, 0x00, 0x00, 0x20, 0x00, 0x00, 0x00, 0x01, 0x00, 0x00, 0x00,
  0x3c, 0x00, 0x00, 0x00, 0x02, 0x00, 0x00, 0x00, 0xff, 0xff, 0xff, 0xff,
  0x03, 0x00, 0x00, 0x00, 0x04, 0x00, 0x04, 0x00, 0x04, 0x00, 0x00, 0x00,
  0x1f, 0x00, 0x00, 0x00, 0x73, 0x65, 0x72, 0x76, 0x69, 0x6e, 0x67, 0x5f,
  0x64, 0x65, 0x66, 0x61, 0x75, 0x6c, 0x74, 0x5f, 0x64, 0x65, 0x6e, 0x73,
  0x65, 0x5f, 0x33, 0x5f, 0x69, 0x6e, 0x70, 0x75, 0x74, 0x3a, 0x30, 0x00,
  0x02, 0x00, 0x00, 0x00, 0x01, 0x00, 0x00, 0x00, 0x03, 0x00, 0x00, 0x00,
  0x01, 0x00, 0x00, 0x00, 0x10, 0x00, 0x00, 0x00, 0x0c, 0x00, 0x0c, 0x00,
  0x0b, 0x00, 0x00, 0x00, 0x00, 0x00, 0x04, 0x00, 0x0c, 0x00, 0x00, 0x00,
  0x09, 0x00, 0x00, 0x00, 0x00, 0x00, 0x00, 0x09
};
unsigned int pos_prediction_model_tflite_len = 11384;
